<pad>	0
<unk>	0
<s>	0
</s>	0
▁	-3.30616
ን	-4.14548
▁በ	-4.61215
▁እና	-4.62777
ም	-4.63984
ና	-4.74842
▁ላይ	-4.78087
▁የ	-4.80283
▁ከ	-4.80942
፣	-5.13012
▁"	-5.30022
▁ነው	-5.47552
▁ወደ	-5.51957
▁ጋር	-5.63423
/	-5.63549
▁ለ	-5.63922
▁-	-5.64667
.	-5.76114
ው	-5.78196
▁ውስጥ	-5.80223
ት	-5.85455
▁ከተማ	-6.0306
▁።	-6.07168
▁ሰዎች	-6.08387
▁ቤት	-6.13335
▁(	-6.1674
!	-6.17995
▁ሲሆን	-6.19504
።	-6.20275
▁፣	-6.22193
)	-6.2434
▁ነው።	-6.247
ር	-6.30755
"	-6.32858
▁ጊዜ	-6.33815
▁ዓ	-6.34029
፤	-6.35604
▁ክልል	-6.36516
▁በላይ	-6.39888
▁አበባ	-6.42534
▁አቶ	-6.42961
▁መሆኑን	-6.45167
-	-6.46127
▁ቀን	-6.50694
ኛ	-6.51299
▁የኢትዮጵያ	-6.51499
▁ብር	-6.53347
▁.	-6.57573
▁“	-6.59872
▁ከፍተኛ	-6.61725
▁ኢትዮጵያ	-6.62045
▁ግን	-6.63747
▁እንዲሁም	-6.66298
▁ዛሬ	-6.67367
▁ተማሪዎች	-6.67585
▁!	-6.68028
▁አንድ	-6.68424
▁ዓመት	-6.68441
▁እስከ	-6.70186
▁ትምህርት	-6.70244
▁እንደ	-6.70589
▁መረጃ	-6.71147
▁ፖሊስ	-6.75951
▁ነገር	-6.76646
▁1	-6.77591
በት	-6.78263
▁፤	-6.7878
▁ሲሉ	-6.78791
▁ስራ	-6.79667
ል	-6.79829
▁አዲስ	-6.81387
▁በኋላ	-6.81489
▁ብቻ	-6.82646
▁ጨዋታ	-6.86397
ስ	-6.87474
▁አገልግሎት	-6.89369
▁ዩኒቨርሲቲ	-6.91485
▁ምክንያት	-6.91989
▁መንግስት	-6.92104
▁ደግሞ	-6.93308
፡፡	-6.93534
▁ተናግረዋል።	-6.94082
▁ዋና	-6.95215
▁2	-6.97211
▁ሰው	-6.97795
▁•	-6.98337
▁ሰዓት	-6.98365
▁ሁኔታ	-6.98449
▁ያለው	-6.98517
▁መንገድ	-6.98652
▁ደረጃ	-6.99384
ች	-7.01849
”	-7.01877
▁መካከል	-7.02823
▁ሚኒስቴር	-7.03493
▁ሲል	-7.03992
▁ጀምሮ	-7.05106
▁ዞን	-7.06739
▁ጉዳይ	-7.06802
▁ይህ	-7.07705
▁ብለዋል።	-7.08357
▁በፊት	-7.08505
▁ቡድን	-7.08905
▁ምን	-7.09047
▁,	-7.09233
▁ሺህ	-7.09491
▁ቁጥር	-7.09595
ለ	-7.11048
▁ሊግ	-7.1161
▁ጉዳት	-7.12466
▁ተከትሎ	-7.14297
▁ከዚህ	-7.14606
▁አሁን	-7.16389
▁በዚህ	-7.16725
▁ስር	-7.1861
▁ሁለት	-7.1985
?	-7.2015
▁ወረዳ	-7.20708
▁3	-7.21013
▁እ	-7.2143
ዉ	-7.21694
▁ሚኒስትር	-7.22138
▁በኢትዮጵያ	-7.22792
▁አስተዳደር	-7.23354
▁ክፍል	-7.23999
▁'	-7.24281
▁ችግር	-7.24933
▁ይፋ	-7.25214
▁አመት	-7.25622
▁ወቅት	-7.26243
▁ውጤት	-7.26668
▁?	-7.28785
▁የትምህርት	-7.28861
▁ሚሊዮን	-7.29699
▁ወይም	-7.30369
▁መሰረት	-7.31985
▁ድረስ	-7.32574
▁ተገልጿል።	-7.32722
▁ወር	-7.3296
▁አደጋ	-7.33457
▁መግለጫ	-7.33831
▁ድጋፍ	-7.35105
▁ስለ	-7.35715
▁ጥቃት	-7.36166
▁አካባቢ	-7.36781
▁ዩናይትድ	-7.36933
▁ነበር።	-7.38234
▁ክለብ	-7.38739
▁አሰልጣኝ	-7.38878
▁ማንችስተር	-7.39436
▁አል	-7.39584
▁ነበር	-7.40005
ህ	-7.40688
▁0	-7.40794
▁ጠቅላይ	-7.40935
...	-7.41029
የ	-7.42356
▁በአዲስ	-7.42491
▁ሀገር	-7.44516
▁:	-7.44578
▁ሌሎች	-7.44628
▁አ	-7.45226
▁ጨምሮ	-7.45468
▁አካላት	-7.45762
▁ልዩ	-7.46043
▁አቀፍ	-7.46368
▁ምክር	-7.46815
▁እንደሆነ	-7.4686
▁የአዲስ	-7.46889
▁ቀናት	-7.46995
▁በቁጥጥር	-7.47193
▁ተቋማት	-7.47504
▁አባላት	-7.47898
▁ፕሬዝዳንት	-7.48855
▁ዶ	-7.49267
ል።	-7.49313
▁ሙሉ	-7.49389
▁ቢሮ	-7.49714
▁ያለ	-7.50266
▁ብሔራዊ	-7.50284
▁ገልጿል።	-7.50642
▁ፈተና	-7.50758
▁ሳምንት	-7.51076
▁በኩል	-7.52776
▁ምንም	-7.53411
▁5	-7.53711
▁ቤቶች	-7.53763
▁መሆኑ	-7.54199
▁የተለያዩ	-7.54734
▁በርካታ	-7.54841
▁ቤቱ	-7.54953
▁ሲቲ	-7.55342
▁ነጥብ	-7.55439
▁መ	-7.55676
▁ጥያቄ	-7.56947
▁4	-7.57532
▁ያሉ	-7.57686
▁ተጨዋች	-7.57945
▁በሚል	-7.5798
▁ምርመራ	-7.57988
በ	-7.58555
▁ሥራ	-7.58597
▁ቫይረስ	-7.59788
▁ዕለት	-7.60182
▁አስታውቋል።	-7.60262
▁ፍርድ	-7.6032
▁ሲ	-7.60489
ቤት	-7.60544
▁ህይወት	-7.60608
▁ባንክ	-7.61892
▁ገልጸዋል።	-7.6265
▁ቦታ	-7.62766
▁ድርጅት	-7.63037
▁ነው፡፡	-7.63248
▁፦	-7.63297
▁ተብሎ	-7.63843
ክ	-7.64229
▁በተለያዩ	-7.65452
ነት	-7.65918
▁ሀገራት	-7.66279
▁ተጨማሪ	-7.66399
▁ግብ	-7.66857
▁ጥሪ	-7.67236
▁ይ	-7.67961
▁ብዙ	-7.68066
▁በማድረግ	-7.68584
▁ጨዋታዎች	-7.69546
▁ጉዳዮች	-7.69624
ሮ	-7.71084
▁)	-7.71481
▁በዚህም	-7.72147
▁በመቶ	-7.72648
▁የውጭ	-7.72712
ያ	-7.73026
፡	-7.7374
▁ተብሏል።	-7.73783
▁ሁሉ	-7.74833
▁መንግሥት	-7.75046
▁ገንዘብ	-7.75348
▁ኮሚሽን	-7.75388
ዎች	-7.75599
▁መስመር	-7.75744
▁ምክትል	-7.75757
▁ያሉት	-7.75829
:	-7.7698
▁10	-7.77176
▁የስራ	-7.77485
▁ኃይል	-7.77691
▁ይህንን	-7.77835
▁ዋጋ	-7.77836
▁በማለት	-7.78295
▁የሚገኙ	-7.78626
▁ዜጎች	-7.78704
▁ቃል	-7.79072
▁ምርጫ	-7.79416
▁በዛሬው	-7.79566
▁ዓለም	-7.79743
▁ማድረግ	-7.7999
▁ለማድረግ	-7.81144
▁ናቸው።	-7.81178
▁ዋንጫ	-7.82005
▁ዶላር	-7.82281
▁ልጅ	-7.82283
▁ብሎ	-7.8241
▁ብሏል።	-7.82564
▁አይነት	-7.8275
▁ሶስት	-7.83003
አ	-7.83096
▁ሆኖ	-7.83277
▁ውሳኔ	-7.83304
ውን	-7.83404
▁ይህን	-7.83516
▁ሊ	-7.84155
ባቸው	-7.84267
ኝ	-7.84313
▁ያለውን	-7.84574
▁የነበረው	-7.84622
▁ዓመታት	-7.84627
▁ናቸው	-7.84856
▁ወራት	-7.85045
▁ወንጀል	-7.85057
▁የጤና	-7.85073
▁ግንኙነት	-7.85212
▁ማድሪድ	-7.85513
▁()	-7.85637
▁ሆነ	-7.85933
ቱ	-7.86305
▁እለት	-7.86586
▁ጤና	-7.86767
ድ	-7.87276
▁በሙሉ	-7.87299
▁ባለፉት	-7.87539
▁የነበሩ	-7.87771
▁በጣም	-7.87786
▁የሚል	-7.87823
▁ዙሪያ	-7.88409
▁የሆነ	-7.88734
▁6	-7.89145
▁ሰላም	-7.89549
▁ተጫዋች	-7.89634
▁ሁሉም	-7.90174
▁ምላሽ	-7.90326
▁ህዝብ	-7.90565
▁እስካሁን	-7.91401
▁:-	-7.91449
ሽ	-7.91706
▁ስምምነት	-7.9211
▁ግብር	-7.92196
▁ውጪ	-7.92224
▁በቀጣይ	-7.92494
▁ተናግረዋል፡፡	-7.93068
▁አካባቢዎች	-7.93082
1	-7.93104
▁በመሆኑ	-7.93291
▁ውድድር	-7.93669
▁እርምጃ	-7.94068
▁ከባድ	-7.94088
▁በአንድ	-7.94098
▁አካል	-7.94725
▁አራት	-7.9488
▁እንጂ	-7.95675
▁ቀደም	-7.95879
▁ነዋሪዎች	-7.96233
▁ህግ	-7.96423
▁የመጀመሪያ	-7.96506
▁ልማት	-7.96624
ከ	-7.96703
▁ምርጥ	-7.97046
▁አየር	-7.97177
▁ግጭት	-7.97444
▁ጦርነት	-7.98766
▁በተጨማሪም	-7.99111
▁የክልሉ	-7.99546
▁ዘመን	-7.99645
▁ገልፀዋል።	-7.99704
▁ሆስፒታል	-7.99918
፦	-8.00445
▁ወ	-8.0062
▁የመንግስት	-8.00773
::	-8.0118
▁፡	-8.01201
▁ውይይት	-8.01417
▁ኃላፊ	-8.01486
▁ዙር	-8.01682
▁አንዱ	-8.02474
▁ሊቨርፑል	-8.02493
ዶ	-8.03277
▁ገ	-8.03343
▁የሚ	-8.03563
ዋ	-8.03845
▁አፍሪካ	-8.04364
▁እንደነበር	-8.04579
▁ባለ	-8.04621
▁በሆነ	-8.04642
▁7	-8.04932
▁ዶክተር	-8.04996
12	-8.05105
▁ከሆነ	-8.05144
▁የአፍሪካ	-8.05326
▁ሆነው	-8.0551
2	-8.05556
▁ለብስራት	-8.06549
▁ግለሰቦች	-8.06824
▁ግለሰብ	-8.07343
▁ምሽት	-8.08069
ቸው	-8.08397
▁12	-8.09864
ታ	-8.10142
▁አለ	-8.10471
▁ዳይሬክተር	-8.10603
▁እንኳን	-8.10972
▁እንዲ	-8.11177
▁ይገኛል።	-8.11343
▁ጥረት	-8.11671
ይ	-8.12074
▁ፓርቲ	-8.12117
▁24	-8.12286
▁የውድድር	-8.12694
▁አሁንም	-8.12947
▁የአሜሪካ	-8.13059
▁አህመድ	-8.13417
(	-8.13558
▁አምስት	-8.13571
▁ተ	-8.13956
▁እንቅስቃሴ	-8.14273
ስት	-8.14324
▁ቼልሲ	-8.14452
3	-8.14542
▁አባል	-8.14839
▁20	-8.14968
▁በተጨማሪ	-8.15293
▁ኳስ	-8.154
▁8	-8.15534
▁መሆን	-8.15542
▁አርሰናል	-8.15675
ማ	-8.15892
▁መልኩ	-8.16222
▁ይታወሳል።	-8.16592
▁የነበረ	-8.16678
▁ዝግጅት	-8.1694
▁የፀጥታ	-8.17496
▁ይሆናል	-8.17528
▁ማለት	-8.17536
▁ንግድ	-8.17832
▁ባለው	-8.17987
▁የአማራ	-8.1839
▁ጥሩ	-8.1841
▁ክፍለ	-8.18447
▁በመሆን	-8.18488
▁የሰላም	-8.18542
▁ትላንት	-8.18646
ፍ	-8.18956
▁ሪፖርት	-8.1914
▁አሳውቋል።	-8.19144
▁ሴት	-8.19334
▁በቅርቡ	-8.19393
ዲ	-8.19598
▁ቢሆንም	-8.19797
▁ያላቸው	-8.19874
▁አሜሪካ	-8.20147
▁የትግራይ	-8.20208
▁መሆናቸውን	-8.20648
▁ስጋት	-8.20703
▁ዘግቧል።	-8.20932
▁ክስ	-8.21003
▁መሪ	-8.21237
▁የፊት	-8.21274
▁ተገልጿል	-8.21565
▁ሴቶች	-8.21714
▁በዓል	-8.21906
▁ባለፈው	-8.22015
▁30	-8.22027
▁በተመለከተ	-8.22259
▁የቀድሞ	-8.22288
▁ህክምና	-8.22622
▁አይደለም	-8.22765
አንዳንድ	-8.22789
▁በትግራይ	-8.22947
▁ጦር	-8.23124
'	-8.23124
▁ይሆናል።	-8.23376
▁መከላከያ	-8.24169
▁ውጭ	-8.24183
▁ትልቅ	-8.24341
▁ፕሮግራም	-8.24611
▁የህዝብ	-8.24662
▁መጠን	-8.24807
▁ገቢ	-8.24851
▁እኔ	-8.24885
▁ሪያል	-8.2524
▁ሚሊየን	-8.25301
▁መልዕክት	-8.26184
▁ክፍያ	-8.26277
ሚ	-8.26399
▁ታሪክ	-8.26914
▁የዓለም	-8.27287
▁ሂደት	-8.27404
▁ፍላጎት	-8.27514
▁አጠቃላይ	-8.27797
▁መልካም	-8.2793
▁ሳይሆን	-8.28128
▁ያ	-8.28138
▁አመራሮች	-8.28275
▁ዩኒቨርሲቲው	-8.28312
▁11	-8.28346
▁ኮሚቴ	-8.2853
▁ያህል	-8.28534
▁በሌላ	-8.29145
▁የጦር	-8.29173
▁የሆኑ	-8.2938
▁ል	-8.29919
▁ስም	-8.30048
▁በኃላ	-8.30162
▁ሚኒስትሩ	-8.303
▁ችሏል።	-8.30552
▁መብት	-8.3089
ችን	-8.30914
▁ሜዳ	-8.3092
▁ብሄራዊ	-8.31433
▁ነገ	-8.31472
▁የሆኑት	-8.31522
▁ሰራተኞች	-8.31561
▁ከተሞች	-8.31731
▁15	-8.31777
▁ጽ	-8.31827
▁እጅግ	-8.32086
▁ዘርፍ	-8.3211
▁በክልሉ	-8.32219
▁ሬዲዮ	-8.32423
▁አለም	-8.32657
▁የንግድ	-8.32757
▁በኮሮና	-8.32773
▁9	-8.33398
▁ደረጄ	-8.33493
ብ	-8.33629
▁ሌላ	-8.33669
▁ዜና	-8.33692
▁ምንጭ፦	-8.33833
▁ቢ	-8.34073
▁በአማራ	-8.34075
▁ወጣቶች	-8.34305
▁ሜትር	-8.34383
▁የሚገኘው	-8.34459
▁ሺ	-8.34502
▁ጣቢያ	-8.35026
▁በተለይ	-8.35157
▁::	-8.35164
▁ኃይሎች	-8.35256
ለት	-8.35483
▁ተግባር	-8.35523
▁ቢሊዮን	-8.35659
▁የገንዘብ	-8.36152
-19	-8.36428
5	-8.3682
▁የህክምና	-8.37425
▁ማዕከል	-8.37433
▁እኛ	-8.37532
▁መደበኛ	-8.3757
▁ቁጥጥር	-8.378
ኛው	-8.38296
▁ደህንነት	-8.38354
▁መረጃዎች	-8.38752
▁በተያያዘ	-8.38772
▁ይህም	-8.38822
▁ተነግሯል።	-8.38825
▁ቴሌቪዥን	-8.38845
,	-8.38965
▁የግል	-8.39023
▁የሆነው	-8.3904
▁ቡድኑ	-8.39315
▁ባርሴሎና	-8.39521
▁ምዝገባ	-8.39569
▁በጀት	-8.39763
▁ግንባታ	-8.39881
▁የሥራ	-8.40044
▁በቫይረሱ	-8.40068
▁አምባሳደር	-8.40909
▁መርሐ	-8.40926
▁ብለዋል፡፡	-8.41055
▁እንዴት	-8.4108
▁ዉስጥ	-8.41201
▁የምግብ	-8.41501
▁ንብረት	-8.42087
▁የጸጥታ	-8.42242
▁በጋራ	-8.42415
▁ሚዲያ	-8.42522
▁የሰው	-8.42759
▁ማሸነፍ	-8.42976
▁ጉባኤ	-8.43045
▁ድል	-8.43187
▁አመታት	-8.43219
▁በደቡብ	-8.43423
▁ቀበሌ	-8.43475
▁ተቋም	-8.43752
▁ብለው	-8.43753
ላቸው	-8.43845
▁አይ	-8.44287
▁በስምኦን	-8.44316
▁በሰጡት	-8.44659
▁አቅም	-8.44675
10	-8.44723
▁እግር	-8.44838
▁ትኩረት	-8.44912
!!	-8.44921
▁እንደሚገኝ	-8.45207
▁በአሁኑ	-8.454
▁እንደሚችል	-8.45799
▁/	-8.46001
4	-8.46095
▁አስራ	-8.46147
▁ስድስት	-8.4638
▁ዐቢይ	-8.46528
▁የኮሮና	-8.46623
▁ዳር	-8.46663
▁ሁለተኛ	-8.47416
▁የአውሮፓ	-8.4758
▁አደባባይ	-8.47856
▁ክልሎች	-8.4799
▁ቤተሰብ	-8.48063
▁ይገኛል	-8.48097
▁መቶ	-8.48386
▁መስጠት	-8.48413
▁ቤተ	-8.48587
▁ለማግኘት	-8.48642
▁ህብረት	-8.48706
▁14	-8.4883
▁የእንግሊዝ	-8.48951
▁ተናግሯል።	-8.49062
ሺ	-8.49357
▁ንግግር	-8.49961
▁ተማሪ	-8.50271
▁የለም	-8.50286
6	-8.50656
▁መስከረም	-8.50725
▁የፖለቲካ	-8.50811
▁ስብሰባ	-8.50887
▁ሱዳን	-8.50949
▁ተወካዮች	-8.51394
▁ባለሙያዎች	-8.51456
▁መሠረት	-8.51875
▁ቅዳሜ	-8.52503
▁ስልክ	-8.52528
▁አድርጎ	-8.52833
▁ሳይንስ	-8.53294
▁ለመስጠት	-8.53314
▁ደቡብ	-8.53504
▁መሳሪያ	-8.53518
▁ምንጭ	-8.53769
▁የሚሆኑ	-8.54
▁መኪና	-8.54212
▁ጠ	-8.54268
▁ድርጅቶች	-8.54285
▁የፌደራል	-8.54419
▁፡፡	-8.5485
▁ስፍራ	-8.55034
▁ተማሪዎችን	-8.55244
▁አስተያየት	-8.55282
▁ቅዱስ	-8.55379
▁በአጠቃላይ	-8.5553
▁እድል	-8.56083
▁ከላይ	-8.56202
▁በይፋ	-8.56227
▁ድምፅ	-8.56358
▁የሚያስችል	-8.56429
▁አመራር	-8.56454
▁እየ	-8.56508
▁ዝርዝር	-8.56642
▁...	-8.56801
▁ምግብ	-8.56877
▁የአለም	-8.56888
▁የተነሳ	-8.57201
▁ሚላን	-8.5738
▁ወታደራዊ	-8.57533
▁ክትትል	-8.57607
ቶ	-8.57673
▁መምሪያ	-8.57729
ኤ	-8.57779
▁ስልጠና	-8.57901
▁ከፍ	-8.586
▁የእሳት	-8.58769
▁13	-8.58842
▁ቴክኖሎጂ	-8.58963
▁ቦርድ	-8.59012
▁በታች	-8.59048
ተ	-8.59251
▁ዓመቱ	-8.59292
▁ነዉ	-8.59304
ዝ	-8.59326
▁ማን	-8.59352
▁በኦሮሚያ	-8.59578
▁ፕርሚየር	-8.59686
▁በሰላም	-8.59842
▁የደቡብ	-8.60315
▁ክለቦች	-8.60459
▁ቡና	-8.60778
▁በተለይም	-8.60779
▁ትናንት	-8.60818
▁2016	-8.60834
▁ዩኒቨርሲቲዎች	-8.60852
▁የጋራ	-8.60875
▁ቆይታ	-8.60998
▁ማግኘት	-8.61232
▁የአየር	-8.61246
ዎቹ	-8.6146
▁ባ	-8.61575
▁ወጣት	-8.61754
▁ዘንድ	-8.61876
▁ማህበር	-8.61961
▁ኢ	-8.62132
▁ትስስር	-8.62227
▁እጥረት	-8.62307
▁እርዳታ	-8.62424
▁ይዞ	-8.6267
▁አስታውቋል፡፡	-8.62722
▁ተስፋ	-8.62862
▁በተመሳሳይ	-8.62876
▁ሬድዮ	-8.6321
▁ሰኔ	-8.63294
▁ባወጣው	-8.63573
▁19	-8.63618
▁አስተዳደሩ	-8.63622
▁አዲሱ	-8.63643
▁በከፍተኛ	-8.63765
▁ቦታዎች	-8.64028
ላ	-8.64121
▁መኖሪያ	-8.64235
▁ይችላል	-8.64263
ሪ	-8.6427
▁ጥቅምት	-8.64299
▁ሰዎችን	-8.64387
▁አብይ	-8.64611
▁ይሁን	-8.6491
▁ከአንድ	-8.64994
▁የማንችስተር	-8.65079
▁ሳይ	-8.65198
8	-8.65437
▁ዲግሪ	-8.65511
▁ወጪ	-8.65719
▁ፈቃድ	-8.65804
▁ባለስልጣን	-8.65878
▁ማህበረሰብ	-8.6591
▁ዋናው	-8.6605
▁16	-8.66062
▁እሁድ	-8.66104
▁የሀገር	-8.66222
▁ኢትዮ	-8.66226
▁ለምን	-8.66244
▁ይገባል	-8.66651
▁ከኢትዮጵያ	-8.66808
▁አሉ	-8.66821
▁ችሎት	-8.66842
▁መፍትሄ	-8.6685
▁ሽልማት	-8.66868
▁አዋጅ	-8.67121
▁የካቲት	-8.6722
▁ጥናት	-8.67274
ዬ	-8.6737
▁ተግባራዊ	-8.67554
▁በቂ	-8.68129
▁የሀገሪቱ	-8.68149
▁በመጠቀም	-8.68549
▁አሸናፊ	-8.68675
▁ታጣቂዎች	-8.68692
▁ማ	-8.69408
▁ልክ	-8.69501
▁25	-8.69516
▁ውል	-8.69581
▁ሰራዊት	-8.69627
▁እንዲህ	-8.69647
▁ህይወታቸው	-8.69703
▁አገር	-8.69729
▁ስነ	-8.69874
ል፡፡	-8.7004
▁ልጆች	-8.70119
▁ነፃ	-8.70151
▁ስራዎች	-8.70246
▁ተጫዋቾች	-8.70264
ሳ	-8.70298
▁ችግሮች	-8.70556
▁በሁሉም	-8.70616
▁50	-8.70995
▁አማራ	-8.70996
▁ውሃ	-8.71166
▁ቶተንሀም	-8.71208
▁18	-8.71305
▁በመ	-8.71305
▁ባለስልጣናት	-8.71385
▁አስታወቀ።	-8.7153
▁ኪሎ	-8.71602
ኑ	-8.71606
▁ሆኗል	-8.71704
▁አድርጓል።	-8.71879
▁ገልጸዋል፡፡	-8.72037
▁ተከሳሽ	-8.7205
▁ከንቲባ	-8.72177
▁ለመከላከል	-8.72261
▁ኢትዮጵያውያን	-8.72428
▁ሁለቱ	-8.72715
▁ድርጊት	-8.72779
▁ገበያ	-8.72848
▁እንዲሆን	-8.73176
▁ነኝ	-8.73179
▁የአንድ	-8.73763
▁ምርት	-8.73886
▁ይገኛሉ።	-8.7416
▁ስርዓት	-8.74233
▁መሆናቸው	-8.74475
▁ግቦች	-8.74593
ነ	-8.74692
▁2015	-8.74849
▁ሰላማዊ	-8.752
▁አን	-8.75238
▁ቅጣት	-8.7543
▁ፎቶ	-8.75675
▁እየተደረገ	-8.75708
▁ፕሬዚዳንት	-8.75798
▁17	-8.7589
ራ	-8.7616
▁በሀገሪቱ	-8.76194
▁በዓለም	-8.76275
▁ወረዳዎች	-8.76353
▁ደቂቃ	-8.76358
▁ጋዜጠኛ	-8.76376
▁ሰባት	-8.76755
▁ለውጥ	-8.76889
▁እነዚህ	-8.76955
▁ጥር	-8.77014
▁እንደተናገሩት	-8.77069
▁መሬት	-8.77167
▁መጨረሻ	-8.77212
▁ዩኒቨርስቲ	-8.77519
▁ክፍሎች	-8.77634
ሜ	-8.77923
▁በሚገኘው	-8.77935
▁ሆቴል	-8.78017
▁በማህበራዊ	-8.78331
▁ሃይል	-8.78482
▁የተባለ	-8.78897
▁ግዛት	-8.78945
▁የኦሮሚያ	-8.79046
▁አትሌት	-8.79226
▁መንግስታት	-8.79243
7	-8.7928
▁በሽታ	-8.79284
▁ስታዲየም	-8.79288
30	-8.79354
▁የኤሌክትሪክ	-8.79663
▁ፍቅር	-8.79842
00	-8.79848
▁በአካባቢው	-8.80029
▁ባለቤት	-8.80125
▁እየተካሄደ	-8.80438
:-	-8.80576
▁ትግራይ	-8.80765
▁ጉዞ	-8.80776
▁ራዲዮ	-8.80822
▁መድረክ	-8.80837
▁ካ	-8.81125
▁ሰልፍ	-8.81179
▁እስራት	-8.81205
▁የመንግሥት	-8.8128
▁ግድብ	-8.81283
▁ነዋሪ	-8.81311
▁ዕድል	-8.81345
▁ወጥ	-8.81603
▁22	-8.81801
▁ቤተሰቦች	-8.81934
▁ሙኒክ	-8.81966
▁መገናኛ	-8.82142
▁ብዬ	-8.82157
▁ፊት	-8.82161
▁ብስራት	-8.8232
▁እስራኤል	-8.82338
▁በተደጋጋሚ	-8.82453
20	-8.82461
▁የመጀመሪያው	-8.82741
▁የመከላከያ	-8.82891
▁ከአዲስ	-8.82903
▁ሊጉ	-8.82919
▁21	-8.82948
▁መስሪያ	-8.83007
▁ሀይል	-8.83098
▁100	-8.83343
▁ለመጀመሪያ	-8.83406
▁ግንቦት	-8.83625
▁ቅሬታ	-8.83786
▁ሜሲ	-8.83957
▁እንደሚ	-8.84046
▁አስመልክቶ	-8.84078
▁ፍፃሜ	-8.84099
▁ጥቅም	-8.84326
▁ደብዳቤ	-8.84452
▁እንዳለ	-8.84515
መረብ	-8.84535
▁ቀላል	-8.84915
▁የነበረውን	-8.8504
▁ስፖርት	-8.85112
▁የወንጀል	-8.85249
▁በዚሁ	-8.85328
▁ዳግም	-8.85333
▁በአሜሪካ	-8.85515
▁የመሬት	-8.85518
▁በአፍሪካ	-8.8553
50	-8.85608
▁ቡድኖች	-8.85672
▁ተብሏል፡፡	-8.85682
▁የቤት	-8.85742
▁የነበሩት	-8.8624
▁ይሄ	-8.86259
▁ሞት	-8.86317
▁ቀጣይ	-8.86458
ኮ	-8.86475
▁አመቱ	-8.86623
ትላንትናው	-8.87044
▁ህመም	-8.87069
▁ተመሳሳይ	-8.87101
▁2014	-8.87144
▁ሮናልዶ	-8.87222
▁ጥቆማ	-8.87288
▁ሕዝብ	-8.8731
▁የተያዙ	-8.8734
▁ክለቡ	-8.87387
▁አስታውቀዋል።	-8.87426
▁እጅ	-8.87586
▁መንገዶች	-8.8764
▁ዝግጁ	-8.8769
▁ሕይወት	-8.87852
▁ማስረጃ	-8.87884
▁ደስ	-8.88013
ሩ	-8.88123
▁23	-8.88254
0	-8.88359
▁አስፈላጊ	-8.88363
ዎ	-8.88493
▁ጥበቃ	-8.88526
▁ይታወቃል።	-8.88573
▁ሻምፒየንስ	-8.88722
▁የምርጫ	-8.88791
▁ሆኖም	-8.88907
▁የሚለው	-8.88949
▁ማንኛውም	-8.89118
▁ችለዋል።	-8.89166
▁የሰሜን	-8.89209
▁መስራት	-8.89405
▁ቀጠሮ	-8.89629
▁ሀሳብ	-8.89763
▁መምህራን	-8.89917
▁ባየር	-8.89926
▁ቅድመ	-8.90028
ካ	-8.90081
▁ጥንቃቄ	-8.90258
▁መጋቢት	-8.90484
▁አውሮፕላን	-8.9051
▁1.	-8.90569
▁ጌታቸው	-8.90639
▁ህብረተሰቡ	-8.90852
▁ሕግ	-8.91016
ግ	-8.91041
ዮ	-8.91079
▁ሳ	-8.91363
▁ጨዋታውን	-8.91467
▁በሚገኙ	-8.91535
▁ስምንት	-8.916
▁እንዳይ	-8.91626
▁የእስራኤል	-8.91899
▁ጠቁመዋል።	-8.91986
▁ጉዳዩን	-8.91993
▁ተደርጎ	-8.92001
▁ሙከራ	-8.92146
▁አረቢያ	-8.92178
▁ህገ	-8.92302
▁መያዛቸው	-8.92316
▁ክርስቲያን	-8.92413
ባት	-8.92423
▁ነገሮች	-8.9249
▁ወታደሮች	-8.92522
▁ዝውውር	-8.92526
▁ቢያንስ	-8.92572
▁ማብራሪያ	-8.92679
▁የፌዴራል	-8.92718
▁ስርጭት	-8.93006
▁ተጠቃሚ	-8.93141
▁ማህበራዊ	-8.93156
▁ሲሆኑ	-8.93186
▁ነበር፡፡	-8.93328
▁ደጋፊዎች	-8.93342
▁የተሻለ	-8.93428
▁በሌሎች	-8.93458
▁ጭማሪ	-8.93482
▁ሰኞ	-8.93522
▁ተከታታይ	-8.93689
▁እየተሰራ	-8.93756
▁የሚቆጠሩ	-8.9388
▁ኤሌክትሪክ	-8.93999
▁የትራፊክ	-8.94111
▁የነዳጅ	-8.94135
▁ተገልጿል፡፡	-8.94137
▁ኤፍ	-8.9422
▁ሸዋ	-8.94244
▁የመጨረሻ	-8.94408
▁መመሪያ	-8.94434
▁ላ	-8.94474
▁የተባበሩት	-8.94513
▁የሰብዓዊ	-8.94716
▁እንደሚገኙ	-8.94782
▁2.	-8.94834
▁ተናግረዋል	-8.94917
▁የከተማ	-8.94933
ቹ	-8.95018
▁ርዕሰ	-8.95097
▁ባደረገው	-8.95116
▁ይዘው	-8.95129
▁ጭምር	-8.95234
▁ጎንደር	-8.95363
▁ወረርሽኝ	-8.95527
▁ሆኗል።	-8.95946
▁የተባለው	-8.96
▁ለኢትዮጵያ	-8.96226
ቸውን	-8.96328
▁ወንድ	-8.96376
▁የለም።	-8.96469
▁ያላቸውን	-8.96493
▁ለመፍታት	-8.96778
▁የሱዳን	-8.97108
▁2013	-8.97151
2016	-8.97787
▁ጊዜያዊ	-8.97861
▁የፖሊስ	-8.98057
▁ኤጀንሲ	-8.98096
መ	-8.98193
▁ተሽከርካሪዎች	-8.98218
15	-8.9855
▁በወቅቱ	-8.98603
▁የሊጉ	-8.98687
▁እያደረገ	-8.98861
▁ተደርጓል።	-8.98901
▁አድርገዋል።	-8.99012
▁በሁለት	-8.99029
▁እናት	-8.99332
▁ትዕዛዝ	-8.99543
▁እየሰራ	-8.99684
▁ኮሌጅ	-8.99728
ሉ	-8.99848
▁የህግ	-8.99894
▁አለበት	-8.99919
▁ወገኖች	-8.99984
▁ዓይነት	-9.00025
▁በነበረው	-9.00161
ችሁ	-9.00162
ረ	-9.00229
▁አገራት	-9.00406
▁በበኩላቸው	-9.00427
▁ባደረጉት	-9.00493
▁መደረጉን	-9.00544
▁ግቢ	-9.00595
▁ሰፊ	-9.00655
▁አማራጭ	-9.0067
▁ምዕራብ	-9.00839
▁ድምጽ	-9.0108
▁በተደረገ	-9.01164
▁አቅርቦት	-9.01183
ሁሉንም	-9.01205
▁ፒኤስጂ	-9.01369
▁እምነት	-9.01561
▁በትምህርት	-9.01568
▁ፕሪሚየር	-9.0157
▁በመንግስት	-9.01602
▁የኮቪድ	-9.01609
▁እረፍት	-9.01628
▁አባት	-9.01878
▁በመሆኑም	-9.02082
▁ዘመቻ	-9.0238
▁ፍቃድ	-9.02459
▁ቢሆን	-9.02464
▁ወቅታዊ	-9.02533
ዝውውር	-9.02549
▁ትራንስፖርት	-9.02569
▁መሪዎች	-9.02599
▁በቀለ	-9.02777
▁አስቸኳይ	-9.03046
▁ይጠበቃል።	-9.03055
▁ጁ	-9.03089
▁ታውቋል።	-9.03204
▁ባለሙያ	-9.03212
▁ካርድ	-9.03435
ሁ	-9.03477
▁መግቢያ	-9.03536
ሎ	-9.03644
▁የትራንስፖርት	-9.03644
▁26	-9.03683
▁የሚያደርግ	-9.03713
▁በሚ	-9.03895
▁ሚና	-9.03904
▁ሰሜን	-9.0413
▁ደርሷል።	-9.04136
▁ሀብት	-9.04301
▁በፍጥነት	-9.04333
▁ሳምንታት	-9.04446
▁መልስ	-9.04451
ንቱስ	-9.04455
▁መስቀል	-9.04473
▁ጨምረው	-9.04759
▁ተሽከርካሪ	-9.05077
▁እያለ	-9.05094
▁በሰሜን	-9.05199
ዊ	-9.0529
▁3.	-9.05354
▁ታደሰ	-9.054
▁እንዳለው	-9.05519
▁ብዛት	-9.05808
▁የምርመራ	-9.05811
▁የመሐል	-9.05814
▁መርሃ	-9.05834
▁ጠባቂ	-9.05852
▁27	-9.0597
▁ተቋሙ	-9.05984
▁በቀን	-9.06042
▁ቤተክርስቲያን	-9.06327
▁28	-9.06439
▁ሰአት	-9.06492
▁የተ	-9.06534
ዳ	-9.06634
▁ወዲህ	-9.06672
▁ወሳኝ	-9.06682
▁እንዳ	-9.06685
▁ህጋዊ	-9.06729
▁ግድያ	-9.06745
▁አዳዲስ	-9.06745
▁ያገኘነው	-9.06824
ተኛ	-9.0686
▁የአካል	-9.06987
ህን	-9.07046
ዋን	-9.07174
▁ኮንትራት	-9.07264
▁አስረድተዋል።	-9.0727
▁መብቶች	-9.07277
▁ነዳጅ	-9.07443
▁ኢንተር	-9.07692
ነው	-9.07782
▁እቅድ	-9.0782
▁ስትል	-9.07867
▁በቀጥታ	-9.07918
▁ዘጠኝ	-9.08157
ዉን	-9.08186
▁የመ	-9.08218
ኩ	-9.08253
▁ይቅርታ	-9.0829
▁አስፈፃሚ	-9.08403
▁ሐምሌ	-9.08408
▁መከላከል	-9.08481
▁በሀገር	-9.08591
▁ጥራት	-9.08724
▁ጫና	-9.08756
▁ኮሚሽነር	-9.08804
▁ለማስፈረም	-9.08869
▁ትብብር	-9.08877
▁እዚህ	-9.08931
▁በመስጠት	-9.08986
▁ገል	-9.09044
▁በመግባት	-9.09071
▁ወደፊት	-9.09164
▁ይመስላል	-9.09186
▁ህይወቱ	-9.09577
▁ፕሮጀክት	-9.09593
▁ረቂቅ	-9.09667
▁ሊሆን	-9.09685
▁እንደሚገባ	-9.09817
▁40	-9.09883
▁ትራምፕ	-9.09928
▁ከቀኑ	-9.10093
▁ቲክቫህ	-9.10263
▁ኮሚሽኑ	-9.10282
▁ጠንካራ	-9.10296
▁ህዳር	-9.10468
▁ከዚያ	-9.10516
▁የውሃ	-9.10522
▁መረጃዎችን	-9.10563
▁የጨዋታ	-9.1057
▁ህወ	-9.10637
▁ዘገባ	-9.10656
▁ሃላፊ	-9.10856
9	-9.10872
▁ይልቅ	-9.10919
▁በመተባበር	-9.11042
▁ምድብ	-9.11146
▁ስለሆነ	-9.11205
▁አማካኝነት	-9.11329
▁ጥያቄዎች	-9.11365
....	-9.11479
▁ድርድር	-9.11532
▁ማለፉን	-9.11798
▁ሩሲያ	-9.11825
▁በደረሰ	-9.12157
▁የሚሆን	-9.12196
▁እስር	-9.12203
▁ሥር	-9.12227
▁ጎን	-9.12399
▁29	-9.1242
▁የኦሮሞ	-9.12427
▁ብለዋል	-9.12577
▁ድንበር	-9.12597
▁ተያይዞ	-9.12619
▁ይገኛሉ	-9.12665
▁ጽህፈት	-9.12736
▁ልምምድ	-9.12832
▁እንደሚችሉ	-9.12848
▁የአካባቢው	-9.12956
▁መጀመሪያ	-9.13015
▁መሆኑንም	-9.13028
▁እንዳለበት	-9.13047
▁ባሉ	-9.1305
▁ለማወቅ	-9.13052
▁ማረፊያ	-9.13271
ሌ	-9.13463
▁ተሰምቷል።	-9.13566
▁ጉዳዩ	-9.13729
▁ከዛሬ	-9.13761
▁አጥቂ	-9.13781
ጋ	-9.13834
▁ማስቆጠር	-9.13889
▁ከሁለት	-9.13897
▁መድረሱን	-9.13991
ኒ	-9.1405
24	-9.14069
▁እየተ	-9.14122
ቲ	-9.14134
ልን	-9.14212
▁ሚልዮን	-9.14282
▁አቅጣጫ	-9.14426
▁ፅ	-9.14432
▁ማሻሻያ	-9.14441
▁ሰጥተዋል።	-9.14496
▁መብራት	-9.14505
▁በከተማዋ	-9.14713
ሺህ	-9.14719
▁ከተለያዩ	-9.14854
2014	-9.14859
▁የማህበራዊ	-9.14901
2015	-9.14921
ቅ	-9.14964
▁ሀላፊ	-9.15263
▁ካለ	-9.15274
ፕ	-9.15329
▁ጠዋት	-9.15458
▁ሠራዊት	-9.15537
▁ደም	-9.1556
▁መሰል	-9.15601
▁ተማሪዎቹ	-9.15625
▁ስልጣን	-9.15641
▁የዋጋ	-9.15928
▁ክብር	-9.16033
▁ስሜት	-9.16082
▁ህፃናት	-9.16154
▁ይገኛል፡፡	-9.16183
▁ኤም	-9.162
▁የተኩስ	-9.16209
▁ይታወሳል፡፡	-9.16214
▁ገልጿል፡፡	-9.16362
▁”	-9.16375
▁ኮማንደር	-9.16421
▁0-0	-9.16425
▁ሲሆን፤	-9.16434
▁ነጻ	-9.1649
▁የት	-9.16501
▁አልፎ	-9.16549
▁አቅርበዋል።	-9.16551
▁መኮንን	-9.16757
▁ተቀባይነት	-9.16798
▁ሊዮኔል	-9.16826
▁ለበለጠ	-9.16999
▁ሊያ	-9.17085
▁አደጋው	-9.17091
▁አቀባይ	-9.17125
▁ከሌሎች	-9.17188
ወጥ	-9.17242
▁እውቅና	-9.17362
▁የከፍተኛ	-9.1744
▁ሀሰተኛ	-9.17477
▁በሰጠው	-9.17575
▁መጠቀም	-9.177
▁መሀመድ	-9.17708
▁ቻይና	-9.17733
▁የበለጠ	-9.17817
▁ይደውሉ	-9.17861
▁እሱ	-9.17873
▁ለማ	-9.17878
▁ፓርቲዎች	-9.17907
▁በነገው	-9.17909
▁በድጋሚ	-9.17962
▁ዩሮ	-9.18042
▁የሕዝብ	-9.18073
▁አድርገው	-9.18119
▁ጠይቀዋል።	-9.18152
▁ለዚህ	-9.18159
▁አስታወቀ	-9.18171
▁አሕመድ	-9.1825
▁ማስታወቂያ	-9.18307
ቀናት	-9.18405
▁./	-9.18504
▁ስለዚህ	-9.18522
▁አይደለም።	-9.18606
▁ባህር	-9.18617
▁ዘመናዊ	-9.18634
▁የቀድሞው	-9.18654
▁የስፖርት	-9.18659
▁አንስቶ	-9.1871
▁ተጠርጣሪዎች	-9.18956
▁የቅድመ	-9.19012
▁አባ	-9.19053
▁ሀዋሳ	-9.19108
▁ቪላ	-9.19193
▁ቋንቋ	-9.19203
▁ናቸው፡፡	-9.19419
▁በር	-9.19567
▁ተሳትፎ	-9.19807
▁በአሁን	-9.20074
▁በሊጉ	-9.20105
▁አሳስቧል።	-9.20199
▁በሁለቱ	-9.20209
▁ለቲክቫህ	-9.20236
▁ዲ	-9.20308
▁ብዙሃን	-9.20321
▁ነው፤	-9.2036
▁ገና	-9.20373
▁ኢትዮጵያን	-9.20852
▁መረጃው	-9.21052
▁ደስታ	-9.21165
▁መስተዳድር	-9.21188
▁ካፕ	-9.21232
▁እያ	-9.21319
▁ልምድ	-9.21376
▁ተጨዋቾች	-9.21678
▁ውድቅ	-9.21711
▁በተደረገው	-9.21724
14	-9.21748
▁በህግ	-9.21795
▁ርቀት	-9.21843
▁አስር	-9.21848
▁መልሶ	-9.21913
▁ግንባር	-9.21983
▁ችሏል	-9.21986
ቢ	-9.22016
▁ድርሻ	-9.22085
▁የማ	-9.22103
ሲ	-9.22151
▁ተቃውሞ	-9.22202
▁ስ	-9.22234
▁እንዲያደርጉ	-9.22323
▁ለመቆጣጠር	-9.22345
▁በበኩሉ	-9.22363
▁በጎ	-9.22397
▁ያደረገ	-9.22408
▁ታህሳስ	-9.22591
▁የሚሆኑት	-9.22611
▁ሰዓታት	-9.2264
▁ያሳያል።	-9.22889
▁ዝናብ	-9.2311
▁ክፍት	-9.23381
▁ቢሊየን	-9.23553
▁ቻናል	-9.23553
▁ሱ	-9.23683
▁ይችላሉ	-9.23703
ሪያ	-9.23743
▁ተጠቁሟል።	-9.23764
▁አስፈላጊውን	-9.23866
▁ኮከብ	-9.23885
ሰ	-9.23913
መጪው	-9.23947
▁አንድነት	-9.23988
▁2012	-9.24003
▁ሞገስ	-9.24076
▁ጊዮርጊስ	-9.24215
▁መነሻ	-9.24468
▁የሚገኝ	-9.24602
▁ሚዲያዎች	-9.24652
▁ኢንስፔክተር	-9.24765
▁በኮቪድ	-9.24839
ባ	-9.25028
▁ተዘግቧል።	-9.25202
▁ብለን	-9.25226
▁ሰነድ	-9.25248
11	-9.2526
▁ጣቢያዎች	-9.25327
▁የሚያ	-9.25477
▁ህጻናት	-9.25537
▁ለአንድ	-9.25544
▁ልዩነት	-9.25572
▁ለንደኑ	-9.2558
▁መንገዱ	-9.25749
▁አንደኛ	-9.25825
▁እንግሊዝ	-9.25909
▁ለመስራት	-9.2591
▁ስቴትስ	-9.25974
ቴ	-9.25992
▁ሰብዓዊ	-9.26044
▁ካሉ	-9.26226
ኖ	-9.26316
2013	-9.26346
▁የሚችል	-9.26605
▁ለመመለስ	-9.26635
▁የሚለውን	-9.26666
▁ወሎ	-9.2668
▁ገደብ	-9.26887
▁ወረቀት	-9.26912
▁ባይደን	-9.26914
▁ድርጅቱ	-9.26993
▁ሠራተኞች	-9.27042
▁ወለጋ	-9.27119
▁ራሱን	-9.27122
▁በጉዳዩ	-9.27293
▁ሶስተኛ	-9.27302
▁ጉብኝት	-9.27374
▁የተባሉ	-9.27474
▁አቻ	-9.27479
▁ሰለሞን	-9.27493
▁የላብራቶሪ	-9.27551
▁ኩባንያ	-9.27593
▁እንደሚሰጥ	-9.27683
▁ማድረጉን	-9.27683
▁በአለም	-9.2777
▁አሰልጣኙ	-9.27875
▁የማሸነፊያ	-9.27886
▁ላለፉት	-9.27901
▁ዋስትና	-9.27932
▁ያደረገው	-9.2798
ቤቱ	-9.28003
ልኝ	-9.28075
▁ቋሚ	-9.28198
100	-9.28337
▁አርብ	-9.28366
▁ኪ	-9.28392
▁ሪ	-9.28434
!"	-9.2866
▁ሊንክ	-9.28725
ወ	-9.2873
▁500	-9.28746
▁በመያዝ	-9.28755
▁ጋርዲዮላ	-9.28976
ስትሀም	-9.29104
▁አድርጓል	-9.29198
▁አቀፉ	-9.29262
▁ጥቂት	-9.29277
▁ነን	-9.29285
▁ፍ	-9.29366
▁አርቴታ	-9.29566
▁ክልላዊ	-9.29766
▁ጋዜጣ	-9.29814
▁ከእስር	-9.29969
▁አስቀድሞ	-9.29977
▁ጠይቋል።	-9.30056
▁በመጀመሪያ	-9.3006
▁ኃላፊዎች	-9.3009
▁ለአዲስ	-9.30228
▁ሰጥቷል።	-9.30298
▁አቡነ	-9.30299
▁ከምሽቱ	-9.30479
▁ዘ	-9.305
▁ሚንስትር	-9.30554
▁ፍትህ	-9.30558
▁ተባለ	-9.30599
▁ቦሌ	-9.3066
▁ተጠባቂ	-9.30969
▁የሚገኙት	-9.30971
▁አሰራር	-9.30986
ዎን	-9.31006
18	-9.31029
▁መጀመሩን	-9.31124
ችው	-9.3115
▁ፔፕ	-9.31152
▁በአግባቡ	-9.31162
▁እያደረጉ	-9.31171
▁አስተዳዳሪ	-9.31223
▁ፌዴሬሽን	-9.31233
ዱ	-9.31458
▁ተሰማ	-9.31603
▁2017	-9.31661
▁ትክክለኛ	-9.31681
▁የምት	-9.31724
▁የሰብአዊ	-9.31751
▁አሰላለፍ	-9.31825
▁ሃሳብ	-9.31836
▁እን	-9.31904
▁ማለዳ	-9.31929
ዎችን	-9.31989
▁ደብረ	-9.31998
▁ወርቅ	-9.32107
▁እንደሚሆን	-9.32153
▁አድራሻ	-9.32153
▁የኢ	-9.32168
▁ቴሌኮም	-9.32322
▁ኃላፊነት	-9.32339
▁መሐመድ	-9.32401
▁አቋም	-9.32416
▁ልብስ	-9.32448
▁ፕሮፌሰር	-9.3248
▁ምርቶች	-9.32528
▁ብርሃን	-9.32541
▁ማክሰኞ	-9.32552
▁ችግሩ	-9.32657
▁አስፈጻሚ	-9.32673
▁አጋማሽ	-9.32698
?"	-9.32759
▁70	-9.3286
▁ግዜ	-9.32873
▁የሴቶች	-9.32894
▁በሰው	-9.32969
▁በሱዳን	-9.33143
▁ኬንያ	-9.33184
▁የሚባል	-9.33441
▁በተገኙበት	-9.33644
▁አለን	-9.33724
▁ሳላህ	-9.3374
▁መታወቂያ	-9.33787
▁ትምህርታቸውን	-9.33854
▁አዳማ	-9.33943
▁ምስራቅ	-9.33979
▁ሳቢያ	-9.34015
▁ሀገሪቱ	-9.34074
▁ኤምባሲ	-9.34078
▁ቫይረሱ	-9.34177
▁የቲክቫህ	-9.34245
▁እየጨመረ	-9.34258
▁እንዳሉ	-9.3437
▁ክ	-9.34441
▁ወንዶች	-9.34453
ቶች	-9.34739
ሶ	-9.34869
▁አደጋዎች	-9.3492
▁ሽመልስ	-9.35144
▁ህዝቦች	-9.35221
▁በፖሊስ	-9.35231
▁ዕጣ	-9.3533
▁1-0	-9.354
▁ለሁለት	-9.35432
▁ተደምጠዋል።	-9.35522
▁አቀባበል	-9.35581
▁ቀውስ	-9.35706
▁ሲባል	-9.35741
▁ችግሩን	-9.35786
▁ሚኒስቴሩ	-9.35969
▁በስፋት	-9.35994
▁በውጭ	-9.35995
▁4.	-9.36034
▁የኤርትራ	-9.36091
▁ሥርዓት	-9.36145
▁የብሔራዊ	-9.36215
▁ተያይ	-9.36244
▁ሀያ	-9.36378
▁ዞኖች	-9.36381
▁አልባ	-9.36441
▁ማለፍ	-9.36716
ሊ	-9.36762
▁''	-9.36805
▁ብርሃኑ	-9.37024
▁የመረጃ	-9.37078
▁በምዕራብ	-9.37125
ሊግ	-9.37174
▁በአውሮፓ	-9.37221
▁ገደማ	-9.3723
▁አሽከርካሪዎች	-9.37266
▁የሚያደርገው	-9.37442
▁ብቃት	-9.37477
▁ሲሉም	-9.37486
▁አዛዥ	-9.375
▁ዜጎችን	-9.37513
▁የክልል	-9.37555
▁ባህል	-9.37621
▁የአ	-9.37627
▁አስኪያጅ	-9.37679
▁ፈጣሪ	-9.37756
እ	-9.37766
ሱ	-9.3785
▁አገልግሎቶች	-9.37936
▁ሊቀ	-9.38039
▁ኤ	-9.38111
▁ምክንያቱም	-9.38123
▁ደስተኛ	-9.38137
▁ለሚገኙ	-9.38153
▁ታዳጊ	-9.3817
▁የወሩ	-9.3821
ትን	-9.38377
▁የህወ	-9.3838
▁አክለውም	-9.38506
▁ቀይ	-9.38577
▁ፌስቡክ	-9.38586
▁እንዲወጡ	-9.38892
▁ፈተናው	-9.38893
▁ኢትዮጵያዊያን	-9.38903
▁መልክ	-9.39005
ሞ	-9.39116
▁ኮሪያ	-9.39188
▁የልማት	-9.39297
▁ዘገባው	-9.39338
▁ከሀገር	-9.39374
▁60	-9.39389
▁የዩኒቨርሲቲው	-9.39464
ጂ	-9.39616
▁በማ	-9.39673
▁ግብረ	-9.39719
▁የደረሰው	-9.39732
▁ምረቃ	-9.39779
▁የተለየ	-9.39781
▁ሀገራዊ	-9.39836
▁ባል	-9.39869
▁የዞኑ	-9.39907
▁እንደሆኑ	-9.39935
▁ተብለው	-9.39946
▁ሀይሎች	-9.40153
▁ይሆን	-9.40284
▁አባቶች	-9.40378
▁ስታንዳርድ	-9.40379
▁በእንግሊዝ	-9.40495
▁ጎል	-9.40505
▁ኢንዱስትሪ	-9.40565
▁የኢትዮ	-9.40693
▁ያለበት	-9.40718
▁ሊቀመንበር	-9.40765
▁የተማሪዎች	-9.40895
▁ቢቢሲ	-9.40936
▁የሚደረግ	-9.41003
▁ነሐሴ	-9.41084
▁ጆ	-9.4109
▁ፊልም	-9.41093
▁የባህል	-9.41167
ካን	-9.41187
▁እኮ	-9.41294
▁ይፋዊ	-9.41305
▁ማስተማር	-9.41449
▁ኤቨርተን	-9.41468
▁የማይ	-9.41525
▁ነጋ	-9.41602
▁አት	-9.4162
▁ለህዝብ	-9.41665
▁ተከላካይ	-9.41733
ዓ	-9.41759
ማሳረፍ	-9.41796
▁ኤሪክ	-9.41903
▁ተስፋዬ	-9.42075
▁ባንኩ	-9.42132
▁በመገኘት	-9.42152
▁የሚያሳይ	-9.42233
▁አስታወቀ፡፡	-9.42295
▁አቅርቧል።	-9.42313
▁ቦታው	-9.42561
▁ለመሆን	-9.42572
▁የባንክ	-9.42624
ቤ	-9.42628
▁በዘንድሮው	-9.42641
▁የተገኘው	-9.42839
▁ወይ	-9.42852
▁የሩሲያ	-9.42868
▁የሚሰጥ	-9.42984
▁ኢንስቲትዩት	-9.43015
▁200	-9.43049
▁ውድ	-9.431
▁እውነት	-9.43174
▁ሀላንድ	-9.43229
▁ተጨዋቹ	-9.4328
▁ዘላቂ	-9.43285
▁ዐቃቤ	-9.43531
▁ሽያጭ	-9.43556
▁ብላ	-9.43624
▁ተገቢ	-9.4373
▁በአስቸኳይ	-9.43794
▁የተናገሩት	-9.43809
▁የሟቾች	-9.43816
▁የሚሉ	-9.43818
ሙ	-9.43822
25	-9.43877
▁ሰሞኑን	-9.44159
▁ሥነ	-9.44304
ብሊክ	-9.44438
ሽን	-9.44481
▁የክለቡ	-9.44517
▁የተደረገ	-9.44556
▁ተጠያቂ	-9.44589
▁ክትባት	-9.446
▁ደሞዝ	-9.44604
▁ምባፔ	-9.44627
▁ጥገና	-9.44755
▁አስቶን	-9.44793
▁እንዳሉት	-9.44843
▁በሞት	-9.449
▁ከሜዳ	-9.44976
▁ክርስቲያኖ	-9.4504
▁አማርኛ	-9.45161
▁ባሉት	-9.45242
▁ፈተናውን	-9.45267
▁የሆነውን	-9.45321
▁አንተ	-9.4537
▁ታላቅ	-9.45373
▁ፓርክ	-9.45374
▁ሲሆን፣	-9.45487
በትን	-9.45536
▁በአካል	-9.45639
▁ኮሚኒኬሽን	-9.4564
▁ሃይሎች	-9.45754
ፕርሚየር	-9.45799
▁አዳራሽ	-9.45809
ፌ	-9.46
▁ስብስብ	-9.46192
ታል	-9.46209
▁እስኪ	-9.4621
▁አካባቢው	-9.4628
▁የምን	-9.46418
▁የአመቱ	-9.46484
▁ቅርንጫፍ	-9.46487
▁የመኪና	-9.46581
▁ብድር	-9.46704
▁ተሳታፊ	-9.46772
▁ጉባ	-9.46787
ዩ	-9.46845
▁ዓላማ	-9.4688
▁አመልክቷል።	-9.46914
▁ቢሮው	-9.46952
▁ካሳ	-9.47024
▁መዝገብ	-9.47049
▁ምዘና	-9.47059
ዓመቱ	-9.47231
▁እድሜ	-9.47324
ላት	-9.47341
▁አለው	-9.47343
▁ባለፈ	-9.47346
▁በማሸነፍ	-9.47437
▁ያል	-9.47547
ግን	-9.47606
▁ግርማ	-9.47639
▁በነፃ	-9.47642
▁ጆርናል	-9.47695
▁ለተጨማሪ	-9.47742
▁ከሚገኙ	-9.47762
ቱን	-9.47773
▁ትጥቅ	-9.4788
▁ሚ	-9.48056
▁አስ	-9.48071
▁ናት	-9.48078
▁ኦሎምፒክ	-9.48165
▁ተፈናቃዮች	-9.4825
▁ድንቅ	-9.48261
▁በውድድር	-9.48321
▁በሀገራችን	-9.48327
▁መኖር	-9.48398
▁ፈረንሳይ	-9.48422
▁ህንፃ	-9.48428
▁ገፅ	-9.48457
▁የደህንነት	-9.48521
ጠቅላይ	-9.48575
▁እያሉ	-9.48633
▁ተገኝተው	-9.48666
▁የአስቸኳይ	-9.4873
▁ኦርቶዶክስ	-9.48756
13	-9.48766
▁አሳውቀዋል።	-9.48782
▁ጊዜያት	-9.49029
▁የደረሰ	-9.49079
▁ድሬዳዋ	-9.49162
▁ማየት	-9.49164
▁የመውጫ	-9.49237
▁ስት	-9.4926
▁ማረጋገጫ	-9.49268
▁ሰላምና	-9.49326
▁ለሙሉ	-9.49365
▁ተኩስ	-9.49421
▁አሳስበዋል።	-9.49462
▁በቀላሉ	-9.49485
▁የሚኖሩ	-9.49542
▁ሙያ	-9.49621
▁2011	-9.49638
▁ማለትም	-9.4967
▁ትንሽ	-9.49692
▁ሕክምና	-9.49722
▁ገልፀዋል፡፡	-9.49732
▁ረዳት	-9.49763
▁ይሄን	-9.49766
▁ባንኮች	-9.49832
▁ብሏል፡፡	-9.49835
▁ቃለ	-9.49839
▁አይዘነጋም።	-9.49887
በሽታው	-9.49893
▁በተካሄደው	-9.49957
▁ሲኖዶስ	-9.50049
▁በጋዛ	-9.50073
▁ጠቅላላ	-9.50074
▁ለዚህም	-9.50135
▁በአ	-9.50141
▁ከነማ	-9.50209
▁ብሏል	-9.50219
አሁኑኑ	-9.50339
▁የመግቢያ	-9.50532
▁በራሱ	-9.50564
▁በረራ	-9.50637
▁የሽብር	-9.50649
▁ስደተኞች	-9.50684
▁ፀጥታ	-9.50686
▁ተደርጓል	-9.50687
▁የኢፌዴሪ	-9.50734
▁የኢኮኖሚ	-9.50821
▁መመለስ	-9.50836
▁እሳት	-9.50891
▁ተግባራት	-9.50915
▁ኢትዮጵያዊ	-9.51013
ዋል	-9.51088
▁በምስራቅ	-9.51134
ከተማ	-9.51224
ዛ	-9.51241
▁ቤታቸው	-9.513
▁የቡድን	-9.51359
▁ማረሚያ	-9.51408
▁የሚችሉ	-9.51429
▁በአፋር	-9.51439
▁ህዝቡ	-9.51475
▁የፈረንሳይ	-9.51578
▁ወይዘሮ	-9.51776
▁ሰራተኛ	-9.5185
▁የሌለው	-9.51873
ዴ	-9.52142
▁የአደጋ	-9.52152
▁ሥራዎች	-9.52263
▁ምስጋና	-9.52354
መር	-9.52362
▁በእስር	-9.52485
▁ከበደ	-9.52541
▁ካለው	-9.52566
▁ግለሰቡ	-9.52602
▁የከተማዋ	-9.52604
▁የዩኒቨርሲቲ	-9.5266
▁የከተማው	-9.52856
▁የጀርመን	-9.52881
2012	-9.52972
▁ማቅረብ	-9.53009
▁መርሀ	-9.53093
▁ግብፅ	-9.53143
▁የሚመራው	-9.53214
▁ዜና፡	-9.53218
▁ቴሌግራም	-9.53241
▁አነስተኛ	-9.53281
▁ተከሳሾች	-9.5331
▁የቻይና	-9.53349
▁ድንገተኛ	-9.53391
▁አክለዋል።	-9.5347
▁ኦሮሚያ	-9.53477
▁አግባብ	-9.535
▁በመባል	-9.53631
▁ቡድናቸው	-9.53691
▁ጥይት	-9.53925
▁ማንም	-9.53946
▁ተረጋግጧል።	-9.53987
▁አበራ	-9.53995
▁ጉሙዝ	-9.54085
▁ሚኬል	-9.54103
▁ኃላፊው	-9.54126
▁በህይወት	-9.54157
▁ነፃነት	-9.54319
ብር	-9.54341
▁ግማሽ	-9.54403
▁ምክንያቶች	-9.54483
▁ስሙ	-9.54635
▁አስቸጋሪ	-9.54664
▁ዩክሬን	-9.54689
▁አረጋግጠዋል።	-9.54716
▁እንዲሰጥ	-9.54732
▁በስልክ	-9.54802
▁በመላው	-9.54882
▁ምልክት	-9.54883
▁ያደረገውን	-9.54899
ቃ	-9.54918
▁ፋብሪካ	-9.55139
▁የሁለት	-9.55199
▁ከዛ	-9.55208
▁90	-9.55261
▁እድገት	-9.55333
▁ወንዝ	-9.5539
▁ብ	-9.554
▁አከባቢ	-9.55429
▁እንዲደረግ	-9.55429
▁የባህር	-9.55452
▁80	-9.5551
▁ከበሽታው	-9.55592
▁ሰብሳቢ	-9.55598
▁ስራዎችን	-9.55632
▁የሚሰራ	-9.55649
▁ይችላል።	-9.55757
▁ቅድሚያ	-9.55759
▁ጎሎች	-9.55765
▁ቱሪዝም	-9.55802
▁ወላጆች	-9.55856
▁..	-9.5587
▁እንደሚያደርግ	-9.55876
▁አማካሪ	-9.55878
▁ፍፁም	-9.55915
▁ተችሏል።	-9.55952
▁ባሳለፍነ	-9.55956
▁የስልክ	-9.55999
▁ፓላስ	-9.56004
▁አቅራቢያ	-9.5602
▁ፈተናዎች	-9.56075
ሴ	-9.56103
▁ደንበኞች	-9.56161
ዘ	-9.56242
▁ቅናሽ	-9.56393
▁ከነዚህ	-9.56452
▁የተደረገው	-9.56485
▁ነጥቦች	-9.56494
▁ኤርትራ	-9.56572
▁ፍተሻ	-9.56679
▁የሕግ	-9.56685
▁የፈተና	-9.56746
▁አርባ	-9.56798
▁ያደረጉት	-9.56884
▁ብራይተን	-9.56969
▁32	-9.56985
▁እንዳለባቸው	-9.57014
▁ሌሎችም	-9.5707
▁አሰፋ	-9.57101
▁የተገኙ	-9.57134
▁በመግለጫው	-9.57151
▁መቻሉን	-9.57167
▁ጋዜጣዊ	-9.57205
▁ድርጊቱን	-9.57284
▁የጊዜ	-9.57324
▁ህገወጥ	-9.57346
▁ፓውንድ	-9.57349
▁ዘይት	-9.57404
▁የከፋ	-9.57415
ጠዋቱ	-9.57479
ትናንትናው	-9.57522
ገ	-9.57572
▁ጨዋታቸውን	-9.57589
▁አቃቤ	-9.57645
▁አላ	-9.57657
▁ያሉበት	-9.57661
ቼ	-9.57781
ም።	-9.57808
ሰው	-9.57811
▁አበበ	-9.57832
▁ዳንኤል	-9.57833
▁መፍትሔ	-9.57844
▁አውሮፓ	-9.57844
▁የፋይናንስ	-9.57928
▁ዝግ	-9.57994
▁ሽንፈት	-9.58117
▁ቤቶችን	-9.58171
▁የዛሬ	-9.58174
''	-9.58182
የትኛውም	-9.58238
▁ግቦችን	-9.58275
ታል።	-9.58282
▁በልዩ	-9.58371
▁ቀድሞ	-9.58543
▁ያገገሙ	-9.58579
ሳት	-9.58591
▁ልብ	-9.58591
▁አስተላል	-9.58639
ቦ	-9.58668
▁ዘርፎች	-9.58688
▁ትልቁ	-9.58768
▁ፓርቲው	-9.58787
▁ኢኮኖሚ	-9.58807
▁ጅማ	-9.58864
▁በቅርብ	-9.58888
▁ምት	-9.5889
▁ስዩም	-9.59061
▁ቀሪ	-9.59078
▁መግባት	-9.5913
▁ተፈታኞች	-9.59216
▁ፕሬዝደንት	-9.59306
▁አምራች	-9.59336
▁ጨዋታው	-9.59358
▁ያደረጉ	-9.59373
▁የመኖሪያ	-9.59381
16	-9.59406
▁ይደረጋል	-9.59463
▁በግል	-9.59563
▁ለማቅረብ	-9.59564
▁ዝቅተኛ	-9.59596
▁ከውጭ	-9.59599
▁ወገን	-9.59632
▁ዛሬም	-9.59736
▁ሶዶ	-9.59754
▁መገደላቸውን	-9.5978
▁እንዳላቸው	-9.59791
▁የእግር	-9.59853
▁አብሮ	-9.5986
▁አሊ	-9.59878
ደ	-9.59888
▁ፀጋዬ	-9.59935
▁ስጦታ	-9.60005
▁መጫወት	-9.60008
▁የቴሌግራም	-9.60019
2017	-9.6019
▁ምድር	-9.602
▁ለማረጋገጥ	-9.60221
▁አለብን	-9.60411
▁የሞት	-9.60424
▁ፋሲል	-9.60575
▁ነጻነት	-9.60588
▁መቆጣጠር	-9.60604
ላችሁ	-9.6063
▁ደንብ	-9.60689
▁ይችላሉ።	-9.60749
▁ውድመት	-9.60754
▁ለጊዜው	-9.60773
▁መስኮች	-9.60777
▁በርካቶች	-9.6079
▁የዜና	-9.60814
▁300	-9.60828
▁የሚታወስ	-9.60861
▁የለውም	-9.609
▁የምዕራብ	-9.60932
▁በስራ	-9.61076
▁ሀ	-9.61186
▁ማለፉ	-9.61201
▁አራተኛ	-9.61209
ፋ	-9.61223
▁በሚገኝ	-9.61398
▁መግለጫው	-9.61419
▁የአሜሪካን	-9.61489
▁የሚጠጉ	-9.61537
▁የምዝገባ	-9.61569
▁በተለያየ	-9.6159
▁35	-9.61708
40	-9.61799
▁ከትምህርት	-9.61806
17	-9.61817
▁ማረጋገጥ	-9.61929
▁ሚካኤል	-9.61972
▁ማቆያ	-9.61993
ሬ	-9.62059
▁በጨዋታው	-9.62101
▁የገለጹት	-9.6219
▁በህገ	-9.62208
▁እንዲሆኑ	-9.62312
▁ያደረጉትን	-9.62532
▁ለፖሊስ	-9.62645
▁ቻናላችን	-9.62691
▁ለመፍጠር	-9.62719
▁ሸኔ	-9.62777
▁የዚህ	-9.62844
▁አለኝ	-9.62846
▁ወላይታ	-9.62866
▁ስህተት	-9.62869
▁ሌስተር	-9.62955
▁ኮ	-9.63001
▁ሂደቱ	-9.63016
▁አርሴናል	-9.63026
▁የሰጡት	-9.63033
▁በሰላማዊ	-9.63127
▁ዳኛ	-9.63151
ቪ	-9.63185
▁መቼ	-9.63291
▁በእስራኤል	-9.63316
▁ፑቲን	-9.6339
▁የቆየው	-9.63414
▁ሺሕ	-9.63425
▁የዩክሬን	-9.63457
▁የጠቅላይ	-9.63597
▁ታሪካዊ	-9.63615
▁በአጭር	-9.63632
▁ለቀው	-9.63633
▁መምህር	-9.63753
..	-9.63802
▁ከስምምነት	-9.63853
▁መያዙን	-9.63889
▁ይገባል።	-9.63909
▁የደም	-9.63953
▁ምክክር	-9.64028
▁በቻይና	-9.64058
▁ፕሬዝዳንቱ	-9.64119
▁አትሌቲኮ	-9.64171
▁ምስል	-9.64256
▁አስተባባሪ	-9.64349
▁0-1	-9.64354
ኔ	-9.64355
▁ካሬ	-9.64524
▁ሕገ	-9.64738
▁የተፈጥሮ	-9.64838
▁ስምምነቱ	-9.64975
▁ሁኔታዎች	-9.65095
▁ማሞ	-9.65117
▁ሲያልፍ	-9.65191
▁ለሁሉም	-9.65286
▁ቁልፍ	-9.65301
▁1-1	-9.6536
▁የሞባይል	-9.65386
▁ችለዋል	-9.65464
▁አትሌቶች	-9.65612
▁አንዲት	-9.65708
▁ምቹ	-9.65767
▁ደረጃን	-9.65803
▁ማታ	-9.65838
▁እንዲያገኙ	-9.65862
▁ማጣሪያ	-9.65949
▁ታ	-9.65989
▁የኃይል	-9.65997
▁አርቲስት	-9.66008
▁ጨዋታዎችን	-9.66023
▁መጠለያ	-9.66112
▁መሰረተ	-9.66195
▁ለሚ	-9.6622
▁የቀረበ	-9.66235
▁ኤሲ	-9.66249
▁በምን	-9.66256
▁ሰፈር	-9.66334
▁5.	-9.66345
▁እንዴ	-9.66351
▁እንድት	-9.66386
▁አንፃር	-9.66452
▁4:00	-9.66539
▁የኬንያ	-9.66611
ኪ	-9.66628
▁የሶማሊያ	-9.66658
▁የተገኘ	-9.66836
ማንኛውም	-9.66869
▁ሁለተኛው	-9.66884
▁ያሉትን	-9.66907
▁በከተማው	-9.6699
▁በዞኑ	-9.67118
▁የምክር	-9.67146
▁አቁም	-9.67203
▁መናገራቸውን	-9.67206
▁ጥሰት	-9.67223
▁ጥቁር	-9.67251
▁አድርገዋል	-9.67333
ኢትዮጵያ	-9.67395
▁ዴኤታ	-9.67424
▁ባሉበት	-9.67451
ፈ	-9.6748
▁ህይወታቸውን	-9.67497
▁የተሰኘው	-9.67532
▁አለባቸው	-9.67552
▁መስጫ	-9.6763
▁ወረራ	-9.6764
▁ዕ	-9.67653
▁ዳጉ	-9.67753
ሚቀጥለው	-9.67758
▁ኮድ	-9.67788
▁የሚሉት	-9.67862
▁በሶስት	-9.67897
▁ፕሬዜዳንት	-9.67925
▁የሚሰሩ	-9.67951
▁ክሎፕ	-9.67953
▁የሚገመት	-9.67997
▁እንደገለጹት	-9.68003
▁የወረዳው	-9.68017
▁ከመ	-9.68115
▁መውጣት	-9.68159
▁ግምት	-9.68482
▁የመንገድ	-9.68562
▁ማርቆስ	-9.68584
▁ተገለጸ	-9.68585
▁እንዲመለሱ	-9.68598
▁ዳይሬክተሩ	-9.68686
▁ፖስት	-9.68744
▁እንዳልሆነ	-9.68747
▁ቶሎ	-9.6876
▁በክለቡ	-9.68782
▁ወንጀሎች	-9.68862
▁ተመስገን	-9.68869
▁ጄኔራል	-9.68884
▁አላማ	-9.68899
▁መወሰኑን	-9.68933
▁መውሰድ	-9.68951
▁ከደቂቃዎች	-9.68991
▁ጀርመን	-9.68995
▁ገብተው	-9.69025
▁ከሚ	-9.69047
▁ከእነዚህ	-9.69049
ጠ	-9.69178
▁ካምፓስ	-9.69281
▁ዘንድሮ	-9.69317
▁ጥፋተኛ	-9.69362
▁ኃይሉ	-9.69388
19	-9.69451
▁ታከለ	-9.69462
▁በሚጠራው	-9.69476
▁የመማር	-9.69577
▁አዳነች	-9.69578
▁እንዲያደርግ	-9.69599
▁የስፔን	-9.69608
▁ግ	-9.69651
ይህ	-9.697
▁የሪያል	-9.69705
▁ጸጥታ	-9.69736
▁ለረጅም	-9.69776
▁ቡድኑን	-9.69793
▁ነገሮችን	-9.69812
▁ጥበብ	-9.69826
▁በደረሰው	-9.69886
ሻ	-9.69894
▁ሰንጠረዥ	-9.69897
▁ያልሆነ	-9.69914
▁ሌሊት	-9.69987
▁ተነገረ	-9.7002
▁ይቀጥላል	-9.70082
▁እንግሊዛዊው	-9.70101
▁መርሐግብር	-9.70183
▁አገልግሎቱ	-9.70311
▁ፈጣን	-9.70343
▁ናስር	-9.70425
▁ደ	-9.70444
▁በጤና	-9.7047
▁እንኳ	-9.70521
ቀ	-9.70599
ተባበሩት	-9.70604
▁መንደር	-9.70693
▁ያለፈ	-9.70708
ነቱ	-9.70727
▁ባለበት	-9.7076
▁ሲያ	-9.70761
በርካታ	-9.70811
ሥ	-9.70817
▁ሀገራችን	-9.70871
▁ውድድሮች	-9.70894
▁ሳንቲም	-9.70899
▁የዩናይትድ	-9.70955
▁አስተዋጽኦ	-9.71042
▁አጋጣሚ	-9.71082
▁ሰጪ	-9.71088
▁ጋዜጠኞች	-9.71157
▁መሳሪያዎች	-9.71191
ጣ	-9.71195
▁እንደሚደረግ	-9.71364
▁ፖሊሲ	-9.71397
▁ሀሰን	-9.71432
▁የፊታችን	-9.71432
▁ይጠበቃል	-9.71436
ጥ	-9.71465
▁በአዲሱ	-9.71472
▁ያንብቡ	-9.71474
“	-9.7163
▁ትርጉም	-9.71669
▁መኖሩን	-9.71767
▁ካለፈው	-9.71798
▁ከነገ	-9.71891
ሀ	-9.71959
▁የሁለተኛ	-9.71996
▁ከወዲሁ	-9.72027
▁ሰ	-9.7203
▁ህፃን	-9.72095
▁ማስከበር	-9.72148
▁ላሊጋ	-9.72209
▁በየ	-9.72221
▁ኮርፖሬሽን	-9.7229
▁በቴሌግራም	-9.7233
▁ሌላኛው	-9.72364
▁እንደገና	-9.72366
▁ኮሚቴው	-9.72368
ጎ	-9.72435
▁መደረጉ	-9.7245
ቸዉ	-9.72525
▁ቶማስ	-9.7259
▁የሚደረገው	-9.72626
▁እነዚህን	-9.72702
▁ባለሥልጣን	-9.72773
▁ተከታዮች	-9.72879
▁አሉ።	-9.7289
▁ሁሌም	-9.72922
▁ቀበሌዎች	-9.72932
▁ሎተሪ	-9.72949
▁የጉዞ	-9.73088
▁ረገድ	-9.73101
▁ጥቃቶች	-9.73248
▁ይቀላቀሉ	-9.73254
▁ደሳለኝ	-9.73291
▁አለፈ	-9.73378
▁በህዝብ	-9.734
▁ንቅናቄ	-9.73412
▁ባሻገር	-9.73435
▁የምድብ	-9.73514
ብኝ	-9.73773
▁የገለፁት	-9.73786
▁=	-9.73827
▁ክስተት	-9.73831
▁....	-9.73866
▁የሚሆነው	-9.73887
▁መድኃኒት	-9.7395
▁በህገወጥ	-9.73963
▁በድምሩ	-9.73965
▁የወርቅ	-9.73986
▁••	-9.74026
▁45	-9.74043
▁በተ	-9.74105
▁ጎጃም	-9.74127
▁የኔ	-9.74151
▁መልቀቂያ	-9.74211
▁የሚገቡ	-9.74292
▁ካል	-9.74302
▁አርሶ	-9.74341
▁በመንግሥት	-9.74364
ናል	-9.74375
▁አጭር	-9.74518
▁ይሆናል፡፡	-9.74637
▁ጥቃቱ	-9.74661
▁ሁለቱም	-9.74678
▁ከታች	-9.74708
▁ሲገለፅ	-9.74746
▁እየሰሩ	-9.7476
▁ከተ	-9.74828
▁አጋር	-9.74849
▁ትውልድ	-9.74877
▁የሚሰጠው	-9.74916
▁አንጻር	-9.74927
▁የሚወስደው	-9.74945
ታዊ	-9.74972
▁ፅህፈት	-9.74979
▁የሚሰጡ	-9.75004
▁ባጋጠመ	-9.75016
▁ደርሷል	-9.75027
▁ተገቢውን	-9.75038
▁ቶን	-9.75045
ለው	-9.75159
▁ብቸኛ	-9.7517
▁ተወካይ	-9.75184
▁የፌስቡክ	-9.75316
▁ጀነራል	-9.75324
▁ቤተሰቦቻችን	-9.75376
▁መተግበሪያ	-9.75396
▁ማወቅ	-9.75533
▁ፕሪምየር	-9.7554
▁ምርምር	-9.75623
▁ሰብአዊ	-9.75653
▁የተሰኘ	-9.75694
▁እንደሌለ	-9.75744
▁አዋጁ	-9.75768
▁አንስተዋል።	-9.75789
▁ቱርክ	-9.75836
▁ግብሮች	-9.76039
▁ተቋርጦ	-9.76049
▁አለ።	-9.76073
▁ማስጠንቀቂያ	-9.76081
▁የሚገኘውን	-9.76138
▁የምስራቅ	-9.76199
▁ሶማሊያ	-9.76233
▁የሲዳማ	-9.76233
ቡ	-9.76236
▁ሰዉ	-9.76295
▁ወኪል	-9.76383
▁ጎሎችን	-9.76398
▁እንደነበረ	-9.76416
▁ራስ	-9.76498
▁ገፁ	-9.76514
▁ያለምን	-9.76518
▁ኩንታል	-9.76591
▁የህብረተሰብ	-9.76599
▁ዴ	-9.76606
▁ቦርዱ	-9.76709
መስመር	-9.76744
▁መንስኤ	-9.76771
▁መስኮት	-9.76775
በር	-9.7685
ብልት	-9.76873
ብን	-9.76915
▁ናፖሊ	-9.76959
▁ወይን	-9.76997
▁ሀሪ	-9.7714
▁አሳሳቢ	-9.77141
▁መንቀጥቀጥ	-9.77162
▁በተባለ	-9.77186
ስምንት	-9.77263
▁በዘላቂነት	-9.77269
▁መያዝ	-9.77274
▁በህክምና	-9.77391
▁ልውውጥ	-9.77392
▁አትሌቲክስ	-9.77452
▁ቻናላችንን	-9.77493
▁የቴክኒክ	-9.77498
▁መመልከት	-9.77564
▁ዝም	-9.77611
▁ነባር	-9.77626
▁ስራው	-9.77693
▁ራሳቸውን	-9.77783
60	-9.77787
▁የዘንድሮው	-9.77791
▁ያለዉ	-9.7809
ያን	-9.78177
▁መንግስታዊ	-9.78204
▁ምዕራፍ	-9.7822
▁ከሰዓት	-9.78233
▁ሰላሳ	-9.78257
▁አጫጭር	-9.78504
▁በገንዘብ	-9.78549
ግምት	-9.78646
▁ተጠርጣሪ	-9.78651
▁ታጣቂ	-9.78675
▁በኬንያ	-9.78701
▁ከትግራይ	-9.78762
▁ችግሮችን	-9.78767
▁ለመቀነስ	-9.78782
▁ፈጠራ	-9.78794
▁ዎል	-9.7884
▁በዩኒቨርሲቲው	-9.78863
▁የገበያ	-9.78917
▁ውጤቶች	-9.79014
▁ስፔን	-9.79054
▁ለቢቢሲ	-9.79107
▁ማድረጉ	-9.79113
▁የቅዱስ	-9.79141
▁ለመገንባት	-9.7916
▁ተጠናቀቀ	-9.79166
▁እቃዎች	-9.79185
▁የሊቨርፑል	-9.7923
▁ኮሙኒኬሽን	-9.79233
▁ፕሬስ	-9.79237
ሻምፒየንስ	-9.79291
▁ስራውን	-9.79338
▁ሚያዚያ	-9.79378
▁ወይስ	-9.79413
ሳብ	-9.79427
▁የሁለቱ	-9.79563
▁ዘግቧል፡፡	-9.79564
▁ውጊያ	-9.79601
▁ስያሜ	-9.79767
▁በመጀመሪያው	-9.79767
ኦ	-9.79769
▁ከሰሞኑ	-9.79848
▁ተጠናክሮ	-9.79932
▁በማሰብ	-9.79983
ቷ	-9.80055
▁ተራ	-9.80068
▁እግርኳስ	-9.80079
▁የአገልግሎት	-9.80162
▁ሐሙስ	-9.80207
▁የሃይማኖት	-9.80234
▁ሀገራቸው	-9.80235
▁ገጽ	-9.80357
▁ህሙማን	-9.80395
▁ፍጥነት	-9.80412
▁ሌላው	-9.80434
▁ረዳ	-9.80482
ማንችስተር	-9.80488
▁እንዲሰጡ	-9.80508
▁በውሰት	-9.80538
▁33	-9.80553
▁እንደሚቀጥል	-9.80617
▁መሰረታዊ	-9.80762
▁መንግስቱ	-9.80807
▁መኝታ	-9.80819
▁በዓሉ	-9.80826
▁የማኅበራዊ	-9.80862
▁ቴንሀግ	-9.80869
▁ወልቂጤ	-9.80952
▁ተጋላጭ	-9.81015
▁እንዲገቡ	-9.81015
▁ሲቪል	-9.8108
▁የተከሰተው	-9.81206
ቁ	-9.81252
ዋል።	-9.81276
▁ከቤት	-9.81301
▁በማስገባት	-9.81306
▁መጨመር	-9.81345
▁ሲዳማ	-9.81392
▁የፍፃሜ	-9.81424
▁ብፁዕ	-9.81462
▁በፌደራል	-9.81559
▁የመገናኛ	-9.81582
▁አሰጣጥ	-9.81675
▁ሰበር	-9.81731
▁ይበልጥ	-9.8175
▁ተፈጥሮ	-9.8189
▁ለማሳደግ	-9.81903
▁ሳሙኤል	-9.81941
▁አማካይ	-9.82055
▁የቡድኑ	-9.82275
▁በጦርነቱ	-9.82278
▁የሚደረጉ	-9.82287
▁መሄድ	-9.823
▁በማቅረብ	-9.82324
▁ጥላሁን	-9.82445
▁በመሄድ	-9.82487
▁ኒውካስል	-9.82506
▁አፈ	-9.82565
▁ማንነት	-9.82591
▁ድርጊቱ	-9.82618
▁በአደጋው	-9.82619
▁እንዳስታወቀው	-9.82706
ርገን	-9.8278
▁ክልሉ	-9.82789
▁ግራ	-9.82853
▁ባይ	-9.8289
▁ዳይሬክቶሬት	-9.82901
▁በአሰልጣኝ	-9.82931
▁ብራዚላዊው	-9.82944
▁ከተማዋ	-9.82984
▁ምንዛሬ	-9.83085
▁የሕክምና	-9.83097
▁ህዳሴ	-9.83235
▁ያለመ	-9.83319
▁ፓሊስ	-9.83332
▁ባለድርሻ	-9.83374
!!!	-9.83484
▁12:00	-9.83484
▁የብር	-9.83574
▁ግዴታ	-9.8363
▁በቀጣዩ	-9.83809
▁ፅኑ	-9.8381
=	-9.83844
▁ገልፀው	-9.83868
▁ትግል	-9.83888
▁የግንባታ	-9.83919
▁የሚዲያ	-9.83943
▁በዩክሬን	-9.83952
▁ጥላ	-9.84001
▁ርብርብ	-9.84052
▁ስጋ	-9.84127
▁መኖራቸውን	-9.8419
▁ገልጸው	-9.84219
▁ገብቶ	-9.84237
▁ተደምጧል።	-9.84271
▁ፈርናንዴዝ	-9.84287
▁በድሬዳዋ	-9.84291
▁የአፋር	-9.84305
ቻ	-9.84328
▁የተሰጠ	-9.84376
▁ለመውሰድ	-9.844
▁ይቻላል	-9.84402
▁ዕቅድ	-9.84403
▁ኬን	-9.84459
▁ጀርባ	-9.84588
▁ያልሆኑ	-9.84599
▁ብዙኃን	-9.84885
▁ሆ	-9.84903
▁ማዕከላዊ	-9.84912
▁ብሎም	-9.84966
▁ደሞ	-9.85213
▁ኢንቨስትመንት	-9.85227
▁በራስ	-9.8527
▁በተፈጠረው	-9.85273
ግማሽ	-9.85348
▁ኢንጂነር	-9.85379
▁ከነ	-9.85416
▁ሲደረግ	-9.85455
▁የተደረጉ	-9.85539
▁አድርጓል፡፡	-9.85631
----------------	-9.85657
▁አመልክተዋል።	-9.85721
▁ተሳታፊዎች	-9.85721
▁መለያ	-9.85755
▁አንበሳ	-9.85796
▁በሀዋሳ	-9.858
▁ታክስ	-9.85831
▁ቀርበው	-9.85904
▁ደቂቃዎች	-9.85962
▁ርዕስ	-9.85975
▁በተፈጠረ	-9.85988
▁እንስሳት	-9.8602
▁ጠቁሟል።	-9.86034
▁የተፈጠረው	-9.86111
▁ነዉ።	-9.86124
▁ደመቀ	-9.86162
▁በጉዳት	-9.86189
▁የሰጠው	-9.86205
▁ገብተዋል።	-9.86215
▁ስለመሆኑ	-9.86335
▁በአራት	-9.86338
▁ሚስት	-9.86404
▁ማሳሰቢያ	-9.86433
▁የሚመጡ	-9.86465
▁ማዕረግ	-9.86485
▁የሳይንስ	-9.86606
▁ግጭቶች	-9.86682
▁እንደሆነም	-9.86689
▁ተጠቃሚዎች	-9.86704
▁ገብረ	-9.86761
▁ኪሊያን	-9.86783
▁የሚያደርጉ	-9.86787
▁ይላል	-9.86814
▁ሩጫ	-9.86914
▁የቻለው	-9.86974
▁ኢንተርናሽናል	-9.87007
▁የሚደርሱ	-9.8702
▁ተደጋጋሚ	-9.87203
▁ለመቅረፍ	-9.87224
▁የመጡ	-9.8723
▁የውጪ	-9.87239
▁ውጤታማ	-9.87299
▁ጣልቃ	-9.8735
▁31	-9.87376
▁መስክ	-9.87604
▁ዲጂታል	-9.87616
አራት	-9.87686
▁ለመቀበል	-9.8769
▁6.	-9.87771
▁ድረ	-9.87815
▁ደመወዝ	-9.87855
▁የክብር	-9.87864
▁የበጎ	-9.87888
▁እየተባለ	-9.87907
▁400	-9.87933
▁ኢዜአ	-9.87959
▁አልባሳት	-9.88005
▁መድረሱ	-9.88201
▁ገልፀዋል	-9.8822
▁ጋ	-9.88225
▁ለመ	-9.88228
▁በጎንደር	-9.88242
▁ዶር	-9.88444
▁አረብ	-9.88456
▁እንደማይ	-9.8852
▁በፀጥታ	-9.88616
▁ለማጠናከር	-9.88735
▁አገልግሎቱን	-9.88741
▁ለማሸነፍ	-9.88757
▁ትዊተር	-9.88763
ባቸዉ	-9.8895
▁ይህንኑ	-9.88969
▁መድሃኒት	-9.88981
▁ያደርጋል	-9.89075
▁መዲና	-9.89158
▁እንድ	-9.8916
▁የፍቅር	-9.89172
▁ካምፕ	-9.89183
▁አቤቱታ	-9.89184
▁የኢንተርኔት	-9.89246
▁ለፍርድ	-9.89317
▁ከነበረው	-9.89386
▁ጀምሯል።	-9.89457
▁ነጋዴዎች	-9.89487
▁የሌላቸው	-9.89498
▁ቆይቷል።	-9.89538
▁ታዲያ	-9.89545
▁ግቡን	-9.89591
▁ጥፋት	-9.89704
▁አንቶኒ	-9.89724
▁በቦሌ	-9.89732
▁ማዕከላት	-9.89737
▁የኑሮ	-9.89739
▁ሁሴን	-9.8975
▁የተዘጋጀ	-9.89835
▁እገዛ	-9.89865
▁በሆነው	-9.89898
▁ይሰጣል	-9.89929
▁የሲቪል	-9.89938
▁ኢሳያስ	-9.89963
▁አቤቤ	-9.90016
▁ፕሮጀክቶች	-9.90016
▁ዶርትመንድ	-9.90016
▁ሊትር	-9.90026
▁ስማቸው	-9.90111
▁ተመላክቷል።	-9.90128
▁ታላቁ	-9.90207
▁ግራም	-9.90249
▁አስታውቀዋል፡፡	-9.90252
▁ሲያደርጉ	-9.90261
▁የምርምር	-9.90274
▁እናቶች	-9.90329
ሁሉም	-9.90348
▁ድንጋይ	-9.9042
▁ፕሮግራሞች	-9.90433
ጃ	-9.90495
.....	-9.9056
▁!!	-9.90561
▁በኢትዮ	-9.90607
▁ጠቅሷል።	-9.90663
▁ሂሳብ	-9.90737
▁ዋነኛ	-9.90774
▁ጽሕፈት	-9.90809
▁አብረው	-9.90819
▁ትርፍ	-9.90822
▁አና	-9.90848
በምስሉ	-9.90854
▁አደገኛ	-9.90902
▁ዶናልድ	-9.90915
▁ለሌሎች	-9.91005
▁ደሴ	-9.91045
▁የሚውል	-9.91072
▁ሲያደርግ	-9.912
▁የኢትዮጵያን	-9.91268
▁ተነግሯል	-9.91322
▁ፖለቲካ	-9.91349
▁አለመግባባት	-9.91367
▁እየተከናወነ	-9.91419
▁ክሪስታል	-9.91459
▁የግብርና	-9.91631
▁እንደሚሰራ	-9.91642
▁እንዲቆም	-9.91751
▁ወሬ	-9.91805
▁ያቀረበው	-9.91808
▁ዜግነት	-9.91811
▁በየቀኑ	-9.91844
▁ኦ	-9.91959
▁የተወሰኑ	-9.91959
251907	-9.91961
▁ሃገር	-9.92008
▁አለመሆኑን	-9.92012
▁ዴሞክራሲያዊ	-9.92022
▁ተጫዋቹ	-9.92066
▁ረቡዕ	-9.92074
▁በእስራት	-9.92094
▁ጠቁመዋል፡፡	-9.92198
▁የሚካሄደው	-9.92285
▁ዝቅ	-9.92412
▁ይፈልጋሉ	-9.92425
▁አደረሳችሁ	-9.92469
▁አድራጎት	-9.92474
▁ለመግባት	-9.9252
▁ተገኝተዋል።	-9.92569
▁መረብ	-9.92607
▁ክለቡን	-9.92649
▁ወጥቶ	-9.92652
▁መላው	-9.92869
▁የሚመለከታቸው	-9.92885
▁የያዘ	-9.92968
▁በስተቀር	-9.93168
▁ድብደባ	-9.93168
▁በመሆናቸው	-9.93169
▁ንጋቱ	-9.93191
▁የድጋፍ	-9.93221
▁ሩብ	-9.93224
▁አለማየሁ	-9.93246
▁ሳይንስና	-9.93253
▁ሲካሄድ	-9.93284
▁በመግለፅ	-9.93344
ኢ	-9.93368
▁ከጨዋታው	-9.93415
▁ቴዎድሮስ	-9.93436
▁የመርሲሳይዱ	-9.93573
ሚመለከታቸው	-9.93596
▁እንደገለፁት	-9.93622
▁እቃ	-9.93644
22	-9.93687
▁ልደታ	-9.93707
▁የደረጃ	-9.9371
▁34	-9.93744
▁መዋሉን	-9.9384
▁መምጣት	-9.94014
▁የሀዋሳ	-9.94021
▁መስፍን	-9.94045
▁ደኅንነት	-9.94081
▁ሳካ	-9.94088
▁በጋምቤላ	-9.94106
▁እያንዳንዳቸው	-9.94107
ተው	-9.94118
▁እንደዚህ	-9.94153
▁መጠጥ	-9.94154
▁ለመቀላቀል	-9.94172
▁አልያም	-9.94173
▁በሩሲያ	-9.94242
▁የክስ	-9.94253
21	-9.94269
▁ጠቅሰዋል።	-9.94288
▁ዋዜማ	-9.9432
▁በብዛት	-9.94322
ሲል	-9.94322
▁መድፈኞቹ	-9.94328
▁እገዳ	-9.94358
▁ክረምት	-9.94395
▁ኢኮኖሚያዊ	-9.94408
▁ከክልሉ	-9.94444
▁ግብይት	-9.94508
▁ሹመት	-9.94558
▁የተገለፀ	-9.94593
▁እንዲቀጣ	-9.94676
ጅ	-9.94679
▁ቀዶ	-9.94715
▁ኅብረት	-9.94728
▁ጠቅሶ	-9.94802
▁መንግሥታት	-9.94816
▁ህዝባዊ	-9.94838
▁የፍርድ	-9.94861
▁የገቢ	-9.94961
▁መጽሐፍ	-9.94992
ሃ	-9.95079
▁ይታወሳል	-9.95086
▁ታዋቂ	-9.951
▁የድርጅቱ	-9.9511
▁በመግለጽ	-9.95148
▁ማህበራት	-9.95148
▁ጥልቅ	-9.95262
▁ተቀብሎ	-9.95285
▁ቪዲዮ	-9.95294
▁አፈጻጸም	-9.95311
▁ሮማ	-9.9533
▁ተዋሕዶ	-9.95464
▁በጥሩ	-9.95487
ዓመት	-9.95513
▁ለመግዛት	-9.95522
▁እናደርሳለን	-9.9554
ጉ	-9.95552
▁ተካሂ	-9.95669
ብስራት	-9.95732
▁75	-9.95832
▁በፍፁም	-9.95843
▁ባካሄደው	-9.95879
▁ለገበያ	-9.959
()	-9.95902
▁እንዲቀጥል	-9.95911
▁የተሰጠው	-9.95959
▁ፎቅ	-9.95967
▁ሪከርድ	-9.95999
▁ወሲብ	-9.96014
▁ስብከት	-9.96021
▁የአገር	-9.96029
▁ፌደራል	-9.96145
▁ሄክታር	-9.9616
▁በአገሪቱ	-9.96179
▁የአገሪቱ	-9.96276
▁የቻለ	-9.96286
▁ዘውዴ	-9.96286
▁ከመንግስት	-9.96288
▁ሃብት	-9.96315
ቤቶች	-9.96341
▁እኩል	-9.96379
▁ማርያም	-9.96389
▁እነ	-9.96402
▁አብዲ	-9.9645
▁ከአፍሪካ	-9.96455
▁ከጥቂት	-9.96495
▁ክህሎት	-9.96497
▁ጉባኤው	-9.96499
▁በመስራት	-9.96532
▁ወላጅ	-9.96555
▁ሀዘን	-9.96677
▁ከቅርብ	-9.96785
▁ሰምቷል።	-9.96794
▁ውሎ	-9.96838
▁የሙዚቃ	-9.96853
▁ውጥረት	-9.96854
▁አንድም	-9.96888
▁ዘመኑ	-9.9689
▁በመውሰድ	-9.96921
▁ፖለቲካዊ	-9.96954
▁መቀበል	-9.96968
▁ያመለክታል።	-9.9702
▁ማኔ	-9.97026
▁መያዛቸውን	-9.97034
▁መሸጫ	-9.97111
▁ራሽፎርድ	-9.97133
▁ቅጥር	-9.97179
▁አጠናክሮ	-9.9723
▁የደረሰባቸው	-9.97233
▁በተለምዶ	-9.97277
▁በደብረ	-9.97292
▁ነበሩ።	-9.97294
▁ቀንድ	-9.97357
▁ተገል	-9.97443
▁ክቡር	-9.97447
▁መልእክት	-9.97461
▁ምንድነው	-9.97526
▁ከደቡብ	-9.97538
▁የክፍያ	-9.97557
▁እየተጣራ	-9.97578
▁ድልድይ	-9.97579
▁ጉ	-9.97633
▁ሱቆች	-9.97696
▁እንዲወጣ	-9.97698
......	-9.97698
▁ስለሆነም	-9.97732
▁መጠበቅ	-9.97777
23	-9.97796
▁የህይወት	-9.97818
▁ፈረንሳዊው	-9.97859
▁መግዛት	-9.9786
▁ቤቱን	-9.97878
▁በተከሰተው	-9.98033
▁የዲጂታል	-9.98054
70	-9.98071
▁መንፈስ	-9.98105
▁ተይዞ	-9.98146
▁ድርቅ	-9.98154
ቆ	-9.98158
▁ተዘግቧል	-9.98301
▁የወጡ	-9.98327
▁ራሱ	-9.98382
▁ያስ	-9.98382
ቫይረሱ	-9.9842
▁በትክክል	-9.98492
▁የብሄራዊ	-9.98504
▁መዋቅር	-9.98506
▁የኮሚሽኑ	-9.98571
▁እናንተ	-9.98608
▁ሚንስቴር	-9.98626
▁ጥብቅ	-9.98658
▁ኤስ	-9.98668
▁ዜጋ	-9.98691
▁የሰዎች	-9.98715
▁ሀብታሙ	-9.98796
▁ኮንጎ	-9.98891
▁በውድድሩ	-9.98951
▁ተነግሯል፡፡	-9.98973
▁ጁኒየር	-9.98984
ወደ	-9.99034
▁ማህበሩ	-9.99039
▁በመጨረሻም	-9.99043
▁በከተማ	-9.99067
▁የገቡ	-9.99139
▁ሌ	-9.99158
▁ረጅም	-9.99177
▁እንዲፈቱ	-9.99213
▁የሚመሩት	-9.99216
▁መገኘቱን	-9.9925
▁ዴቪድ	-9.99278
▁ደራሲ	-9.99295
ታቸው	-9.99318
200	-9.99323
▁ተፅዕኖ	-9.99332
▁የተጀመረው	-9.99451
▁ሲደርስ	-9.9947
ሲሉ	-9.99475
▁አመልካቾች	-9.99506
▁ያለባቸው	-9.9952
▁ዳዊት	-9.99574
▁የሚያደርጉት	-9.99577
▁ዓመቷ	-9.99596
▁የስነ	-9.99655
▁አምስተኛ	-9.99674
▁ሻምፒዮን	-9.99696
▁መጠናቀቁን	-9.99807
▁በዋና	-9.99846
በሺዎች	-9.99895
▁በፈረንሳይ	-9.99967
▁የሀገራችን	-10.0004
ሚኪያስ	-10.0005
▁ማራቶን	-10.0006
▁መርማሪ	-10.0008
▁የጭነት	-10.0008
▁የፈጠራ	-10.001
▁ሚያዝያ	-10.0013
▁ቀዳሚ	-10.0027
▁በሁለተኛ	-10.0029
▁ኩባንያዎች	-10.0032
▁የድሬዳዋ	-10.0033
▁ላሉ	-10.004
▁የተከላካይ	-10.0041
▁የማድረግ	-10.0044
▁የተፈናቀሉ	-10.0046
▁ተደራሽ	-10.0046
▁ማቆም	-10.0055
▁ቃጠሎ	-10.0061
▁አጀንዳ	-10.0063
▁አድማ	-10.0065
▁ከመስከረም	-10.0065
▁ማዕቀብ	-10.0074
▁ቫን	-10.0088
▁ማንኛውንም	-10.0089
▁በአገር	-10.009
▁በእጅጉ	-10.009
▁ይገኙበታል።	-10.0093
▁ማኅበር	-10.0107
▁ለመላው	-10.0108
▁በወቅታዊ	-10.0108
▁ለማድረስ	-10.011
▁እንደሚጀምር	-10.0111
▁ግልጽ	-10.0117
▁በፌስቡክ	-10.0118
/2017	-10.0119
▁በፍርድ	-10.0119
▁በአዳማ	-10.012
▁በሴቶች	-10.0124
▁የውስጥ	-10.0126
▁የመጣ	-10.0133
▁ቀጣዩ	-10.0134
▁መንቀሳቀስ	-10.0135
▁ጫማ	-10.0136
▁የተጠረጠሩ	-10.0137
▁ታላላቅ	-10.0138
▁ቀርቧል።	-10.0139
▁የሚደርስ	-10.0143
▁ሽፋን	-10.0146
▁በሶማሊያ	-10.0146
▁ዮሐንስ	-10.0151
▁አንደኛው	-10.0156
ፎ	-10.0168
▁በጥይት	-10.0169
▁ሕጋዊ	-10.0169
▁እውቀት	-10.0177
▁የቴክኖሎጂ	-10.0179
▁ጦርነቱ	-10.018
▁የተከለከለ	-10.0185
▁ፍለጋ	-10.0194
▁36	-10.0198
▁የታላቁ	-10.0206
▁አስተማማኝ	-10.0212
▁ይሁንና	-10.0214
▁እየተደረገላቸው	-10.0215
▁ካልሆነ	-10.0232
ዛሬዉ	-10.0233
▁ለሀገር	-10.0237
▁የሚቆይ	-10.0238
▁5:00	-10.0241
▁እንደሚፈልግ	-10.0244
▁ግሩፕ	-10.0245
▁ተይዘው	-10.0245
2011	-10.0258
▁ተመራቂ	-10.0274
▁የተወሰነ	-10.0275
▁ሁከት	-10.0276
▁መረጋጋት	-10.0278
▁አለመረጋጋት	-10.0279
▁የስደተኞች	-10.0282
▁በየዓመቱ	-10.0285
▁ውድድሩ	-10.0287
▁2-0	-10.029
▁ባለሥልጣናት	-10.0304
▁ስን	-10.0309
▁የተቋሙ	-10.031
▁አስነብቧል።	-10.0318
▁አገግመዋል።	-10.0331
▁ኮሎኔል	-10.0337
▁ኢራን	-10.0337
▁ለመጀመር	-10.034
▁ቀርቦ	-10.0343
▁የተካሄደው	-10.0343
▁ምንዛሪ	-10.0346
▁በሆኑ	-10.0348
▁ብሔር	-10.0348
▁ኑሮ	-10.0348
▁ስለሚ	-10.0353
▁ሆና	-10.0361
▁ቴሌ	-10.0369
▁በስፔን	-10.0371
▁ሃገራት	-10.0377
▁ብሬንትፎርድ	-10.0377
▁በእ	-10.0382
ዥን	-10.0384
▁ትክክል	-10.0388
▁ሳለ	-10.0388
▁ልት	-10.0392
▁በዋናነት	-10.0395
▁ባህርዳር	-10.0397
▁አካላትን	-10.0413
▁የሶስት	-10.0417
▁በሕግ	-10.0427
▁ቁሳቁስ	-10.0432
▁አደሮች	-10.0433
▁ማድረጋቸውን	-10.0434
▁ተልዕኮ	-10.0434
▁አማ	-10.0435
▁ተጫዋቹን	-10.0436
▁ይታወቃል፡፡	-10.0446
▁እንደሚያደርጉ	-10.0447
▁ከዓለም	-10.0457
▁እንዲያ	-10.0461
▁ስርዓቱ	-10.0467
▁ተጠርጣሪው	-10.0469
▁ኪንግ	-10.0472
▁ታዬ	-10.0478
▁ከስራ	-10.048
▁ተናገሩ	-10.0481
▁ጠበቃ	-10.0488
▁አስታውቋል	-10.0488
▁በደንብ	-10.0489
▁የፓርቲው	-10.0492
▁ያገኛሉ	-10.0493
▁2020	-10.0493
▁ግልፅ	-10.0495
▁ግንዛቤ	-10.0504
▁ቀኑ	-10.0506
▁እንፈልጋለን	-10.0508
▁ሸገር	-10.0509
▁ለመጠበቅ	-10.0514
▁ተወላጆች	-10.0516
▁እርስ	-10.0516
▁ምንጭ፡	-10.052
▁መፍጠር	-10.0521
ስተኛ	-10.0523
▁የተረጋገጠ	-10.0528
▁በተያዘው	-10.0528
▁ሁላችንም	-10.0538
▁አለው።	-10.0539
▁ከሶስት	-10.0543
▁ባለሞያዎች	-10.0544
▁ሰጥቶ	-10.0548
▁ማኅበረሰብ	-10.0566
▁መስራች	-10.0574
▁ገለጻ	-10.0575
▁እንግዶች	-10.0584
▁ኤል	-10.0586
▁ኮሮና	-10.0587
▁ለፊት	-10.0589
35	-10.0589
▁መዋላቸውን	-10.0591
▁ግዙፍ	-10.0599
▁ማመላለሻ	-10.0601
▁አሳዛኝ	-10.0602
▁እንደሚካሄድ	-10.0605
▁ማጥፋት	-10.0605
▁ለማየት	-10.0612
▁አከባቢዎች	-10.0623
▁አላቸው	-10.0653
▁የተፈጠረውን	-10.0659
▁ፖል	-10.0662
▁በእሳት	-10.0662
▁ተመልክቷል።	-10.0666
▁ሲሰጥ	-10.0667
▁የሚፈልጉ	-10.0668
▁ኮቪድ	-10.0672
▁ተፈራ	-10.0676
▁መግባባት	-10.0678
▁በበረከት	-10.0678
▁ሀገረ	-10.0679
▁ያስፈልጋል	-10.068
▁ፈቃደኛ	-10.0686
▁ሞሮኮ	-10.0689
▁ደጋፊ	-10.069
ምራ	-10.0694
▁ደርሰዋል።	-10.0697
የኢትዮጵያ	-10.0701
ሰን	-10.0706
▁በሚደረገው	-10.0707
▁ከአሜሪካ	-10.0707
▁የጎርፍ	-10.0708
▁ከጥቅምት	-10.0708
▁09	-10.0709
▁የክረምት	-10.0711
ጭ	-10.0716
እኔ	-10.0718
▁አባላትን	-10.0719
▁መሆኗን	-10.0722
▁የቆየ	-10.0735
▁በመደበኛ	-10.074
▁ውድድሩን	-10.0741
▁7.	-10.0751
▁እነሱ	-10.0758
▁ታውቋል	-10.0761
▁የመጨረሻው	-10.0764
▁የማህበረሰብ	-10.0764
▁ማለታቸውን	-10.0769
አንድ	-10.0774
▁ፉልሀም	-10.0779
ታህሳስ	-10.0785
▁ገፃቸው	-10.08
▁ብት	-10.0804
▁ሆሳዕና	-10.0806
▁አረጋግጧል።	-10.081
▁የልብ	-10.0816
▁ጉዳዮችን	-10.0816
▁2024	-10.0816
▁መሆኑም	-10.082
▁ተናገሩ።	-10.0825
አዲስ	-10.0825
▁በሚመለከት	-10.083
▁የፍትህ	-10.0834
▁ይሄንን	-10.084
▁ሴ	-10.084
▁ለማጠናቀቅ	-10.0843
▁እንደነበሩ	-10.0845
▁ሊጉን	-10.0849
▁አስረድተዋል፡፡	-10.0857
▁ፓትርያርክ	-10.0861
▁ሞ	-10.0867
▁በነበራቸው	-10.0871
▁.....	-10.0872
▁ወስደው	-10.088
▁ከማንችስተር	-10.0886
▁ሜ	-10.0896
▁በቀጣይም	-10.0897
▁ዋንጫው	-10.0897
▁ተገለፀ	-10.09
▁በድጋሜ	-10.0901
▁የወላይታ	-10.0902
▁የተሰማሩ	-10.0903
28	-10.0903
ናቸው	-10.0905
▁በኦንላይን	-10.0906
▁ፍሬ	-10.091
▁ተገለጸ።	-10.0912
▁ቤተሰቦቻቸው	-10.0922
▁ጥሎ	-10.0922
▁ጣቢያው	-10.0929
▁የጎንደር	-10.0939
▁እፈልጋለሁ	-10.0939
▁ነበሩ	-10.0939
▁የግብፅ	-10.0941
▁ለሁለተኛ	-10.0945
▁የባንኩ	-10.0947
▁ቀጥሎ	-10.0952
▁በተከታታይ	-10.0952
▁ከስልጣን	-10.0959
▁በንብረት	-10.0959
▁ህብረተሰብ	-10.0965
▁ዳ	-10.0972
▁ቁጥሩ	-10.0972
▁ያህሉ	-10.0972
▁የግድያ	-10.0974
▁የዘር	-10.0978
▁በስፍራው	-10.0986
▁እግዚአብሔር	-10.0995
▁ሙሴ	-10.0995
▁አብዛኞቹ	-10.0995
▁በቦታው	-10.1008
▁የዛሬው	-10.1011
▁ናት።	-10.1012
▁መሃመድ	-10.1015
▁በፍቅር	-10.1015
▁የእጅ	-10.1017
▁አር	-10.102
▁መላክ	-10.102
▁ሁሉን	-10.1023
▁ተጠርጣሪዎቹ	-10.1032
▁150	-10.1034
▁መመዝገብ	-10.1038
▁ለመደገፍ	-10.1038
▁ማጣራት	-10.1042
▁መማር	-10.1045
▁ስንት	-10.1049
▁ቁጥራቸው	-10.1052
▁በየነ	-10.1053
▁ኦሮሞ	-10.1061
▁ሲልቫ	-10.1061
▁ፖሊሶች	-10.1062
80	-10.1067
▁የወርሀ	-10.1069
▁ቀዳሚው	-10.1075
▁37	-10.108
▁ኢብራሂም	-10.1082
▁እኔም	-10.1084
▁ማዕከሉ	-10.1092
▁በጥብቅ	-10.1095
ንግ	-10.1097
▁የሚመለከተው	-10.1103
▁አመቻችቶ	-10.1104
▁ለማሻሻል	-10.1104
▁ነዋሪዎቹ	-10.1109
▁ዘር	-10.1119
▁ምደባ	-10.1122
▁እኛም	-10.1124
▁ጽኑ	-10.1125
▁አንቶኒዮ	-10.1128
▁ባሕር	-10.1128
▁እሱን	-10.113
▁ሪፖርተር	-10.1135
▁ጃዋር	-10.1136
▁በጠቅላይ	-10.1138
▁የሙያ	-10.1141
▁አፋር	-10.1145
▁እያንዳንዱ	-10.1147
ዓመታት	-10.115
▁ውሳኔው	-10.1151
▁ስኬት	-10.1152
▁የእርዳታ	-10.1154
▁38	-10.1155
▁ጎዳና	-10.1159
▁ዩኒቨርስቲዎች	-10.1159
▁ፕ	-10.1159
▁ሜዳሊያ	-10.116
▁አስቆጥሯል።	-10.1163
▁ከእኛ	-10.1169
▁ችሎታ	-10.117
ሸ	-10.1172
▁ቀለም	-10.1174
▁ኑ	-10.1174
▁ግፊት	-10.1176
▁የተሳሳተ	-10.1186
▁በከፊል	-10.1187
▁ጠላት	-10.119
▁የሚደረገውን	-10.1191
▁ማልያ	-10.1194
▁ስላለው	-10.1197
▁አመላክቷል።	-10.1198
▁በወረዳው	-10.1203
▁እንቅስቃሴዎች	-10.1205
▁የበረራ	-10.1206
▁2023	-10.1209
▁በተመጣጣኝ	-10.1213
▁መረጃውን	-10.1216
▁ኤርሊንግ	-10.122
▁ይሰጣል።	-10.1222
▁እሸቱ	-10.1223
▁አስከሬን	-10.1225
▁በአምስት	-10.1228
▁ወርቁ	-10.1232
▁ይዘን	-10.1235
▁ገልጿል	-10.1242
▁2-1	-10.1244
▁አገልግሎቶችን	-10.1249
▁የውድድሩ	-10.1255
▁ዳቦ	-10.1261
▁ሲደርሱ	-10.1264
▁በጦርነት	-10.1268
▁ወሰን	-10.127
▁የሙስና	-10.1271
ጫ	-10.1272
▁በአየር	-10.1274
▁ያላት	-10.1275
▁በከባድ	-10.1278
▁ታራሚዎች	-10.1282
▁ይጠቀሙ	-10.1289
▁ሊድስ	-10.1292
▁ማምሻውን	-10.1296
▁ከሆኑ	-10.131
▁ተከሳሹ	-10.1314
▁ኮማንድ	-10.1316
90	-10.1323
▁ያጋጠመው	-10.1325
▁አቡበከር	-10.1333
▁በነበረ	-10.1336
▁የጀመረው	-10.1343
▁ክብረ	-10.1344
▁ሙዚቃ	-10.1347
▁ለይቶ	-10.135
▁ባላቸው	-10.1366
▁የቀረበው	-10.1369
ሚካኤል	-10.137
▁ፖርቹጋላዊው	-10.1379
▁ከትላንት	-10.1384
▁እየሆነ	-10.1384
▁በትዊተር	-10.139
▁የወጣ	-10.1394
▁ቪ	-10.1395
▁ተነስቶ	-10.1396
ዕ	-10.1402
▁አንቀጽ	-10.1407
▁ከተማው	-10.1412
▁አለሙ	-10.1414
▁ዋልያዎቹ	-10.1414
ረጅም	-10.1417
ጨ	-10.1417
▁ማድረጋቸው	-10.1418
▁ስኬታማ	-10.1421
▁ታሳቢ	-10.1426
ስርዓት	-10.1432
▁ሰለባ	-10.1434
▁ሆስፒታሉ	-10.1435
▁ኤልያስ	-10.1437
▁እስልምና	-10.1441
▁ደርሶ	-10.1449
▁እየሰጠ	-10.1451
▁በርንማውዝ	-10.1451
ጽ	-10.1454
መሀል	-10.1466
▁ከጥር	-10.1472
ኢዜአ	-10.1472
▁ኪሳራ	-10.1474
▁ኤጀንሲው	-10.1482
▁ሳውዲ	-10.1492
▁ማሳካት	-10.1494
▁ነክ	-10.1495
▁ክፍተት	-10.1501
ተር	-10.1514
▁ሆነዋል።	-10.1515
▁የቀብር	-10.1515
▁ሞሀመድ	-10.1522
▁የብድር	-10.1525
▁2022	-10.1531
▁ሳል	-10.1533
▁አስተላልፈዋል።	-10.154
▁ጊዜው	-10.1547
▁ስፔናዊው	-10.1551
ቾ	-10.1559
▁አስቆጥሯል	-10.1561
▁የአስተዳደር	-10.1567
▁ግምገማ	-10.1567
▁ይጠበቃል፡፡	-10.1567
▁የቅርብ	-10.1568
▁የጣልያን	-10.1571
▁የኮንትሮባንድ	-10.158
▁ያሉት።	-10.1581
▁ህንጻ	-10.1583
▁ደርቢ	-10.1586
▁አቅራቢ	-10.1586
▁ስርቆት	-10.1587
▁ፊትለፊት	-10.1588
▁በመላክ	-10.1594
▁ቤንዜማ	-10.1595
▁የሆነችው	-10.1599
▁ትራፊክ	-10.1602
▁ብቁ	-10.1603
▁ባህላዊ	-10.1605
▁ስትሆን	-10.1608
▁ሀላፊዎች	-10.1608
▁የወጣው	-10.1612
▁ያውቃሉ	-10.1613
▁የሶማሌ	-10.1617
▁ለሰላም	-10.1617
▁ካፒታል	-10.1618
▁የሚችለው	-10.1619
▁ኔይማር	-10.1623
▁ከክለቡ	-10.1635
ኛል	-10.1636
▁አስተያየታቸውን	-10.1639
▁እርግጠኛ	-10.1651
▁መርምሮ	-10.1661
▁መጥፎ	-10.1665
▁ያገኘው	-10.1673
ሰዓት	-10.1673
▁በሚባል	-10.1675
▁ሃ	-10.168
▁ኢንተርኔት	-10.1694
▁በአል	-10.1694
▁ማስተካከያ	-10.1697
▁የባሕር	-10.1706
▁በበጀት	-10.1712
▁እጣ	-10.1714
▁አዘጋጅ	-10.1718
ጀ	-10.1721
▁ጥቃቱን	-10.1721
▁ምርቶችን	-10.1721
ፉ	-10.1724
▁የቱርክ	-10.1724
▁በጸጥታ	-10.1727
▁አባላቱ	-10.1727
▁ሆን	-10.1729
▁አብዛኛው	-10.1735
▁የተገኙት	-10.1738
▁አብርሃም	-10.1739
▁እርምጃዎች	-10.1741
▁ደረሰ	-10.1745
ቻችን	-10.1746
▁ውለው	-10.1747
▁አፈፃፀም	-10.1747
▁በወንጀል	-10.1757
▁ቀጥተኛ	-10.1757
▁በውይይቱ	-10.1759
▁በምርጫ	-10.176
▁ለጋዜጠኞች	-10.176
▁በትግስት	-10.1763
2700	-10.1773
▁ሲቲው	-10.1776
▁እውነተኛ	-10.1779
▁በብዙ	-10.178
▁አሸናፊዎች	-10.1781
▁በጥቃቱ	-10.1787
▁ደጀኔ	-10.1787
▁አደረጃጀት	-10.1799
▁ከሚገኘው	-10.1799
▁በቃ	-10.1799
ካሬ	-10.1801
▁ለማውጣት	-10.1802
45	-10.1804
▁መክፈል	-10.1804
▁መደብ	-10.1807
▁ሰር	-10.1808
አሁን	-10.181
▁አለበት።	-10.1811
ኅዳር	-10.1814
▁ከአማራ	-10.1814
▁ሳውዝሀምፕተን	-10.1816
▁የወዳጅነት	-10.1818
▁ሞባይል	-10.1819
ኑን	-10.1824
▁ቪንሰስ	-10.1825
▁ገጹ	-10.1834
▁ያካተተ	-10.1848
55	-10.1849
▁በዘርፉ	-10.1853
▁48	-10.1856
▁መቆየቱን	-10.1857
▁እንደሚቻል	-10.1859
▁የገለፀው	-10.1859
▁አርጀንቲናዊው	-10.186
▁ምክንያቱ	-10.186
▁የግብ	-10.1867
▁በክልል	-10.1877
▁11:00	-10.1882
▁ተቋማትን	-10.1882
አይ	-10.1883
ቅጣት	-10.1884
▁ዙርያ	-10.1887
▁ሴጣኖቹ	-10.1887
▁ያሰለጠናቸው	-10.1887
▁መታሰቢያ	-10.1888
▁በማዕከላዊ	-10.1892
▁ኢነርጂ	-10.1893
▁አስመርቋል።	-10.1902
▁የአርሰናል	-10.1905
▁አጠገብ	-10.1912
▁አካውንት	-10.1922
▁ገርጂ	-10.1923
▁በነበሩ	-10.1925
▁ሊደረግ	-10.193
▁እጦት	-10.193
▁አሳ	-10.1933
▁እንዳል	-10.1937
▁ፋይናንስ	-10.1939
ቸ	-10.1942
ላይ	-10.1944
▁ግዛቶች	-10.1947
ዬን	-10.1951
▁ምርጡ	-10.1952
ሚር	-10.1952
▁የበጀት	-10.1954
▁አያሌው	-10.1962
▁ተጠናቋል	-10.1968
▁መሞታቸውን	-10.1977
▁ከትናንት	-10.1978
▁ከአካባቢው	-10.1982
▁የሚካሄድ	-10.1985
▁መጠየቅ	-10.1987
▁አልጋ	-10.1988
▁አንቾሎቲ	-10.1989
▁ውሳኔውን	-10.199
▁በዓሉን	-10.1991
ዚ	-10.1992
▁የቴሌቪዥን	-10.1993
▁በእርስ	-10.1995
▁ፅሁፍ	-10.1997
▁ማሳያ	-10.1999
▁ቤቲካ	-10.2003
▁የሀገሪቱን	-10.2003
▁የተለያየ	-10.2009
▁ተደርጓል፡፡	-10.201
ነገር	-10.2011
▁ክብደት	-10.2015
▁ማነስ	-10.2016
▁ሰጥቷል	-10.2016
▁የጥላቻ	-10.2021
▁ሀይሉ	-10.2023
▁አሳውቋል፡፡	-10.2024
▁ያላችሁ	-10.2027
▁ዕርዳታ	-10.2028
▁የሳውዲ	-10.2035
▁ሽማግሌዎች	-10.2041
▁እውን	-10.2047
▁ደካማ	-10.2048
▁ማሰብ	-10.2053
▁በተቋሙ	-10.2055
▁ምሽቱ	-10.2062
▁የውሳኔ	-10.2062
▁ጀማል	-10.2065
▁ከሰኔ	-10.2071
▁ያን	-10.2075
▁ፈ	-10.2077
▁አቅርበዋል፡፡	-10.2078
▁ከአምስት	-10.208
▁የሽግግር	-10.2084
▁በአፋጣኝ	-10.2084
▁ቲቪ	-10.2085
ቻቸው	-10.2086
▁በዝርዝር	-10.209
▁የሚያስገኘው	-10.2092
51	-10.2104
▁የንብረት	-10.2104
▁መቀጠል	-10.2104
▁ለማስገባት	-10.2104
▁ዕድገት	-10.2108
▁አፋጣኝ	-10.2119
▁የመጀመሪያውን	-10.212
▁ፍልስፍና	-10.2125
▁የቀረቡ	-10.2126
27	-10.2127
▁አውሮፕላኖች	-10.2128
▁የመጣው	-10.2133
ሳምንታት	-10.2135
▁ሰን	-10.2136
▁ሙ	-10.2136
▁ቅ	-10.2143
▁እንደሚያስፈልግ	-10.2148
▁በመደወል	-10.2149
▁መውጫ	-10.2151
▁ለመሳተፍ	-10.2152
▁በኤርትራ	-10.2155
▁መጀመሩ	-10.2157
▁በረከት	-10.2161
▁መምጣቱን	-10.2168
▁መሀል	-10.2175
▁መስፈርት	-10.2175
▁ነዉ፡፡	-10.2177
▁መላኩ	-10.2179
▁የመግባቢያ	-10.218
▁10:00	-10.2189
▁ተሸላሚ	-10.2194
▁በእነዚህ	-10.2198
▁ሲሰራ	-10.2205
▁የተውጣጡ	-10.2206
▁በሳ	-10.2207
▁በመቀጠል	-10.2209
▁በፅኑ	-10.2211
▁የሳ	-10.2211
▁ማስ	-10.2214
▁የሁሉም	-10.2215
▁ማውጣት	-10.2216
▁8.	-10.223
▁ሀላፊነት	-10.2231
▁ዐብይ	-10.2232
▁የቤተሰብ	-10.2235
ኮቪድ	-10.2236
▁ስፍራዎች	-10.2236
▁አይችልም	-10.2236
▁44	-10.2238
▁ሉዊስ	-10.2239
▁ሂደቱን	-10.2242
▁ኒውካስትል	-10.2243
▁አዲሱን	-10.2244
▁ማህበረሰቡ	-10.2244
▁ለሶስት	-10.2249
300	-10.2253
▁ክርክር	-10.2257
▁የቆዩ	-10.2264
▁ከሐምሌ	-10.2265
▁የወባ	-10.2266
▁የአምስት	-10.2271
▁ባለስልጣኑ	-10.2272
▁ያቀረቡት	-10.228
▁ተፈናቅለው	-10.2282
▁ሚኒስትሯ	-10.2283
▁ዓመታዊ	-10.2288
▁ማጋራት	-10.2288
▁አላችሁ	-10.229
▁ለትምህርት	-10.2291
▁አክሲዮን	-10.2296
▁በጀርመን	-10.23
▁ድረገጽ	-10.2301
▁አስደናቂ	-10.2304
▁አድን	-10.2309
▁ሰራሽ	-10.2309
▁ተከስቶ	-10.231
ፊ	-10.2315
▁በተባለው	-10.232
▁ቀጠና	-10.2322
▁ስነስርዓት	-10.2324
▁ገዳም	-10.2324
▁ለማቋቋም	-10.2326
▁ቪዛ	-10.2327
▁አደር	-10.2329
▁መድረስ	-10.2329
▁ለሆኑ	-10.2337
▁ተብሏል	-10.2337
▁39	-10.2339
▁እየታየ	-10.2339
▁መባሉን	-10.2339
▁በመቃወም	-10.2344
▁የተባሉት	-10.2346
▁በየጊዜው	-10.2347
▁ድቻ	-10.236
▁ሁኔታውን	-10.2365
▁ጄነራል	-10.2369
▁ይቻላል።	-10.237
▁አስተዋፅኦ	-10.237
▁አካዳሚ	-10.2373
▁ግልጋሎት	-10.2373
▁ላለ	-10.2374
▁አደረገ	-10.2375
▁ተከላ	-10.2381
▁ፓስፖርት	-10.2384
▁ታውቋል፡፡	-10.2388
▁እንዲሁ	-10.2391
▁ባህሪ	-10.2404
500	-10.2404
▁የታጠቁ	-10.2408
▁እራሱን	-10.241
▁በሶማሌ	-10.241
▁ቁሳቁሶች	-10.2412
▁ኪራይ	-10.2419
▁ብለህ	-10.2424
▁በመድረኩ	-10.243
▁ቆይቶ	-10.2431
▁እንዲኖር	-10.2431
▁ተጽዕኖ	-10.2432
▁ግብጽ	-10.2433
▁ተለዋጭ	-10.2434
▁በዘንድሮ	-10.2435
▁ከመሆኑ	-10.2436
▁ግጭቱ	-10.2439
▁በርንሌይ	-10.2443
▁ፋና	-10.2445
▁አርሲ	-10.2445
▁የምታ	-10.2449
▁ሲሳይ	-10.2449
▁ነህ	-10.2449
▁ሞተር	-10.2455
▁ጅቡቲ	-10.2461
▁እየመሩ	-10.2463
▁ከኦሮሚያ	-10.2463
▁ለምሳሌ	-10.2467
▁ምርጫው	-10.2471
▁ለማለት	-10.2472
▁አስከፊ	-10.2474
▁ብራዚል	-10.2476
▁ለማስቆም	-10.2476
▁ሳፋሪኮም	-10.2483
ዘጠኝ	-10.2484
▁ምሁራን	-10.2489
▁ሲጓዝ	-10.2492
▁ጣልያን	-10.2499
▁ወንድም	-10.2499
▁እንግዲያውስ	-10.25
ውሎስ	-10.2508
▁በራሳቸው	-10.2515
▁ቱሉ	-10.2517
▁ወዳጅ	-10.2521
▁እንዲገባ	-10.2524
▁በደስታ	-10.2528
▁ዋቢ	-10.2532
▁አርጀንቲና	-10.2539
▁የሚባለው	-10.254
ስድስት	-10.2542
▁65	-10.2543
▁ጋሪ	-10.2546
▁ለማስጀመር	-10.2552
▁ስፔሻላይዝድ	-10.2559
▁የተመረጡ	-10.2561
▁ክፉኛ	-10.2561
▁እንደሚፈልጉ	-10.2562
▁ሶስቱ	-10.2566
▁ውርርድ	-10.2574
ለተለያዩ	-10.2575
ፅ	-10.2577
▁የዛሬውን	-10.2578
▁ኦነግ	-10.2578
▁ዩናይትድን	-10.2578
▁ወጣቱ	-10.2578
▁የሚመራ	-10.2582
▁አካሄድ	-10.2583
▁600	-10.2587
▁ይዘት	-10.2594
▁አስታዉቋል፡፡	-10.2595
▁ጠቅሰው	-10.2597
▁መያዙ	-10.2601
▁ግለሰቦችን	-10.2603
ተከታታይ	-10.2604
▁እንደተ	-10.2607
▁የተሰራ	-10.2609
▁ግብሩ	-10.2611
▁ለመያዝ	-10.2613
ሚያደርገው	-10.262
▁ምናልባት	-10.2624
በዋለው	-10.2636
▁የሚንቀሳቀሱ	-10.2639
▁የአለማችን	-10.2641
▁ውጤቱን	-10.2646
▁ጋብሬል	-10.2648
▁የተመድ	-10.265
▁አገራቸው	-10.2656
መንግስት	-10.2659
▁መንገዶችን	-10.2663
▁አገሮች	-10.2675
ጌ	-10.2677
▁የፀረ	-10.2679
▁ውብ	-10.2685
▁ሜክሲኮ	-10.2687
▁ይጀምራል	-10.2691
▁አሸን	-10.2698
▁ርእሰ	-10.2699
▁በመኖሪያ	-10.2701
▁የተቃውሞ	-10.2703
▁የኦነግ	-10.2704
▁ጠቃሚ	-10.2716
▁የተገኘባቸው	-10.2716
▁ተሾመ	-10.2717
▁አገራዊ	-10.2717
▁የገባው	-10.2718
▁ወጣ	-10.2728
▁ኖሮ	-10.2736
▁በሚቀጥሉት	-10.2736
▁የሞቱ	-10.2741
▁ዳኞች	-10.2743
ቀጣዮቹ	-10.2744
▁አሸባሪው	-10.2746
▁ለማካሄድ	-10.2754
▁ላለው	-10.2757
▁በተለየ	-10.2759
▁ተጠቁሟል፡፡	-10.276
▁ሮይተርስ	-10.2765
▁ድርጊቶች	-10.2766
▁41	-10.2767
▁ወደብ	-10.2773
▁መስጠቱን	-10.2776
▁በትኩረት	-10.2776
▁ለማጥፋት	-10.2786
▁ደርሷል፡፡	-10.2787
▁በህንድ	-10.279
▁በማንሳት	-10.2804
▁እየተሰጠ	-10.2806
▁ለከፍተኛ	-10.2813
▁የደብረ	-10.2817
ስንፈተ	-10.2819
▁አማኑኤል	-10.282
▁በምርመራ	-10.2821
ሚሊዮን	-10.2822
▁ስቃይ	-10.2824
▁ታደለ	-10.2829
▁ባደረጋቸው	-10.2831
▁ፍንዳታ	-10.2832
▁ለመውጣት	-10.2834
▁ቴን	-10.2835
▁ውጤቱ	-10.2841
▁የደረሱ	-10.2848
▁ዲዛይን	-10.2849
▁እየሰጡ	-10.2849
▁የተዘጋጀው	-10.2853
▁ማር	-10.286
▁የቼልሲ	-10.2862
▁ዳርቻ	-10.2867
▁ለስራ	-10.2868
▁መሥሪያ	-10.2873
▁መቀሌ	-10.2874
▁ያላትን	-10.2877
ሪሚዲያል	-10.2878
▁ከዚያም	-10.2879
▁ባለቤቶች	-10.2883
▁የሚታወቀው	-10.2884
▁የላቀ	-10.2885
▁እያካሄደ	-10.2894
▁ስድስተኛ	-10.2895
▁ቅድስት	-10.2897
▁ኩባንያው	-10.2899
▁በፌዴራል	-10.2902
▁ሆስፒታሎች	-10.2905
▁አራዳ	-10.2906
▁እየደረሰ	-10.2906
▁የስልጣን	-10.2908
▁ስታ	-10.2911
ኖች	-10.2911
▁ሮበርት	-10.2915
▁በዕለቱ	-10.2915
▁ኮርያ	-10.2917
▁ፀረ	-10.2924
እንኳን	-10.2926
▁ወቅዱስ	-10.2932
ኬ	-10.2934
▁ይሁኑ	-10.2944
ሰላም	-10.2946
▁ሀግ	-10.2948
▁ለሚሆኑ	-10.2949
▁አምበል	-10.2949
▁ጊኒ	-10.2954
▁800	-10.2958
▁ቢራ	-10.2963
▁ብሩኖ	-10.297
▁የፍልስጤም	-10.2973
▁ሻምፒዮና	-10.2973
▁መጥተው	-10.2975
▁ማግኘቱን	-10.2976
▁በሚካሄደው	-10.2989
▁ፍቃደኛ	-10.299
▁ያክል	-10.299
▁በግልፅ	-10.2994
▁ማኅበራዊ	-10.2997
▁ሃላፊዎች	-10.3002
▁......	-10.3005
▁01	-10.3006
▁ለማሳካት	-10.3007
ጄ	-10.3007
▁ፕሬዘዳንት	-10.3019
▁ኢንሳይደር	-10.3021
▁እንደሌለው	-10.3027
▁የልዩ	-10.3029
▁ቤ	-10.3032
▁ቅሬታቸውን	-10.3036
▁ተይ	-10.3038
▁ጃፓን	-10.3048
▁ቀጥሏል	-10.3053
▁በስቲያ	-10.3053
▁ማስረጃዎች	-10.3059
▁የሚገናኙ	-10.3063
▁የተወሰደ	-10.3076
▁ማርቲኔዝ	-10.3081
▁ሳን	-10.3081
ጋንዳ	-10.3084
▁በነበረበት	-10.3085
▁በማድረስ	-10.3086
▁መቻል	-10.3089
▁ሃላፊነት	-10.309
▁ብሮድካስቲንግ	-10.3091
▁ሃይማኖት	-10.3094
▁መከታተል	-10.3112
▁ለበርካታ	-10.3119
ዙ	-10.312
▁ሲገባ	-10.312
ፒ	-10.3128
▁መጠነኛ	-10.3128
▁በተካሄደ	-10.3134
▁የሚያስችሉ	-10.3135
▁ዘግበዋል።	-10.3135
▁0910	-10.314
▁ተበዳይ	-10.3142
▁አሌክሳንደር	-10.3143
▁ባስ	-10.3146
ሮች	-10.3146
▁ከጊዜ	-10.3152
▁በጊዜያዊነት	-10.3157
▁ውሀ	-10.3158
▁ገጻቸው	-10.316
▁ዋለ	-10.3163
▁የበላይ	-10.3163
▁በማዘጋጀት	-10.3166
▁ትችላላችሁ።	-10.3185
▁ስፋት	-10.3187
▁ወንጀሉን	-10.3188
▁ብሔረሰብ	-10.3189
▁መቀነስ	-10.319
ህዳር	-10.3193
▁ደማቅ	-10.3196
▁ገለፃ	-10.3199
▁ያመላክታል።	-10.3202
▁በመቀበል	-10.3202
▁ጥያቄዎችን	-10.3207
▁ስርዓተ	-10.3208
▁በመጫን	-10.3216
▁ፎረስት	-10.3216
በዚህ	-10.3216
▁ለማምጣት	-10.3216
▁የዓይን	-10.3218
ኩት	-10.3224
▁በታጣቂዎች	-10.3227
▁ያሬድ	-10.323
▁መቀመጫ	-10.3233
▁አብረን	-10.3233
ሹ	-10.3235
▁ሰርቪስ	-10.3237
▁42	-10.3238
▁እድሜያቸው	-10.3239
▁ለመጠቀም	-10.3239
▁ይገኛሉ፡፡	-10.3248
▁ለማክበር	-10.3251
▁ከምን	-10.3253
▁ካርሎ	-10.3256
▁ስፖርታዊ	-10.3257
▁የመድፈኞቹ	-10.3259
▁የጥበብ	-10.3263
▁55	-10.3263
▁ባለመሆኑ	-10.3265
▁ሞሪንሆ	-10.3268
▁የህዳሴ	-10.3275
▁የአሜሪካው	-10.3277
▁ሠላም	-10.3281
▁እንድን	-10.3281
▁የውይይት	-10.3285
▁የዋስትና	-10.3286
▁በጥር	-10.3288
▁የባርሴሎና	-10.3293
በረ	-10.3294
▁እኔን	-10.3295
▁አርባምንጭ	-10.3296
▁ይላል።	-10.3296
ለይቶ	-10.3297
▁ብይን	-10.3298
▁በመሰብሰብ	-10.3298
▁በአብዛኛው	-10.33
▁በአስራ	-10.3311
ቲክቫህ	-10.3312
▁ቦ	-10.3314
▁የደረሰውን	-10.3315
ኙ	-10.3322
▁እጥፍ	-10.3325
▁በወላይታ	-10.3328
▁ብረት	-10.3333
▁ሲናገሩ	-10.3333
▁አስፈላጊው	-10.3334
▁ደረጃቸው	-10.3337
▁የራሱን	-10.3338
▁ኢሰመኮ	-10.3342
▁መገኘት	-10.3347
▁ያወጣው	-10.3347
▁የናይጄሪያ	-10.3347
▁የራሱ	-10.335
ዲን	-10.335
▁9.	-10.336
▁እንደዘገበው	-10.3364
▁ሊጎች	-10.3364
▁አካባቢውን	-10.3365
▁ወስኗል።	-10.3367
▁ተማሪዎቹን	-10.3368
ችንን	-10.3371
▁ሐሳብ	-10.3372
▁ለማንኛውም	-10.3374
▁ቀጥ	-10.338
▁በሥራ	-10.3382
▁85	-10.3388
▁ላቀው	-10.339
▁ካቢኔ	-10.3394
▁የተደረገላቸው	-10.3394
▁ለማከናወን	-10.3397
▁ሰሌዳ	-10.3398
ላድሚ	-10.3413
▁የሚታየው	-10.3422
ሻል	-10.343
▁ተጠናቆ	-10.343
▁--	-10.3433
▁ዋንጫን	-10.3435
▁ሥልጠና	-10.3435
▁ህጻን	-10.3436
▁ለሁሉ	-10.3436
▁ከሳ	-10.3437
▁47	-10.344
▁ዕውቅና	-10.3443
▁ተደረገ	-10.3447
▁አዛ	-10.3449
▁ታማሚ	-10.3449
▁ማዳበሪያ	-10.345
▁ተሰምቷል፡፡	-10.3451
ሕ	-10.3452
▁ነጭ	-10.3457
▁ከፌደራል	-10.3458
▁ባለሀብቶች	-10.3464
▁የመልስ	-10.3465
▁የተባለውን	-10.3465
▁በእግር	-10.3469
▁የመራ	-10.3475
▁ፉክክር	-10.3476
▁አስክሬን	-10.3477
እንደ	-10.3478
▁ፍጹም	-10.3485
▁ታስቦ	-10.3485
▁አጠቃቀም	-10.3489
▁ይደረጋል።	-10.3489
▁ዓይን	-10.3492
▁በሳምንቱ	-10.3495
▁ለመግታት	-10.3497
▁ኋላ	-10.3499
▁በባህር	-10.3501
▁የተሳተፉ	-10.3503
▁ታውን	-10.3503
▁ቅስቀሳ	-10.3507
ማርከስ	-10.3511
▁ለመሸጥ	-10.3515
▁ለመድረስ	-10.3515
▁የመከላከል	-10.3517
▁ተቋማቱ	-10.3522
▁በብሔራዊ	-10.3523
▁ማእከል	-10.3523
▁አያይዘውም	-10.3532
▁በመፍጠር	-10.3533
▁እንቅፋት	-10.3534
▁አደንዛዥ	-10.3536
▁በሚሊዮን	-10.3536
ታቸውን	-10.3538
▁በመውጣት	-10.3539
▁የተገለጸ	-10.3541
▁ገብርኤል	-10.3543
▁እንደሚያ	-10.3545
አቶ	-10.3548
▁ዕድሜ	-10.3549
▁አድርገዋል፡፡	-10.3552
▁የገቢዎች	-10.3552
▁ለመንግስት	-10.3553
▁መዝገቡን	-10.3554
▁ያነሱት	-10.3559
▁አስገራሚ	-10.356
▁ግብርና	-10.3564
▁ይታወቃል	-10.3567
▁ከመቶ	-10.3571
▁ሴኔጋል	-10.3572
▁ሳት	-10.3574
▁ጥምረት	-10.3587
▁ኤርፖርት	-10.3589
▁እንግልት	-10.3594
▁ለሌላ	-10.3598
▁ግንባታው	-10.3599
▁የአራት	-10.3601
▁ይመልከቱ	-10.3602
▁ሲናገር	-10.3603
▁ዲና	-10.3604
▁ይዛ	-10.3605
▁ተችሏል	-10.3619
▁አክለው	-10.362
▁ተከታዩ	-10.3626
▁አሰቃቂ	-10.3628
▁አስታዉቋል።	-10.3635
▁ቃሊቲ	-10.3642
▁ጎረቤት	-10.3643
▁ሴርያ	-10.3646
▁የካታላኑ	-10.3646
▁በማውጣት	-10.3652
▁ያለፈው	-10.3652
▁ይፈልጋል	-10.3653
▁በቅርበት	-10.3654
ኤም	-10.3655
▁ታማኝ	-10.3656
▁የእድሜ	-10.3658
▁በመላ	-10.3658
▁ለህግ	-10.3659
▁ገለጸ።	-10.3663
▁ስርአት	-10.3665
▁ሰላምን	-10.3669
ኳስ	-10.3669
የተ	-10.3674
▁ኪንግደም	-10.3675
ዎቹን	-10.3676
▁ኃይሌ	-10.3676
▁ግለሰቦቹ	-10.3678
▁በዓመት	-10.368
▁ቁጭ	-10.3682
▁ብላንኮዎቹ	-10.3683
▁የቀረበለት	-10.3684
▁ተቀብለው	-10.3684
▁ኮሙዩኒኬሽን	-10.3687
▁ሥራዎችን	-10.3692
▁እህል	-10.3697
▁መንጋ	-10.3699
▁የተፈጸመው	-10.37
▁የቤተ	-10.3701
▁በሰዎች	-10.371
▁ለጤና	-10.372
ጦ	-10.372
▁ተያያዥ	-10.3723
▁በኋላም	-10.3724
▁ሲቪያ	-10.3729
▁እሷ	-10.3729
▁ከሰሞኑን	-10.373
▁በቤት	-10.3733
▁እንዲሰሩ	-10.3736
ደር	-10.3744
ጡ	-10.3754
▁የግራ	-10.3756
▁ምህረት	-10.3757
▁ላልተወሰነ	-10.3757
26	-10.3758
▁መተሳሰብ	-10.3759
▁ፕሮጀክቱ	-10.3759
▁መግባታቸውን	-10.3762
▁በመጥቀስ	-10.3766
▁ለማስጠበቅ	-10.3769
▁በስድስት	-10.377
▁ያልተ	-10.3776
▁ትኬት	-10.3778
▁ለጎን	-10.3783
▁64	-10.3786
▁በማስመልከት	-10.3788
▁ስምምነቱን	-10.3788
▁ሀሙስ	-10.3789
▁ይወራረዱ	-10.3793
▁የተጎዱ	-10.3795
▁ፍራንክ	-10.3797
▁በግልጽ	-10.3798
▁አታ	-10.3802
▁ዋሉ	-10.3803
▁የበላይነት	-10.3806
▁አለቃ	-10.3808
▁እሴት	-10.382
▁እንሰራለን	-10.3825
▁ቀጥሏል።	-10.3825
▁ሊቃነ	-10.3827
▁ለተማሪዎች	-10.3828
▁ተጠቂዎች	-10.3834
▁ይጫኑ	-10.3835
▁ፍቃዱ	-10.3837
▁በመዲናዋ	-10.3838
▁ቡንደስሊጋ	-10.3838
▁ማምረቻ	-10.3839
▁እስክንድር	-10.384
▁ሊሰጥ	-10.3841
▁ቼክ	-10.3847
▁የኢራን	-10.3848
▁አክሱም	-10.3849
▁የአደጋው	-10.3854
▁ማስተባበሪያ	-10.3856
▁ለሕዝብ	-10.3859
▁ምንድን	-10.3863
▁የጅማ	-10.3869
▁ምርመራውን	-10.3869
▁ሲጠናቀቅ	-10.3877
▁ይቀላቀሉ፡	-10.3877
▁ኩ	-10.3886
▁ቀድመው	-10.3889
▁እስረኞች	-10.3889
▁ማስቀመጥ	-10.3891
ሳምራዊት	-10.3892
▁ለመከታተል	-10.3892
▁ሥራው	-10.3894
▁ጃክ	-10.3897
▁ማስታወሻ	-10.3897
▁ለእኔ	-10.3906
▁ጆን	-10.391
▁አብራርተዋል።	-10.391
▁ብቸኛው	-10.391
▁የመክፈቻ	-10.3911
▁መፍታት	-10.3914
▁የክልሉን	-10.3914
▁ከአ	-10.3917
▁የቱሪዝም	-10.3921
▁0-2	-10.3923
▁የተለመደ	-10.3923
▁ሥላሴ	-10.3925
▁ባለመቻሉ	-10.3926
▁ለግብ	-10.3926
▁ላፍቶ	-10.3926
▁ህጎች	-10.3942
▁ለመመልከት	-10.3943
▁ዕቃዎች	-10.3948
▁በመኪና	-10.3956
▁ቲ	-10.3959
▁ህዝበ	-10.3965
▁52	-10.3967
▁ከሱዳን	-10.397
▁መሪነት	-10.3973
▁አዋሽ	-10.3974
▁ማዋሉን	-10.3975
▁ለዓለም	-10.398
▁በአማካይ	-10.3981
▁እንዳት	-10.3986
▁ጆዜ	-10.3988
▁በቀል	-10.3997
▁ተረጋግጧል	-10.4001
▁ያላ	-10.4007
▁በታሪክ	-10.4008
▁ንጉስ	-10.401
▁ያደርጋል።	-10.4012
▁ታክሲ	-10.4012
▁ህንድ	-10.4013
▁ሕዝቦች	-10.4022
▁የአውሮፕላን	-10.4025
▁ዝርፊያ	-10.4027
▁በሁለተኛው	-10.4027
▁ተወዳዳሪ	-10.4029
ተሰጠው	-10.4031
▁በመጓዝ	-10.4032
▁የተመለከተው	-10.4034
▁የተፈፀመው	-10.4035
ክስ	-10.4036
▁1:00	-10.4045
▁እንዲመለስ	-10.4045
▁አለመኖሩን	-10.405
▁ጥሰቶች	-10.405
ልህ	-10.4058
▁ለሊት	-10.4058
▁ማክ	-10.4063
ስቱ	-10.4065
▁አሽከርካሪ	-10.4065
▁ብላለች።	-10.4065
▁ምግባር	-10.4066
▁ብልጫ	-10.4067
▁መቀየር	-10.4069
▁በመከላከያ	-10.407
▁ከፍታ	-10.4071
▁መሳሪያዎችን	-10.4071
▁ያስቆጠረው	-10.4073
▁በውይይት	-10.4073
ማርያም	-10.4078
▁ነጥቦችን	-10.4079
▁535	-10.408
▁ተቀይሮ	-10.4085
▁ተጠርጥረው	-10.4086
▁የለኝም	-10.4087
▁መናገር	-10.4088
▁ማኔጅመንት	-10.4092
▁በይፋዊ	-10.4094
▁መከሰቱን	-10.4095
▁ብልፅግና	-10.4097
▁የአቶ	-10.4099
▁በሳምንት	-10.41
▁ትችላላችሁ	-10.4105
▁ሰባተኛ	-10.4113
▁በእኛ	-10.4114
▁አንዴ	-10.4114
▁ልጁ	-10.4123
▁በሊትር	-10.4125
▁ወዲያውኑ	-10.4126
▁የቦርድ	-10.4127
▁ሲልም	-10.4129
▁በጅማ	-10.413
ላከው	-10.4132
▁በተፈጥሮ	-10.4132
▁ማሽን	-10.4134
▁ትእዛዝ	-10.4138
▁ሊያደርግ	-10.4139
ነቱን	-10.4139
▁ሥልጣን	-10.4143
▁ሪፖርቱ	-10.4143
▁ህይወቷ	-10.4143
▁አስተሳሰብ	-10.4148
▁ቁመት	-10.4148
▁አያ	-10.4148
▁ዲያጎ	-10.4148
▁ይግባኝ	-10.4156
ሰዓታት	-10.4156
▁የተማሪ	-10.4173
ነታቸው	-10.4174
▁ውይይቱ	-10.4174
▁ተጠቅሷል።	-10.4175
▁እንዲቆይ	-10.4175
▁ከተያዘ	-10.4176
▁ተናግራለች።	-10.4177
▁በጎርፍ	-10.4178
▁ናይጄሪያ	-10.4179
▁ይካሄዳል	-10.418
▁የጣሊያን	-10.4182
▁ኦፕሬሽን	-10.4183
▁የያዘው	-10.4183
▁ብልጽግና	-10.4187
▁በሕገ	-10.4191
▁ችሎቱ	-10.4191
▁አረጋ	-10.4195
▁አንስተዋል፡፡	-10.4196
▁ይዞታ	-10.42
▁መካሄዱን	-10.4204
29	-10.4207
▁ከፍተኛው	-10.4211
▁የወሲብ	-10.4212
▁መድፈር	-10.4218
▁በዓልን	-10.4223
▁የመብት	-10.4224
▁እዛ	-10.4229
▁መንገደኞች	-10.4233
▁ከወራት	-10.4245
▁መንግሥቱ	-10.4246
▁ስኳር	-10.4249
▁ሁኔታው	-10.4249
▁ሳጅን	-10.4258
▁ተጀመረ	-10.4259
▁መሠረተ	-10.4259
▁ማስተላለፊያ	-10.4262
??	-10.4262
▁ወጥተው	-10.4267
▁በኃይል	-10.4273
▁ለተሻለ	-10.4279
ከዚህ	-10.4281
▁ለመጨመር	-10.4283
▁የል	-10.4284
▁ያለበትን	-10.4286
▁ሆራ	-10.4286
▁የአይን	-10.4292
▁ጋዛ	-10.4295
ዜ	-10.4297
▁የአእምሮ	-10.4301
ማን	-10.4306
▁ክልከላ	-10.4307
▁ብሄር	-10.4307
▁ኦሞ	-10.4315
▁ከኮሮና	-10.4318
▁የሚያደርጉትን	-10.4318
▁ፌዴራል	-10.4327
▁የለበትም	-10.4328
▁ለንደን	-10.4333
▁ዩ	-10.4334
▁በርስ	-10.4337
▁ግድ	-10.434
▁የምትፈልጉ	-10.4344
▁የሩስያ	-10.4347
▁ማቀበል	-10.4349
▁1-2	-10.4358
▁እክል	-10.4358
▁ዕዝ	-10.436
▁43	-10.436
▁አጠናቀዋል።	-10.4362
▁እንግዳ	-10.4365
▁ሆኗል፡፡	-10.4366
ደንብ	-10.437
▁በዛ	-10.4374
የር	-10.4376
▁ምክኒያት	-10.4377
▁ቤቶቹ	-10.438
▁ካርታ	-10.4389
▁የተያዘው	-10.439
▁ያተኮረ	-10.4391
▁አምላክ	-10.4392
▁ሕብረት	-10.4393
▁የቤተሰባችን	-10.4397
▁ገንዘቡን	-10.4402
ቄ	-10.4402
▁በድንገት	-10.4404
▁ተላል	-10.4404
▁የሌሎች	-10.4407
▁የኩላሊት	-10.441
▁በጉጉት	-10.441
▁አካላዊ	-10.4412
▁ታቦር	-10.4416
▁አያያዝ	-10.4416
▁ህልፈት	-10.4419
▁የቴሌኮም	-10.442
ሆ	-10.4421
▁ሙሌት	-10.4431
▁ድንገት	-10.4431
▁የማለፊያ	-10.4431
▁የሚቻለው	-10.4436
ያቸው	-10.4437
የተከበረ	-10.4437
▁ጉዳተኞች	-10.4442
▁ፓርላማ	-10.4446
▁ወጣቶችን	-10.4451
▁መቀጠሉን	-10.4451
▁ታይቶ	-10.4457
▁ድህረ	-10.4458
▁መግባቱን	-10.4459
▁ፓ	-10.4459
▁ስፍራው	-10.4465
▁ተናግረው	-10.4467
▁ሕይወታቸው	-10.4472
▁ሊኖር	-10.4478
▁አውሎ	-10.4478
▁ካላቸው	-10.4479
▁ነች	-10.4484
▁ሙፍቲ	-10.4484
ጉሜ	-10.4486
ውጤት	-10.4486
▁በተግባር	-10.4493
▁ሉካኩ	-10.4493
▁ኮንፈረንስ	-10.4495
▁ፕሮግራሙ	-10.4496
▁ፎቶግራፍ	-10.4503
▁መለስ	-10.4504
▁የተመሰረተ	-10.451
▁ለአፍሪካ	-10.4513
▁ቆጠራ	-10.4513
▁እንደሚጠበቅ	-10.4515
▁ውበት	-10.4515
▁ቁጥሮች	-10.4516
▁የሰጡ	-10.4518
2023	-10.4519
▁250	-10.4523
▁ተመልሶ	-10.4524
▁አጥ	-10.4527
▁ተንቀሳቃሽ	-10.4529
▁መንፈሳዊ	-10.4529
48	-10.4535
▁ጎርፍ	-10.4536
▁ከየካቲት	-10.4537
▁ዝግጅቶች	-10.4538
▁0922916439	-10.4539
▁ማድረስ	-10.4541
▁መፅሀፍ	-10.4542
▁ጥሪውን	-10.4542
▁ራ	-10.4544
▁አደራ	-10.455
፣የ	-10.4551
▁ብዙዎች	-10.4557
▁የፈረንሳዩ	-10.4558
▁ዩናይትዶች	-10.4559
አምስት	-10.4564
▁ገለጹ።	-10.4567
▁የእንስሳት	-10.4571
▁ጫካ	-10.4573
▁ትውልደ	-10.4575
▁851	-10.4577
▁የግድቡ	-10.4578
▁በትብብር	-10.4581
▁መሰብሰብ	-10.4583
▁በቤኒሻንጉል	-10.4583
▁በቡድን	-10.4584
ምንም	-10.4586
▁ስራቸውን	-10.4596
▁ስብሰባው	-10.46
▁ባቡር	-10.4605
▁የአሁኑ	-10.4613
▁ቁርጠኝነት	-10.4615
▁ለማለፍ	-10.4616
▁ለማዋል	-10.4618
▁ሚኒስትሮች	-10.4619
▁ይባላል	-10.4626
▁የሚረዳ	-10.4631
▁ስላ	-10.4633
▁ጉድለት	-10.4635
▁ካሉት	-10.4636
▁ማለቱን	-10.4639
ተን	-10.4641
ጥቁር	-10.4641
▁የድምፅ	-10.4641
▁ጭኖ	-10.4641
▁ዋት	-10.4642
▁አክሎም	-10.4647
▁የቀዶ	-10.4653
▁አገሪቱ	-10.4658
▁የሚገባው	-10.4659
▁ውሏል።	-10.466
▁ተመራቂዎች	-10.466
▁ካንሰር	-10.4664
▁በነጻ	-10.4665
▁ከጤና	-10.4668
▁ቀኝ	-10.4668
▁ከአለም	-10.4669
▁መሰጠት	-10.4679
▁ቆ	-10.4685
▁የድንበር	-10.4686
▁ምስክር	-10.4687
▁ብሊንከን	-10.469
▁ሲነፃፀር	-10.469
▁ተከታትለው	-10.4698
▁ነሃሴ	-10.47
እኛ	-10.4701
▁በማኅበራዊ	-10.4703
▁46	-10.4705
▁ያጠናቀቁ	-10.4706
ጊ	-10.4706
▁መድሀኒት	-10.4707
▁ኖቲንግሀም	-10.4709
▁አሳስቧል፡፡	-10.4711
▁የገለጸው	-10.4715
▁ከህብረተሰቡ	-10.4722
▁መለሰ	-10.4727
▁የደረሰበት	-10.4729
▁ሃላፊው	-10.473
▁ከፖሊስ	-10.473
▁ሩዋንዳ	-10.4731
▁የሚያስ	-10.4732
▁ስንል	-10.4736
▁አሻራ	-10.474
▁ስልኮች	-10.4742
▁ሙስና	-10.4743
ዛሬ	-10.4749
▁ኦዴጋርድ	-10.475
▁መጀመር	-10.4755
▁አይን	-10.4758
አከባቢው	-10.4758
▁የቫይረሱ	-10.4759
▁ምልክቶች	-10.476
▁የሚገባ	-10.4761
▁መፈንቅለ	-10.4761
▁መድረሳቸው	-10.4762
ላቸዉ	-10.4762
▁የሰሌዳ	-10.4769
▁አላውቅም	-10.477
▁ኃ	-10.477
▁ከጀመረ	-10.4775
251	-10.478
▁የምስክር	-10.4781
፣በ	-10.4781
▁ሆነዋል	-10.4783
▁ነፍስ	-10.4793
400	-10.4794
▁ሥራውን	-10.4796
ዝግጅት	-10.4798
▁ኮሚሽነሩ	-10.4798
▁የእ	-10.4798
▁ውዝግብ	-10.4799
▁በተከሰተ	-10.4807
▁የጥበቃ	-10.4809
▁የኮሚኒኬሽን	-10.4811
ለን	-10.4812
▁ዋንጫውን	-10.4815
▁የተቀናጀ	-10.4816
▁ጤንነት	-10.4816
▁እነማን	-10.4822
▁ሰጥተዋል	-10.4832
▁ጌታሁን	-10.4832
▁መጠናቀቅ	-10.4833
▁ለቆ	-10.4835
▁መቆየት	-10.4837
▁ተጫዋቾቹ	-10.484
▁በሲዳማ	-10.4841
▁መስመሮች	-10.4841
▁እንዲችሉ	-10.4843
▁እንደማይችል	-10.4843
ጥሮስ	-10.4844
▁የሚኒስትሮች	-10.4844
▁ማሳ	-10.4847
▁ራድዮ	-10.4848
▁መጥቶ	-10.4849
▁የሚያቆየው	-10.4849
▁የልደት	-10.485
▁የሚገኙትን	-10.4856
▁ከአሁን	-10.4857
▁በንግድ	-10.4858
▁ቤን	-10.4861
በታል	-10.4863
▁ዩናይትዱ	-10.4865
▁አሰልጣኞች	-10.4867
▁"...	-10.4869
▁ተፈታኝ	-10.4874
▁ተገ	-10.4879
▁54	-10.4879
▁ካሳሁን	-10.4882
በረከት	-10.4891
▁ስለሺ	-10.4894
▁በኢ	-10.49
▁የምክክር	-10.4901
▁ኳሶችን	-10.4901
▁በሚገባ	-10.4902
▁በተሻለ	-10.4903
▁እያከናወነ	-10.4905
▁ቅርብ	-10.4908
▁ሆኑ	-10.4915
▁እናደርጋለን	-10.4929
▁የእርስ	-10.493
ባቸውን	-10.4931
▁ዉሳኔ	-10.4937
▁ፎደን	-10.4939
▁እመቤት	-10.494
▁የቁጥጥር	-10.494
▁የሚሰጠውን	-10.4943
▁ጋና	-10.4944
ምረቃ	-10.4945
▁የፓርላማ	-10.4948
ፈር	-10.4949
▁ዊሊያም	-10.4956
▁ተዋህዶ	-10.4959
▁ከፍንጅ	-10.4959
▁ለክለቡ	-10.496
▁በቴክኖሎጂ	-10.4964
▁በግጭቱ	-10.4965
▁ማስፈረማቸው	-10.4966
▁ሚዛን	-10.4967
▁ትግበራ	-10.4975
▁ቢን	-10.4977
▁አባተ	-10.4978
▁ማትያስ	-10.4978
▁የተነሳው	-10.498
▁በኤሌክትሪክ	-10.4981
▁ማሰልጠኛ	-10.4991
▁የአካባቢ	-10.4992
▁ኔትወርክ	-10.4999
▁ለመፍትሔ	-10.4999
▁ማጠናቀቅ	-10.4999
▁በሽታዎች	-10.5
▁ነ	-10.5
▁የተቋቋመው	-10.5001
▁አየለ	-10.5002
▁ከነበሩ	-10.5005
▁ተጠናቋል።	-10.5006
▁በእድሜ	-10.5007
▁ተጀምሯል።	-10.5009
▁ህዝቡን	-10.5014
ሙሉ	-10.5015
▁የጠበቀ	-10.5015
▁ቀሪዎቹ	-10.5016
▁በመቀናጀት	-10.502
▁ልጆችን	-10.502
▁ገባ	-10.5021
▁የቀረበውን	-10.5021
▁በሚለው	-10.5022
▁የአዕምሮ	-10.5023
▁በቀድሞ	-10.5025
▁ዮናስ	-10.5028
▁አስከባሪ	-10.5028
▁ተራራ	-10.5029
▁ሰራዊቱ	-10.503
▁ዜጎ	-10.5032
▁ጀርመናዊው	-10.5034
▁ንፋስ	-10.5036
▁እንዲፈታ	-10.5037
▁ጄሱስ	-10.5037
▁ስተርሊንግ	-10.5037
▁ጠይቀዋል፡፡	-10.5041
▁እንችላለን	-10.5049
▁መሃል	-10.5052
▁እዛው	-10.5054
ፀ	-10.5057
▁የራሳቸውን	-10.5058
▁ማመንጫ	-10.5068
▁የተመደባችሁ	-10.5069
▁በሽታው	-10.507
▁ተባባሪ	-10.5076
ል፤	-10.5076
▁እንዳይገቡ	-10.5077
▁ሰጥተው	-10.5077
▁ሄዶ	-10.5078
▁ረፋድ	-10.508
▁120	-10.5084
▁የቻሉት	-10.5088
▁መኪኖች	-10.5093
▁እንደሚሆኑ	-10.5097
ፌዲሪ	-10.5098
▁ለመማር	-10.5099
▁ዩቲዩብ፡	-10.5099
▁ይጀምራል።	-10.5102
▁የሴት	-10.5103
አል	-10.5104
▁አሠራር	-10.5105
▁2021	-10.5106
▁ምስ	-10.5109
▁አብዲሳ	-10.5112
▁የታወቀ	-10.5114
▁አለመ	-10.5114
▁እይታ	-10.5115
▁እንዲቀጡ	-10.5116
▁ከልብ	-10.512
▁ሲገቡ	-10.512
አስተያየቱን	-10.5122
▁በወጣው	-10.5123
36	-10.5128
ዐ	-10.5128
▁ወዲያው	-10.513
▁መቀ	-10.5132
▁ወንበር	-10.5133
▁ይደውሉልን	-10.5139
▁መግ	-10.5139
▁ያለን	-10.5141
▁ምዝገባው	-10.5143
▁ከብሔራዊ	-10.515
▁የዓመቱ	-10.515
▁ቋንቋዎች	-10.5152
▁በቅንጅት	-10.5155
▁እንዲቆጠቡ	-10.5156
▁ቢዝነስ	-10.5156
▁ሌባ	-10.5161
▁ካሜራ	-10.5167
▁ሴቶችን	-10.5168
▁አሉታዊ	-10.5171
ተጠናቀቀው	-10.5171
▁ታማሚዎች	-10.5172
2024	-10.5174
▁የእምነት	-10.5177
▁አታላንታ	-10.5181
ቸዉን	-10.5183
▁ይላሉ	-10.5184
ዲጂታል	-10.5185
▁ስምሪት	-10.5189
▁ጌትነት	-10.519
▁አሳል	-10.5192
▁ሀብታም	-10.5193
▁ሲንቀሳቀሱ	-10.5195
▁ሐ	-10.5196
▁ያደርጋሉ	-10.5205
▁እንደምት	-10.5207
▁አሸናፊው	-10.5209
▁ትዳር	-10.5214
▁10.	-10.5214
▁አኳያ	-10.5215
▁ገልጧል።	-10.5217
▁የተሰጣቸው	-10.5218
▁የወሰዱ	-10.5227
▁መወሰኑ	-10.5228
▁ያለፉት	-10.5228
▁ሰውነት	-10.5233
================	-10.5234
▁የእስር	-10.5236
▁የሰውነት	-10.5237
▁የገባ	-10.5239
▁ሰበታ	-10.524
▁የተከሰተውን	-10.5241
▁ፖግባ	-10.5243
▁ማርቲን	-10.5245
▁በጥንቃቄ	-10.5248
▁በህብረተሰቡ	-10.5252
▁መፈጸሙን	-10.5253
▁ያለው።	-10.5254
▁እንዲካሄድ	-10.5255
ዮን	-10.5256
▁ሰራተኞችን	-10.5257
▁ኒውስ	-10.5257
▁በመቀላቀል	-10.5257
▁በዩናይትድ	-10.5259
ቷን	-10.526
▁ተመን	-10.5261
▁ኮንስትራክሽን	-10.5266
▁በምክትል	-10.5267
▁የቡና	-10.5271
▁ስደተኞችን	-10.5274
▁እንዲደርስ	-10.5276
▁በውስጡ	-10.5276
▁አስገድዶ	-10.5277
▁ከግንቦት	-10.5277
▁እድሉ	-10.5279
▁እድሳት	-10.528
▁አሳውቋል	-10.5284
▁ሀረርጌ	-10.5285
▁ዕለታዊ	-10.529
▁ያጡ	-10.529
▁በኢራን	-10.529
▁ተጓ	-10.529
▁እንዲከበር	-10.5292
75	-10.5294
▁መቆየቱ	-10.5296
ባል	-10.5298
▁በሂደት	-10.5298
▁አንድሬ	-10.5299
▁በጊዜ	-10.53
▁የወንድ	-10.5305
▁ታምራት	-10.5313
▁ቃላቸውን	-10.5313
▁ተቀጣ	-10.5317
▁ሮቤርቶ	-10.5329
ሪት	-10.5329
ቫ	-10.5331
▁ንብረታቸው	-10.5339
▁ለውጭ	-10.534
ችሁን	-10.534
▁ቱሄል	-10.5342
▁ምጣኔ	-10.5347
▁ሀምሌ	-10.5354
▁ሆይ	-10.5355
▁ኦሪጂናል	-10.5355
▁የነበረዉ	-10.5358
▁ገለልተኛ	-10.5365
▁ፀሀፊ	-10.5365
▁አስታወቁ።	-10.5365
▁ቁሳቁሶችን	-10.5366
▁ሩቶ	-10.5366
▁ሁኔታዎችን	-10.5369
▁የመምህራን	-10.5371
▁ኳታር	-10.5373
▁ተዘጋጅቶ	-10.5375
▁ምዕመናን	-10.5375
▁በየደረጃው	-10.5376
▁የደመወዝ	-10.5378
▁ሰጥቷል፡፡	-10.5389
▁መሻሻል	-10.539
▁በአንድነት	-10.539
ቤትኪንግ	-10.5391
▁በቋሚነት	-10.5406
▁የብቃት	-10.5407
▁አመ	-10.5413
▁እንዲያገኝ	-10.5416
▁የማጣራት	-10.5417
▁የኢንዱስትሪ	-10.5418
ሯ	-10.542
▁እንቅልፍ	-10.5423
▁ሐሰተኛ	-10.5431
▁በሙስና	-10.5434
ዲሞክራቲክ	-10.5436
▁ማካሄድ	-10.5436
▁አብደላ	-10.5437
▁ቪድዮ	-10.5439
▁በቀይ	-10.5439
▁መስተዳደር	-10.544
▁በጽኑ	-10.5442
▁የሚታወቅ	-10.5442
▁ንክኪ	-10.5444
▁ያንን	-10.5448
▁56	-10.5448
▁ሚንስትሩ	-10.545
▁የወንዶች	-10.545
▁ገቢዎች	-10.545
▁ራስን	-10.5451
▁ሲረጋገጥ	-10.5458
▁የጨዋታው	-10.5458
▁መልዕክቶች	-10.5462
ገባ	-10.5463
▁ወለድ	-10.5468
▁አስገዳጅ	-10.5472
600	-10.5473
▁ቦይንግ	-10.5476
▁የማዕከላዊ	-10.5479
▁ለመቀየር	-10.5479
ከር	-10.5481
▁የአክሲዮን	-10.5481
ዶች	-10.5483
▁ፋብሪካዎች	-10.5484
ሠ	-10.5485
▁ማሰባሰብ	-10.549
▁ተግባራትን	-10.5495
▁እንደሚወስድ	-10.5499
▁ድጋፉ	-10.55
▁እንደሚከናወን	-10.5503
▁በመመለስ	-10.5505
▁መቆም	-10.5508
▁ተሸከርካሪ	-10.5509
▁አባይ	-10.5513
▁የወረዳ	-10.5514
▁እናመሰግናለን	-10.5518
▁የምርት	-10.5518
▁ያለፉትን	-10.5518
▁ብጥብጥ	-10.5518
▁ቀዳማዊ	-10.5524
▁አደም	-10.5525
▁ያሳያል	-10.5529
▁ብርቱ	-10.5529
▁ዴሞክራሲ	-10.553
▁ቅርንጫፎች	-10.5536
▁የጥፋት	-10.5539
▁አግባብነት	-10.5539
▁አሳስበዋል፡፡	-10.5541
▁በመነጋገር	-10.5542
▁ልጃቸው	-10.5543
▁እማኞች	-10.5544
▁በማስቆጠር	-10.5544
▁ታካሚዎች	-10.5555
▁ትችት	-10.5559
▁ሩስያ	-10.556
▁ዝግጅቱን	-10.5567
ችበት	-10.5568
▁በሚያደርጉት	-10.557
▁የአል	-10.5572
▁አስተዳደራዊ	-10.5573
▁ጀመረ	-10.5576
▁የካ	-10.5578
▁በምትገኘው	-10.5579
▁መዳረሻ	-10.558
▁በመለየት	-10.5584
▁ራያ	-10.5585
▁ክፍሌ	-10.5585
▁ቀጣዩን	-10.5587
▁ካሪም	-10.5587
▁ከመንግሥት	-10.5588
▁ገልጸዋል	-10.559
▁ጭፍጨፋ	-10.5593
▁የባቡር	-10.5593
▁ጥዋት	-10.5595
▁ደህና	-10.5596
▁ሞዴል	-10.5598
▁የተሽከርካሪ	-10.56
▁አዘጋጅነት	-10.5601
▁ነጋሽ	-10.5601
▁በመጠበቅ	-10.5605
ሰልፎ	-10.5605
▁ዩጋንዳ	-10.5608
▁2010	-10.5609
▁የነበረችው	-10.5609
▁ገለፀ።	-10.5613
▁ሲመጣ	-10.5615
▁ማይክ	-10.5621
▁አብዛኛዎቹ	-10.5621
▁ሜጀር	-10.5624
▁ይናገራሉ።	-10.5625
▁ገበታቸው	-10.5625
▁ሱቅ	-10.5626
▁ሌፕዚግ	-10.5628
▁መላ	-10.563
▁ተገደሉ	-10.5631
ደን	-10.5632
▁ሀኪም	-10.5637
▁በጣልያን	-10.5638
▁በደል	-10.5639
▁ከመጋቢት	-10.5641
▁ብዙሀን	-10.5643
▁ዳኒ	-10.5644
▁ሕፃናት	-10.5646
ሂ	-10.5648
▁ሊል	-10.5651
▁ኬቨን	-10.5657
▁ደን	-10.5658
32	-10.5661
▁ፍትሕ	-10.5664
▁መድረኩ	-10.5664
▁አልነበረም	-10.5664
▁እየተሠራ	-10.5664
▁የተያዘ	-10.5669
▁የተጫዋቹ	-10.567
▁ኮንግረስ	-10.5673
▁51	-10.5677
▁ማንነታቸው	-10.5677
ሐ	-10.5679
▁ለመረዳት	-10.5686
▁ያመላክታል፡፡	-10.5686
▁በትንሹ	-10.569
▁ሽግግር	-10.5694
ዞ	-10.5694
▁ታች	-10.5695
ትርፍ	-10.5696
▁ተከታይ	-10.5697
▁የመማሪያ	-10.5698
▁ከዛም	-10.5702
▁ሳጥን	-10.5704
▁አመለካከት	-10.5706
▁በሚያ	-10.5707
▁የአዳማ	-10.5708
▁ህልም	-10.5713
ብለዋል።	-10.5716
▁አንዱን	-10.5716
▁ሴራ	-10.5717
▁ለማራዘም	-10.5728
ሌሊቱ	-10.5735
▁ዘዴ	-10.5737
▁አዋሳኝ	-10.574
▁ዋሽንግተን	-10.574
▁የማዕድን	-10.5741
▁መምራት	-10.5744
▁ፓኬጅ	-10.5744
▁ወለል	-10.5749
▁መሳተፍ	-10.575
▁ከቻይና	-10.575
▁ቅርስ	-10.5752
ልስ	-10.5758
▁የጎዳና	-10.5759
▁ሩበ	-10.5762
▁ተጠቅመው	-10.5762
▁ጣሊያን	-10.5762
▁መግለፁ	-10.5763
▁ውሳኔዎች	-10.5764
▁የሚመጣ	-10.5766
▁እንዲወስዱ	-10.5768
ጁ	-10.5769
▁ሎስ	-10.5769
▁ጥቅል	-10.577
▁ቆይተዋል።	-10.5773
▁ሰልፉ	-10.5774
ደት	-10.5777
▁ለአራት	-10.5777
▁አጠራጣሪ	-10.5779
▁ዘርፉ	-10.578
▁ተጨዋቾቹ	-10.5781
▁ቀኑን	-10.5786
▁ሚድያ	-10.5788
▁እራሱ	-10.5788
▁ለሰው	-10.5789
▁ከሰው	-10.579
▁ሰርጥ	-10.579
▁ሂላል	-10.5791
▁ኤዲ	-10.5791
▁ወስዶ	-10.5791
▁ክልል፣	-10.5792
▁ይካሄዳል።	-10.5792
▁እንድታ	-10.5793
▁ፓሪስ	-10.5797
▁መዘገቡ	-10.5799
▁የተመደቡ	-10.5802
▁ተገድለዋል።	-10.5804
አመታት	-10.5809
▁ባስተላለፉት	-10.5811
▁ሶስተኛው	-10.5815
▁በምግብ	-10.582
▁ከነበሩት	-10.582
▁ሰነዶች	-10.5822
▁መገደላቸው	-10.5822
▁ስለነበር	-10.5824
▁ፋኖ	-10.5829
▁ለሽያጭ	-10.5831
▁በአቶ	-10.5835
▁የያዙ	-10.5837
▁አራቱ	-10.5838
▁ክሶች	-10.5843
▁ሲስተም	-10.5843
▁በጥናት	-10.5844
▁ፎረም	-10.5848
▁ለመጨረሻ	-10.5852
▁እንዲሰጣቸው	-10.5854
▁አይቻልም	-10.5856
▁ሻለቃ	-10.5858
መካሄድ	-10.586
▁ሪፈራል	-10.586
▁ጨረታ	-10.5861
▁ቤተሰቦቹ	-10.5864
▁04	-10.5869
▁እህት	-10.5869
▁ማምጣት	-10.587
▁ማዕድን	-10.5872
33	-10.5877
▁ቢያ	-10.588
▁ሲሰሩ	-10.5882
▁መድረኮች	-10.5885
▁ፖርቹጋል	-10.5886
ዎት	-10.5887
ሎች	-10.5887
▁አቅርቦ	-10.5889
▁አብዱል	-10.5891
▁በኤደ	-10.5892
▁ይሰራል	-10.5894
▁የተመዘገበ	-10.5895
▁አስረድቷል።	-10.5896
▁በታላቁ	-10.5899
▁መቀላቀል	-10.5903
▁1000	-10.5908
▁2:00	-10.5908
▁ያገኛሉ።	-10.5909
▁መራ	-10.5909
ቀያይ	-10.5914
▁እንዲፈጠር	-10.5915
▁አያት	-10.5917
▁ለማጣራት	-10.5917
▁የሚጠይቅ	-10.5917
▁ገዛ	-10.5918
▁በያዝነው	-10.5921
▁ቀጣይነት	-10.5922
▁ማስገባት	-10.5924
▁ማስፈረም	-10.5931
▁በተነሳ	-10.5931
▁የነበራቸው	-10.5932
▁ባሎን	-10.5933
▁ናቸዉ	-10.5933
▁የስኳር	-10.5937
▁ማዕቀፍ	-10.5942
▁አረንጓዴ	-10.5942
▁ነው፣	-10.5944
▁ፈንድ	-10.5944
▁ቲክቶክ	-10.5945
▁ባለሙያዎችን	-10.5945
▁አእምሮ	-10.5947
▁መረዳት	-10.5956
▁ተፅእኖ	-10.5963
▁ሃያ	-10.5963
▁ታንዛኒያ	-10.5963
▁ወንድሙ	-10.5965
▁ኢላማ	-10.5967
▁ነበር፤	-10.5968
▁ቀጥታ	-10.5969
▁53	-10.5972
▁ቀና	-10.5973
▁ኃላፊነቱን	-10.5976
▁በመጨረሻ	-10.5978
ታል፡፡	-10.5979
▁ማምረት	-10.5979
▁ዘረፋ	-10.598
▁ህልውና	-10.5989
▁ብርሀኑ	-10.599
▁በሀላፊነት	-10.5993
▁የጉምሩክ	-10.5999
▁በጣሊያን	-10.6
▁በድምቀት	-10.6003
▁ሲሞክሩ	-10.6003
▁ሰልፎች	-10.6004
▁ነኝ።	-10.6004
▁በቱርክ	-10.6006
▁በመስቀል	-10.6006
▁የግንዛቤ	-10.6008
▁የትዳር	-10.6017
▁የተያያዘ	-10.6019
▁የተያዙት	-10.6019
▁አይገባም	-10.602
▁ታጣቂዎቹ	-10.602
▁መሸጥ	-10.6022
▁የሚደርሰው	-10.6024
ግብር	-10.6026
▁የማስከበር	-10.6026
▁የላሊጋው	-10.6028
▁ለክልሉ	-10.6029
▁ከከተማ	-10.6035
▁መከራ	-10.604
▁የሀሰት	-10.6042
▁መልዕክተኛ	-10.6043
▁መጠበቂያ	-10.6043
▁ነዋሪዎችን	-10.6044
▁በእንዲህ	-10.6045
▁መልዕክቱን	-10.6048
▁ህጻናትን	-10.605
▁በሊባኖስ	-10.605
▁የተነገረ	-10.6051
▁የአንበጣ	-10.6051
▁መጠኑ	-10.6051
▁ወዘተ	-10.6053
▁ደብረፅዮን	-10.6055
▁ጊዚያዊ	-10.6057
37	-10.6057
▁ወገኖቻችን	-10.606
▁እሳቱ	-10.6063
▁ይምጡ	-10.6068
▁ለመታደግ	-10.6068
▁አማን	-10.6069
▁ታዳጊዎች	-10.607
▁ሉ	-10.6073
▁የምና	-10.6083
▁መንግሥታዊ	-10.6085
▁49	-10.6087
▁እንደሚጀመር	-10.609
▁ለመመዝገብ	-10.6092
መንበረ	-10.6093
▁የትኛውም	-10.6096
▁መርጌታ	-10.6096
▁የህፃናት	-10.6099
▁በውል	-10.6102
▁በተማሪዎች	-10.6104
▁መቅረብ	-10.6112
▁ታቅዶ	-10.6113
▁ፈላጊ	-10.6115
▁በየአመቱ	-10.6115
▁ጥናቱ	-10.6118
ካል	-10.6119
▁መቼም	-10.6119
▁ከተባለ	-10.6121
▁ህዝብን	-10.6126
ድምፅ	-10.6126
▁ካናዳ	-10.6133
▁ለሴቶች	-10.6134
▁ተወያይተዋል።	-10.6135
▁ተገናኝተው	-10.6138
▁1:30	-10.6139
▁አማካይነት	-10.6143
ጆ	-10.6145
▁መሞታቸው	-10.6145
▁የነፍስ	-10.6146
▁የሆኑትን	-10.6149
▁ህጉ	-10.6151
▁ልጁን	-10.6152
▁በአብላጫ	-10.6155
▁መኮንኖች	-10.6156
▁የለም፡፡	-10.6157
▁ለሀገራችን	-10.6159
አገልግሎት	-10.6163
▁እንደሚሰሩ	-10.6164
▁አልተ	-10.6165
▁ያው	-10.6165
▁ገነት	-10.6165
▁ጠበቆች	-10.6167
▁ሙሉጌታ	-10.6167
▁ጅግጅጋ	-10.6168
▁የጋምቤላ	-10.6172
▁ግፍ	-10.6177
▁የዜጎችን	-10.6179
▁ማለቱ	-10.6185
▁ፈታኝ	-10.6187
▁ልን	-10.6188
▁ቆንጆ	-10.6189
▁ይሆናሉ	-10.619
▁መስ	-10.6191
▁ማነው	-10.6196
ታችን	-10.6197
2020	-10.6198
▁የቆዳ	-10.6199
▁ዲያዝ	-10.62
▁መቆጣጠሪያ	-10.6205
38	-10.6205
▁የጥምቀት	-10.6206
▁ግድቡ	-10.6206
▁የራስ	-10.6207
▁ሹም	-10.6208
▁ጋምቤላ	-10.6209
▁ግሽበት	-10.6211
መጣ	-10.6216
▁መሠረታዊ	-10.6216
▁57	-10.6218
▁የተፈጠረ	-10.6218
ፍልድ	-10.6223
▁እንዲውል	-10.6223
▁ህግን	-10.6233
ተኞች	-10.6235
▁መዘጋጀቱን	-10.6235
▁የሚያወጣ	-10.6237
▁ምትክ	-10.6238
▁ቀጠናዊ	-10.6241
▁ሲገኝ	-10.6242
▁ወተት	-10.6245
መልሶ	-10.6248
▁እንደቀጠለ	-10.6249
▁ሳር	-10.6249
▁ብሄረሰብ	-10.6251
▁ጥላቻ	-10.6251
▁የመብራት	-10.6254
▁02	-10.6255
••	-10.6256
▁ጥሬ	-10.6256
▁ያስችላል	-10.6257
▁ማርክ	-10.626
▁በቅዱስ	-10.6263
▁መደረግ	-10.6264
▁ያለዉን	-10.6264
▁ተመራቂዎቹ	-10.6269
▁ቲክቶክ፡	-10.6269
▁ለሚመለከተው	-10.6271
▁የዩሮፓ	-10.6274
▁መቆራረጥ	-10.628
ስኪ	-10.6285
ቂ	-10.6285
▁መካከለኛ	-10.6286
▁በበላይነት	-10.6287
▁የተመዘገቡ	-10.6287
▁በመነሳት	-10.6291
▁በጥራት	-10.6291
ፓ	-10.6293
▁ተወስኗል።	-10.6296
▁ከሌላ	-10.6297
▁አለብን።	-10.6299
▁መኖሩ	-10.6302
▁የሚሳተፉ	-10.6305
▁ኔታንያሁ	-10.6308
▁ለመርዳት	-10.6309
▁ሲነጻጸር	-10.6309
▁አስተዳደሮች	-10.6309
▁ተጨባጭ	-10.631
ፖ	-10.631
▁0901138283	-10.631
▁እየተሰሩ	-10.631
▁ታስረው	-10.6311
2022	-10.6315
▁ተነስተው	-10.6316
▁ለህክምና	-10.6317
▁ታምሩ	-10.6318
▁ተቃዋሚዎች	-10.6319
ናል።	-10.6319
▁ታሪኩ	-10.6322
▁ሜሰን	-10.6325
▁ኮሚዩኒኬሽን	-10.6331
▁አስታውሰዋል።	-10.6332
▁የሁለትዮሽ	-10.6338
▁ማክሮን	-10.6342
▁ባለመኖሩ	-10.6354
▁መግለጻቸውን	-10.6366
▁የተመለከቱ	-10.6368
ጸ	-10.6369
▁ስቴት	-10.637
ረው	-10.6374
▁ተቀዳሚ	-10.6376
▁መጨናነቅ	-10.6377
▁መፈፀሙን	-10.6382
▁ሰርጅ	-10.6391
▁ለእኛ	-10.6392
▁ሳንቾ	-10.6392
▁የሚከበረው	-10.6392
▁በተቃራኒው	-10.6395
▁ከህዝብ	-10.6397
▁ለትግራይ	-10.6398
▁እየሠራ	-10.6398
▁ማጓየር	-10.6399
▁ታሪፍ	-10.6399
▁በህወ	-10.6402
▁በዘገባው	-10.6404
▁ማሳየት	-10.6407
▁ከስር	-10.6409
▁ፍልስጤማውያን	-10.6412
▁እዳ	-10.6414
▁700	-10.6415
▁በተፈጸመ	-10.6415
2010	-10.642
መቶ	-10.6423
▁11.	-10.6431
▁ተገለፀ።	-10.6434
▁ገበታ	-10.6442
▁በውሃ	-10.6446
▁ለመክፈል	-10.6446
▁ሀቨርትዝ	-10.6447
▁ተሽከርካሪዎችን	-10.6451
▁ከፈለጉ	-10.6451
▁የእውቅና	-10.6452
▁ሲገደሉ	-10.6452
▁ድርድሩ	-10.6453
▁63	-10.6457
ጓ	-10.6461
▁አሳር	-10.6463
▁ተመላሽ	-10.6466
▁ያመጡ	-10.6467
▁ዝውውሩ	-10.6468
▁ሲጀምር	-10.6469
▁በገበያ	-10.6471
▁ብላችሁ	-10.6473
▁ደራርቱ	-10.6475
▁የሚባሉ	-10.6476
▁ተጠሪ	-10.6479
ቋ	-10.648
▁ጉባኤውን	-10.6482
▁ልቦና	-10.6484
▁አልቻለም	-10.6486
▁ኪም	-10.6486
▁አስታውሷል።	-10.6489
▁ብሔረሰቦች	-10.649
▁እንደሚሉት	-10.6493
▁በቁጥር	-10.6495
▁ተጠያቂነት	-10.6495
▁በክረምቱ	-10.6501
▁ያገለገሉ	-10.651
▁ሴሪ	-10.651
▁አፈወርቂ	-10.6512
▁ጠብቆ	-10.6512
ሩን	-10.6516
ቀን	-10.6516
▁ተጠርጣሪዎችን	-10.6517
▁አውሮፕላኑ	-10.6521
▁ነበረ	-10.6525
▁በምክር	-10.6532
▁ሃይሉ	-10.6534
▁የዋሉት	-10.6537
▁ማስክ	-10.6539
▁አንዳች	-10.6541
▁በባሕር	-10.6541
▁በአስር	-10.6543
▁ራሞስ	-10.6547
▁ከማ	-10.6547
▁ቡ	-10.6548
▁ለቀጣይ	-10.6551
▁ስፖርቲንግ	-10.6555
▁ሲያስቆጥር	-10.6557
▁ለመሰብሰብ	-10.6558
▁ጥለው	-10.656
▁በማግኘት	-10.6562
▁አዛውንት	-10.6562
▁የቢሮው	-10.6562
▁የአንደኛ	-10.6562
መው	-10.6563
▁ጉዳያቸው	-10.6564
▁እንደሚገኝም	-10.6565
▁አይደለም፡፡	-10.6566
▁መፅሐፍ	-10.6569
▁ተጠቁሟል	-10.6572
▁የወጣቶች	-10.6578
▁ለማስከበር	-10.6581
▁እሳቱን	-10.6583
▁ከዚሁ	-10.6586
ሃል	-10.6586
▁በደሴ	-10.6587
▁በዚያ	-10.6588
በላው	-10.6589
በዓል	-10.659
▁ምክረ	-10.6597
▁ኮፒ	-10.6597
▁ሽጉጥ	-10.66
አቋም	-10.6602
▁አቅርቧል፡፡	-10.6608
▁ቡድናችን	-10.6615
▁ኮምቦልቻ	-10.6616
▁የገና	-10.6617
▁ለሚፈልጉ	-10.662
▁በሕዝብ	-10.6625
▁ድጎማ	-10.663
▁እየሰራን	-10.6637
▁ለቤት	-10.6639
▁በሕይወት	-10.6639
▁አደጋዉ	-10.6641
▁ስል	-10.6642
▁61	-10.6646
▁ተጫዋቾችን	-10.6649
▁ምስሎች	-10.6651
▁እንጅ	-10.6652
▁ካፍ	-10.6657
▁ተሸከርካሪዎች	-10.6659
▁አድርገን	-10.666
▁ሀሳቦች	-10.6662
ተኛው	-10.6663
▁ወታደር	-10.6664
▁ጭስ	-10.6665
▁ጥያቄውን	-10.6668
150	-10.6671
▁ተቃዋሚ	-10.6672
በታል።	-10.6673
▁በመንገድ	-10.6673
▁ከፀጥታ	-10.6674
▁ሮድሪጎ	-10.6681
▁የድህረ	-10.6682
▁ጥናቶች	-10.6683
▁ጌታ	-10.6684
ጠናቀቅ	-10.6686
ሚኒስትር	-10.6691
▁አርማ	-10.6692
▁ሻ	-10.6699
▁አንቀፅ	-10.67
▁ለትዳር	-10.6701
▁ኢንጂነሪንግ	-10.6703
▁የሚፈልግ	-10.6705
▁የጠ	-10.6706
▁በአሰቃቂ	-10.6706
▁መጣ	-10.6708
▁ገብቷል።	-10.671
▁አረጋግጠዋል	-10.6711
▁ፊርማ	-10.6711
▁ግደይ	-10.6718
▁የሚጠጋ	-10.672
▁አይደል	-10.6722
▁9:00	-10.6724
▁የትጥቅ	-10.6724
▁ዶክትሬት	-10.6727
▁በጦር	-10.6727
ገጽ	-10.6728
▁መልዕክታቸውን	-10.673
▁በደቡባዊ	-10.6731
ለትምህርት	-10.6738
▁እርምጃዎችን	-10.6739
▁ለተ	-10.674
▁መገንባት	-10.6741
▁ፖቼቲኖ	-10.6741
▁ስምንተኛ	-10.6744
▁ሲታይ	-10.6746
2019	-10.6747
▁ተሰጥቷል።	-10.6748
▁ተፎካካሪ	-10.6749
▁እራሳቸውን	-10.6749
ፍፁም	-10.6753
▁የሀይማኖት	-10.6755
▁ጨምረዉ	-10.6764
▁ለመሄድ	-10.6765
ዐቃቤ	-10.6766
ኦነግ	-10.6766
▁ለእስር	-10.6767
▁ህወሃት	-10.6768
▁የክትባት	-10.6769
▁72	-10.6773
▁የተሰጠውን	-10.6775
▁አትሌቲክ	-10.6778
▁ገብተዋል	-10.6779
▁ሟች	-10.6783
▁በተባሉ	-10.6784
▁ቀስ	-10.6785
ለሁ	-10.6787
▁መልቀቅ	-10.6788
▁ማጣት	-10.6789
▁በመሬት	-10.6796
▁ሰራተኞቹ	-10.6798
▁ተናግሯል፡፡	-10.6799
▁አጎራባች	-10.68
▁ለእጅ	-10.6802
▁""	-10.6806
▁ብሩክ	-10.6807
▁ሰልጣኞች	-10.6809
▁በማጠናቀቅ	-10.6812
▁ማጣርያ	-10.6814
▁ቆይታቸው	-10.6815
▁ሰንደቅ	-10.6823
▁ኖት	-10.6826
▁ውሸት	-10.6827
▁ቢሮዎች	-10.683
▁ያልታወቀ	-10.6832
▁በመልካም	-10.6832
▁ተኮር	-10.6833
▁አሞሪም	-10.6834
▁አስጠንቅቋል።	-10.6835
▁ለጣቢያችን	-10.6837
▁የተሰሩ	-10.6837
▁በመምጣት	-10.6839
▁ዕፅ	-10.6843
▁በነዳጅ	-10.6847
▁ድልድል	-10.6847
▁ተችሏል፡፡	-10.6848
▁ፊፋ	-10.6848
▁ዘገባዎች	-10.685
▁ሀገሪቱን	-10.6856
▁እንዲቀርቡ	-10.6859
▁ከባለፈው	-10.686
▁በግጭት	-10.6862
▁አይነቶች	-10.6864
▁ናሙና	-10.6864
▁ተጠቃሚነት	-10.6868
መራ	-10.6872
▁ሙሳ	-10.6873
▁እንዲነሳ	-10.6874
▁የሙሉ	-10.6876
▁ሀድያ	-10.6877
▁ሊደርስ	-10.6881
▁ያልተገባ	-10.6883
4950	-10.6883
▁ለመጫወት	-10.6885
▁በጥቁር	-10.6888
▁ሆቴሎች	-10.6894
▁59	-10.6895
▁አቻቸው	-10.6898
▁ቁጣ	-10.6899
▁ባዶ	-10.6899
▁86	-10.6903
▁ሮድሪ	-10.6904
▁የሽያጭ	-10.6905
▁ፓልመር	-10.6905
ተደረገላቸው	-10.6906
▁ለአሜሪካ	-10.6906
▁አሶሳ	-10.691
34	-10.6911
▁ማሳወቅ	-10.6913
▁ካለፉ	-10.6914
▁የሳይበር	-10.6915
▁ሲቲዎች	-10.692
▁ተናግሯል	-10.692
▁አላቸው።	-10.6921
▁አልቻለም።	-10.6926
▁ህይወታቸዉ	-10.6927
▁ሊካሄድ	-10.693
▁ግብዓት	-10.693
ያት	-10.6932
▁የወቅቱ	-10.6933
▁ጭንቀት	-10.6934
▁መስፈርቶች	-10.6936
▁ከመስጠት	-10.6939
▁መቋረጥ	-10.6939
▁ቀናቶች	-10.6942
▁ሲሰጡ	-10.6942
▁እያጣራ	-10.6946
▁ናትናኤል	-10.6947
▁አግ	-10.6949
▁የሚሰጥበት	-10.6952
▁መስማት	-10.6953
▁እንዲቆዩ	-10.6954
▁ዲሲ	-10.6957
▁የሚያስፈልገው	-10.6958
ሳይ	-10.6958
▁ለሞት	-10.6959
▁በጥቅምት	-10.6961
▁እየመራ	-10.6964
▁ጓደኛ	-10.6967
▁62	-10.697
▁ኢዜማ	-10.6971
▁አብያተ	-10.6973
▁አካሂ	-10.6975
▁ለማስቀጠል	-10.6976
▁እንዲቀጥሉ	-10.6976
▁ኃይለ	-10.698
▁ሕጻናት	-10.698
▁ናይሮቢ	-10.6982
▁ለህብረተሰቡ	-10.6984
▁የመሪዎች	-10.6986
▁ያስፈልጋል።	-10.699
▁የቀጠለ	-10.6992
▁በፎቶ	-10.6993
▁ሀውስ	-10.6998
▁ህፃናትን	-10.7
ሾ	-10.7001
▁መገኘታቸውን	-10.7002
▁እሱም	-10.7005
▁መቻሉ	-10.7006
▁በበጎ	-10.7008
▁ዩቲዩብ	-10.7011
▁አምቦ	-10.7014
▁ለገሰ	-10.7015
▁ቀርቶ	-10.7016
በሩ	-10.7017
▁ውሻ	-10.7026
▁ለመጠየቅ	-10.7026
▁ከፌዴራል	-10.7026
▁እንዲጠናቀቅ	-10.7027
▁ያግኙ	-10.7027
▁ጠይቋል፡፡	-10.7028
ሻምፒዮንስ	-10.7028
▁ለመፈፀም	-10.7028
▁አገዛዝ	-10.7029
▁የእስልምና	-10.7035
▁ባንኪንግ	-10.7035
ኒያ	-10.7037
▁ፒ	-10.7041
▁74	-10.7042
▁ፕሬዚዳንቱ	-10.7042
ከው	-10.7043
ችርቻሮ	-10.7043
▁ጣሰው	-10.7048
▁በማስመሰል	-10.7049
▁ሊሆኑ	-10.705
▁ለማሳየት	-10.7051
▁ሲመለሱ	-10.7051
▁2:30	-10.7052
▁የጥሎ	-10.7052
▁የኢንቨስትመንት	-10.7053
ዋል፡፡	-10.7055
▁ጥይቶች	-10.7057
▁ጥርጣሬ	-10.7057
▁ቴድሮስ	-10.7059
▁ጤናማ	-10.7059
▁ውኃ	-10.7065
▁ረ	-10.7077
▁የጋሞ	-10.708
▁አንጋፋው	-10.708
▁ሻይ	-10.7081
▁ውለዋል።	-10.7083
▁ማሸነፉን	-10.7087
ጠላት	-10.7088
▁ተደምጧል	-10.709
▁የሚጫወቱ	-10.7092
▁በቅድሚያ	-10.7092
▁ምርመራው	-10.7093
▁ሄደው	-10.7094
▁ሎዛ	-10.7095
▁ቆቦ	-10.7098
▁ኬ	-10.7099
▁በሆስፒታሉ	-10.7099
▁የሚጠበቀው	-10.7103
▁ቤሊንግሀም	-10.7104
▁ከማድረግ	-10.7106
የት	-10.7106
▁ቆሞ	-10.7107
▁የለውም።	-10.7109
▁የአቅም	-10.7113
▁አርኖልድ	-10.7114
▁አምባሳደሩ	-10.7114
▁ነሀሴ	-10.7116
ማር	-10.712
▁ተወላጅ	-10.712
▁እየገቡ	-10.7123
▁ማንሳት	-10.7129
▁የሁለቱን	-10.7131
▁ቦታችን	-10.7133
▁የቀጥታ	-10.7134
ወሩ	-10.7135
▁2019	-10.7135
▁እንክብካቤ	-10.7138
▁ድጋፉን	-10.7138
▁ለፈተና	-10.7143
▁በደረጃ	-10.7144
▁በረራዎች	-10.7145
▁ሊንኩ	-10.7146
▁የማጣሪያ	-10.7146
▁አሌክስ	-10.7148
▁ለግል	-10.7151
▁ሊዋንዶውስኪ	-10.7152
▁ዐ	-10.7152
▁መቀመጥ	-10.7158
ወር	-10.7159
▁ውድነት	-10.7159
▁ቅሬታዎች	-10.7163
▁አርብቶ	-10.7163
▁ከንቲባው	-10.7166
▁ሽንት	-10.7166
▁ስሜ	-10.7166
▁ባልታወቀ	-10.7169
▁ኩራት	-10.7173
▁በጥቂት	-10.7174
▁ፈንታ	-10.7174
▁የመመለስ	-10.7175
▁ተጠባባቂ	-10.7181
▁በመሸጥ	-10.7182
▁ሜዲካል	-10.7182
▁እንደምን	-10.7186
▁ማስመዝገብ	-10.7195
▁በመግዛት	-10.7196
▁በወር	-10.7196
▁አደርጋለሁ	-10.7197
▁የስልጠና	-10.7197
▁ከተጀመረ	-10.7199
▁በተገናኘ	-10.7201
▁የሙከራ	-10.7206
▁የተሟላ	-10.7207
▁በሜዳ	-10.7208
▁ዩንቨርስቲ	-10.7213
▁ክፉ	-10.7213
▁ኦሊ	-10.7214
▁አስደሳች	-10.7215
ታይ	-10.7215
▁ጸሎተ	-10.7217
▁የጦርነት	-10.7217
▁በድርቅ	-10.7221
▁ገንዘቡ	-10.7223
2021	-10.7223
▁የሰነድ	-10.7225
▁5000	-10.7227
72	-10.7228
▁መድን	-10.7236
▁58	-10.7239
▁ዋነኛው	-10.7247
▁ቁርጠኛ	-10.7248
▁የተዘጋጁ	-10.7249
▁መድረሳቸውን	-10.725
▁ሠራተኛ	-10.725
▁ክሱን	-10.7251
▁ሕዝቡ	-10.7259
▁ጠቁመው	-10.7261
▁እንዳስታወቁት	-10.7262
▁ለኢትዮ	-10.7262
▁እውነታ	-10.7265
▁ተጽእኖ	-10.7266
▁ፖለቲከኞች	-10.7267
▁አዋጁን	-10.7268
▁አጋጥሞ	-10.7273
▁68	-10.7275
▁ሰሚ	-10.7276
▁ተክለ	-10.7279
▁ካርቱም	-10.728
▁ጉምሩክ	-10.7282
▁በትራፊክ	-10.7284
▁ዳኝነት	-10.7288
▁ገመቹ	-10.7291
▁የሚቀጥል	-10.7291
▁ለመቆየት	-10.7292
▁ለመልቀቅ	-10.7293
▁የሚጨምር	-10.7293
▁የመጣውን	-10.7295
▁ክሱ	-10.7303
ሰጥ	-10.7305
▁የግጭት	-10.7305
▁ቪክቶር	-10.7311
▁የመጀመሪያዋ	-10.7312
▁እልባት	-10.7315
▁አሰ	-10.7316
▁ማለፋቸውን	-10.7316
▁የሚወጡ	-10.7319
▁ኮሌጆች	-10.7323
▁በምርጫው	-10.7324
▁የገጠር	-10.7326
▁ጫፍ	-10.7327
▁ቅዱሳን	-10.7333
42	-10.7334
▁ያመለክታል፡፡	-10.7342
▁የተገነባው	-10.7352
▁ሰጥተዋል፡፡	-10.7353
▁የተባለው።	-10.7362
▁ይላሉ።	-10.7365
▁መርጃ	-10.7365
▁ማርቲኔሊ	-10.7366
▁ለዓይነ	-10.7367
▁ሞስኮ	-10.7372
▁ከፍለው	-10.7373
ሁለቱም	-10.7374
ታችሁ	-10.7374
▁ሲወጣ	-10.7374
▁አንዲ	-10.7375
▁በተገቢው	-10.738
▁ሜጋ	-10.7384
ቶቹ	-10.7384
▁ሞላ	-10.7388
ወርቅ	-10.7389
ሟ	-10.7399
▁ብርድ	-10.7402
▁ጉዳቱ	-10.7405
▁ሚሳኤል	-10.7406
▁ሜዳልያ	-10.7406
▁ላላቸው	-10.7408
▁የደስታ	-10.7408
▁በግብፅ	-10.741
ተጫዋቹ	-10.7413
▁ባንዲራ	-10.7414
▁ፋውንዴሽን	-10.7415
▁ፊል	-10.7416
▁የለውጥ	-10.742
▁ለግርማ	-10.7421
▁አስተማሪ	-10.7421
▁ፍፃሜውን	-10.7423
▁ደራሽ	-10.7426
-19)	-10.7428
▁ጥረቶች	-10.7429
▁ንብረቶች	-10.743
▁67	-10.7431
▁ልማቶች	-10.7438
▁የስድስት	-10.7444
▁ከድር	-10.7445
▁በተጠቀሱት	-10.7447
▁የፋኖ	-10.7451
▁ሙስሊም	-10.7452
▁በሰሜኑ	-10.7454
▁66	-10.7457
▁ቀያዮቹ	-10.7459
▁ጋዝ	-10.746
▁እንደሌላቸው	-10.7463
▁ተጀምሮ	-10.7464
▁አስጠንቅቀዋል።	-10.7465
▁ተሟጋች	-10.7465
▁ንፁህ	-10.7466
▁የእኔ	-10.7467
▁አዎ	-10.7468
▁በሰኔ	-10.7468
▁የእርሻ	-10.747
▁ጨረቃ	-10.7474
▁ቁጠባ	-10.7476
▁ትክክለኛው	-10.748
▁ተወዳዳሪዎች	-10.748
▁እገታ	-10.7481
▁ዲላ	-10.7482
▁ጀምሯል	-10.7483
▁እንገኛለን	-10.7485
▁አለች	-10.7487
▁ገለጸ	-10.749
▁በፈረንጆቹ	-10.7492
▁ቀብር	-10.7495
▁----------	-10.7497
▁ዘመድ	-10.7499
▁10,000	-10.7506
▁ሀትሪክ	-10.7511
▁ሳህለወርቅ	-10.7514
▁እርሱ	-10.7514
▁አቅርበው	-10.7514
▁የሚገልጽ	-10.7518
ስለ	-10.7521
▁ችላለች።	-10.7522
▁ለመላክ	-10.7522
▁ባደረገ	-10.7523
▁ሃማስ	-10.7525
ሎት	-10.7526
▁ጥቃቶችን	-10.7526
▁ማድሪዱ	-10.7526
▁ኩራ	-10.7527
▁የሚኖረው	-10.7527
▁ተመጣጣኝ	-10.7527
▁ሲሚንቶ	-10.7531
▁የተሳካ	-10.7531
▁አቀባዩ	-10.7531
ስፖርት	-10.7533
▁የማን	-10.7534
▁የእረፍት	-10.7534
▁3-0	-10.7536
ሜትር	-10.7539
▁እንዲለቀቁ	-10.7539
▁ተመላክቷል፡፡	-10.754
▁ሳይቀር	-10.7542
▁የሀያ	-10.7543
65	-10.7544
▁በማቅናት	-10.7544
▁ወታደሮችን	-10.7546
▁ተመዝግቧል።	-10.7549
▁ክህደት	-10.755
▁መንሸራተት	-10.7551
▁ከአገር	-10.7551
▁ሁለቱን	-10.7553
▁እኛን	-10.7554
▁ሉዓላዊነት	-10.7554
▁መለየት	-10.7555
▁ለተጎዱ	-10.7562
▁እንደማይችሉ	-10.7564
▁የከባድ	-10.7566
▁ምልልስ	-10.7566
▁ያለፉ	-10.7568
▁የዞን	-10.757
ቴን	-10.757
▁ምልከታ	-10.7572
▁ለብሔራዊ	-10.7572
▁ሽብር	-10.7575
▁ከሁለቱ	-10.7575
▁አንዳንዶቹ	-10.7578
▁በመግለጫቸው	-10.758
▁አስፋው	-10.758
ራት	-10.7581
▁መርህ	-10.7587
▁መረጋገጡን	-10.7588
▁የጅምላ	-10.7589
▁በርሊን	-10.759
▁እንደሚገባም	-10.7592
ለች	-10.7595
አመት	-10.7597
▁መመረጥ	-10.7599
▁ቀያቸው	-10.76
▁ለነገ	-10.76
▁መጀመራቸውን	-10.7606
▁ኮንቴ	-10.7606
ጫፍ	-10.7608
▁የባየር	-10.7609
▁መኩሪያ	-10.7614
▁ልጄ	-10.7615
▁ዘላለም	-10.7616
ልክ	-10.7618
▁ጌታነህ	-10.7619
▁የዩኒቨርስቲ	-10.7621
▁ጋርድዮላ	-10.7622
▁ጉድጓድ	-10.7623
▁በግ	-10.7624
▁ጎሉን	-10.7628
▁የተጠየቁት	-10.7628
▁የወጣውን	-10.7633
700	-10.7636
ዎቻቸው	-10.7636
▁የሴርያው	-10.7639
▁ከአውሮፓ	-10.764
▁ጭነት	-10.7642
▁ቢል	-10.7644
▁ማቅረባቸውን	-10.7646
▁ማለታቸው	-10.7647
ርስ	-10.765
▁ስማርት	-10.765
ሰብ	-10.7653
▁በመደገፍ	-10.7656
▁ነገሩ	-10.7657
▁እርሶ	-10.7657
▁ገዳ	-10.7661
▁መገርሳ	-10.7665
▁በኦሮሞ	-10.7667
ውኑ	-10.7667
▁ደረጃዎች	-10.7673
▁ጥምር	-10.7677
▁ሰናይ	-10.7679
▁ዲፕሎማሲያዊ	-10.7685
▁ጄምስ	-10.7685
▁ኬላ	-10.7685
▁ለተፈናቀሉ	-10.7687
▁መማሪያ	-10.769
▁የሚነሱ	-10.7691
▁የግድ	-10.7691
▁በመምራት	-10.7697
▁ፀሐይ	-10.7702
▁ደረጃውን	-10.7703
▁የተመዘገበው	-10.7704
▁ፍፃሜው	-10.7707
▁ሰበብ	-10.7707
▁ለሚኖሩ	-10.7709
▁እንደደረሰ	-10.7709
▁የኦንላይን	-10.7709
▁ማሰባሰቢያ	-10.771
▁አድርጋ	-10.7711
▁ቡድንን	-10.7717
▁3-1	-10.7718
▁ዶሎ	-10.7723
▁የጥናት	-10.7729
▁ኔ	-10.7729
ሜዳው	-10.773
▁አረጋዊ	-10.7732
▁በቅድስት	-10.7734
▁ርምጃ	-10.7737
▁ሃይማኖታዊ	-10.7738
▁አያክስ	-10.774
▁ገዳይ	-10.7742
▁አውጥቶ	-10.7742
▁ሺዎች	-10.7743
▁ሉካ	-10.7745
▁ለማምለጥ	-10.7745
▁አውጥቷል።	-10.7747
▁እናውቃለን	-10.7747
▁ቢኖር	-10.775
▁የተመራ	-10.7752
▁ለወራት	-10.7753
▁የሥነ	-10.7758
▁ገዝ	-10.7761
▁ጉልህ	-10.7764
▁03	-10.7767
▁ርዝመት	-10.7768
▁ለማስወገድ	-10.7768
▁መሸፈኛ	-10.7768
▁እንዲቻል	-10.7769
▁እንዲሰጠው	-10.7769
▁ማኅበራት	-10.777
▁አቅራቢዎች	-10.7773
▁እንባ	-10.7774
▁ኮርፖሬት	-10.7775
▁የሆድ	-10.7775
▁ዉጤት	-10.7779
▁ተገኝቶ	-10.7782
▁ተገኝቷል።	-10.7784
▁የመሆን	-10.7787
▁ሚስጥር	-10.7787
▁ረሃብ	-10.7788
▁ተጎጂዎች	-10.7789
▁በተመረጡ	-10.7794
▁ስብሰባውን	-10.7798
▁ዳታ	-10.7799
▁የበርካታ	-10.7801
▁ቤንዚን	-10.7801
▁ተወዳጅ	-10.7801
▁አዱኛ	-10.7805
▁ጉጂ	-10.7805
▁የሚውሉ	-10.7811
▁ሶማሌ	-10.7813
▁ሙድ	-10.7813
▁የለንም	-10.7817
98	-10.7819
▁በመከተል	-10.782
▁የመሰረተ	-10.7821
▁ጂ	-10.7823
▁እንደደረሰባቸው	-10.7824
▁አለፈ።	-10.7825
▁ከሩሲያ	-10.7831
▁አጀንዳዎች	-10.7831
▁አልፈልግም	-10.7832
▁ጀምረዋል።	-10.7833
64	-10.7835
ራዊ	-10.7837
▁የታሪክ	-10.7841
▁ግምታዊ	-10.7845
▁አሳልፎ	-10.7846
▁በተቻለ	-10.7846
▁ሲሞክር	-10.7846
▁95	-10.7847
▁ሪል	-10.785
▁መና	-10.7853
▁ተደርገዋል።	-10.7856
▁ሶፍት	-10.7858
▁ክርስቶስ	-10.7863
▁ጀኔራል	-10.7864
▁ኢንጅነር	-10.7864
▁እንደሚገኙበት	-10.7865
▁ጎ	-10.787
▁የጠቆሙት	-10.787
▁ሀይሌ	-10.7878
ኤል	-10.7879
▁ተከሳሾቹ	-10.7881
ዘር	-10.7883
▁ግዙፉ	-10.7883
▁ልጆ	-10.7886
▁የነበሩትን	-10.7889
▁የሚወስዱ	-10.789
▁የሚሰራው	-10.7893
▁የመኖር	-10.7893
▁69	-10.7894
▁አለባቸው።	-10.7896
▁78	-10.7897
ች።	-10.7902
▁ካስ	-10.7904
▁በአደባባይ	-10.7904
▁ደረቅ	-10.7907
▁ባላ	-10.7909
▁ጆታ	-10.7909
▁1,	-10.7911
▁ተይዘዋል።	-10.7911
▁ይመዝገቡ	-10.7912
▁ሰማይ	-10.7913
▁እንደማ	-10.7913
31	-10.7915
▁ኢትዮጵያዊው	-10.7919
▁የሕይወት	-10.7919
▁ክምችት	-10.7922
▁ማሳደግ	-10.7924
▁ጋራ	-10.7929
ሙቀት	-10.793
▁በክብር	-10.7932
▁በድብቅ	-10.7933
▁ማድረሱን	-10.7936
▁ከሳምንት	-10.7939
▁ማቅረባቸው	-10.7948
▁መጥፋት	-10.795
▁አቆጣጠር	-10.7951
▁የፊፋ	-10.7953
▁መመለሳቸውን	-10.7954
▁እንጀራ	-10.7955
▁የአካባቢውን	-10.7957
▁የሚያስችለውን	-10.7959
▁ከህግ	-10.796
▁ጆንሰን	-10.796
▁ኦዶች	-10.7965
▁ዘጠነኛ	-10.7972
▁ሚያሚ	-10.7976
▁አክሏል።	-10.7976
▁በወታደራዊ	-10.7986
▁የወጪ	-10.7987
▁ሰማያዊዎቹ	-10.7988
▁ኬንያታ	-10.799
▁እጅጉ	-10.7991
▁አሸናፊነት	-10.7991
ኤስ	-10.7992
ቹን	-10.7992
▁እንጠይቃለን	-10.7995
▁የመልካም	-10.7996
▁መኖራቸው	-10.8002
▁ባወጡት	-10.8002
▁የነበረች	-10.8004
▁የሚችሉት	-10.8005
▁0913	-10.8005
ቱም	-10.8005
▁ውሉን	-10.8007
▁የጥገና	-10.8008
▁የሰባት	-10.8008
ዥ	-10.8009
▁እየተባባሰ	-10.801
▁የተሰራው	-10.801
▁እያሳየ	-10.8011
▁ሊወጣ	-10.8012
▁የመስጠት	-10.8013
▁ቀርቷል።	-10.8015
▁ስልጠናው	-10.8015
▁በተዘጋጀው	-10.8015
▁የቀን	-10.8016
ህወ	-10.8018
▁ማከናወን	-10.8019
▁መሆናቸዉን	-10.8019
▁በተገኘ	-10.8025
▁እንዲቋረጥ	-10.8029
▁የታገዘ	-10.8031
▁ቆይቷል፡፡	-10.8036
▁የመድኃኒት	-10.8038
▁ፕሮ	-10.8038
▁ወሬዎች	-10.8039
▁ዝርያ	-10.8039
▁የሚያስፈልጉ	-10.8046
▁የፀጥታው	-10.8047
በዚህም	-10.8052
▁የዘንድሮ	-10.8053
▁የተቋረጠው	-10.8053
▁ካደረጉ	-10.8053
▁ሁ	-10.8054
▁አስቆጥሮ	-10.8055
ስላሴ	-10.8057
▁ደረሰኝ	-10.8058
▁ቡዳ	-10.806
▁የራቀ	-10.8061
▁98	-10.8065
▁አቤል	-10.8068
▁አብ	-10.8068
▁ዓመታቸው	-10.8069
▁የድምጽ	-10.8072
▁ሊባኖስ	-10.8072
▁ተከትሎም	-10.8072
▁ኮን	-10.8076
▁ቃላት	-10.8077
▁ተወያይቶ	-10.8081
▁76	-10.8083
▁ከተደረገ	-10.8087
▁በማካሄድ	-10.8089
▁ተመራማሪዎች	-10.8089
▁ከመኖሪያ	-10.8092
▁መቃብር	-10.8092
ማገገም	-10.8093
▁ንፁሃን	-10.8094
ተጨማሪ	-10.8097
▁እንግሊዛዊ	-10.8103
▁እስ	-10.8105
▁አከባበር	-10.8105
▁ዛፍ	-10.8109
▁ፋይዳ	-10.8118
▁የሳምንቱ	-10.812
▁እንዲጠቀሙ	-10.8124
▁እንዲሰራ	-10.8124
▁በሳውዲ	-10.8126
▁ሆነን	-10.8128
▁ማቋቋም	-10.8128
▁መርከብ	-10.8129
▁ፕሬዚደንት	-10.8133
▁ለማገዝ	-10.8135
▁አይደሉም	-10.8136
▁የቀኝ	-10.8144
▁ከገባ	-10.8144
ፈጥነው	-10.8144
▁እቃዎችን	-10.8151
▁አስራት	-10.8152
?”	-10.8153
▁ለወንዶች	-10.8154
800	-10.8154
▁ሥርዓተ	-10.8155
▁ይኖራል	-10.8158
▁ይገባዋል	-10.8159
ሌተናል	-10.816
▁እፅ	-10.816
▁እርሻ	-10.8161
▁ፈፅሞ	-10.8161
▁ማጠናከር	-10.8162
▁የእኛ	-10.8162
▁ሬድዋን	-10.8162
▁የወደፊት	-10.8163
▁ግዥ	-10.8165
▁ልጆቻቸውን	-10.8169
▁በስልጣን	-10.8171
▁የብራዚል	-10.8171
▁እየቀረበ	-10.8173
ከቡድኑ	-10.8174
▁ናፍጣ	-10.8174
▁ትገኛለች።	-10.8176
▁የመስቀል	-10.8178
▁ትልልቅ	-10.8179
ብህ	-10.8179
ተጠቀሰው	-10.8187
▁መነጋገሪያ	-10.8188
▁ጸጋዬ	-10.8189
▁እንዳይጎዳ	-10.819
▁ይባላል።	-10.819
▁አርኔ	-10.8191
▁የሚያግዝ	-10.8192
▁መስተዳድሩ	-10.8193
▁ምሥራቅ	-10.8194
▁ሁሌ	-10.8194
▁በጅቡቲ	-10.8198
▁ያሳለፈው	-10.8201
▁አብመድ	-10.8206
▁በእነ	-10.8206
▁በዓላት	-10.8208
▁ባለቤቱ	-10.8208
▁ድምፃዊ	-10.8209
▁አጋርነት	-10.821
▁በአንዱ	-10.8213
▁ሞሃመድ	-10.8215
▁ተጠቂ	-10.8226
▁ያሳያል፡፡	-10.8229
▁ገዥ	-10.8232
▁በደብዳቤ	-10.8241
▁እንዲያልፍ	-10.8242
▁ለማስተማር	-10.8243
▁መብታቸው	-10.8245
▁ከሁሉ	-10.8246
▁ገፅታ	-10.8247
▁የሚቆጠር	-10.8249
▁ፈላጊዎች	-10.8249
ወጣ	-10.8251
▁ስላሉ	-10.8252
▁የሆስፒታሉ	-10.8254
▁ሊገባ	-10.8256
▁አመሻሽ	-10.8257
ሆን	-10.8257
▁አባቱ	-10.8259
▁ነገረ	-10.8262
▁የቀበሌ	-10.8264
▁የቀይ	-10.8265
ሚያ	-10.8266
▁ፎቶ፦	-10.8269
▁ለማዳን	-10.827
▁በማጣራት	-10.8272
▁ራዕይ	-10.8275
▁71	-10.8281
▁በለጠ	-10.8282
▁ተመራጭ	-10.8286
▁በሰባት	-10.8286
▁በቋሚ	-10.8289
.......	-10.8289
▁ዕጣዎች	-10.829
▁መላኩን	-10.8291
▁ዩኒቨርስቲው	-10.8292
▁የሟች	-10.8292
▁ዶሮ	-10.8297
ዎቻችን	-10.8298
▁ማርኮ	-10.8299
▁መጠንን	-10.8301
▁እንልካለን	-10.8303
▁ስሎት	-10.8305
▁ኖርዊች	-10.8307
▁ዉጪ	-10.8311
▁ፍቅረኛ	-10.8312
▁ተደምጠዋል	-10.8319
▁ባለሥልጣኑ	-10.8319
▁በሆነችው	-10.8322
▁ቦንብ	-10.8323
▁ለመፈጸም	-10.8323
▁ሲከታተሉ	-10.8324
▁ሲሞቱ	-10.8326
▁እንዳጋጠመው	-10.8329
▁የስለላ	-10.8334
▁የቀረቡት	-10.8338
▁አጋዥ	-10.8338
▁ድም	-10.8339
▁አምባ	-10.834
▁ንዋይ	-10.8345
▁እንዳላት	-10.8345
▁ዋጋው	-10.8349
▁የሰጠ	-10.8354
▁የቆዩት	-10.8357
▁እሮብ	-10.8359
▁የዲኤስቲቪ	-10.836
ባችሁ	-10.836
ሪፖርተር	-10.8361
▁ሳይክል	-10.8366
▁የጥንቃቄ	-10.8375
▁የሚጠራው	-10.8375
▁ማቅረቡን	-10.8378
▁በመቅረብ	-10.8378
▁የኢድ	-10.8381
▁በመተከል	-10.8384
▁አዳነ	-10.8385
▁በትዕግስት	-10.8386
▁ስምኦን	-10.8387
▁ፍልሚያ	-10.8388
▁ከእስራኤል	-10.8388
ወች	-10.8389
▁ወግ	-10.8391
▁መሰጠቱን	-10.8394
▁ሳያ	-10.8397
▁2,	-10.8397
▁መወሰዱን	-10.8398
▁ልደቱ	-10.8399
▁አመራሮችና	-10.84
▁ሀገሩ	-10.84
▁ሊዮን	-10.8403
▁ጦሩ	-10.8403
▁ሰጠ	-10.8405
ኳ	-10.8407
▁እየወጡ	-10.8409
▁የኮሙኒኬሽን	-10.841
▁ከአርሰናል	-10.8412
▁ዳይክ	-10.8415
▁አስከ	-10.8417
▁የዋንጫ	-10.8417
▁ሮሜ	-10.8418
ሁሩ	-10.8423
▁ቴክኒክ	-10.8423
▁የተያያዙ	-10.8426
ኝ።	-10.8426
ላሊጋው	-10.8427
▁ማሽከርከር	-10.8428
▁ኮፒው፣	-10.8431
▁የጥራት	-10.8432
▁የተከሰተ	-10.8432
▁ስሜነህ	-10.8433
▁ኢንተለጀንስ	-10.8433
▁ፕሮፌሰርነት	-10.8437
▁የአስራ	-10.8437
▁ሰርቶ	-10.8437
▁ሄ	-10.8438
▁አዘጋጅቶ	-10.8438
▁ኖር	-10.8442
አጠቃላይ	-10.8442
▁አመታዊ	-10.8444
▁ልገሳ	-10.8444
▁ውይይቶች	-10.8446
▁ብን	-10.845
ኢንዞ	-10.8452
▁ቢጫ	-10.8454
▁መንበር	-10.8454
ሁት	-10.8454
▁ፈጽሞ	-10.8456
▁ትላልቅ	-10.8456
ኞች	-10.8459
▁በመገኘቱ	-10.8461
▁ተኩል	-10.8462
▁ያስቆጠረ	-10.8467
▁በጉባኤው	-10.847
▁አላስፈላጊ	-10.847
▁እሺ	-10.8476
▁ጉርድ	-10.8476
▁ጀግና	-10.848
▁እጁን	-10.8481
▁ተጥሎ	-10.8483
▁ችሏል፡፡	-10.8485
▁የጎንዮሽ	-10.8488
▁የተመለከተ	-10.8488
▁ሙቀት	-10.8488
▁የአፈር	-10.8491
▁ነሽ	-10.8491
▁በንግግራቸውም	-10.8493
▁የሽልማት	-10.8493
▁በመግደል	-10.8494
▁ተገኘ	-10.8496
▁ለሚመጡ	-10.8499
▁አግኝቶ	-10.85
▁እያስ	-10.8501
ሞት	-10.8508
▁ቴፒ	-10.8508
▁ምስክሮች	-10.8513
▁የደሴ	-10.8514
▁ናቸዉ።	-10.8514
▁ጅማሮ	-10.8515
▁መጨመሪያ	-10.8516
▁ያስቆጠራቸው	-10.8516
ህም	-10.8518
▁ጃ	-10.8518
44	-10.8519
▁ከቦሌ	-10.8521
▁በዚ	-10.8521
▁ኢን	-10.8528
▁አድርጉ	-10.853
▁የመደበኛ	-10.8533
▁አንዳርጋቸው	-10.8533
▁ጫት	-10.8535
▁የቻሉ	-10.8535
▁በውስጥ	-10.854
▁---	-10.854
▁በቤተ	-10.8541
▁ምሳሌ	-10.8542
▁ፍሰት	-10.8544
▁እየተሰራጨ	-10.8547
▁ሲነገር	-10.8553
▁በበቂ	-10.8556
▁የቢዝነስ	-10.8557
▁3:00	-10.8559
▁ቆይታው	-10.8559
▁የቆየውን	-10.8562
▁አጋሮች	-10.8563
▁የማህበሩ	-10.8563
ኘ	-10.8567
▁ተመልሷል	-10.8569
▁እናቀርባለን	-10.8569
ለም	-10.8569
ሚኒስትሩ	-10.8569
▁ባለዉ	-10.857
▁አይሆንም	-10.8571
▁ማጭበርበር	-10.8571
▁ያገኙ	-10.8572
▁101.1	-10.8572
▁እየተሸጠ	-10.8573
▁አድ	-10.8573
▁ቦምብ	-10.8574
▁እላፊ	-10.8574
ላንድ	-10.8579
▁የጁ	-10.8579
▁የዋለው	-10.8579
▁ኮሌጁ	-10.858
▁በደረሰበት	-10.8582
▁ሀምሳ	-10.8583
ቷል	-10.8585
▁ፊልሞች	-10.8587
▁በሪፖርቱ	-10.8588
▁ስንታየሁ	-10.8589
▁ስንዴ	-10.859
ሽንና	-10.8592
▁3000	-10.8595
ማምራት	-10.8597
▁ተሻጋሪ	-10.8599
▁ጅፋር	-10.86
▁ዘጋቢ	-10.8602
▁የደሞዝ	-10.8605
▁የበኩሉ	-10.8607
▁የሸገር	-10.8608
ውያን	-10.861
ያለአግባብ	-10.8613
ስራ	-10.8615
▁ተመልሰዋል።	-10.8615
▁ቦረና	-10.8617
▁ተሞክሮ	-10.8618
▁በፖለቲካ	-10.8622
▁አይደለም፤	-10.8623
▁ካደረገ	-10.8624
ጊዮርጊስ	-10.8625
▁አንጋፋ	-10.8626
▁የተናገሩት።	-10.8627
▁የፈፀመው	-10.8628
▁አይዘነጋም፡፡	-10.863
▁ባለሃብቶች	-10.8632
▁82	-10.8634
▁መቋቋም	-10.8634
▁የሚሆነውን	-10.8638
▁99	-10.8641
▁ቁ	-10.8646
▁አቤ	-10.8648
▁ብርጋዴ	-10.8648
▁በድል	-10.8648
▁ፋብሪካው	-10.8653
▁ቦታዎችን	-10.8656
▁እየተደረጉ	-10.8656
▁አንስተው	-10.8658
▁ለመስማት	-10.8658
▁የማስታወቂያ	-10.8662
መገናኛ	-10.8662
▁ባቀረበው	-10.8663
▁ላጣ	-10.8664
▁የሚያሳዩ	-10.8664
▁ተሰማ።	-10.8666
▁መጀመራቸው	-10.8667
▁በልምድ	-10.8669
▁ችግኝ	-10.8671
▁ባለሙያው	-10.8673
▁ታይምስ	-10.8676
ምግባር	-10.8679
▁ወያነ	-10.8684
▁ጎፋ	-10.8685
▁የአንድነት	-10.8685
▁ተመልሰው	-10.8686
▁ለማቆም	-10.8688
ነጥብ	-10.8688
▁የባሎን	-10.8691
▁አምራቾች	-10.8693
▁የህንድ	-10.8698
ሄ	-10.8698
▁ስንተኛ	-10.87
▁ዕቃ	-10.8702
▁ወንድሜ	-10.8706
▁ወልድያ	-10.8711
▁ሰከንድ	-10.8712
▁በአበረ	-10.8714
43	-10.8714
▁ሲመለከት	-10.8715
▁የትም	-10.8715
▁አቡ	-10.8721
▁ባለሞያ	-10.8722
▁ተባለ።	-10.8724
▁የተቀላቀለው	-10.8724
▁ማስተላለፍ	-10.8731
▁በፖስታ	-10.8733
▁በባህርዳር	-10.8734
▁እንዲቀርብ	-10.8734
▁ዞኑ	-10.8737
▁አፍንጫ	-10.8738
▁የካንሰር	-10.8738
▁ቅርሶች	-10.8739
▁አብዱላሂ	-10.874
▁አባቴ	-10.8742
▁የድኅረ	-10.8742
▁ከተደረገው	-10.8745
▁ቀያይ	-10.8745
▁በማምጣት	-10.8747
▁ተፋላሚ	-10.8748
▁ጉልበት	-10.8749
▁ክፍፍል	-10.8749
▁79	-10.8749
▁ሰልፈኞች	-10.875
▁ዋንጫዎችን	-10.8752
▁ሀላፊው	-10.8752
▁ዋትፎርድ	-10.8753
▁ሂሩት	-10.8755
▁737	-10.8755
▁ፍኖተ	-10.8756
ደረጃ	-10.8761
ሁን	-10.8765
▁ተፈሪ	-10.8767
▁አቋርጠው	-10.8772
▁ክፍሉ	-10.8774
▁በጅምላ	-10.8776
ኒውክሌር	-10.8781
▁የውል	-10.8785
▁ቴአትር	-10.879
▁መግባታቸው	-10.8791
▁ቀልድ	-10.8794
▁እያለች	-10.8796
▁ሁንዴሳ	-10.8797
▁መፈጸም	-10.8798
▁የተላከ	-10.8803
▁ዕለታት	-10.8803
▁2-2	-10.8804
▁የተገደሉት	-10.8811
▁በማረሚያ	-10.8814
▁የሚፈታ	-10.8814
▁የተቀመጡ	-10.8818
▁በግቢው	-10.8822
▁ለመለየት	-10.8827
▁ትዕግስት	-10.8828
▁አዕምሮ	-10.8828
▁የአመራር	-10.8832
▁ተገድለዋል	-10.8833
▁ሰብል	-10.8833
▁ይሸለሙ	-10.8835
▁መስኮቱ	-10.8838
▁የዓለማችን	-10.8839
▁የጉራጌ	-10.884
▁እባካችሁ	-10.8841
▁-,	-10.8846
ሚመለከተው	-10.8847
▁መቁሰላቸውን	-10.8848
▁የጋዛ	-10.8849
ኢሰመኮ	-10.885
▁ከሰሜን	-10.8851
▁ተገቢው	-10.8853
▁ለፍፃሜ	-10.8854
▁ላሊበላ	-10.8854
እኤአ	-10.8855
▁እንዲጠብቁ	-10.8855
▁ለማስተካከል	-10.8855
▁በንግግር	-10.8862
በቴሌግራም	-10.8863
▁ጠቀሜታ	-10.8864
▁ማዘ	-10.8864
▁አድርጋለች።	-10.8867
▁በኳታር	-10.8874
▁መገለጫ	-10.8874
ማስጠንቀቂያ	-10.8877
▁ካይ	-10.8881
▁ተዘርዝረዋል	-10.8883
▁እንያዝ	-10.8884
▁ተሰማርተው	-10.8885
ራቸው	-10.8885
▁እየተስፋፋ	-10.8887
▁በመክፈት	-10.8891
▁ለመነጋገር	-10.8894
▁ቆሻሻ	-10.8894
▁በተደረጉ	-10.8894
▁የዋሉ	-10.8896
▁ውስብስብ	-10.8898
▁ያደረገችው	-10.8903
▁መስጠቱ	-10.8905
▁ማደያዎች	-10.8908
▁ጨርቅ	-10.891
▁በምሽቱ	-10.8912
▁ወረርሽኙ	-10.8913
▁ማስጨበጫ	-10.8915
▁ብስክሌት	-10.8918
▁የጎደለው	-10.8921
▁የተደረገውን	-10.8922
ብሏል።	-10.8922
▁ተያዘ	-10.8927
▁አንዳንዶች	-10.8933
▁ወስ	-10.8935
▁ትምህርቱን	-10.8936
▁እነሆ	-10.8937
▁0953964175	-10.8941
▁ኑኔዝ	-10.8941
▁ሊያደርጉ	-10.8941
▁ራይስ	-10.8941
▁ኦማር	-10.8943
▁መተግበሪያው	-10.8946
ሶች	-10.8946
▁በመረዳት	-10.8948
▁ለአለም	-10.8949
▁ራሷን	-10.8954
▁ዱቄት	-10.8955
▁የሚኖር	-10.8956
▁ከሊቨርፑል	-10.8961
▁እንደርታ	-10.8964
▁ተፈጥሯዊ	-10.8966
▁ከየት	-10.8967
▁ጠይቆ	-10.8968
▁ይጠናቀቃል	-10.8969
▁ሲቀጥል	-10.8973
▁መንገዱን	-10.8975
▁ፍትሃዊ	-10.8976
▁ለማስፈን	-10.8977
▁በምሥራቅ	-10.8979
መስተፋቅር	-10.8982
▁ንግግሮች	-10.8985
▁84	-10.8986
▁በሜዳቸው	-10.8986
ፊልድ	-10.8986
▁ጉድ	-10.8987
በኢትዮጵያ	-10.8987
▁ራሴን	-10.8989
▁ያለባቸውን	-10.8993
▁የጀርመኑ	-10.8996
▁ማርሻል	-10.8996
▁ተቋቁሞ	-10.8999
▁እንዲከፍሉ	-10.8999
▁አስገንዝበዋል።	-10.9
▁ከመቼው	-10.9001
▁ተዘግቶ	-10.9004
▁እንዲሰፍን	-10.9004
▁ርክክብ	-10.9009
▁በማስረጃ	-10.9013
▁በንፋስ	-10.9014
ት።	-10.9017
▁ዶክተሮች	-10.9021
▁ሊቨርኩሰን	-10.9022
▁ዛቻ	-10.9023
▁ለማዘጋጀት	-10.9028
▁ማጠቃለያ	-10.9028
▁የሚቀርቡ	-10.9028
▁88	-10.9031
▁ኤምባሲው	-10.9032
▁ሚን	-10.9033
▁ፓርኮች	-10.9035
▁ለታሰረ	-10.9037
▁የውኃ	-10.9039
▁በረሃብ	-10.9043
ኗ	-10.9043
▁አው	-10.9044
▁ቴ	-10.9045
▁ገበያው	-10.9047
ሊጉ	-10.9047
▁የፌዴሬሽን	-10.9048
ረዥም	-10.9048
▁ዓቃቤ	-10.905
▁በመምጣቱ	-10.9051
▁ሀሰት	-10.9054
▁ይኖረዋል	-10.9056
▁የሚገልፅ	-10.9058
▁በሊቨርፑል	-10.906
▁12.	-10.9065
▁ማራኪ	-10.9066
▁ሳሉ	-10.9066
▁ፒያሳ	-10.9066
▁የኢህአዴግ	-10.9074
▁ከወሰዱ	-10.9081
▁ተሰጥቶ	-10.9087
▁ጫላ	-10.9087
▁ያሸንፋል	-10.9088
▁ድምር	-10.9089
▁ዘመቻው	-10.9091
▁እጃቸውን	-10.9094
▁የገቡት	-10.9096
▁ይችላል፡፡	-10.9097
▁ከብቶች	-10.9097
▁ችላ	-10.9099
▁የጉዳት	-10.9102
▁የኦሎምፒክ	-10.9102
▁አፈር	-10.9106
▁አስመራ	-10.9108
▁የላቦራቶሪ	-10.9116
▁አጠናቆ	-10.9116
▁ወድቆ	-10.9116
▁ማክበር	-10.9117
▁ተጠልለው	-10.9119
▁የሱፍ	-10.9123
▁ድንጋጌ	-10.9123
▁መሆኑንና	-10.9127
▁የተገለፀው።	-10.9128
▁ሲወጡ	-10.9128
▁እነዲፈ	-10.9129
▁ሻሸመኔ	-10.913
እግርኳስ	-10.9135
▁ጉቦ	-10.914
▁ሙስሊሙ	-10.914
▁ጎማ	-10.9143
▁በቅድመ	-10.9143
▁እንድታደርጉ	-10.9145
▁ቨለ	-10.9147
▁በህጋዊ	-10.9149
▁ገብነት	-10.9151
▁መዝገቡ	-10.9154
▁ከውጪ	-10.9155
▁ሠናይ	-10.9155
▁በመክፈል	-10.9155
▁ይከታተሉ	-10.9155
▁ጋብቻ	-10.9157
▁ጁሊያ	-10.9166
ኳታሩ	-10.917
▁ቲያጎ	-10.9171
▁ወራሪ	-10.9171
▁አሸባሪ	-10.9171
▁ፖላንድ	-10.9172
▁በዋናው	-10.9173
▁አማረ	-10.9174
▁አስታውቃለች።	-10.9178
▁ታግተው	-10.9178
▁ውጥር	-10.9179
▁በመተላለፍ	-10.9179
▁የልምምድ	-10.918
▁102.1	-10.9185
▁በስጦታ	-10.9186
▁ሜንዲ	-10.9186
▁አውደ	-10.9188
▁ፍጆታ	-10.9188
▁የሚከናወን	-10.919
▁የሆነች	-10.919
▁የኢኖ	-10.9194
▁የቶተንሀም	-10.9195
ጀነራል	-10.9196
▁የጣለው	-10.9196
▁ህይወታቸዉን	-10.9196
▁ውስጣዊ	-10.9203
▁የትኛውን	-10.9205
ለያይ	-10.9207
▁አምስቱ	-10.9207
▁ተሳፋሪዎች	-10.9209
▁አንዳንዴ	-10.921
▁ወልዲያ	-10.9215
▁2025	-10.9216
▁አጠናቋል።	-10.9217
▁ሴኔት	-10.9217
▁የታክሲ	-10.9219
▁ከሀገሪቱ	-10.9219
▁ካሜሮን	-10.922
ነር	-10.9221
▁የመፈተኛ	-10.9226
▁ጨው	-10.9228
▁የሃገሪቱ	-10.9229
▁አውስትራሊያ	-10.9229
▁ቆዳ	-10.9229
▁የአክሱም	-10.9233
▁ሀገሮች	-10.9234
ተወዳጁ	-10.9235
▁ባጃጅ	-10.9236
▁ማክስ	-10.9236
▁እየተከታተሉ	-10.9237
ጥር	-10.924
▁ሲመጡ	-10.9241
▁ሠዓት	-10.9241
▁የቤኒሻንጉል	-10.9242
▁ለሶስተኛ	-10.9243
ኛውን	-10.9243
▁የምትገኘው	-10.9248
▁መገኘቱ	-10.9248
▁የገለጹት።	-10.9249
▁ጁላ	-10.925
▁መምጣቱ	-10.9252
▁ዝግጅቱ	-10.9254
▁ያቀረቡ	-10.9264
▁የምትገኙ	-10.9267
ቀው	-10.9268
▁ተመራማሪ	-10.9268
▁አፍ	-10.9268
ያስቆጥሩ	-10.9268
▁በአቃቂ	-10.9269
▁ለመመስረት	-10.9271
▁በእለቱ	-10.9271
▁ፖርቶ	-10.9275
▁ገለፁ።	-10.9276
▁እያደረሰ	-10.9277
▁የፈፀሙ	-10.9279
▁መስተፋቅር	-10.9282
▁ግብዓቶች	-10.9285
▁ስላለ	-10.9293
እንዲቀናህ	-10.9295
▁እንዲከታተሉ	-10.9295
▁ባልሆነ	-10.9296
▁ያለችው	-10.9297
▁አቅሙ	-10.9298
▁ለየት	-10.9299
▁ከቼልሲ	-10.93
▁ማዋል	-10.9302
▁ቶኒ	-10.9304
▁ካውንስል	-10.9306
▁ዋይት	-10.9311
▁ፍሬው	-10.9312
▁በጅግጅጋ	-10.9314
▁የሚታይ	-10.9314
▁77	-10.9321
▁ሀያል	-10.9327
▁ሲችል	-10.9328
▁ሕገወጥ	-10.9333
▁87	-10.9335
▁የባጃጅ	-10.9335
▁የጠየቀው	-10.9336
▁አልቻሉም	-10.9337
በላ	-10.934
▁ተዋናይ	-10.9341
▁ፎር	-10.9342
ጠራ	-10.9342
▁የገዛ	-10.9347
▁ወልዴ	-10.9349
አን	-10.9351
▁ዐቀፍ	-10.9354
▁ያኔ	-10.9356
▁አክለዋል፡፡	-10.9359
ሉ።	-10.9359
▁መመሪያው	-10.9362
▁በአሶሳ	-10.9363
▁በንግግሩ	-10.9363
▁ስልኮችን	-10.9365
▁1.5	-10.9365
▁ሽንፈትን	-10.9366
▁ሥጋት	-10.9366
▁እንዲመሩ	-10.9366
▁ወንጀሉ	-10.937
▁ከነሐሴ	-10.9373
▁ንጉሱ	-10.9377
▁ልጆቻቸው	-10.938
ነዋሪነት	-10.938
▁ተሸን	-10.9384
▁እንዲያቀርቡ	-10.9385
▁ለመጣል	-10.9386
ያችን	-10.9387
▁ኦናና	-10.9387
▁ለመክስ	-10.9387
▁ነች።	-10.9388
▁በማስ	-10.939
▁በቡድኑ	-10.939
▁ሥርዓቱ	-10.9391
▁የመሳሰሉ	-10.9392
▁የታሪፍ	-10.9392
▁ከሪያል	-10.9393
▁ይለኛል	-10.9395
▁አይችልም።	-10.9396
▁አመራሮችን	-10.94
▁ጠየቀ	-10.9402
▁ደረጀ	-10.9404
▁አስተናግ	-10.9405
▁የካቢኔ	-10.9406
▁ሙዚየም	-10.9407
▁በሱ	-10.9407
▁ተሳትፎን	-10.9411
▁ባይኖርም	-10.9412
▁ማድረጊያ	-10.9415
ው።	-10.9415
▁ማስረጃዎችን	-10.9419
▁ኦፍ	-10.9419
መን	-10.9419
▁በማሰባሰብ	-10.942
▁ኢማኑኤል	-10.9426
▁ምኞት	-10.9428
▁እየተዘጋጀ	-10.9431
ሳይንስና	-10.9433
▁ስራቸው	-10.9434
▁አቻው	-10.9435
▁ብርቱካን	-10.9437
▁መልዕክቶችን	-10.9438
▁ከኤርትራ	-10.9441
▁አም	-10.9443
▁እጃቸው	-10.9443
39	-10.9444
▁አራተኛው	-10.9444
▁ከሰኞ	-10.9445
▁ያገኘ	-10.9446
▁እንደሚያሳየው	-10.9447
▁ሸኮ	-10.9447
▁ነዋሪው	-10.9448
▁ወረርሽኝን	-10.9448
▁ለመክፈት	-10.9448
▁ትንኮሳ	-10.9454
▁በግንቦት	-10.9456
▁ከክልል	-10.9457
▁ወጣቶቹ	-10.9459
▁እነሱን	-10.946
ሚኖረው	-10.9461
▁የጠቀሱት	-10.9463
▁ፖስቱ	-10.9464
▁እየገባ	-10.9468
▁የከተማዋን	-10.9471
▁ሀገራችንን	-10.9475
▁73	-10.9475
▁ፌስቲቫል	-10.9476
▁ለመወሰን	-10.9476
▁እንዲሳተፉ	-10.9476
▁አዳጋች	-10.9477
▁ማትረፍ	-10.9477
▁ማስተናገድ	-10.9479
▁አክሊሉ	-10.9482
▁ቀንቷቸዋል	-10.9483
▁ሕወ	-10.9483
▁ስለሚችል	-10.949
▁ሰውዬ	-10.9491
▁አድርጎታል	-10.9492
▁ቀጣናዊ	-10.9495
▁በገዛ	-10.9499
▁የመጀመርያ	-10.95
▁ኦዲት	-10.9504
▁ለማስቀረት	-10.9506
▁ለማስቻል	-10.9506
▁አደጋውን	-10.9507
▁በአመት	-10.9507
▁በደረሱ	-10.951
▁ለሴት	-10.951
ንድ	-10.9511
▁በቀጠናው	-10.9516
▁ሴሚስተር	-10.9519
▁ፕሬዝዳንታዊ	-10.9519
ሰራ	-10.952
▁ዘርፈ	-10.952
▁ለተፈጠረው	-10.9522
▁ሞተዋል።	-10.9522
▁ገቡ	-10.9523
▁የምትችሉ	-10.9524
ዘመን	-10.9528
46	-10.9529
ፈለጉት	-10.9531
▁መዋላቸው	-10.9532
▁በል	-10.9534
▁በመቀሌ	-10.9534
▁ቆንስላ	-10.9537
▁በምንም	-10.9538
▁ተቆጣጣሪ	-10.9539
▁በማረጋገጥ	-10.954
▁አሪፍ	-10.954
▁ህይወቱን	-10.954
▁የክትትል	-10.9543
▁ሽልማቱን	-10.9549
▁እስቲ	-10.9552
▁ይቅር	-10.9553
▁ተያዙ	-10.9553
አዲሱ	-10.9554
▁አስታወቀች	-10.9556
▁የማነ	-10.9557
▁ጉዳፍ	-10.9557
▁የበሽታው	-10.9562
▁የሆነዉ	-10.9564
▁ዓርብ	-10.9567
ፖሊስ	-10.9568
▁ሲጠበቅ	-10.957
▁ከሆኑት	-10.9572
▁በነዚህ	-10.9572
ትላልቅ	-10.9572
▁ሰርተፊኬት	-10.9573
▁አጠናቀው	-10.9573
▁ያለነው	-10.9573
▁መሰናክል	-10.9574
▁ውሳኔዎችን	-10.9576
▁የፓለቲካ	-10.9585
▁ታግ	-10.9586
▁ይዞት	-10.9586
▁በአማርኛ	-10.959
▁በግማሽ	-10.959
▁በተሳካ	-10.959
•	-10.9591
ዋቸው	-10.9598
▁በቀር	-10.9598
▁በመወከል	-10.9599
▁ደግ	-10.9601
▁መጓዝ	-10.9602
▁በተሰጠ	-10.9602
▁ትክክለኛውን	-10.9606
▁ሌቨርኩሰን	-10.9606
▁ወልደ	-10.9606
▁ምህንድስና	-10.9606
▁ሁልጊዜ	-10.9607
▁ማዳን	-10.9608
▁በተፈፀመ	-10.9611
ላግባብ	-10.9611
▁ገብቷል	-10.9614
▁ከአስራ	-10.9615
▁በባንክ	-10.9616
▁እንዲመጣ	-10.9617
▁ነባራዊ	-10.9618
▁መጋዘን	-10.9621
▁89	-10.9621
▁ዲሞክራሲ	-10.9625
▁ማጠናቀቁን	-10.9625
▁የጃፓን	-10.9627
▁ዲሞክራሲያዊ	-10.9631
▁ያለንን	-10.9631
▁የሌለ	-10.9631
▁ገልጻለች።	-10.9631
▁ባዘጋጀው	-10.9633
▁ለቀለም	-10.9635
▁ያዘጋጀው	-10.9637
▁ባወጣ	-10.9639
▁አመራሮቹ	-10.964
▁ሰባ	-10.964
▁ላዚዮ	-10.964
▁በርከት	-10.9641
▁ከውድድሩ	-10.9641
▁ልታ	-10.9644
▁በሸገር	-10.9644
▁የኢሚግሬሽን	-10.9645
▁ነን።	-10.9645
▁የአገልግሎቱ	-10.9649
ፈራ	-10.965
▁ጠባቂዎች	-10.9655
47	-10.9659
▁የድል	-10.966
▁ሊከሰት	-10.9661
▁በማጠናከር	-10.9661
▁እንዲያቆሙ	-10.9661
▁እንዲጠብቅ	-10.9662
▁ኔዘርላንድ	-10.9666
▁ሹፌር	-10.9667
▁በመኖሩ	-10.9668
▁ኤርዶጋን	-10.9669
▁ለጉዳዩ	-10.9669
▁ለአደጋ	-10.9675
▁በለንደን	-10.9676
▁ካላ	-10.9677
▁የልጆች	-10.9679
▁ምሳ	-10.968
▁ያድርጉ	-10.9683
▁የታክስ	-10.9689
▁የሞተር	-10.9692
▁በመፈጸም	-10.9692
▁የደረሱት	-10.9693
▁የስርቆት	-10.9694
አርቲስት	-10.9695
▁ከተማዋን	-10.97
▁መጠነ	-10.9702
95	-10.9706
▁የተደራጁ	-10.9709
▁ስትራቴጂ	-10.9709
▁በወጣ	-10.9714
የአስገድዶ	-10.9716
▁አፍሮ	-10.9718
▁ኔትዎርክ	-10.9721
▁ግኝት	-10.9723
▁የዜጎች	-10.9728
▁የሚነግር	-10.9728
▁ደቡባዊ	-10.973
▁ቤቲስ	-10.9737
▁መቀላቀሉ	-10.9739
▁እየተከታተለ	-10.974
▁ጸሎት	-10.9741
▁ከሶማሊያ	-10.9744
መስቀል	-10.9745
▁ማርሴይ	-10.9749
ቢያ	-10.975
▁ሂ	-10.9754
▁ፅጌ	-10.9754
▁ማከፋፈያ	-10.9754
▁በየዕለቱ	-10.9754
▁ቶላ	-10.9756
▁እንዳለፈ	-10.9761
▁81	-10.9762
▁ላምፓርድ	-10.9762
ዛሬዋ	-10.9763
▁ክርስቲያናት	-10.9766
▁የሚችለውን	-10.9767
▁ዮሴፍ	-10.977
▁ሀይቅ	-10.977
▁መሥራት	-10.9772
▁ኤች	-10.9773
▁በአርባ	-10.9773
▁ማሻሻል	-10.9774
▁ወጭ	-10.9774
▁የቦምብ	-10.9776
▁የዘርፉ	-10.978
ገር	-10.9781
▁ተጣርቶ	-10.9786
▁ማውንት	-10.9786
▁ሪያድ	-10.9787
▁እንደማይቻል	-10.9787
▁ስኬል	-10.9788
▁ለማንሳት	-10.979
▁ባቀረቡት	-10.9794
▁የተጠቁ	-10.9808
▁መፈፀም	-10.9809
▁ክስተቶች	-10.9811
▁ምኒልክ	-10.9812
▁ለተሰንበት	-10.9813
▁ያነጣጠረ	-10.9813
▁ለምክር	-10.9815
▁ያደርጋሉ።	-10.9818
▁አሳውቀዋል	-10.9818
▁ወርቅነህ	-10.9818
▁እንደመሆኑ	-10.9819
▁የተናገሩ	-10.9819
ነሳ	-10.9819
▁ኤፌ	-10.9819
▁ውስን	-10.9821
▁ኃላፊነታቸውን	-10.9822
▁ሶ	-10.9825
▁ሀኪሞች	-10.9827
▁መዋሉ	-10.9829
▁ሰጪዎች	-10.9832
▁//	-10.9833
▁አምነስቲ	-10.9834
▁ያስታወቀው	-10.9839
▁የድሮን	-10.9839
ሱት	-10.9839
▁የአሰልጣኝ	-10.9841
▁መከበር	-10.9842
57	-10.9843
▁ግቢው	-10.9844
በጣም	-10.9845
▁ወዳጅነት	-10.9845
▁ግቡ	-10.9846
▁ማሟላት	-10.9847
▁አረቢያው	-10.9848
▁ይጀመራል	-10.9848
▁አጥር	-10.9849
▁ወፍ	-10.9849
▁ከዋናው	-10.9849
▁ክላሲኮ	-10.9849
▁የሚፈጥር	-10.9852
▁ብሩ	-10.9852
▁በማዋል	-10.9853
▁ኮል	-10.9859
▁የፊልም	-10.9861
በቃ	-10.9861
▁መወጣት	-10.9865
▁እንቅስቃሴን	-10.9871
▁የደረሰባቸውን	-10.9875
▁መሳይ	-10.9877
▁ፍራንስ	-10.9877
ዘን	-10.9879
▁ኒው	-10.9879
▁የታሰሩ	-10.988
▁ዜናዎች	-10.9881
▁የማጭበርበር	-10.9881
▁13.	-10.9886
▁የምረቃ	-10.9888
ያዘው	-10.9889
▁ገጽታ	-10.989
▁ድካም	-10.989
▁ማሳለፍ	-10.9894
▁በናይጄሪያ	-10.9894
▁ገዱ	-10.9895
▁መቋረጡን	-10.9895
▁ሽረ	-10.9895
▁ባለቤታቸው	-10.9897
▁ጆሮ	-10.9902
▁መኪናዎች	-10.9903
▁ራፋኤል	-10.9903
ዳር	-10.9909
▁ከጸጥታ	-10.9913
ቸዋል።	-10.9914
▁ሲጓዙ	-10.9914
ፍቅር	-10.9915
▁የሚያስችላቸው	-10.9919
▁የኮሌራ	-10.9919
▁እንቁላል	-10.992
▁ለመሆኑ	-10.9923
▁በበይነ	-10.9923
▁ለጠላት	-10.9923
▁ጀመረ።	-10.9926
▁ሃሰተኛ	-10.9927
▁አይችሉም	-10.9929
▁የፒኤስጂ	-10.993
▁በበዓሉ	-10.9934
▁ሲጋራ	-10.9935
▁የህጻናት	-10.9939
▁በዋስ	-10.9941
▁አድርጎታል።	-10.9942
▁ተገኝቷል	-10.9943
▁የተቀሰቀሰው	-10.995
ትላንትናዉ	-10.995
▁የማግኘት	-10.995
▁የበላይነትን	-10.995
ቀር	-10.995
▁ከሰባት	-10.995
▁ኢየሱስ	-10.9951
ፕሬዝዳንት	-10.9951
▁አስኪያጁ	-10.9954
▁መውሰዱን	-10.9954
▁የፌደራሉ	-10.9954
▁ማስተካከል	-10.9956
▁ዋ	-10.9957
▁ባሌ	-10.9957
ባለስልጣኑ	-10.9958
▁የቴሌ	-10.9959
▁ቼልሲን	-10.9959
ዊው	-10.996
2018	-10.996
▁ግጭቱን	-10.9962
▁ሁለንተናዊ	-10.9966
▁ተወስ	-10.9967
ሞች	-10.9967
▁አፍሪካን	-10.9969
▁ማይክል	-10.9969
▁የተወሰዱ	-10.9969
▁በመስከረም	-10.997
▁ቢስ	-10.9975
▁አልነበረም።	-10.9976
ምድብ	-10.9978
▁ሲኖር	-10.9979
▁350	-10.998
▁በስብሰባው	-10.9981
▁የኢንተር	-10.9981
▁ሳተላይት	-10.9982
ተቋሙ	-10.9982
▁በመጠየቅ	-10.9985
ኃ	-10.9987
ያለሁ	-10.9987
▁ምናልባትም	-10.9987
▁አደረገ።	-10.9988
▁ለዘመናት	-10.9989
ጉዳዩ	-10.9991
▁ወዴት	-10.9991
▁ሲኒማ	-10.9995
▁የተሰራጨው	-10.9996
ኮሪደር	-10.9997
ክርስቲያን	-10.9998
▁የሀይል	-10.9999
▁የገደለው	-11.0005
▁2018	-11.0006
▁አቅጣጫዎች	-11.0006
▁እግድ	-11.0008
▁እንዳይገባ	-11.0008
▁ትጥቆች	-11.0009
▁ሲንቀሳቀስ	-11.001
▁አይቶ	-11.0012
▁ከግል	-11.0014
▁እንደሚገቡ	-11.0014
▁የሚጠበቅ	-11.0016
▁መካሄድ	-11.0017
▁የማመልከቻ	-11.0018
▁ባልደራስ	-11.0019
▁የተሰማውን	-11.002
▁እያደረግን	-11.0026
▁ዳኛው	-11.0028
አደንዛዥ	-11.0034
▁ላሊጋው	-11.0035
▁ይመለሳል	-11.0035
▁8:00	-11.0037
41	-11.0038
▁መለወጫ	-11.0041
▁እንዳልቻሉ	-11.0041
▁እንዲያቀርብ	-11.0044
▁የሀሳብ	-11.0044
▁ቤቱም	-11.0045
▁ለደረሰባቸው	-11.0045
▁ከብዙ	-11.0049
▁ከነበረበት	-11.0052
እና	-11.0052
▁ለዩክሬን	-11.0052
▁የተጠበቀ	-11.0053
▁ያሉበትን	-11.0053
▁ከሞት	-11.0053
▁እርቅ	-11.0054
▁በዝግ	-11.0054
▁05	-11.0057
▁አብዱ	-11.0058
▁ለዚሁ	-11.0059
▁መባሉ	-11.0059
▁በግፍ	-11.0059
▁ዕሁድ	-11.006
▁እየተሳተፉ	-11.0062
▁ይዘዙን	-11.0062
ቧ	-11.0064
▁የመጡት	-11.0065
▁ልደት	-11.0066
▁አሰልጣኝነት	-11.0067
▁በወንዶች	-11.0067
ክቡር	-11.0068
▁ጋክፖ	-11.0073
▁ብሩን	-11.0074
▁እንዳይሆን	-11.0075
▁ተወስዶ	-11.0076
▁ወስኗል፡፡	-11.0078
▁ተሹመዋል።	-11.0078
▁የፍልስፍና	-11.0079
▁በስምምነት	-11.0086
ሐበ	-11.0087
▁በስምምነቱ	-11.009
▁ሰአታት	-11.0092
▁መጠየቃቸውን	-11.0092
ጠረ	-11.0093
▁ኢንስታግራም	-11.0096
▁የተቃዋሚ	-11.0097
▁ወክለው	-11.0097
ድጋሚ	-11.01
ዓለም	-11.0102
▁ማንበብ	-11.0104
▁ከኢትዮ	-11.0104
▁ፈላስፋ	-11.0104
▁በዘመናዊ	-11.0106
▁ኢትዮጵያውያንን	-11.0106
▁ንጉሴ	-11.0106
▁ማሽኖች	-11.0109
▁ትልቁን	-11.0115
▁ወንጀሎችን	-11.0116
84	-11.0116
▁ከሥራ	-11.0119
▁በዛው	-11.012
▁ዉይይት	-11.0123
▁ወቅትም	-11.0126
መለስ	-11.0126
▁ፊደል	-11.0132
▁ኬሚካል	-11.0134
የትምህርት	-11.0135
▁የገጠመው	-11.0136
መልካም	-11.0136
▁መስዋዕትነት	-11.014
ጉዳቱ	-11.0141
▁መናገራቸው	-11.0141
▁ይመጣል	-11.0145
▁ከጋዜጠኞች	-11.0145
▁ፍርሃት	-11.0146
▁የማንነት	-11.0146
▁ነበረበት	-11.0148
▁ማሳወቁ	-11.0148
▁መር	-11.0148
ቸዋል	-11.015
▁እንቅስቃሴዎችን	-11.0152
▁የውሀ	-11.0153
▁ተደራሽነት	-11.0158
▁የሚያወጡ	-11.0158
▁እየመጣ	-11.0158
▁ከመከላከያ	-11.0158
▁ሮማን	-11.0161
▁የምታደርገውን	-11.0163
▁እንስሳ	-11.0163
እራሳችን	-11.0165
▁የማያ	-11.0166
▁ስልሳ	-11.0167
▁ምርጫውን	-11.0168
▁ፍራንክፈርት	-11.0169
▁ሲያሸንፍ	-11.0172
▁እገዳው	-11.0173
▁ደንበኛ	-11.0174
▁አያውቅም	-11.0174
▁ሲሄዱ	-11.0174
▁የትብብር	-11.0176
71	-11.0177
▁የውሰት	-11.0177
▁ፖለቲከኛ	-11.0179
▁የግብጽ	-11.018
▁ፋይል	-11.0182
ጥቃት	-11.0185
▁ሽፈራው	-11.0186
▁በመተው	-11.0187
ልት	-11.0188
▁በምድር	-11.0188
▁የገ	-11.0188
▁ተጠቅሞ	-11.0189
የው	-11.0191
▁መቀመጫውን	-11.0195
▁ሀይማኖት	-11.0197
▁በችግር	-11.0199
▁ዱ	-11.0201
▁ማግስት	-11.0205
▁አመላክተዋል።	-11.0205
ይል	-11.0205
▁በሰፊው	-11.0208
▁ይገባል፡፡	-11.0209
▁ቆይተው	-11.0209
▁የጀመረ	-11.0211
▁የላሊጋ	-11.0212
▁ሶልሻየር	-11.0215
▁ዴንማርክ	-11.0219
▁አላት	-11.0219
▁ሄኖክ	-11.0221
▁የተጀመረ	-11.0226
▁ሃሳቦች	-11.0231
▁የችግሩ	-11.0232
▁እየተከናወኑ	-11.0237
▁የገለፀ	-11.0238
ፈፀመው	-11.0243
▁የተመሰረተው	-11.0243
▁ከፊት	-11.0244
▁ጥንካሬ	-11.0247
ቆም	-11.0248
▁ለኔ	-11.025
▁ክንፍ	-11.0251
▁መፅናናትን	-11.0253
▁መፈናቀል	-11.0256
▁ፈቅ	-11.0257
▁በሀሰተኛ	-11.0258
▁ፀሀይ	-11.026
▁በሪያል	-11.0263
▁የኢንፎርሜሽን	-11.0263
▁በየሳምንቱ	-11.027
▁ሲያገለግሉ	-11.027
▁ንጹሃን	-11.0271
▁ገብሬ	-11.0272
▁ሶማሊላንድ	-11.0273
53	-11.0273
▁ቤል	-11.0275
▁ለመኖር	-11.0277
ሰር	-11.0279
▁አጋሩ	-11.0279
▁ከምርጫ	-11.028
▁መስጊድ	-11.0281
▁የሚጀምረው	-11.0282
▁እየወሰዱ	-11.0283
▁አቪዬሽን	-11.0283
▁እናቱ	-11.0285
▁በቴሌብር	-11.0285
▁ዘወትር	-11.029
▁የሚገባቸው	-11.0291
ላማ	-11.0293
በራ	-11.0295
▁ለከፋ	-11.0299
ላጣች	-11.0304
▁በማከናወን	-11.0309
▁ቀርበዋል።	-11.0309
▁በሌሎችም	-11.031
▁እንደሚወስዱ	-11.0311
▁ቢልባኦ	-11.0311
▁128	-11.0317
▁ቢኒያም	-11.0319
▁አላማጣ	-11.0319
▁ክፍሎችን	-11.0321
▁አብን	-11.0321
▁ሕይወታቸውን	-11.0323
▁83	-11.0325
▁በተዘጋጀ	-11.0325
▁እንዳያ	-11.0326
▁ጠባቂው	-11.0328
▁መግደል	-11.0328
▁ጊዜውን	-11.0332
▁ጀግኖች	-11.0335
▁አውቶብስ	-11.0335
▁በጥልቀት	-11.0336
▁ትንሹ	-11.0337
▁3,	-11.0337
▁ማሊ	-11.0338
▁---------------	-11.0338
▁የሚመለከት	-11.0338
▁በመቶው	-11.0339
▁ተጀምሯል	-11.0339
▁ፀሎት	-11.0343
▁ኤድስ	-11.0344
ዋት	-11.0345
▁አቅማቸው	-11.0346
በተጨማሪም	-11.035
▁14.	-11.0353
▁መዝናኛ	-11.0356
▁በደም	-11.0361
▁ቢኖሩም	-11.0363
ነስ	-11.0364
▁ኮፓ	-11.0365
▁በነገራች	-11.0366
54	-11.0368
▁የውሸት	-11.0371
▁እንደሚሰጡ	-11.0375
▁ዴብሮይን	-11.0376
▁ተጫዋቻቸው	-11.0378
▁ለስድስት	-11.0381
▁ሊቨርፑሎች	-11.0382
58	-11.0383
ብናል	-11.0386
▁ሚሊሻ	-11.0386
▁ተፈናቃዮችን	-11.0387
▁ግሪንውድ	-11.0388
ትውልድ	-11.0388
ላፊ	-11.0389
▁ለብሰው	-11.0391
▁ጫማውን	-11.0393
▁በሰሜናዊ	-11.0394
ሊያ	-11.0396
▁አሜሪካን	-11.0397
▁ጨቅላ	-11.0397
▁97	-11.0402
▁ደበበ	-11.0403
▁ይልቃል	-11.0403
▁ጣፋጭ	-11.0404
ደው	-11.0404
▁የተሾሙት	-11.0404
67	-11.0404
▁ጥሩነህ	-11.0406
▁አስቀድመው	-11.0408
▁ለማህበራዊ	-11.041
▁የዱር	-11.0412
▁የመፍትሄ	-11.0413
▁የምትመለከቱት	-11.0414
▁በፓሪስ	-11.0415
▁ማመልከት	-11.0419
▁በእጥፍ	-11.0422
▁ኅ	-11.0422
▁08	-11.0425
▁የሚማሩ	-11.0425
▁እጁ	-11.0425
▁መሰረትም	-11.0428
▁በተሽከርካሪ	-11.0429
▁ቦት	-11.0429
▁ከዩክሬን	-11.0429
▁ሀገራቱ	-11.043
▁በፍጹም	-11.0434
▁ሞል	-11.0438
ረፋዱ	-11.044
▁ለመናገር	-11.044
▁ስለጉዳዩ	-11.0443
▁ካቴድራል	-11.0445
▁ሰሜናዊ	-11.0445
ብኛል	-11.0446
▁ከገቡ	-11.0446
▁ተደርገው	-11.045
▁ቅር	-11.0453
▁ተቀምጧል።	-11.0455
85	-11.0457
ከብት	-11.0463
▁የሰራው	-11.0464
▁የሰውን	-11.0465
▁በዋግ	-11.0465
▁የተነሱ	-11.0467
▁አድዋ	-11.0467
▁እራት	-11.0471
▁ባንድ	-11.0471
▁ተጠቃሽ	-11.0471
▁እኩይ	-11.0472
▁ለምትፈልጉ	-11.0476
▁ዘይቤ	-11.048
▁በእምነት	-11.048
ራኤል	-11.0481
▁እንደቻለ	-11.0481
▁ቦርስያ	-11.0484
▁የሂሳብ	-11.0486
▁ከዩኒቨርሲቲው	-11.0486
▁ቀረ	-11.0489
▁የኢሬቻ	-11.0492
▁ጸሐፊ	-11.0498
▁ባለፈም	-11.0498
▁ከሀዋሳ	-11.05
ሚሊየን	-11.05
▁እንድና	-11.0501
▁ዩኒቨርሲቲ፣	-11.0503
▁ሳምንቱ	-11.0503
▁ለፀጥታ	-11.0505
▁ዕዳ	-11.0506
▁አስመልክተው	-11.0507
▁የሞተ	-11.0508
▁አመሰግናለሁ	-11.0509
▁በተወሰነ	-11.0509
▁አየ	-11.0512
▁ቴክኒካል	-11.0513
▁ቀነ	-11.0515
▁ዜጎቻችን	-11.0515
49	-11.0519
▁የተገለጸው።	-11.0519
▁የዝናብ	-11.0519
▁ብቅ	-11.0519
▁በታንዛኒያ	-11.052
ቷል።	-11.052
▁ከፍቶ	-11.052
▁በተሰኘው	-11.0521
▁በመገናኛ	-11.0522
መቶዎች	-11.0522
ጣለው	-11.0528
▁ሰላ	-11.0529
ዩሮፓ	-11.0531
ደም	-11.0532
▁ጽሁፍ	-11.0532
▁የሃገር	-11.0534
ማት	-11.0534
▁በድንበር	-11.0534
▁የሚካሄዱ	-11.0538
▁ካሉበት	-11.0538
▁ባለመቻላቸው	-11.0538
▁ፋ	-11.054
መንግሥት	-11.0543
▁መግለጹ	-11.0543
▁መያ	-11.0546
▁ተላልፎ	-11.0546
▁በመከላከል	-11.0546
▁ሞድሪች	-11.0546
እንደዚህ	-11.0546
▁የተማሪዎችን	-11.0548
▁የማሸነፍ	-11.0549
▁ድጋፎች	-11.0549
ኢዜማ	-11.055
▁የመጠጥ	-11.0552
▁ለተሽከርካሪ	-11.0553
▁ጠይቀው	-11.0555
▁እንግዲህ	-11.0555
▁አሳይቷል።	-11.0555
ውል	-11.0558
▁ደር	-11.0558
▁እንደሚገባው	-11.0558
▁በስነ	-11.0561
▁የተጣለው	-11.0562
ተጨዋቹ	-11.0565
▁የጎላ	-11.0567
▁እንዳያመልጥዎ	-11.0572
▁እየተንቀሳቀሰ	-11.0572
▁የበኩላቸውን	-11.0572
▁የአሸባሪው	-11.0572
▁ጦርነቱን	-11.0574
▁በየመን	-11.0574
▁መደፍረስ	-11.0578
▁ተነስቷል።	-11.0579
አስክሬን	-11.058
▁በተወሰኑ	-11.0582
▁የገለፁ	-11.0582
▁110	-11.0582
▁ገለፀ	-11.0585
▁ወጥተዋል።	-11.0586
ነህ	-11.0588
▁የምስጋና	-11.0589
▁በስኬት	-11.0593
ላቀ	-11.0594
▁አልቻሉም።	-11.0595
▁እያደረገች	-11.0596
ሩሲያ	-11.0598
▁አፍሪካውያን	-11.0598
ላል	-11.0599
▁የዘመኑ	-11.06
▁ፌዴሬሽኑ	-11.0601
▁የትራምፕ	-11.0604
▁የግብረ	-11.0607
▁እስከዛሬ	-11.0608
ጤ	-11.0608
ቤታቸው	-11.0608
▁መፍትሄው	-11.0608
▁07	-11.0608
▁ቤቴ	-11.0611
▁ምትኩ	-11.0611
▁የአሰራር	-11.0611
▁ለመግለፅ	-11.0613
▁አስተዋ	-11.0614
▁በቀረበው	-11.0615
▁በመካከለኛው	-11.0616
▁መግባቱ	-11.0619
▁ችሎ	-11.062
▁ንረት	-11.062
▁መዋ	-11.062
▁ሕዝበ	-11.0621
▁??	-11.0627
▁ደርሰዋል	-11.0627
▁ቤተልሄም	-11.0627
▁በምህረት	-11.0628
▁አልኮል	-11.0633
▁በክረምት	-11.0634
▁መታየት	-11.0637
▁በማይ	-11.064
▁ተወራረዱ	-11.064
▁ዲፕሎማሲ	-11.0641
▁አግኝተው	-11.0642
▁ሲገኙ	-11.0644
▁ግርግር	-11.0644
▁ተወልደ	-11.0649
▁የህዝቡን	-11.065
▁ሪፖርቶች	-11.0652
▁መተማመን	-11.0653
▁ለሚካሄደው	-11.0653
▁ቤቶች፣	-11.0654
ኤፍ	-11.0654
▁107.8	-11.0655
▁አቦ	-11.0657
ዶክተር	-11.066
▁ጀልባ	-11.0661
▁ከባህር	-11.0662
▁በብሄራዊ	-11.0666
▁መገኛ	-11.0667
▁ስላሴ	-11.0667
▁ሠራዊቱ	-11.0667
▁አስተዳዳሪው	-11.067
▁ስርዓቱን	-11.0673
መድ	-11.0676
▁እንደገለጸው	-11.0677
▁በጉራጌ	-11.0678
▁ቶኪዮ	-11.0679
▁ሁልጊዜም	-11.0681
▁የተጫዋቾች	-11.0682
▁የዕለት	-11.0683
▁የቢሮ	-11.0684
▁የደኅንነት	-11.0684
▁ፋንታ	-11.0684
▁የማይችሉ	-11.0685
▁ፖ	-11.0689
▁ሰነዶችን	-11.0692
▁ስዊዘርላንድ	-11.0694
▁የተረጋጋ	-11.0694
▁ኤሪክሰን	-11.0694
▁የተፈጸመ	-11.0695
▁ከአስር	-11.0699
▁ወረዳው	-11.07
▁ኢትዮጵያዊቷ	-11.0704
▁መርበ	-11.0705
▁ቱሪስቶች	-11.0706
▁ይሆናሉ።	-11.0706
▁በመገንዘብ	-11.071
▁ቼልሲዎች	-11.0711
▁ጥያቄው	-11.0713
በው	-11.0713
▁ዲፕሎማቶች	-11.0714
ርሰንት	-11.0714
▁ጉንዶጋን	-11.0715
▁እንደሚኖር	-11.0717
▁ለሥራ	-11.0717
▁ያስመዘገቡ	-11.0717
▁ለህዝቡ	-11.0722
ርቅ	-11.0723
ችግኝ	-11.0724
▁አይቀርም	-11.0728
▁የግብር	-11.0728
▁ድጋፎችን	-11.0732
▁ጎብ	-11.0733
250	-11.0736
▁የተቻለ	-11.0736
▁ከማል	-11.0738
▁ሾው	-11.0738
▁እሸቴ	-11.074
▁ምሽቱን	-11.0741
ተዉ	-11.0744
▁ሰወች	-11.0744
ግንኙነት	-11.0747
▁ለዛሬ	-11.0747
▁ትሮሳርድ	-11.0748
▁አልቫሬዝ	-11.075
▁ከድርጊታቸው	-11.0751
▁የገዳሙ	-11.0754
▁ላንድ	-11.0755
▁በሩ	-11.0757
ብዙ	-11.0759
▁አለመሆኑ	-11.076
▁ተመድ	-11.0763
▁ማሊያ	-11.0763
▁የፅሁፍ	-11.0765
▁የኖቤል	-11.0767
▁የሚፈጸሙ	-11.0767
ሰራው	-11.0767
▁የለሽ	-11.077
▁መደረሱን	-11.0772
▁መፅሀፍት	-11.0776
▁በእጅ	-11.0778
▁የአድዋ	-11.0778
▁አሳፍሮ	-11.0778
▁አጣርቶ	-11.0779
▁ጋርናቾ	-11.0779
▁ያነጋገራቸው	-11.0779
▁እንዳይኖር	-11.078
▁በመሳተፍ	-11.078
▁ከሚገኙት	-11.0782
▁የአረብ	-11.0784
▁ምእመናን	-11.0785
▁በመከታተል	-11.0785
አት	-11.0786
▁በሚወስደው	-11.0786
▁መሆኗ	-11.0786
▁ምስረታ	-11.0787
▁የሸኔ	-11.0793
▁ከኮቪድ	-11.0796
▁መጠሪያ	-11.0797
▁ዩንቨርሲቲ	-11.0798
▁የፈጸሙ	-11.08
▁ተለያዩ	-11.0801
ንጋ	-11.0804
▁---------	-11.0806
▁ኢቢሲ	-11.0807
▁ከአፋር	-11.0808
▁መመለሱን	-11.0812
▁በአቻ	-11.0817
▁እንዲኖረው	-11.0817
▁አልቻልንም	-11.0818
▁ፈተናን	-11.0818
▁መጠይቅ	-11.0819
▁ዓረቢያ	-11.0821
▁የብልጽግና	-11.0821
▁አጋሮቹ	-11.0826
▁የጫኑ	-11.0827
▁ዓይነቶች	-11.0828
▁ሥራቸውን	-11.0829
▁እንዲኖረን	-11.0831
▁ስርዓትን	-11.0832
▁ተዋጊ	-11.0834
ቡተ	-11.0835
▁አስደንጋጭ	-11.0837
▁ምግብና	-11.0838
▁ኤምሬትስ	-11.0838
▁ዓለሙ	-11.0839
▁መክፈቻ	-11.084
▁የባለ	-11.0844
▁ድርቀት	-11.0848
▁ብታ	-11.085
▁ግምቱ	-11.0853
▁ይደረግ	-11.0853
▁ተቀምጦ	-11.0853
▁ጣልያናዊው	-11.0854
▁ግርዶሽ	-11.0856
▁በድርጅቱ	-11.0856
▁የምሽቱ	-11.0858
▁የስም	-11.0861
▁ወገኖችን	-11.0861
▁ላላችሁት	-11.0863
▁አባሉ	-11.0865
ድምር	-11.0865
▁የደረሰበትን	-11.0866
▁ያውቁ	-11.0867
▁ላብራቶሪ	-11.0867
ለች።	-11.0867
ረዳ	-11.0869
▁የመሩት	-11.0873
▁ነጋዴ	-11.0875
▁የሳፋሪኮም	-11.0875
56	-11.0877
▁አዲግራት	-11.0878
▁አይነቱ	-11.088
ጀምር	-11.0883
▁አዘጋጆች	-11.0883
▁በስለት	-11.0885
▁ያነሰ	-11.0885
▁ተለይተው	-11.0886
▁በምረቃ	-11.0888
ችዉ	-11.089
▁ግሎባል	-11.089
▁የተደራጀ	-11.0891
ጄኔራል	-11.0893
▁በዘላቂ	-11.0895
▁ምክርቤት	-11.0895
▁አደሩ	-11.0903
አንተ	-11.0904
▁ማመን	-11.0905
▁ይችላሉ፡፡	-11.091
▁586	-11.091
▁የምንሰጣቸው	-11.0912
▁15.	-11.0912
▁ነጥቡን	-11.0914
▁አስጊ	-11.0917
▁ሴጣኖች	-11.0918
▁ይገኙበታል	-11.0921
▁ለመወጣት	-11.0924
▁ለብዙ	-11.0925
▁ኦንላይን	-11.0925
▁ካን	-11.0927
▁ህብረቱ	-11.0928
▁ባልታወቁ	-11.0928
▁የልጅ	-11.0935
▁አሸንፈዋል።	-11.0937
▁የተገደሉ	-11.0938
▁የሚያቀርብ	-11.0939
አሐዱ	-11.0941
▁የኤ	-11.0946
▁5,000	-11.0947
▁በጃፓን	-11.0948
▁ያልቻሉ	-11.0953
▁ማዘጋጀት	-11.0954
▁ማቀዱን	-11.0954
▁ሄጄ	-11.0954
▁ታጋቾች	-11.0954
▁በየወሩ	-11.0955
▁ተዋጊዎች	-11.0955
ለምን	-11.0956
▁ተጠይቀው	-11.0956
▁ርቆ	-11.0957
▁መሰብሰቡን	-11.0958
▁የተደገፈ	-11.0958
▁የተመለሱ	-11.0962
▁በፋኖ	-11.0963
▁ፈጣሪዎች	-11.0964
▁የሲሚንቶ	-11.0967
▁የሚታዩ	-11.097
ኔታ	-11.097
▁የተደረገበት	-11.0971
ሥርዓት	-11.0978
▁የአካዳሚክ	-11.0978
ታላላቅ	-11.0979
▁ዶቼ	-11.0979
▁አሜሪካውያን	-11.0982
ልሽ	-11.0987
ገኝ	-11.0987
▁ከምዕራብ	-11.0988
▁ሲቀመጥ	-11.0992
▁መቆየታቸውን	-11.0992
▁ሌሎቹ	-11.0993
▁አገኘሁ	-11.0994
▁አሉን	-11.0994
▁ወንጀለኞች	-11.0995
▁አይተዋል	-11.0999
▁የትዊተር	-11.0999
ትምህርት	-11.1
▁ይቀጥላል።	-11.1
▁በመጣስ	-11.1001
▁ንቅለ	-11.1007
▁ኮንሰርት	-11.1016
▁ሀሳቡን	-11.1019
▁ቋት	-11.1019
▁ድራማ	-11.1019
▁በሃላ	-11.1024
▁መንገሻ	-11.1025
▁የሠላም	-11.1026
▁ሳይሆኑ	-11.1026
▁እያደገ	-11.1026
▁ለማስተላለፍ	-11.1027
▁ልምምዱ	-11.1028
▁ቅበላ	-11.1028
▁የታየው	-11.1029
▁ሆይሉንድ	-11.1031
▁በብቃት	-11.1033
ኖር	-11.1035
▁አፍሪካዊ	-11.1036
ፊታችን	-11.1036
▁ተፈላጊ	-11.1037
▁በንቃት	-11.1039
▁አክሎ	-11.104
▁ይሰጥ	-11.1041
▁በጊዜው	-11.1043
▁የኤጀንሲው	-11.1045
ጫወት	-11.1047
▁ጆርጅ	-11.1048
▁በነበሩበት	-11.1051
▁እየተወሰደ	-11.1054
ስርዓቱ	-11.1055
▁ማይ	-11.1055
▁ትራንስክሪፕት	-11.1056
ቶችን	-11.1057
ሰዎች	-11.1058
▁እንዲራዘም	-11.1058
▁ህብረተሰቡን	-11.1059
▁ጎበና	-11.1061
▁ለማሰልጠን	-11.1062
▁አገልግለዋል።	-11.1063
▁ተገኝተዋል	-11.1065
▁ውስንነት	-11.1066
▁ያደርገዋል	-11.1066
ዎትን	-11.1068
▁በቼልሲ	-11.107
ስታ	-11.1071
▁በመልቀቅ	-11.1073
▁ወንጀለኛ	-11.1073
ሪክ	-11.1074
▁የተለዩ	-11.1074
▁ቢቂላ	-11.1075
▁ቤተሰቡ	-11.1075
▁እስከአሁን	-11.1077
▁በሀያ	-11.1081
▁ወደኋላ	-11.1085
▁የኋላ	-11.1088
▁የተፈፀመ	-11.1089
▁ማሳየቱን	-11.1092
▁ቀሪውን	-11.1094
▁የሰዎችን	-11.1096
▁ማሬስካ	-11.1096
▁ባጠቃላይ	-11.1097
▁ፀግሽ	-11.1097
▁እንዳይፈጠር	-11.1097
▁ከጅቡቲ	-11.11
▁ተመልሰዋል	-11.1102
▁በታላቅ	-11.1105
▁ቃሲም	-11.1105
▁እየወሰደ	-11.1106
▁የህወሃት	-11.1107
▁የባህርዳር	-11.1109
▁የተከሰቱ	-11.111
▁በሚዲያ	-11.1112
▁በመፈፀም	-11.1113
▁እንደነበርም	-11.1115
▁አልችልም	-11.1116
▁ማረጋገጡን	-11.1116
▁ጎራ	-11.1118
▁አድርጌ	-11.1118
▁ሕዝባዊ	-11.1119
▁ሃምሌ	-11.1122
▁የኮሮናቫይረስ	-11.1123
▁የሶስትዮ	-11.1124
ቀድሞው	-11.1128
▁91	-11.1131
▁በተተኮሰ	-11.1131
▁ሰንጠረ	-11.1132
▁ውበቱ	-11.1133
▁742	-11.1134
▁ሊጀመር	-11.1134
▁ዕድሜያቸው	-11.1135
▁ቀጥለዋል	-11.1136
▁ለማምረት	-11.1136
▁ፎቶዎች	-11.1136
▁ወረደ	-11.1138
▁ተቀጡ	-11.1139
▁የሜዳ	-11.1139
▁ርቀው	-11.1139
▁ፊ	-11.114
ሪያል	-11.114
▁አድርሷል።	-11.1143
▁ይደዉሉ	-11.1146
ብሄራዊ	-11.1151
▁በሚደረግ	-11.1151
▁ከተያዙት	-11.1152
ጉሜን	-11.1153
▁ጥርስ	-11.1154
▁የብዙ	-11.1154
▁ሥጋ	-11.1155
▁ቆይቷል	-11.1156
▁ያወጣውን	-11.1157
▁ሞናኮ	-11.1161
▁ኢንስቲትዩቱ	-11.1162
▁ፕሮጀክቶችን	-11.1162
▁ብቻውን	-11.1162
▁አቅመ	-11.1163
▁የሚከተሉትን	-11.1167
▁እንዲል	-11.1168
▁በማስተባበር	-11.1169
▁ሊያስከትል	-11.1169
▁የመያዝ	-11.117
ለማ	-11.117
▁ኮንትራቱ	-11.117
▁ከሌለ	-11.117
▁መድኃኒቶች	-11.1172
▁ያደረሰው	-11.1172
▁ማስጀመሪያ	-11.1173
▁አመራሩ	-11.1174
▁በበኩሏ	-11.1174
▁ተቀምጧል	-11.1175
▁ይፈልጋል።	-11.1175
▁ተነሳሽነት	-11.1176
▁ተደረገ።	-11.1176
▁የወሰደ	-11.1178
▁ኤን	-11.1179
▁ብልት	-11.118
?!	-11.118
▁ባልደረባ	-11.1181
▁ለቅሶ	-11.1182
▁ባለባቸው	-11.1183
▁1-3	-11.1183
▁አንደ	-11.1187
▁ማስታወቂያዎች	-11.1187
▁መጨመሩን	-11.119
▁በጊዜያዊ	-11.1192
▁አባልነት	-11.1192
▁አቅ	-11.1193
▁ከንቲባዋ	-11.1194
▁ስላል	-11.1195
▁ጋዜጠኛው	-11.1198
▁ማስፈራሪያ	-11.1201
▁የነበረበት	-11.1201
▁የጀመሩት	-11.1201
▁ዚዳን	-11.1205
▁በዛሬ	-11.1206
▁ከከፍተኛ	-11.1206
▁አለመቻሉን	-11.1213
ወጡ	-11.1214
▁አብዛኛውን	-11.1216
▁በሶሪያ	-11.1223
▁ሽልማቱ	-11.1223
▁ውጤታቸውን	-11.1224
ንዳ	-11.1228
▁አስተያየቶች	-11.1228
▁ሰራ	-11.1228
▁ከእውነት	-11.1229
▁በተቀሰቀሰ	-11.123
▁ተጎጂ	-11.123
/2016	-11.1231
▁አለችኝ	-11.1231
▁መዳኒ	-11.1231
▁የማይችል	-11.1231
ባለፉት	-11.1234
▁ለአ	-11.1238
▁ኃይለሥላሴ	-11.1241
▁እንደሚቀጥሉ	-11.1242
▁ለመታደም	-11.1243
▁ለማረጋጋት	-11.1243
▁እንደሚርቅ	-11.1243
▁አመላክቷል፡፡	-11.1243
ናይ	-11.1247
▁አድርገናል	-11.1248
▁ትምህርታችሁ	-11.1248
▁ጥንዶች	-11.1249
ትራፊክ	-11.125
▁ቫል	-11.1257
▁የጣና	-11.126
▁የዘገበው	-11.1261
▁ሳልዝበርግ	-11.1263
▁አሉት።	-11.1264
▁ያቀረቡትን	-11.1267
▁በሲቪል	-11.1268
▁ለፈተናው	-11.1268
▁ነበሩ፡፡	-11.1269
▁ሕይወቱ	-11.127
▁ድሮ	-11.1271
▁ቡክ	-11.1272
▁መውጣቱን	-11.1272
▁የያዙት	-11.1274
▁የኛ	-11.1275
▁ከፋዮች	-11.1278
ሪያዎች	-11.128
▁ፀጋይ	-11.1281
▁የመን	-11.1281
▁መክረዋል።	-11.1282
▁አቅዶ	-11.1282
▁አሰምተዋል።	-11.1282
▁በመጨመር	-11.1282
▁የቤቶች	-11.1283
▁አስተላልፈዋል፡፡	-11.1283
▁ፍሳሽ	-11.1285
▁የኮንትራት	-11.1286
▁እያልን	-11.1287
▁የእርቅ	-11.1287
▁ተገኝተዋል፡፡	-11.1289
▁ለቡድኑ	-11.1293
▁የአርባ	-11.1294
▁አሉት	-11.1295
▁ቡካዩ	-11.1298
▁የሀዘን	-11.1299
▁የሚናገሩት	-11.1307
▁መተከል	-11.1307
▁ሬጅስትራር	-11.1311
▁ሶሴዳድ	-11.1314
▁የቁጠባ	-11.1314
መለሱ	-11.1315
▁ጠቅሰዋል፡፡	-11.1316
▁የፖሊሲ	-11.1316
▁ቀሪው	-11.1318
▁እሳቤ	-11.132
▁ሰመራ	-11.1321
▁የስንዴ	-11.1322
▁አድራሻችን	-11.1325
▁በቶሎ	-11.1326
▁የኮከብ	-11.1328
▁ናችሁ	-11.1328
▁ቅርበት	-11.1329
▁የዶ	-11.1329
▁አስቆጥረዋል።	-11.1329
▁በበለጠ	-11.1331
▁ስልት	-11.1331
▁በዝቅተኛ	-11.1331
▁ፊርማው	-11.1333
▁መስጂድ	-11.1333
▁ኑር	-11.1337
▁ሙከራዎች	-11.1338
▁92	-11.1338
▁1500	-11.1338
ላቸውን	-11.1339
ጥሩ	-11.134
▁የሚመጣው	-11.134
▁ታፈሰ	-11.1342
▁ላጡ	-11.1344
ካፒታል	-11.1345
▁180	-11.1346
መወራረድ	-11.1351
▁እየቀነሰ	-11.1351
▁ፈጥኖ	-11.1353
▁ዘኢትዮጵያ	-11.1355
▁በጠበቀ	-11.1356
ለቅ	-11.1356
▁ያገኛል	-11.1358
▁ለመከላከያ	-11.1361
▁ከእንግሊዝ	-11.1363
▁ለማስ	-11.1364
▁ቤተሰቦ	-11.1365
▁እናቴ	-11.1366
▁ስልጠናውን	-11.1372
▁ስሚዝ	-11.1374
▁የገለጹ	-11.1375
78	-11.1376
▁ያሳ	-11.1377
▁የተቀመጠ	-11.1377
▁ጥንታዊ	-11.1378
▁የነፃ	-11.1378
▁ባለመ	-11.138
▁ከጦርነቱ	-11.1381
▁በግብርና	-11.1382
▁የምድር	-11.1383
▁ወርሃዊ	-11.1384
▁ማመልከቻ	-11.1386
▁ማስታወቁን	-11.1386
▁አቃቢ	-11.1386
▁የራያ	-11.1387
▁አስታውቆ	-11.1388
▁አቁሞ	-11.1389
ፍጥነት	-11.1389
▁ናዳ	-11.1389
▁አበባው	-11.139
▁ለማስመለስ	-11.139
▁ማውራት	-11.1391
▁ታይዋን	-11.1391
▁የተሞላ	-11.1393
▁ምናምን	-11.1395
▁ለኮሮና	-11.1395
▁ይመስለኛል	-11.1399
▁ቀ	-11.1399
▁በነፃነት	-11.14
▁ከደረሰ	-11.1401
▁ፕሬዝዳንቶች	-11.1402
▁ከጨዋታ	-11.1402
▁ቢሆንም፣	-11.1402
ይህንን	-11.1403
▁ሎ	-11.1403
▁ከሚያ	-11.1406
▁ሰውየው	-11.1407
▁በቪዲዮ	-11.141
ቀበል	-11.1411
▁ልጆቹ	-11.1411
ሙን	-11.1415
▁ከፖለቲካ	-11.1416
▁የሚገኙበት	-11.1416
▁ሊቢያ	-11.142
▁በተቀመጠው	-11.1423
ፔ	-11.1424
▁በሚጠራ	-11.1426
▁ብራንድ	-11.1426
▁ለእውነተኛ	-11.1434
▁ወደዚህ	-11.1434
▁ግድያው	-11.1435
ሷ	-11.1435
▁ሀዛርድ	-11.1436
▁ከማህበረሰቡ	-11.1436
▁ከመሬት	-11.1438
▁አግኝቷል።	-11.1439
▁ለይ	-11.1441
▁የሚጀምር	-11.1441
ደረ	-11.1441
▁አማካኝ	-11.1442
▁94	-11.1445
▁ሚስቱ	-11.1449
▁ወዳጆች	-11.145
▁እንዳደረገው	-11.1451
▁ኮተቤ	-11.1451
▁ተይዘዋል	-11.1451
▁ጉዳቶች	-11.1452
▁ሐረርጌ	-11.1452
▁ጉምዝ	-11.1453
▁በዓለ	-11.1453
ታላቁ	-11.1456
ነገ	-11.146
▁አስፈላጊነት	-11.1462
▁ጠንከር	-11.1462
ደማቅ	-11.1463
▁ቤቷ	-11.1463
▁ግቢውን	-11.1463
▁የሚቀርብ	-11.1464
▁ለመንግሥት	-11.1464
▁የተሰማው	-11.1465
▁ለመቀጠል	-11.1466
▁አስተባባሪዎች	-11.1466
▁አምና	-11.1467
▁ሀዲያ	-11.1467
▁የግብይት	-11.1468
▁ቀጠናው	-11.1468
▁ህዝባችን	-11.1468
▁በመጫወት	-11.1476
▁በዚያው	-11.1476
▁በቴሌ	-11.1477
▁መሐል	-11.1479
▁ክትባቱን	-11.1479
▁ንቁ	-11.148
▁የፈጸመው	-11.1482
▁በኢኮኖሚ	-11.1483
▁ቢሆኑም	-11.1483
ፈን	-11.1484
▁የተደረሰው	-11.149
▁ተከፍቶ	-11.1493
▁ኖሯል	-11.1494
▁ጥገኝነት	-11.1496
▁ፓወር	-11.1497
▁አህሊ	-11.1501
▁ካሚል	-11.1502
▁ተመዝግበው	-11.1503
▁ተቋማዊ	-11.1503
▁ካይሮ	-11.1505
ሏቸው	-11.1506
▁ሲሲ	-11.151
▁በማስመዝገብ	-11.1511
▁ባለቤቷ	-11.1511
▁አውቃለሁ	-11.1512
ስክ	-11.1514
▁የነባር	-11.1516
▁የተጨዋቾች	-11.1517
▁ከመጡ	-11.1521
▁ደንበኞቻችን	-11.1522
▁መስፋፋት	-11.1526
▁ተግባሩ	-11.1529
▁ይህች	-11.1529
▁እየተፈጸመ	-11.1536
▁ምላሾች	-11.1537
▁ልምምዳቸው	-11.1537
▁ያቀረበ	-11.1537
▁አሸብር	-11.1539
▁ጊ	-11.1545
ረን	-11.1545
▁ላደረጉ	-11.1546
▁ማህሬዝ	-11.1548
▁ተመዝጋቢዎች	-11.1548
▁የቱሪስት	-11.1548
▁ራሳችንን	-11.1551
▁ካልተ	-11.1553
▁ጥ	-11.1556
ጋር	-11.1558
▁ስክሪን	-11.156
▁የተላለፈ	-11.1562
▁እሳቸው	-11.1565
▁ካለባቸው	-11.1566
▁አርበኞች	-11.1568
▁ሙሉቀን	-11.157
ታቸዉ	-11.1573
▁ውክልና	-11.1574
▁ቪያሪያል	-11.1575
▁ጃክሰን	-11.1575
▁አይኖርም	-11.1576
▁የፕሬዝዳንት	-11.1576
▁ስለተ	-11.1577
▁ለመወያየት	-11.1578
▁ይነገራል።	-11.158
▁ለአማራ	-11.1582
▁900	-11.1584
▁እየተነገረ	-11.1585
▁በባርሴሎና	-11.1585
▁በማሳየት	-11.1589
▁በመረጃው	-11.1589
▁5,	-11.159
በአሁኑ	-11.159
▁(2)	-11.1595
▁ፈገግ	-11.1596
▁ኮልፌ	-11.1597
▁ባይሆንም	-11.1598
▁የተባለች	-11.1598
▁የኳታር	-11.16
▁በዶ	-11.1605
▁አይደለሁም	-11.1606
▁ኒ	-11.1606
▁አርአያ	-11.1607
▁ሉዓላዊ	-11.161
▁ዝግጁነት	-11.161
▁ከተማዎች	-11.1611
▁ያሉት፡፡	-11.1612
▁ሞሐመድ	-11.1612
▁አቋራጭ	-11.1613
▁ስፖንሰር	-11.1613
▁ዋስ	-11.1617
▁አባላትና	-11.1617
▁ይገባሉ	-11.1619
▁ትገኛለች	-11.1619
▁በአስቸጋሪ	-11.1624
▁ኦባምያንግ	-11.1626
አብን	-11.1629
▁በአዋሽ	-11.163
▁በኮልፌ	-11.163
▁የሕወ	-11.1632
▁እድለኛ	-11.1633
▁ለጨዋታው	-11.1633
▁ታዋቂው	-11.1636
▁ለቁማር	-11.164
▁ወዲያ	-11.1641
▁ዱባይ	-11.1642
▁አካባቢዋ	-11.1647
ባስ	-11.1647
▁ለመጓዝ	-11.165
▁እንደሚቆይ	-11.1653
▁በውሃላ	-11.1653
▁የሚሳኤል	-11.1656
▁የመዝናኛ	-11.1663
▁አንበጣ	-11.1663
▁በአክሱም	-11.1663
ስማን	-11.1663
▁ከህወ	-11.1665
▁አግኝተዋል።	-11.1665
▁ብርሀን	-11.1668
▁ከጉዳት	-11.1669
ሰማ	-11.167
▁ዞን፣	-11.167
ርቶ	-11.1678
▁ካሜሩን	-11.168
▁ቦታውን	-11.1681
▁130	-11.1682
ወሳኝ	-11.1683
▁በሰዉ	-11.1685
▁ለምዝገባ	-11.1686
▁ሙያዊ	-11.1688
▁ፍሬህይወት	-11.1688
ሩት	-11.1689
▁የቪዛ	-11.169
▁በዋሽንግተን	-11.1691
▁በወረቀት	-11.1693
▁የደረሰዉ	-11.1694
▁ድርጊቶችን	-11.1695
▁በስልጤ	-11.1695
▁ጀምረዋል	-11.1695
▁ታይተዋል።	-11.1695
▁እንደተቻለ	-11.1698
▁በድርድር	-11.1702
▁ማውሪስ	-11.1704
▁ብላክ	-11.1711
ጠፋ	-11.1711
▁መጨረሻው	-11.1713
▁እንዳልቻለ	-11.1717
ያው	-11.1718
ሆኖም	-11.1718
▁ለሚገኘው	-11.1719
▁ባለቤትነት	-11.1722
▁ቡርሃን	-11.1722
▁እስማኤል	-11.1726
▁ሜትሪክ	-11.1727
▁ሊቀመንበሩ	-11.1727
▁ያደረግነው	-11.1727
▁የወልቂጤ	-11.1727
▁ጀ	-11.1729
ሌሎች	-11.1729
▁ነግረውናል።	-11.1729
▁እንዲነሱ	-11.1729
▁የኤች	-11.173
ኢትዮ	-11.1734
▁እድሜው	-11.1734
▁ሚዲያው	-11.1734
ይሄ	-11.1735
▁ልቤ	-11.1735
▁ካለበት	-11.1735
▁ኦሲሜን	-11.1737
▁በመጣራ	-11.1738
▁በመቀየር	-11.1738
▁ሥፍራ	-11.1739
▁ማግኘቱ	-11.174
ይህም	-11.1741
ሏ	-11.1741
ደርስ	-11.1745
▁ስብስቡ	-11.1747
▁አትሌቶቻችን	-11.1748
ያውያን	-11.1748
▁በወረዳ	-11.1749
▁የሀብት	-11.1752
ላቹ	-11.1757
▁ትኩረቱን	-11.1758
ያዊ	-11.1758
▁ምግቦች	-11.176
▁የብልፅግና	-11.1761
▁ልየታ	-11.1765
▁ተከብሮ	-11.1765
▁ያልታወቁ	-11.1765
▁ለማስወጣት	-11.1766
መላው	-11.1767
▁የተናገረው	-11.1767
▁ጎብኝተዋል።	-11.1768
▁ህንፃዎች	-11.1768
▁ማማ	-11.1768
▁ካንቴ	-11.1768
▁የሰራተኞች	-11.177
▁መመሪያዎች	-11.1771
▁ዕውቀት	-11.1773
▁ደርሶባቸው	-11.1776
▁የዘረኝነት	-11.1778
ጻ	-11.1779
▁አብርሃ	-11.1784
ተመጣጠነ	-11.1784
▁ዴክላ	-11.1784
▁የተባለዉ	-11.1785
▁ባለሙያዎቹ	-11.1786
▁ሌሎችንም	-11.179
▁ኦሊምፒክ	-11.1791
▁ሳሙና	-11.1791
▁በራያ	-11.1794
▁ተፈጻሚ	-11.1796
▁16.	-11.1797
▁በጥናቱ	-11.1799
▁ማግኘታቸውን	-11.1799
▁ይሰጣል፡፡	-11.18
▁የማቅረብ	-11.1803
▁እንደሚመለስ	-11.1805
▁መራዘሙን	-11.1805
▁እንደሆነና	-11.1806
▁ይፈጥራል	-11.1809
ወራ	-11.181
▁ያስተላለፉት	-11.1811
▁በወባ	-11.1811
▁አወል	-11.1812
▁የሚወስድ	-11.1813
▁ሙስጠፋ	-11.1816
▁መጠየቁን	-11.1816
▁ራሺያ	-11.1816
▁ዘመነ	-11.1818
▁ሁለተኛውን	-11.1819
▁ተራሮች	-11.1821
▁ዋልታ	-11.1822
ከት	-11.1824
▁እነሱም	-11.1826
▁ኤፍሬም	-11.1827
▁ካሴሚሮ	-11.1829
▁ኮንትሮባንድ	-11.1833
▁የጥሪ	-11.1834
▁ማጠናቀቂያ	-11.1836
▁ታቅ	-11.1836
▁በርበሬ	-11.1838
ወንድ	-11.1838
▁እንደሚኖረው	-11.1838
▁የተወሰደው	-11.1838
▁ዲን	-11.1839
ፈጸሙት	-11.184
▁ኪዳን	-11.184
▁የይቅርታ	-11.184
▁በሬ	-11.1841
▁ተሸካሚ	-11.1842
▁ከሚል	-11.1844
▁ቲኪቫህ	-11.185
▁በወርሃ	-11.1851
▁የሞከሩ	-11.1852
▁ኬዝ	-11.1852
▁አምባሳደሮች	-11.1854
▁ተገለጸ፡፡	-11.1855
▁አጋጣሚዎች	-11.1855
▁አለ፡፡	-11.1856
▁96	-11.1858
▁የተወሰኑት	-11.186
▁የካፍ	-11.186
▁ቀዳማዊት	-11.1861
▁ቂርቆስ	-11.1864
▁የሰራተኛ	-11.1864
▁ሊሰራ	-11.1865
▁በማሰራጨት	-11.1866
▁በአዋጅ	-11.1866
▁አልጄሪያ	-11.1867
▁በየካ	-11.1869
▁በየካቲት	-11.1869
▁እንጠይቃለን።	-11.1871
ባለፈው	-11.1876
▁በቅጣት	-11.1879
▁በመገንባት	-11.188
▁ተከታትሎ	-11.1881
▁እየተንቀሳቀሱ	-11.1881
▁እንዲኖራቸው	-11.1881
ሠራ	-11.1881
▁እንዲጀመር	-11.1882
▁አቀፋዊ	-11.1882
▁ሲፈፅሙ	-11.1882
▁አመልክተዋል፡፡	-11.1882
▁ደህንነቱ	-11.1882
▁ይደርሳል	-11.1889
▁ኢሰመጉ	-11.1893
52	-11.1895
▁በተሰራ	-11.1895
▁የመጀመሪያዎቹ	-11.1895
▁በግለሰብ	-11.1895
▁ዲቪዥ	-11.1898
▁የማያስነ	-11.1899
ወሲብ	-11.1903
▁በቦረና	-11.1906
▁፣በ	-11.1906
▁እያቀረበ	-11.1907
▁ፍቅሬ	-11.1912
ኮሚውኒኬሽን	-11.1913
▁ቤንጃሚን	-11.1915
▁ዘመናቸው	-11.1916
▁የዋናው	-11.1918
አፍሪካ	-11.1918
▁ናቸው፤	-11.1919
▁በመጠባበቅ	-11.192
▁እስከሚጠናቀቅ	-11.1921
▁ገብረሚካኤል	-11.1921
▁ባለሀብት	-11.1921
▁አብራርተዋል፡፡	-11.1921
▁ለሀገሩ	-11.1922
▁በመመልከት	-11.1922
▁በእኔ	-11.1922
ቨር	-11.1922
▁ለማሟላት	-11.1923
▁ምቾት	-11.1924
▁ፈር	-11.1926
▁በሚደርስ	-11.1928
▁አሸንፈዋል	-11.1929
▁አሉ፡፡	-11.1931
▁መስፈርቱን	-11.1931
▁ማንቸስተር	-11.1931
▁ተማሪዎቻቸውን	-11.1932
▁በቢሾፍቱ	-11.1932
ሳቸው	-11.1933
▁ይኖርባቸዋል።	-11.1933
▁የሚያገኙበት	-11.1936
▁ከባንክ	-11.1938
▁ቆስለዋል።	-11.1939
ሚፈለገው	-11.1942
ኤን	-11.1944
▁ፀጉር	-11.1945
▁የምናደርገው	-11.1953
ራሂም	-11.1954
▁ለመቅጠር	-11.1961
▁የሞሮኮ	-11.1961
▁ተመልክቷል፡፡	-11.1961
▁ለመግደል	-11.1961
▁ዶርትሙንድ	-11.1962
▁እንደሚከተለው	-11.1962
▁የሊቨርፑሉ	-11.1963
▁የፈተናው	-11.1964
▁ገበየሁ	-11.1967
▁አሳይቷል	-11.1968
▁የሚያገለግሉ	-11.1969
▁ክሪስ	-11.1969
▁የምሥራቅ	-11.1969
▁ሆናለች።	-11.1972
▁የክለቡን	-11.1972
▁መጠናቀቁ	-11.1976
▁በሬክተር	-11.1976
▁የሚከተለው	-11.1981
▁የዋና	-11.1986
▁ሀገሬ	-11.199
ነሱ	-11.1992
▁ከሆስፒታል	-11.1992
▁ከመጣ	-11.1995
ሄድ	-11.1996
▁አለመኖሩ	-11.1997
ፕሬዚዳንታዊ	-11.1998
▁አቋርጦ	-11.1998
▁ሊሰጠው	-11.2001
ሚጠራዉ	-11.2002
▁ዓቀፍ	-11.2004
▁መሞከር	-11.2008
▁አደረጉ	-11.201
▁ቀነኒሳ	-11.2014
▁ከኬንያ	-11.2014
▁በልደታ	-11.2015
▁መተግበር	-11.2015
▁ቅኝት	-11.2016
▁የዋልያዎቹ	-11.2016
▁የሚችሉበት	-11.2017
▁ድሉ	-11.2019
▁የሚሰጣቸው	-11.202
▁ማኅበሩ	-11.2021
▁ማጥቃት	-11.2022
▁ከፈረንሳይ	-11.2023
▁በቤንሻንጉል	-11.2024
▁ጄ	-11.2024
▁ያንግ	-11.2026
▁ጭካኔ	-11.2029
▁አብዮት	-11.203
▁የተጀመረውን	-11.203
▁እስካ	-11.2031
▁ግል	-11.2032
▁የተጠናቀቀ	-11.2032
▁የሚደረግበት	-11.2033
76	-11.2035
▁አወዳድሮ	-11.2037
▁ሄንደርሰን	-11.2037
▁ወደነበረበት	-11.2039
▁ይበሉ	-11.204
▁ቅነሳ	-11.204
▁93	-11.2044
▁ሀላፊነቱ	-11.2044
መልስ	-11.2044
▁ዘዴዎች	-11.2045
▁ሳምንታዊ	-11.2045
▁ባትሪ	-11.2047
▁የሱ	-11.2047
▁አለመኖር	-11.2048
ኪራይ	-11.2048
▁የተቋቋመ	-11.205
▁ሴንት	-11.205
▁አጠናክረው	-11.205
▁በተሰኘ	-11.2051
▁የአከባቢው	-11.2051
▁በዩኒቨርሲቲዎች	-11.2056
▁አመታትን	-11.2056
▁መልካሙ	-11.2056
▁ያስተላለፈው	-11.206
▁ማደያ	-11.2062
▁ሉክ	-11.2062
ኛል።	-11.2062
▁አይሱዙ	-11.2064
▁ከተማሪዎች	-11.2065
▁ጨለማ	-11.2067
▁ላደረጉት	-11.2068
በማለት	-11.2069
▁እንገኛለን።	-11.2069
ጁድ	-11.2071
ቻቸውን	-11.2072
▁አሜሪካዊ	-11.2073
▁ለችግሩ	-11.2075
▁ሽኝት	-11.2076
▁ለእይታ	-11.2077
▁በመከናወን	-11.2077
▁ለማፍረስ	-11.2079
▁ሲያዙ	-11.2079
▁ድግሪ	-11.208
▁በወልቂጤ	-11.2081
ድር	-11.2081
መላዉ	-11.2082
▁በማሻሻል	-11.2082
ቆይ	-11.2082
▁በመቀነስ	-11.2083
▁ደምሴ	-11.2083
▁ገዝቶ	-11.2084
▁መመርያ	-11.2085
▁አባቶች፣	-11.2086
ሃን	-11.2089
▁ኃይለማርያም	-11.2091
▁ሽንኩርት	-11.2092
▁ይሰማኛል	-11.2096
▁ምልክቶችን	-11.2099
▁ሳይሳካ	-11.2099
▁ዘሪሁን	-11.2101
▁ኤርሚያስ	-11.2104
▁የወደሙ	-11.2105
▁ንጥረ	-11.2107
▁አብርሀም	-11.2108
▁ጎዳናዎች	-11.2112
▁ላን	-11.2114
▁ባልቻ	-11.2114
▁በቂርቆስ	-11.2115
▁ካምፓሶች	-11.2116
▁ተካፋይ	-11.2116
▁ማዶ	-11.2116
▁በቀዳሚነት	-11.2117
▁ሩኒ	-11.2118
▁ሲከታተል	-11.2118
መዘገባች	-11.2118
▁ባስተላለፈ	-11.2121
▁መንስ	-11.2121
▁ኢታማ	-11.2121
▁አቢሲኒያ	-11.2122
▁ለአካል	-11.2124
▁ኮንፌዴሬሽን	-11.2126
▁ዴምቤሌ	-11.2128
▁በአርሰናል	-11.2128
▁በዝውውር	-11.2128
▁ተፈናቃይ	-11.213
▁የአረንጓዴ	-11.2131
▁አስከባሪዎች	-11.2133
▁ቫይረስን	-11.2136
▁ተካ	-11.2136
▁ሚሊኒየም	-11.2136
▁መዘግየት	-11.2139
▁ክልሉን	-11.214
አሜሪካ	-11.2141
▁ማስቆም	-11.2145
▁የሚጠናቀቅ	-11.2145
▁የተካሄደ	-11.2149
▁ተመልክቶ	-11.215
▁አውሮፕላኖችን	-11.215
ቦርዱ	-11.215
▁መውጣታቸውን	-11.2151
▁የጠየቁ	-11.2153
ዋለሁ	-11.2156
▁ኒጀር	-11.2156
▁ሳያስፈልግ	-11.2156
▁ፈራሚ	-11.216
▁የባልደራስ	-11.216
ሰባት	-11.216
▁ቆስለዋል	-11.2161
▁ጆንግ	-11.2162
120	-11.2162
▁የሶሪያ	-11.2162
ርድ	-11.2162
▁አብነት	-11.2163
▁ያላቸዉ	-11.2164
▁የግ	-11.2165
▁ካላችሁ	-11.2166
▁ተረፈ	-11.2167
▁ኩነት	-11.2169
▁የሚችልበት	-11.2171
5,000	-11.2177
▁የጅቡቲ	-11.2177
▁የዲፕሎማሲ	-11.2186
▁ፀሃፊ	-11.2187
▁ውድቀት	-11.2189
ዊት	-11.2193
▁ዴኤታው	-11.2193
ከፍተኛ	-11.2194
▁አልበም	-11.2194
▁ለማስፋት	-11.2197
▁ሲችሉ	-11.2198
▁ከቆየ	-11.2198
▁የዩኒቨርስቲው	-11.2199
▁እስራኤላውያን	-11.2199
▁ማቅረቡ	-11.2201
▁አስበዋል	-11.2202
▁የላቸውም	-11.2205
▁በግድቡ	-11.2206
▁ሁለቱንም	-11.2208
▁ለማስተናገድ	-11.2212
▁ችለናል።	-11.2213
▁ባን	-11.2216
▁ስለዚህም	-11.2217
▁ዉሃ	-11.2217
▁መውደሙን	-11.2218
ባይ	-11.2221
▁አድናቆት	-11.2221
▁አማኞች	-11.2222
▁መግለፃቸውን	-11.2222
▁በየአካባቢው	-11.2224
▁ጓደኞቹ	-11.2225
▁ይደውሉ።	-11.2232
▁ማቆሚያ	-11.2234
▁መቃወሚያ	-11.2234
ለመርጨት	-11.2236
▁ተሻገር	-11.2237
▁በአዲስአበባ	-11.2238
▁ማስታወቁ	-11.2239
▁ለማሳወቅ	-11.2242
▁ስዓት	-11.2244
▁በማቋቋም	-11.2245
▁ለአገር	-11.2245
▁ከፊል	-11.2247
▁አስታወቁ	-11.2247
ሳተፍ	-11.225
▁ሞቃዲሾ	-11.2251
▁ሲጀመር	-11.2251
ፊያ	-11.2252
▁ካፌ	-11.2254
▁በአንጻሩ	-11.2254
▁በምት	-11.2255
▁ኅብረተሰቡ	-11.2255
▁የሚከተሉት	-11.2256
▁ኪን	-11.2259
▁እንዳን	-11.2259
▁.......	-11.226
▁የሃይል	-11.2262
▁በእርግጥ	-11.2263
▁1,500	-11.2265
▁!!!	-11.2269
▁መምህራኑ	-11.227
ጻፈው	-11.2273
▁ሀውልት	-11.2277
▁አካታች	-11.2277
▁መዋቅሮች	-11.2277
▁12:30	-11.2278
▁የሌላ	-11.2279
▁ፀጋ	-11.2279
▁ያስረዳል።	-11.2279
▁ከመጀመሩ	-11.228
ሁለት	-11.2281
▁በሚባለው	-11.2283
▁እየተደረገባቸው	-11.2283
▁ኮትዲ	-11.2285
▁መጥቷል	-11.2287
▁ላለባቸው	-11.2287
▁ቀርተዋል።	-11.2289
▁የቋንቋ	-11.229
▁ይልቁንም	-11.2294
ትክክለኛው	-11.2296
▁የድንገተኛ	-11.2296
▁ወቅቱ	-11.2297
▁ያለብን	-11.2297
▁ምስራቃዊ	-11.2298
▁መመለሱ	-11.2299
▁የተጠቀሱት	-11.23
▁መገልገያ	-11.2301
▁አቃቂ	-11.2302
▁ወሩ	-11.2304
▁ለሚለው	-11.2305
▁የትኛው	-11.2306
▁ኢንዱስትሪዎች	-11.2308
▁ተከተል	-11.2311
▁የኦዲት	-11.2311
▁እኩልነት	-11.2313
▁የተቀሩት	-11.2314
▁የመሰረት	-11.2315
▁ፀብ	-11.2316
▁ቀልጣፋ	-11.2316
▁ተመላላሽ	-11.2317
▁የዉጪ	-11.2318
▁የመቁረጫ	-11.2323
▁መልበሻ	-11.2324
▁ጠብ	-11.2324
▁ቀሲ	-11.2324
▁ክብርት	-11.2324
▁የሬዲዮ	-11.2325
▁ሰምተናል።	-11.2326
▁ጄራርድ	-11.2326
▁በፈተና	-11.2328
▁በአመቱ	-11.2328
▁ለወንድ	-11.2329
▁አስተ	-11.233
▁ጀምሯል፡፡	-11.2333
▁እየፈጠረ	-11.2334
▁ሀሳባቸውን	-11.2336
▁ማናቸው	-11.2337
▁አዲ	-11.2337
▁ያውቃል	-11.2338
▁ሊቨርፑልን	-11.2338
▁መኪናው	-11.2342
ብራ	-11.2345
▁የማታ	-11.2347
▁ብሮድካስት	-11.2348
ሳካ	-11.2349
▁ዳዋ	-11.2349
▁እንዳልቀረ	-11.235
ባለፈዉ	-11.235
▁ክስተቱ	-11.2352
▁ሞተዋል	-11.2352
ርባል	-11.2354
▁ዮሃንስ	-11.2358
▁ለማንበብ	-11.236
ቦንብ	-11.2361
▁የመግዛት	-11.2362
እነዚህ	-11.2362
▁ለአጭር	-11.2363
ባለ	-11.2364
ሜዳቸው	-11.2364
▁ያለመከሰ	-11.2364
▁መስጠታቸውን	-11.2365
▁ሐገር	-11.2367
▁ፎርም	-11.2368
▁ስቶ	-11.2368
▁ለችግር	-11.237
▁ያማክሩን	-11.2371
▁ስድስቱ	-11.2372
▁የዓድዋ	-11.2372
▁ሪዞርት	-11.2372
▁የመኝታ	-11.2373
▁የሰዉ	-11.2376
▁እኩለ	-11.2377
▁እንሰጣለን	-11.2378
▁መኪናውን	-11.2379
7/2016	-11.2379
ሴት	-11.2379
ጪ	-11.238
ወሰዱት	-11.2381
▁ሠ	-11.2382
▁ያገኙት	-11.2383
▁የወ	-11.2387
▁ሊኖሩ	-11.2395
▁በክሱ	-11.2399
▁ፈታህ	-11.2399
▁በረዶ	-11.24
▁ተጠቅሷል፡፡	-11.24
▁እንዲወስድ	-11.24
▁በስህተት	-11.2401
▁ለማትረፍ	-11.2403
▁የግሉ	-11.2403
▁ሰርተፍኬት	-11.2405
▁በየትኛው	-11.2405
▁ምስጋናቸውን	-11.2406
ገባው	-11.2406
ዋለው	-11.2407
▁ይሰጣሉ	-11.2409
▁በሶስቱ	-11.2413
ዲስ	-11.2414
▁17.	-11.2418
▁መለያየቱ	-11.2418
▁ሉተን	-11.2421
▁ከቤተሰቦቻቸው	-11.2421
9,000	-11.2424
ሴካፋ	-11.2424
▁ለምርጫ	-11.2426
▁በአፍጋኒስታን	-11.2426
▁አስፈሪ	-11.2428
ኳቸው	-11.243
▁በኢንተርኔት	-11.2433
▁125	-11.2433
ነሽ	-11.2434
▁እቤት	-11.2434
▁በብራዚል	-11.2437
▁ተጠርጥ	-11.2439
▁ሥርጭት	-11.2439
▁ለማስለቀቅ	-11.2439
▁እንዳልተቻለ	-11.244
▁ሁንግ	-11.2442
▁ዝናሽ	-11.2442
▁ለመምራት	-11.2443
የግዛት	-11.2443
እስካሁን	-11.2444
▁ስፔስ	-11.2444
▁የመመዝገቢያ	-11.2444
▁በሽብር	-11.2446
▁በሞባይል	-11.2446
ሚኒስቴር	-11.2446
▁መነሻውን	-11.2446
▁የምፈልገው	-11.2446
▁በመታገዝ	-11.2447
▁የማይታወቅ	-11.2448
▁ተመራ	-11.2449
▁ሙስሊሞች	-11.245
▁አስታውቀዋል	-11.2451
▁የመድሃኒት	-11.2451
▁ሰርተን	-11.2453
▁የዶሮ	-11.2453
▁በግንባታ	-11.2456
▁ብሄረሰቦች	-11.2457
▁ለምንድነው	-11.2458
▁ፓርቲዎቹ	-11.2459
▁ካገኘ	-11.2459
▁3-	-11.2462
▁ከሆነው	-11.2465
▁06	-11.2468
▁ሆነዋል፡፡	-11.2468
▁ሁን	-11.2471
ሰሩ	-11.2473
▁አንችልም	-11.2474
▁መድህን	-11.2476
▁ሄደ	-11.2477
▁አምቡላንስ	-11.2478
▁ሳዲዮ	-11.2479
ልዩ	-11.248
▁ቡሌ	-11.2481
▁ተፋሰስ	-11.2481
▁ካራባኦ	-11.2481
▁እንድትሆን	-11.2482
▁ይልማ	-11.2482
▁ለብቻ	-11.2484
▁ተጠባቂው	-11.2485
▁ስለሆኑ	-11.2486
▁ከሳውዲ	-11.2486
▁ከብሄራዊ	-11.2491
▁የካናዳ	-11.2492
▁ጓደኛዬ	-11.2494
▁የኤሌክትሮኒክስ	-11.2494
▁ተጨዋቻቸው	-11.2495
▁የደ	-11.2495
▁ከሀያ	-11.2496
▁የእንቅስቃሴ	-11.2497
▁ጎሳ	-11.2497
ተዋል።	-11.2499
▁ሸ	-11.2499
▁ይበልጣል	-11.2502
▁ብርሃነ	-11.2504
▁መረጃ፦	-11.2504
ገና	-11.2504
▁ኔቶ	-11.2504
▁የጠቆመው	-11.2506
▁አልሸባብ	-11.2507
▁ከመጠን	-11.2507
▁ያማል	-11.2508
▁ከመደበኛ	-11.251
▁እንደሆነች	-11.2511
▁ከጎንደር	-11.2515
▁ኤርትራውያን	-11.2516
▁11:30	-11.2517
▁ታጁ	-11.2519
▁ፍቅርን	-11.2521
▁ጡት	-11.2521
▁ተሰጥቶት	-11.2521
▁በማሳደግ	-11.2522
▁አፈወርቅ	-11.2523
▁የአልሸባብ	-11.2523
▁ታድያ	-11.2524
▁መካነ	-11.2524
▁ጭነው	-11.2525
▁መደ	-11.2527
▁ለሚደረገው	-11.2527
40/60	-11.2528
▁የሩሲያው	-11.2529
▁ሕንፃ	-11.2529
▁ትምህርቶች	-11.2529
ሶስት	-11.2529
▁የባለስልጣኑ	-11.2529
ሊዮኔል	-11.253
ፕሮፌሰር	-11.253
▁ኦዲተር	-11.2532
▁ይህው	-11.2533
▁እንደተገደሉ	-11.2533
▁ከእኔ	-11.2534
▁ሊኖረው	-11.2535
▁የተላለፈው	-11.2535
▁እንደነበረው	-11.2537
ሉን	-11.2539
▁ያሲን	-11.2541
ለቀረበላቸው	-11.2542
▁ለእናንተ	-11.2542
▁ተናጋሪ	-11.2544
▁ኮርፖሬሽኑ	-11.2544
▁እንደራሴዎች	-11.2546
▁ባርሴሎናን	-11.2548
▁የራሳቸው	-11.2551
▁የማይቻል	-11.2561
▁ማመንጨት	-11.2563
▁ያስተማራቸውን	-11.2564
▁ወዳድ	-11.2564
▁በማደራጀት	-11.2565
▁መጪው	-11.2566
ቀዶ	-11.2567
▁ደጀን	-11.2568
▁ሲሄድ	-11.2569
▁ቆይ	-11.2569
▁ለመፍትሄ	-11.2569
▁በክልሎች	-11.2571
▁ሲነሳ	-11.2571
ታው	-11.2571
10,000	-11.2574
ፈረንሳዩ	-11.2575
▁ሱዋሬዝ	-11.2577
▁አልተቻለም።	-11.2581
▁ደርሶባቸዋል።	-11.2582
83	-11.2583
▁ትምህርቱ	-11.2586
▁የጎል	-11.2586
▁በአገራችን	-11.2587
▁እንዳይደርስ	-11.2591
▁እንደሚጠናቀቅ	-11.2593
▁እችላለሁ	-11.2595
▁ጀምስ	-11.2596
ለቱ	-11.2597
▁ሰፋ	-11.2598
▁መመረጡ	-11.2598
▁መፈረሙ	-11.2598
ሚስጥር	-11.2602
▁እየሄደ	-11.2603
ማኑኤል	-11.2604
▁በማክበር	-11.2605
▁ድባብ	-11.2605
▁በሚቻልበት	-11.2606
▁እንዲታይ	-11.2607
▁ምዕራባውያን	-11.2609
▁መስሎ	-11.2613
▁ደርሰው	-11.2614
▁የተገለጸው፡፡	-11.2614
▁መውጣቱ	-11.2614
ረድኤት	-11.2615
▁ርዳታ	-11.2617
ነዉ	-11.2617
▁ከባለድርሻ	-11.2617
▁በቃል	-11.2618
▁ተላላፊ	-11.2619
▁ይገኙበታል፡፡	-11.2621
▁የተጠየቀው	-11.2621
63	-11.2622
▁የአርጀንቲና	-11.2624
▁ከአል	-11.2626
ኮች	-11.2627
▁ተፈናቃዮቹ	-11.2631
ያዝ	-11.2634
▁ፀሐፊ	-11.2634
▁ፓትርያርኩ	-11.2635
▁የፈለጉትን	-11.2639
ፕሬዝዳንትነት	-11.264
ኦት	-11.2644
▁ማራዘማቸው	-11.2647
▁ማስጠበቅ	-11.2647
▁ፍንጭ	-11.2647
▁ገብረስላሴ	-11.2648
▁ሰይድ	-11.2648
▁እየተመለሱ	-11.2648
▁እንደሚጀምሩ	-11.2649
▁ባሰፈሩ	-11.2649
▁የዩቲዩብ	-11.2653
▁የማስፈረም	-11.2653
▁አዘዋዋሪዎች	-11.2654
▁ሳይደርስ	-11.2655
▁ለሀገሪቱ	-11.2656
▁በይቅርታ	-11.2656
▁መወሰዳቸውን	-11.2657
▁ይቆያል	-11.2659
▁ሚሊሻዎች	-11.2661
▁የቅጥር	-11.2661
▁በዜጎች	-11.2662
▁የሚያገኙ	-11.2662
▁የዘጠኝ	-11.2665
▁ቻናሎች	-11.2665
▁አለው፡፡	-11.2665
▁የሚሰጡት	-11.2666
ወረርሽኙ	-11.2667
▁የዕድሜ	-11.2667
▁ሕሙማን	-11.2669
▁በሮች	-11.2669
▁18.	-11.267
ሥት	-11.2671
▁ሁላ	-11.2672
▁ወንጌል	-11.2672
▁መፈጠሩን	-11.2674
▁አፕ	-11.2677
▁ያደረጋቸው	-11.2678
▁የፕሮጀክቱ	-11.2678
▁ኢምባሲ	-11.2679
▁ኢትሀድ	-11.2681
ህይወት	-11.2683
▁ለካ	-11.2688
▁የተሰጣቸውን	-11.2688
▁ተናገሩ፡፡	-11.2689
▁የነ	-11.2689
▁ማንነትን	-11.269
▁እያገኙ	-11.269
▁ፋሶ	-11.269
▁የሚያገለግል	-11.269
▁ዞሮ	-11.2691
▁እንዲመጡ	-11.2692
▁በመጠቆም	-11.2694
▁ደብተር	-11.2696
▁መፈተሻ	-11.2696
▁ግዛው	-11.2698
20/80	-11.27
▁የሚስተዋለው	-11.2701
▁ግብዓቶችን	-11.2702
ጥበብ	-11.2702
▁ቅጣቱ	-11.2703
▁አረም	-11.2705
▁ንብረቶችን	-11.2705
▁ፓውሎ	-11.2707
▁በአውሮፕላን	-11.2708
▁ቦርሳ	-11.2708
▁ይታያል።	-11.2709
▁3:45	-11.271
▁ኢቫን	-11.271
▁ስልጣናቸውን	-11.2715
▁አዳም	-11.2716
▁የቦርዱ	-11.2716
ስተር	-11.2718
▁ስላት	-11.2719
▁መንጃ	-11.2722
▁በቴሌቪዥን	-11.2722
▁ለአብነትም	-11.2724
▁የሚባሉት	-11.2724
▁ኤክስ	-11.2725
▁አረ	-11.2728
▁ሃላፊነቱ	-11.2728
▁ለመግለጽ	-11.2731
▁እያካሄዱ	-11.2732
▁ሳሊባ	-11.2732
▁ሊጨምር	-11.2732
▁እልቂት	-11.2732
▁ይገልጻል።	-11.2733
▁ህይወቴ	-11.2734
▁ሮናል	-11.2735
▁ይኖር	-11.2735
ኅ	-11.2736
ረስ	-11.2736
▁አለህ	-11.2737
ያስ	-11.2741
▁ተፈፅሟል።	-11.2743
▁ይገባቸዋል	-11.2743
▁ይታያል	-11.2743
▁በማየት	-11.2744
▁ተገልጋዮች	-11.2745
▁ከወጣ	-11.2746
▁በማን	-11.2746
ብርሃን	-11.2747
▁መደገፍ	-11.2749
▁ከስፍራው	-11.2751
▁ውጤቶችን	-11.2754
▁ማለፊያ	-11.2756
▁የሚሳተፉበት	-11.2757
ሰጣቸው	-11.2759
▁መገደሉን	-11.276
▁በአሰልጣኝነት	-11.276
▁የወሎ	-11.276
▁ጠባብ	-11.2762
▁የሩብ	-11.2764
አለም	-11.2764
▁2000	-11.2765
▁ሊጀም	-11.2767
▁ከአየር	-11.2767
▁ዱላ	-11.2768
ባቸዋል	-11.2772
አክሱም	-11.2773
▁ጫኔ	-11.2774
▁ተሟጋቾች	-11.2774
▁መታደግ	-11.2775
▁የጥፋተኝነት	-11.2777
▁እንደዛ	-11.278
▁ትላንትና	-11.2781
▁የፕላስቲክ	-11.2783
▁አመቷ	-11.2784
▁በመሀል	-11.2787
▁የቀረው	-11.2787
▁ፈታ	-11.2788
▁በተደራጀ	-11.2788
▁ሽልማቶችን	-11.2789
▁የቪዲዮ	-11.2789
▁ይመስላሉ	-11.2795
▁ሚልየን	-11.2797
▁አስተባባሪነት	-11.2798
▁ሙላት	-11.2798
▁አካሉ	-11.2799
▁እንደውም	-11.2803
▁ለአብነት	-11.2804
▁ቁርስ	-11.2805
▁በሕገወጥ	-11.2805
ተያዘለት	-11.2806
▁ቢኖርም	-11.2806
▁መታ	-11.2807
▁አዳሪ	-11.2808
ቨ	-11.2808
▁ቸርነት	-11.2808
▁ኤር	-11.2816
▁ማዞሪያ	-11.2816
▁አይሳክ	-11.2816
▁ሳይጨምር	-11.2817
▁አዋርድ	-11.2817
▁ሳይንሳዊ	-11.2819
▁ሕመም	-11.282
የተመሩ	-11.282
▁በመቆጣጠር	-11.2821
▁ቀርቧል፡፡	-11.2826
▁አልታወቀም።	-11.2828
▁የፓሪስ	-11.2829
ችሎት	-11.2829
▁ያም	-11.283
▁ኢንች	-11.2832
▁እንጨት	-11.2832
▁በመቆም	-11.2834
ስታዝ	-11.2837
▁ድርጅቶችን	-11.2838
▁አሚር	-11.284
▁የማት	-11.2842
▁ሠዎች	-11.2848
▁ብሪጅ	-11.2855
▁መዝሙር	-11.2859
▁ሩዲገር	-11.2859
ብል	-11.286
▁ስመኘው	-11.286
ጨጌ	-11.286
▁ታመው	-11.286
▁በሆስፒታል	-11.2861
▁እንዲውሉ	-11.2861
▁ለማሰባሰብ	-11.2862
▁አድርገውላቸዋል።	-11.2862
▁የወደብ	-11.2864
▁እርከን	-11.2864
ይህን	-11.2866
▁እያቀረቡ	-11.2867
▁የሚሰራጨው	-11.2868
▁ዋንጫዎች	-11.2868
▁ይመስላል።	-11.2869
▁እንደሌለበት	-11.2869
▁ደላሎች	-11.287
▁ተፈፃሚ	-11.287
▁ውለዋል	-11.287
▁ጤፍ	-11.287
▁ጥቂቶቹ	-11.2871
▁ማርሴሎ	-11.2872
▁ሆነዉ	-11.2872
▁ምክንያታዊ	-11.2875
▁በትራንስፖርት	-11.2875
▁ኒኮላስ	-11.2879
▁አስፈጻሚው	-11.2884
▁መካከለኛው	-11.2885
▁ብለዉ	-11.2886
▁ይሄው	-11.2889
▁የጣልያኑ	-11.289
77	-11.2896
▁ከመገናኛ	-11.2897
▁መንበረ	-11.2898
▁ጉርሻ	-11.2902
▁እንዲመዘገቡ	-11.2903
▁መርሃግብር	-11.2904
መጡ	-11.2906
▁ቀኙ	-11.2907
▁አስበው	-11.2909
▁በሀገረ	-11.2909
▁ፔር	-11.2911
▁ፌ	-11.2911
▁በጽ	-11.2912
▁የሊባኖስ	-11.2913
▁ምስሉ	-11.2914
▁ቀርቷል	-11.2915
▁ተሰምቷል	-11.2915
ሸኔ	-11.2915
▁እጥበት	-11.2916
▁ለውጦች	-11.2916
▁አልፈው	-11.2917
▁ሴርያው	-11.2918
▁የሚያዙ	-11.2918
▁በውጪ	-11.2919
▁ከቀን	-11.2919
▁ባደረሰ	-11.2921
▁ወታደሮ	-11.2923
▁አስቆጣሪ	-11.2923
▁በመቀጠልም	-11.2926
ገቡ	-11.2927
▁የሚፈጸም	-11.2929
▁በኤክስ	-11.293
▁እርምጃው	-11.2931
▁መስማማቱ	-11.2932
▁የአፍና	-11.2934
▁የተካተቱ	-11.2935
66	-11.2938
▁እሰከ	-11.294
▁የሚፈልጉትን	-11.2942
▁ሸቀጦች	-11.2942
እስከ	-11.2943
▁የብረት	-11.2943
▁አስለቃ	-11.2943
▁ማስፋፊያ	-11.2945
▁በለስ	-11.2945
▁ተላልፈው	-11.2945
▁በመረጋገጡ	-11.2945
▁የሚመዝን	-11.2946
▁ባሰራጨው	-11.2946
▁ለመዋጋት	-11.2947
▁ከምክር	-11.2948
▁ቪኦኤ	-11.295
▁የደንበኞች	-11.2952
▁ቀራኒዮ	-11.2952
ልቦና	-11.2952
▁ለሚመለከታቸው	-11.2955
▁የአውሮ	-11.2956
▁የተገነባ	-11.2957
▁በሚኒስቴሩ	-11.2957
▁ለቪኦኤ	-11.2958
▁ይኖርበታል	-11.2958
▁ከሚያደርገው	-11.2959
▁መልሰው	-11.296
▁ወጥቷል።	-11.2963
▁ሆነ።	-11.2967
▁የዕጣ	-11.2968
▁ምርቱን	-11.2969
▁የቻይናው	-11.297
▁መፈናቀላቸውን	-11.297
▁በሉ	-11.297
▁ዓመታትን	-11.2971
▁ሠራተኞችን	-11.2977
▁ለምርመራ	-11.2977
▁ፍጻሜ	-11.2978
▁የሃማስ	-11.2978
▁ትቶ	-11.2979
▁አጋ	-11.2985
▁አስቶንቪላ	-11.2987
▁ማዲሰን	-11.2988
▁ለማውረድ	-11.2989
▁ቡድኖችን	-11.299
▁ማለ	-11.2991
▁የምንፈልገው	-11.2993
▁አሳርፈዋል።	-11.2993
▁ላቀዉ	-11.2994
▁ለችሎቱ	-11.2995
▁የተከበሩ	-11.2995
▁አስፈጻሚዎች	-11.2996
▁የኬሚካል	-11.2996
▁የሚጥል	-11.2999
▁ታይቷል	-11.2999
▁ተመርጧል	-11.3001
▁ይከናወናል	-11.3001
▁የምስረታ	-11.3002
ሰሜን	-11.3004
▁ከቦታ	-11.3006
▁ማርሴ	-11.3006
▁አረጋግጠዋል፡፡	-11.3007
▁0-3	-11.3008
▁በቀስ	-11.301
ወርድ	-11.3013
ሉም	-11.3013
▁ትኩስ	-11.3015
ለህ	-11.3017
▁የሚመሩ	-11.3018
መሐል	-11.3019
▁ልጃቸውን	-11.3022
ተራ	-11.3022
▁ጠፍቶ	-11.3029
▁የኤርትራው	-11.303
▁የክላሽ	-11.3031
▁እያሳለፈ	-11.3032
▁እንደምትችል	-11.3032
▁ቃሉን	-11.3033
▁ሊፈጠር	-11.3034
▁እንዲቆሙ	-11.3034
▁ከኃላፊነታቸው	-11.3037
ሱዳን	-11.3039
▁በወጡ	-11.3042
▁በሞሮኮ	-11.3043
▁የማሻሻያ	-11.3043
▁የማኅበረሰብ	-11.3044
ችኋል	-11.3044
▁ሚስቱን	-11.3045
▁ሁላችሁም	-11.3045
▁አቅርበዋል	-11.3045
▁መሾማቸውን	-11.3046
▁ቫሌንሽያ	-11.3046
▁የፓርቲ	-11.3047
▁ክፍተቶች	-11.3047
▁ለሸገር	-11.3047
▁መታቀዱን	-11.3048
▁የአልኮል	-11.3049
▁ህትመት	-11.305
▁ጥያቄያቸውን	-11.3051
▁(-)	-11.3053
መስ	-11.3056
▁የጠላት	-11.3057
▁ሐኪም	-11.3058
▁እንግሊዘኛ	-11.3063
1.5	-11.3065
▁ኤጀንሲዎች	-11.307
▁ለወዳጅ	-11.307
▁ሱማሊያ	-11.307
ቀያቸው	-11.3071
▁ኢብራሂሞቪች	-11.3075
▁መርካቶ	-11.3077
▁ዋቸሞ	-11.3078
▁አመራሮች፣	-11.3082
▁ተመልካች	-11.3084
▁የፍትሕ	-11.3085
▁በሠላም	-11.3086
▁ሌላውን	-11.3089
▁በምሽት	-11.309
▁በሆኑት	-11.3091
▁በጋሞ	-11.3094
ዋና	-11.3094
▁ያገለገለ	-11.3095
▁ትዝ	-11.3098
▁እስቴት	-11.3098
▁ያደረገች	-11.3104
▁ኮምፒውተር	-11.3105
▁ሰለ	-11.3105
▁በሃገር	-11.3108
▁የአይ	-11.3112
▁ሚኪያስ	-11.3113
▁ታጣቂዎችን	-11.3115
▁ሪፎርም	-11.3116
ግራ	-11.3117
▁ምልዓተ	-11.3118
▁ድረገፅ	-11.312
ቃል	-11.3121
▁ተደራጅተው	-11.3124
ዋዜማ	-11.3124
▁ሰምቷል፡፡	-11.3124
▁በስም	-11.3125
▁የመለየት	-11.3125
▁በሌለበት	-11.3126
▁ተማሪው	-11.3128
▁የሚረዱ	-11.3129
▁በየቦታው	-11.313
ፈው	-11.3132
▁ሽታ	-11.3133
▁የለንደኑ	-11.3134
▁ተሳትፈዋል።	-11.3134
▁ሽማግሌ	-11.3134
▁ከቤታቸው	-11.3136
▁የረሃብ	-11.3137
ላን	-11.3138
▁ኢንቨስት	-11.3141
▁ፈሳሽ	-11.3143
▁ባር	-11.3143
▁ሶሪያ	-11.3143
ዩናይትድ	-11.3143
▁ወይዘሪት	-11.3145
▁ካህናት	-11.3147
▁እርግጥ	-11.3147
▁ከቀድሞ	-11.3148
ርነት	-11.3152
................	-11.3153
በእያንዳንዱ	-11.3155
ማዕከሉ	-11.3157
▁ርዕስ፦	-11.3157
▁የአዲስአበባ	-11.3157
በዛ	-11.316
ነታቸውን	-11.3161
▁መሰጠቱ	-11.3165
▁አመፅ	-11.3167
▁መጻሕፍት	-11.3168
ቆሙ	-11.317
▁በሩብ	-11.3171
▁ጀግናው	-11.3171
▁አያይዞም	-11.3172
▁ካምፖች	-11.3172
▁ደጋግመ	-11.3173
▁የነገ	-11.3174
▁የክርስትና	-11.3175
▁የሚያሳየው	-11.3176
▁አልማዝ	-11.3177
▁በሩዋንዳ	-11.3177
▁ገርባ	-11.3178
▁ተጫዋቾቻቸው	-11.3178
▁ክህነት	-11.3179
▁የተከናወነ	-11.3182
ወሰደው	-11.3182
▁ሴንተር	-11.3185
▁ሙላቱ	-11.3186
▁ማልያዎች	-11.3186
▁ኤምሬ	-11.3187
▁ሲመሩ	-11.3188
▁ኦሮ	-11.3188
▁ከንግድ	-11.3192
▁መሰራት	-11.3196
▁አለብኝ	-11.3197
▁ደካሞች	-11.32
▁ግሪሊሽ	-11.3207
▁አንጀለስ	-11.3207
▁መርዳት	-11.3208
▁ተሰ	-11.3208
▁እየገለፁ	-11.3208
▁ሲዘዋወር	-11.3208
▁የወታደራዊ	-11.3209
▁ተፈራርመዋል።	-11.3209
▁ዘጠና	-11.3209
ሀል	-11.3212
▁በህዳር	-11.3212
▁መጽናናትን	-11.3215
▁ጊቢ	-11.3215
ለታል	-11.3217
▁ተሰማ፡፡	-11.3219
▁ተጋጣሚ	-11.3221
▁ስደተኛ	-11.3222
የተሰማቸውን	-11.3222
ዘዋወሩ	-11.3223
▁ኢትዮጵያዊት	-11.3224
▁ተቀምጠዋል።	-11.3224
ፋኖስ	-11.3228
▁ከድሬዳዋ	-11.3231
▁ከሰዋል።	-11.3231
▁በመተካት	-11.3232
▁ንጉሥ	-11.3233
▁ስለው	-11.3239
▁ደሴት	-11.3242
▁፣የ	-11.3246
▁የአገሪቱን	-11.3249
▁ከኢ	-11.325
▁የሚያስፈልጋቸው	-11.325
▁መምህሩ	-11.3251
▁ማስወገድ	-11.3252
▁ኢብሳ	-11.3252
▁በንግግራቸው	-11.3252
▁ሲያቀርቡ	-11.3253
▁ድርጅቶቹ	-11.3253
▁እንዳይወጡ	-11.3253
ንጋቱ	-11.3254
▁ከዞኑ	-11.3258
▁ሲመለስ	-11.3259
ሚገኘው	-11.326
▁እየተፈፀመ	-11.3265
▁ፌደሬሽን	-11.3266
▁የሚከናወነው	-11.3266
▁ስና	-11.3266
▁ቀረጥ	-11.3267
▁ግጭቶችን	-11.3267
▁ውጣ	-11.3268
▁የወልድያ	-11.3271
▁ደውሎ	-11.3272
▁አድማስ	-11.3272
▁በደ	-11.3277
▁ያደርገዋል።	-11.3277
▁የፈጀ	-11.3277
▁ደባርቅ	-11.3277
▁ሚኒባስ	-11.3285
ፖት	-11.3291
ዘጋጅ	-11.3292
▁ተካሂዶ	-11.3296
2519645	-11.3296
93642	-11.3296
▁አድሃኖም	-11.3297
▁ስፔሻሊስት	-11.3297
▁እንደገለጹት፤	-11.3298
▁የቢቢሲ	-11.3298
▁መረራ	-11.3298
▁እየመጡ	-11.3298
▁ገብሩ	-11.33
▁ሊወጡ	-11.3301
▁መከሰቱ	-11.3302
▁የሚያረጋግጥ	-11.3307
▁አህጉር	-11.3309
▁ግጥም	-11.331
▁የላከው	-11.3311
ኪያ	-11.3312
▁የፎቶ	-11.3312
▁ሕንጻ	-11.3314
▁ቴዲ	-11.3315
▁የሰራ	-11.3315
▁የኬንያው	-11.3316
▁ከነገው	-11.3318
▁በእርግጠኝነት	-11.332
▁መመዘኛ	-11.332
▁የሄዱ	-11.3321
ፎች	-11.3322
▁ተግዳሮቶች	-11.3322
▁መዳረጋቸውን	-11.3323
▁ከሰል	-11.3326
▁የማለዳ	-11.3327
ኝም	-11.3333
▁ያለፈውን	-11.3333
▁መተላለፉን	-11.3337
▁መቅደስ	-11.3339
ከፋ	-11.3339
▁መሰለ	-11.3339
▁ገመድ	-11.3339
▁በረቂቅ	-11.3343
▁አብራ	-11.3343
▁ከተገኘ	-11.3344
▁አስረክበዋል።	-11.3344
እረፍት	-11.3345
▁የተቀመጠው	-11.3346
▁አስቀምጧል።	-11.3346
▁እስረኞችን	-11.3347
▁በትርጉም	-11.3354
▁ልጆቹን	-11.3356
▁ማሳደጊያ	-11.3356
▁ይጀምራሉ	-11.3356
ጠሩ	-11.3359
ዲያ	-11.3359
▁በባንኩ	-11.3362
▁ቤተክርስቲያኗ	-11.3362
▁የነበር	-11.3363
▁እንቀጥላለን	-11.3366
▁ሐኪሞች	-11.3366
▁አስባለሁ	-11.3366
ማል	-11.3367
▁ነፍሰ	-11.3367
▁ምርቱ	-11.3368
▁ራማፎሳ	-11.3368
07	-11.3368
▁መለያየት	-11.3371
▁መቱ	-11.3372
▁በግራ	-11.3373
▁ላስ	-11.3373
▁አንሶላ፣	-11.3374
▁የሚጎዳ	-11.3376
▁መዓዛ	-11.3377
▁ታኅ	-11.3379
▁4,	-11.3379
▁አብደል	-11.3379
▁የከተማችን	-11.3381
▁ሶከር	-11.3382
▁ንጋት	-11.3382
አህጉረ	-11.3386
▁እንደሚያገኙ	-11.3387
▁ጠቁሟል፡፡	-11.3389
ነቷ	-11.3389
▁ለመተግበር	-11.339
▁ወንዱ	-11.3392
ቻት	-11.3394
▁በባሌ	-11.3394
▁በሚገኙት	-11.3395
▁ይመስል	-11.3396
▁ለመሥራት	-11.3398
▁የፌዴራሉ	-11.3399
▁ሰልፈኞቹ	-11.3399
▁ዳግማዊ	-11.3399
▁እጽ	-11.3399
▁መሪዎቹ	-11.34
▁ፍራፍሬ	-11.3401
▁ለራሱ	-11.3402
▁ሳላ	-11.3403
▁ከከተማው	-11.3405
▁በጎፋ	-11.3405
▁አንተን	-11.3406
▁የፈጸሙት	-11.3406
▁የተነ	-11.3408
▁የዚህን	-11.3409
▁ኃይሎችን	-11.341
▁የተናገሩት፡፡	-11.3411
▁አለን።	-11.3413
▁እዚያ	-11.3413
▁አለኝ።	-11.3413
▁ወዳ	-11.3413
▁አዋጅን	-11.3414
▁በነጻነት	-11.3418
▁የጠቀሰው	-11.3419
▁በማታ	-11.342
▁ሐረማያ	-11.3421
ኳት	-11.3423
▁አክብሮት	-11.3425
▁ጥሰቶችን	-11.3429
▁እንዲጀምሩ	-11.3433
▁ቤተመንግስት	-11.3433
▁የወጡት	-11.3433
▁ተመድበው	-11.3434
▁ልማቶችን	-11.3439
▁ያልፈለጉ	-11.344
▁በሐዋሳ	-11.344
▁ራሳቸው	-11.344
▁የቱርኩ	-11.3442
▁ተቆጣጣሪዎች	-11.3444
..."	-11.3446
▁የተጠናቀቁ	-11.3446
▁ያግዛል	-11.3447
መት	-11.3448
62	-11.3448
▁የጸረ	-11.3448
▁በተናጠል	-11.3449
ንጎሎ	-11.3449
▁የተፈጸመውን	-11.345
እግዚአብሔር	-11.345
▁ጉራጌ	-11.345
▁የተጠናከረ	-11.3454
ዎች፣	-11.3455
▁450	-11.3456
▁እፈልጋለሁ።	-11.3457
▁ለልማት	-11.3461
ሀይ	-11.3462
▁ገልጸው፤	-11.3464
▁ሽልማትን	-11.3464
▁ፖስታ	-11.3465
▁ሕዳሴ	-11.3465
▁መግለጫቸው	-11.3467
▁በሚሉ	-11.3468
▁እጄ	-11.3469
▁የተፈናቃዮች	-11.3469
ፋቸው	-11.3469
09	-11.347
▁አውጪ	-11.347
የን	-11.3475
▁እንዳይከሰት	-11.3477
▁ሐሰን	-11.3478
አለማችን	-11.3478
▁ገደል	-11.3479
▁ያሳየው	-11.3479
▁ሁኖ	-11.348
▁በህዝቡ	-11.348
▁ከሰላም	-11.3481
▁በማስተማር	-11.3482
ሚያደርጉት	-11.3483
▁ለማሳለፍ	-11.3483
ከስ	-11.3484
▁በመጠኑ	-11.3485
94	-11.3486
▁ከባርሴሎና	-11.3487
▁ቢደረግም	-11.3487
▁የሚገመቱ	-11.3488
▁መለኪያ	-11.3489
▁ማዘጋጃ	-11.349
▁በተቃራኒ	-11.3492
▁ማብቂያ	-11.3492
▁የተሰኙ	-11.3493
▁እንዳደረገ	-11.3493
▁ከውሳኔ	-11.3493
▁ከሚጠራው	-11.3493
▁መካሄዳቸውን	-11.3494
▁ቴሌብር	-11.3494
▁መቀመጫዎች	-11.3497
▁የሌለበት	-11.3499
▁ገብተዋል፡፡	-11.3499
▁ሊስበን	-11.35
▁ስምምነቶች	-11.3501
▁ያጣ	-11.3501
▁ዘለቀ	-11.3503
▁ቱኒዚያ	-11.3506
▁ከአቅም	-11.3509
▁ምስክሮችን	-11.3511
ፃ	-11.3513
▁ደርሶባቸዋል	-11.3514
▁ዮ	-11.3515
▁ምስሎችን	-11.3518
▁አግቢ	-11.3522
▁ተጠብቆ	-11.3523
▁ማድሪዶች	-11.3523
▁ላፕቶፕ	-11.3524
▁አመልክቷል፡፡	-11.3524
ለኝ	-11.3525
▁ብሩህ	-11.3526
▁እንደተገኘባቸው	-11.3526
▁አምርተዋል።	-11.3526
▁የተከታተሉ	-11.3528
▁ግድያዎች	-11.3529
▁የበይነ	-11.353
ሉት	-11.3531
▁ሳንቼዝ	-11.3532
▁ለመቋቋም	-11.3533
▁መገለፁ	-11.3533
▁ብለሽ	-11.3533
▁አድርጋለች	-11.3534
▁ደስታቸውን	-11.3538
▁መቅረቡን	-11.3539
▁በሃገሪቱ	-11.3539
ገናኝ	-11.3539
▁ቢሆንም፤	-11.354
▁አውራጃ	-11.3542
▁ሽያ	-11.3542
▁የታ	-11.3543
በሚሊኒየም	-11.3544
ራል	-11.3544
▁ቻርጅ	-11.3545
▁መፈለግ	-11.3551
▁የተመራው	-11.3552
▁ተረጋግጧል፡፡	-11.3554
▁እያየ	-11.3555
▁የዋለ	-11.3556
▁ያንተ	-11.3557
ከተ	-11.3558
▁ታክሲዎች	-11.3558
▁በርካቶችን	-11.3562
ጉን	-11.3563
▁የጽ	-11.3564
▁አያይዘው	-11.3564
▁ፈልገው	-11.3565
▁በግዳጅ	-11.3569
▁እንዲታገድ	-11.3569
▁በነበሩት	-11.357
▁ቅንጡ	-11.357
▁የወሰነው	-11.3573
▁የማራቶን	-11.3574
▁ታሊባን	-11.3576
▁የአትሌቲክስ	-11.3576
ጄነራል	-11.358
▁ድጋፋቸውን	-11.3581
▁በተወሰደ	-11.3584
2008	-11.3587
▁የሶማሊላንድ	-11.359
▁ታይቷል።	-11.3591
ሊን	-11.3592
▁ኮንግ	-11.3593
▁ስልኩን	-11.3595
350	-11.3597
▁ኮከባቸው	-11.3597
▁በሞተር	-11.3598
▁--------	-11.3599
▁ቅፅ	-11.3604
ራን	-11.3604
▁የካሳ	-11.3607
ወድ	-11.3608
▁ዐይን	-11.3608
▁ታዳሚዎች	-11.3608
▁አንድነትን	-11.3609
ገኙ	-11.361
▁የአትሌቲኮ	-11.3613
73	-11.3614
▁ኦዚል	-11.3615
▁ታረቀኝ	-11.3615
ቀርብ	-11.3615
97	-11.3615
▁ታርጋ	-11.3615
▁ልጆቻችን	-11.3616
▁4:45	-11.3616
▁እየተገነባ	-11.3616
59	-11.3617
▁ያስታወሱት	-11.3617
▁የኢጋድ	-11.3618
▁እንዲችል	-11.3618
▁ቢባልም	-11.3621
▁ያሰ	-11.3622
▁ልትይ	-11.3622
▁በሚደረጉ	-11.3622
▁መዘጋት	-11.3623
▁ምርቃት	-11.3623
▁የቢጫ	-11.3623
▁ወሰነ	-11.3624
▁የመንገደኞች	-11.3626
▁መስኖና	-11.3629
▁የአጭር	-11.363
▁ወል	-11.3632
በሌላ	-11.3635
አብ	-11.3636
▁በድርጊቱ	-11.3636
▁ሶሻል	-11.3636
▁ሕጉ	-11.3639
▁ክትባቱ	-11.364
▁ማእከላዊ	-11.3641
▁የጥይት	-11.3641
▁በባለ	-11.3643
▁ሐይቅ	-11.3643
▁መቋረጡ	-11.3648
ላቸዋል።	-11.365
▁አሮን	-11.3651
▁የቦሌ	-11.3651
▁ለሜቻ	-11.3654
▁ተቋማትና	-11.3654
▁ከለላ	-11.3655
79	-11.3659
▁ሙስጠፌ	-11.3661
▁ለማስተዋወቅ	-11.3661
▁ቡካዮ	-11.3661
▁ለመሾም	-11.3661
▁170	-11.3662
▁ሰብ	-11.3664
▁የተጨማሪ	-11.3665
▁እንደወጣ	-11.3666
ናቸውን	-11.3667
▁ዩክሬንን	-11.3668
▁ኤንድ	-11.3668
▁ጣይ	-11.3669
▁ሁለገብ	-11.3669
▁እንደተሰጣቸው	-11.3672
▁ስሟ	-11.3672
▁ጊዜያቸውን	-11.3674
▁ተቀላቅሏል	-11.3677
▁አሁናዊ	-11.3678
ዜና	-11.3679
▁ከሕግ	-11.3681
ሀገር	-11.3681
▁ዲያ	-11.3682
▁የሚወጣው	-11.3683
▁ጆንስ	-11.3686
▁ቀለበት	-11.3686
▁የኤል	-11.3687
▁ዘርፉን	-11.3689
▁ዋንኛ	-11.369
▁አነጋጋሪ	-11.3692
▁ቢንያም	-11.3692
▁ከወጡ	-11.3694
▁ሚኒስተር	-11.3697
▁ያለች	-11.3699
▁እስክ	-11.3701
▁በዘር	-11.3703
▁ብቃቱ	-11.3705
▁የብሔር	-11.3706
ለይ	-11.3706
ንሀገን	-11.3708
▁ጎበዝ	-11.3709
▁(2	-11.3709
▁ያሳየ	-11.371
▁እንዲገኙ	-11.3711
▁መታሰራቸውን	-11.3711
▁ጡር	-11.3712
▁በሽታውን	-11.3714
▁ከጎረቤት	-11.3714
▁ተመልክተናል።	-11.3716
▁ገንዳ	-11.3717
ወቅ	-11.3718
▁የዳቦ	-11.3719
▁ጂም	-11.3719
ሰጠው	-11.372
▁በመወያየት	-11.3721
ያካሂድ	-11.3721
▁በካርቱም	-11.3723
▁የሩዋንዳ	-11.3723
▁የተነገረው።	-11.3724
▁በመቶውን	-11.3725
▁ያልተለመደ	-11.3725
▁ደጋፊዎቹ	-11.3725
▁ባለንብረቶች	-11.3726
▁አልፈጥር	-11.373
▁ጋሻው	-11.3732
▁ሆድ	-11.3733
▁የለብንም	-11.3734
▁ኢንተርፕራይዝ	-11.3734
▁ወዳጄ	-11.3735
▁በድንገተኛ	-11.3735
▁አድማሱ	-11.3738
▁የሚታወቁት	-11.3739
▁ኦስማን	-11.3743
▁የክፍለ	-11.3743
▁ዮሀንስ	-11.3744
▁ሌሊቱን	-11.3746
▁ዘፈን	-11.375
▁ባረጋ	-11.3751
ፈሩ	-11.3751
ፈፀሙት	-11.3754
▁ሲያሸንፉ	-11.3756
▁አስታውሰው	-11.3756
▁ለሰዎች	-11.3757
▁ደመራ	-11.3757
▁መግለጫውን	-11.3757
▁ተጠይቋል።	-11.3758
▁ወራቤ	-11.3758
251906	-11.3758
▁ንግግሩ	-11.3759
88	-11.3765
▁ቦሎኛ	-11.3767
▁በላይነህ	-11.3767
▁ኦባሳንጆ	-11.3768
▁ማቋረጥ	-11.3774
▁የተዛባ	-11.3774
▁ሚስጥራዊ	-11.3775
▁መሪው	-11.3776
▁የሰላሳ	-11.3777
▁መፍጠሩን	-11.3778
▁መጥቷል።	-11.3778
▁መጣል	-11.3781
▁ተክለሃይማኖት	-11.3783
ረግ	-11.3784
▁መፈታት	-11.3784
ፕሮጀክቱ	-11.3787
▁ዲፓርትመንት	-11.3787
▁አባቷ	-11.3788
▁ዳሰሳ	-11.379
▁ለሱዳን	-11.3793
▁እድ	-11.3795
▁ስዊድን	-11.3796
▁ይጎብኙ	-11.38
▁በጭራሽ	-11.3801
▁ኖ	-11.3801
▁እነዚህም	-11.3803
▁ሞይስ	-11.3804
▁አቀረበ	-11.3804
▁ያስገቡ	-11.3811
▁የደን	-11.3813
▁ተቃዉሞ	-11.3813
▁በሚሆኑ	-11.3814
▁በመኖራቸው	-11.3815
▁ከተለያየ	-11.3815
▁በራሳችን	-11.3815
▁ተነገረ።	-11.3816
▁ዉጭ	-11.3816
▁ለአካባቢው	-11.3818
ችል	-11.3819
▁ፈጥሯል።	-11.382
▁አያና	-11.3821
ደረሰበት	-11.3823
▁በአቅራቢያው	-11.3823
▁ከጥቃቱ	-11.3825
▁ስነስርዓቱ	-11.3826
▁መንደሮች	-11.383
▁ሽልማቶች	-11.3831
▁ከዋና	-11.3831
▁በታጠቁ	-11.3832
▁የሚጠቀሙ	-11.3833
▁የተፈረጀው	-11.3833
ኛውም	-11.3835
▁መነሻው	-11.3835
▁እሴቶች	-11.3835
▁መተው	-11.3838
▁ነበረች	-11.3839
▁በህዳሴ	-11.3841
▁ማንንም	-11.3846
ሚቀጥሉት	-11.3846
▁ግድብን	-11.3847
▁ፈውስ	-11.3849
▁ጭራሽ	-11.385
▁ተጭነው	-11.385
▁እንደሚገባቸው	-11.385
▁እናደርጋለን።	-11.385
▁የትስስር	-11.3851
▁መል	-11.3853
ኮሮናቫይረስ	-11.3857
▁የሚያገናኘው	-11.3859
ዘጋ	-11.3861
▁ከተጠቀሱት	-11.3863
ደግ	-11.3863
▁አቅርቧል	-11.3867
▁የተገለጸው	-11.3867
▁ፈረስ	-11.3871
ደረስ	-11.3872
ዛር	-11.3874
▁በትላንት	-11.3875
▁የጋዜጠኞች	-11.3876
▁ማዕበል	-11.3878
▁ባደረጓቸ	-11.3885
▁ተወሰነ	-11.3885
▁ሲጠቀሙ	-11.3885
▁ኬፕ	-11.3887
▁ከአቶ	-11.3894
▁ከለሊቱ	-11.3896
▁ተባብሶ	-11.3896
▁ዳውድ	-11.3896
▁ቶሬስ	-11.3897
▁ትግስት	-11.3897
ሌት	-11.3897
ባር	-11.3898
▁ሳይኖር	-11.3898
▁ለፌደራል	-11.3898
▁ያለኝ	-11.3898
▁ሲሸጥ	-11.3898
▁ሊወስድ	-11.3898
▁ለአል	-11.39
▁ተከናውኗል።	-11.39
▁ሊውል	-11.3902
▁የአንገት	-11.3903
▁አውራ	-11.3907
▁ሃገራዊ	-11.3908
፣ከ	-11.3908
▁ጌም	-11.3911
▁የሴኔጋል	-11.3911
▁በችሎት	-11.3912
▁አልተቻለም	-11.3912
▁ይኖራሉ	-11.3913
▁ስለነበረ	-11.3918
▁ኢትዮጵያዊነት	-11.3922
▁በዩጋንዳ	-11.3922
▁ሻካታር	-11.3927
▁8:30	-11.3931
▁አዎንታዊ	-11.3932
▁ከእ	-11.3935
ሊቨርፑል	-11.3935
▁ለባለ	-11.3936
▁ቦታዉ	-11.3936
▁አካባቢዎችን	-11.3939
▁የሚፈፀም	-11.3941
▁አበል	-11.3943
▁እንዳስታወቀዉ	-11.3944
መረ	-11.3944
▁የትኞቹ	-11.3944
በል	-11.3946
▁ሲጫወት	-11.395
▁መጠየቁ	-11.3953
▁በመረጡት	-11.3954
▁ጠረ	-11.3957
▁እየጠየቁ	-11.3958
▁አረጋግጧል	-11.3959
▁የሚያሰራ	-11.3961
▁የአዋሽ	-11.3961
▁እየጠበቀ	-11.3962
▁የኮፓ	-11.3963
▁መሾማቸው	-11.3964
▁ለደቡብ	-11.3966
▁ቀመር	-11.3969
▁አዋቂ	-11.3973
ኦፌኮ	-11.3974
▁የአስተዳደሩ	-11.3974
▁አሳፋሪ	-11.3976
▁ተጋጣሚያቸው	-11.3976
▁የአዲሱ	-11.3976
▁ላል	-11.3976
▁.//	-11.3976
▁የተገነቡ	-11.3977
▁ግለሰቧ	-11.3977
▁አሚን	-11.3977
▁ከሚገኝ	-11.3979
ተጠርጣሪዎቹ	-11.398
▁ምርመራዎች	-11.3981
▁ሐረር	-11.3982
▁ምነው	-11.3983
▁በአራዳ	-11.3983
▁ጥቆማዎች	-11.3987
ነን	-11.3987
▁በዩሮፓ	-11.3988
▁በመጠለያ	-11.3991
▁ሰሞን	-11.3992
▁ማስቀጠል	-11.3992
▁ወስጥ	-11.3994
▁አስረኛ	-11.3995
በመጋቢት	-11.3995
▁ከተሞችን	-11.3996
▁ታፍነው	-11.3996
▁እንዲያቆም	-11.3998
▁ሱስ	-11.3999
▁ፋቲ	-11.4
▁መርከቦች	-11.4
4:30	-11.4
▁ቀርቧል	-11.4001
▁የሚሹ	-11.4001
▁ግሩም	-11.4002
▁ዝ	-11.4002
▁ለንግድ	-11.4005
▁በእጁ	-11.4006
▁የመስኖ	-11.4007
▁ጨምሯል።	-11.4009
▁ችለናል	-11.4009
▁ዕሮብ	-11.401
▁በሻሸመኔ	-11.401
▁ከሚያዚያ	-11.4011
▁የነበራቸውን	-11.4011
▁የቦታ	-11.4017
▁ክሮሽያ	-11.4022
▁መቁረጫ	-11.4024
▁የቀጣይ	-11.4024
▁መስማማታቸው	-11.4025
▁ከግብፅ	-11.4025
▁የመንግስታቱ	-11.4027
▁አበረታች	-11.4028
▁በሰላሳ	-11.4029
▁ጆርዳን	-11.4029
▁ሞተ	-11.403
▁ሕብረተሰቡ	-11.4036
ሚኖራቸው	-11.4036
▁የህብረተሰቡን	-11.4037
▁መንቀጥቀጡ	-11.4039
▁የማረሚያ	-11.4041
ጠላ	-11.4041
▁ለመሸፈን	-11.4044
▁የሰ	-11.4044
▁የቀረበላቸው	-11.4047
▁የለም፤	-11.405
▁ለወጣቶች	-11.405
▁ህፃኑ	-11.4052
▁ውሾች	-11.4053
▁መብራቱ	-11.4053
▁ያቀርባል።	-11.4053
አደጋዎቹ	-11.4054
▁በወለጋ	-11.4054
▁ገለጹ	-11.4055
▁ገጣሚ	-11.4055
ደርሶ	-11.4057
▁መጋራት	-11.4057
ማቸው	-11.4058
▁የረመዳን	-11.4058
▁መጫወቻ	-11.4059
▁እየሰራች	-11.4061
ንፅህና	-11.4062
▁ቀር	-11.4066
▁ሊያስ	-11.4066
▁በባለፈው	-11.4067
▁ተቃርቧል	-11.4067
▁የምድቡ	-11.4072
▁እንደደረሰበት	-11.4073
▁ሃሪስ	-11.4076
▁ለጀርመ	-11.4076
▁አበባ፣	-11.4076
▁ሾ	-11.4078
▁የባርሴሎናው	-11.4078
▁ልብስ፣	-11.408
▁ገልጸው፣	-11.4081
▁19.	-11.4083
ከል	-11.4084
ስብ	-11.4087
▁በማድረጉ	-11.4088
▁ኖቲንግሃም	-11.4088
▁ፕሬዜዳንቱ	-11.4088
▁ድህነት	-11.4089
▁ደንቦች	-11.409
▁እንዲጨምር	-11.409
▁መከተል	-11.4091
▁በምትኩ	-11.4091
▁ከነበረ	-11.4091
▁ፕላን	-11.4093
▁ሊመለስ	-11.4093
▁ከሟቾቹ	-11.4095
▁ሽህ	-11.4095
▁የበሽታ	-11.4096
▁ጥቅሎች	-11.4098
ዳይ	-11.4098
ስኮ	-11.4099
▁አዘጋጆቹ	-11.41
▁የመጠቀም	-11.41
▁በሱማሌ	-11.41
▁0911	-11.4101
▁በአዋጁ	-11.4103
▁አለማ	-11.4105
▁የተሞላበት	-11.4105
ፈታ	-11.4108
▁የማክሮ	-11.4108
▁የሪ	-11.4108
▁ተርሚናል	-11.4111
▁ትሪሊዮን	-11.4111
▁የእንግዳ	-11.4113
ሚስተር	-11.4117
▁የሲ	-11.412
▁የኦርቶዶክስ	-11.4123
▁የእለት	-11.4124
▁መምረጥ	-11.4124
ከንቲባ	-11.4125
ራስ	-11.4127
▁ይኖሩ	-11.4127
ታት	-11.4128
▁የጀመረውን	-11.4129
▁ፈረሰኞቹ	-11.4129
▁ወርዶ	-11.4135
▁አትላንታ	-11.4136
▁ቦጋለ	-11.4136
▁ስትሔዱ	-11.4136
▁እንደሚያሳውቅ	-11.4136
▁አንተነህ	-11.4137
▁ውፍረት	-11.4138
▁ገልፃለች።	-11.4139
▁ተመለሱ	-11.414
ላሚን	-11.414
▁የእጣ	-11.4144
▁ካጋጠመው	-11.4144
▁የመጠበቅ	-11.4144
▁ተተኪ	-11.4145
▁የወተት	-11.4147
69	-11.4149
▁በመቶዎቹ	-11.415
▁የዴሞክራሲ	-11.4151
▁ፍራንሲስ	-11.4152
▁ሳይት	-11.4153
▁ሃምሳ	-11.4154
▁ተጨዋቾችን	-11.4155
▁ብክለት	-11.4156
▁የተመረጡት	-11.4157
▁መነጋገር	-11.4157
ገል	-11.4158
▁ጥራትን	-11.4159
▁አስቻለው	-11.416
▁ገደቡ	-11.4163
▁105	-11.4163
▁ሰነዱ	-11.4164
▁አስቆጥረዋል	-11.4165
▁የፈፀሙት	-11.4166
▁መደረጋቸውን	-11.4168
ዮች	-11.4169
▁ረመዳን	-11.4169
▁መስፈርቶችን	-11.417
▁መቀበያ	-11.4171
▁በተፈፀመው	-11.4176
▁አፍሪካዊቷ	-11.4176
▁ተደርገዋል	-11.4177
▁ከምስራቅ	-11.4177
▁ዝርጋታ	-11.4177
ቀጣይ	-11.4177
▁ቂም	-11.4178
▁ሉካስ	-11.4179
▁በተያያዘም	-11.4181
▁ተገልብጦ	-11.4185
▁ሳውዝጌት	-11.4185
በታል፡፡	-11.4185
▁ሳይኖራቸው	-11.4185
▁ወላቡ	-11.4186
▁ትር	-11.4186
መጪዎቹ	-11.4187
▁ተርታ	-11.4191
▁በጥቅሉ	-11.4191
▁ጎሜዝ	-11.4194
▁ወኪሎች	-11.4194
▁አገልግሎታችን	-11.4195
▁የአሶሳ	-11.4197
▁ታብሌት	-11.4197
▁በመርታት	-11.4197
▁ጸሃፊ	-11.4197
ናችሁ	-11.4198
ጋን	-11.4199
ምድቡ	-11.4202
▁ተፈጽሟል	-11.4202
▁በርግጥ	-11.4204
▁የታጠቀ	-11.4206
▁በመማር	-11.4206
▁ቤኔፊካ	-11.4209
▁አገልጋይ	-11.4209
▁የወሰደው	-11.421
ልናል።	-11.421
▁አረጋግጫለሁ	-11.4213
▁ከሚያዝያ	-11.4216
▁የሚገባውን	-11.4217
▁ጸረ	-11.4217
ንገር	-11.4218
▁መፈፀሙ	-11.4219
▁እየተደረገለት	-11.4221
ጠና	-11.4222
ድሉን	-11.4224
▁በሜክሲኮ	-11.4224
▁ቦንጋ	-11.4225
ኖቹ	-11.4226
▁የስምምነት	-11.4229
መድፈኞቹ	-11.4229
▁የሚያስገኝ	-11.4229
▁የዩኒቨርሲቲዎች	-11.423
▁በክፍለ	-11.4231
▁ባለቤቱን	-11.4232
▁በአንፃሩ	-11.4234
▁ዘግይቶ	-11.4234
▁ዘውዱ	-11.4234
ሳንቲያጎ	-11.4235
▁መንግስትም	-11.4235
▁ተወስደው	-11.4235
ቀኑ	-11.4235
▁እንደሚውል	-11.4236
▁ማቋቋሚያ	-11.4238
▁256	-11.4238
▁አጥንት	-11.4239
▁መነሳቱን	-11.4239
▁የተወጣጡ	-11.424
▁ብልሹ	-11.4241
▁እያሱ	-11.4242
▁የማምረት	-11.4244
▁መስራቱን	-11.4246
▁ነበራቸው።	-11.4246
ቸር	-11.4247
▁በቀኝ	-11.4248
▁እንደገባ	-11.4248
▁2)	-11.4251
▁ቤተሰባችን	-11.4251
▁የተጣለበት	-11.4252
ውድ	-11.4252
▁በዲኤስቲቪ	-11.4254
▁በሰብዓዊ	-11.4254
▁መቀጠሉ	-11.4255
▁ኤምሪ	-11.4259
▁አስተዳዳሪዎች	-11.426
▁በዛብህ	-11.426
▁ዉድ	-11.4263
▁ክሊኒክ	-11.4263
▁እንደሚወሰድ	-11.4268
▁ተገቢነት	-11.4268
ተንቀሳቃሽ	-11.4269
▁እንዳስ	-11.4269
▁አባባል	-11.427
5000	-11.4271
▁ፒተር	-11.4275
▁ለእሱ	-11.428
▁አሽከርካሪው	-11.4284
▁ያስመርቃል።	-11.4285
▁ግራናዳ	-11.4285
▁መዝገቦች	-11.4286
▁መድሃኒቶች	-11.4286
▁ሲጠየቅ	-11.4287
▁የሎስ	-11.4287
▁የማረጋገጥ	-11.4287
▁ፍላጎቱ	-11.4289
ዋች	-11.4291
▁መጽሔት	-11.4294
▁ከተገደሉት	-11.4294
▁ቻ	-11.4296
▁ተምሳሌት	-11.4297
▁አሊያም	-11.4298
▁የጥቃቱ	-11.4298
▁የኅብረተሰብ	-11.4298
▁ከፍተው	-11.4298
▁መሪነቱ	-11.4298
▁ፊንላንድ	-11.4302
ገንዘብ	-11.4303
▁አጠናቋል	-11.4303
▁ይመር	-11.4303
▁የጽሁፍ	-11.4304
የሰው	-11.4304
▁እነርሱ	-11.4304
▁ናት፡፡	-11.4307
▁የሚኒስቴሩ	-11.4308
▁በሃማስ	-11.4308
▁ያገኘውን	-11.4308
▁የሚሠሩ	-11.4309
▁የሚገጥሙ	-11.4309
82	-11.431
▁እየተጫወተ	-11.4315
▁ይወጣል	-11.4316
▁ከቶተንሀም	-11.4317
▁ማተሚያ	-11.4318
እንዲሁም	-11.4319
ዳን	-11.4319
▁እንዳላ	-11.432
ያዙት	-11.4321
ላላ	-11.4324
▁ሃይ	-11.4324
▁ሲኖሩ	-11.4327
▁ሚሳኤሎችን	-11.4328
▁ቢልም	-11.433
▁ታዛቢዎች	-11.4331
▁አስፈፃሚው	-11.4332
▁ቦር	-11.4333
▁በዋነኝነት	-11.4333
▁ዋትኪንስ	-11.4333
▁አስገንዝቧል።	-11.4333
▁በመንቀሳቀስ	-11.4334
▁እንደሚያመለክተው	-11.4334
▁እንዲዘጉ	-11.4334
ደጋግሞ	-11.4335
▁አጠባበቅ	-11.4335
▁ከጠ	-11.4335
▁የጠበቁ	-11.4337
▁ግርማይ	-11.4337
▁ሲቀርብ	-11.4339
▁ማላዊ	-11.4339
▁ኢፕስዊች	-11.4345
▁የሰለጠኑ	-11.4347
ስተኛው	-11.435
ለታል።	-11.4352
▁ፈርጉሰን	-11.4353
▁የሞራል	-11.4353
▁አሜሪካዊው	-11.4353
68	-11.4355
▁ለገጣፎ	-11.4359
▁በድምፅ	-11.4361
▁ስለመ	-11.4363
▁እግሩ	-11.4363
▁ለገዳዲ	-11.4364
▁መምሪያው	-11.4365
▁መነሳት	-11.4367
▁የሞቱት	-11.4369
መሩ	-11.4369
▁በትዳር	-11.4373
ሸነፍ	-11.4376
▁የአፍ	-11.4377
▁ወረፋ	-11.4377
▁የእናት	-11.438
▁ወቅቱን	-11.4381
ካት	-11.4382
▁በጥቂቱ	-11.4382
▁ቅንጅት	-11.4382
▁ተገልጧል።	-11.4383
▁እንደሚደርስ	-11.4384
▁ለማንም	-11.4384
▁አስተናጋጅነት	-11.4385
▁እየጠበቁ	-11.4386
▁የዕለቱ	-11.4387
▁ተመልካቾች	-11.4387
ተፈጥሮዊ	-11.4389
ቻችንን	-11.4391
▁ይሁንታ	-11.4391
▁ሰንሰለት	-11.4394
▁ምገባ	-11.4396
▁ጀመሩ	-11.4397
▁እንወዳለን	-11.4399
▁የፈጠረ	-11.44
▁መግለጫ፤	-11.4401
▁በእግርኳስ	-11.4402
▁ፈጥሯል	-11.4402
▁የተመሠረተ	-11.4403
መለከት	-11.4403
▁ሠው	-11.4404
▁ዓለማየሁ	-11.4404
▁ብርበራ	-11.4404
▁እውነታዎች	-11.4405
▁ለህመም	-11.4406
▁የሰጡትን	-11.4406
▁ቅቤ	-11.4407
▁ኮር	-11.4408
▁ቃልኪዳን	-11.4411
▁ገረመው	-11.4412
▁ከደሴ	-11.4412
▁ሳቢ	-11.4419
ይፋዊ	-11.4419
▁ተቋማት፣	-11.442
▁ሳይንቲስቶች	-11.4423
▁ሰርጎ	-11.4423
▁የባሌ	-11.4431
▁በሰፊ	-11.4432
ሳል	-11.4434
ፅኦ	-11.4434
▁መኖ	-11.4434
▁አለምአቀፍ	-11.4435
▁የእናቶች	-11.4436
▁ጎነ	-11.4437
▁ለማስመዝገብ	-11.4438
▁እንደማይኖር	-11.4443
▁በተመለከተም	-11.4445
ደገ	-11.4445
ዘው	-11.4448
▁ቢቆይም	-11.4449
▁ሀገራቸውን	-11.445
▁የኩባንያው	-11.445
የግ	-11.4451
▁ክፍያው	-11.4453
▁ያረፈ	-11.4454
▁የተባለው፡፡	-11.4455
▁የዘይት	-11.4455
▁የለበሱ	-11.4458
▁መስጠታቸው	-11.446
▁ይሻላል	-11.4462
▁ቅርፅ	-11.4463
▁ንፁሀን	-11.4466
▁ክርስቲያኗ	-11.4466
▁ጉዳተኛ	-11.4466
▁የካራባኦ	-11.4466
▁የተረፉ	-11.4468
▁ቢልዮ	-11.4469
▁ተረጋገጠ	-11.447
▁ለደም	-11.447
እንዲህ	-11.4474
▁ተልእኮ	-11.4475
▁በጠቅላላ	-11.4475
▁የቁም	-11.4476
▁የሚስተዋሉ	-11.4476
▁በቤታቸው	-11.4478
▁ተቀማጭ	-11.4478
▁ስደት	-11.448
▁ማረፊያው	-11.448
▁ለማመልከት	-11.4482
▁እያስመረቀ	-11.4483
▁ጉዲና	-11.4483
▁ተመርቆ	-11.4483
▁ተሰጥቷቸው	-11.4483
89	-11.4484
▁መምህራንና	-11.4487
▁እማኝ	-11.4487
▁አደጋዎቹ	-11.4488
ባዊ	-11.4489
▁ተደርጎላቸዋል።	-11.4489
▁በአማካኝ	-11.4491
▁ቤኒሻንጉል	-11.4491
▁በመገኘታቸው	-11.4492
▁ዓሊ	-11.4493
▁ተቀምጠው	-11.4495
▁ኮማንደሩ	-11.4495
▁መመለሳቸው	-11.4496
▁ኢሳ	-11.4496
▁ለምግብ	-11.4498
▁አግኝተዋል	-11.4498
▁የሚገኘዉ	-11.4499
▁ከደረሰባቸው	-11.4501
▁ረብሻ	-11.4502
▁ገለጸ፡፡	-11.4503
ተዋል	-11.4504
ግድ	-11.4505
▁ዋሻ	-11.4505
▁ለሰብዓዊ	-11.4506
▁ተሽከርካሪው	-11.4507
▁ሲሞን	-11.4508
▁ደስታን	-11.4509
▁ይቀጥላሉ	-11.4513
▁ስካይ	-11.4515
ኢፌዴሪ	-11.4515
▁በፊትም	-11.4516
ያል	-11.4516
▁ለአም	-11.4517
▁የሳተላይት	-11.4519
ክል	-11.4525
▁ቁፋሮ	-11.4525
▁በጨዋታ	-11.4528
▁ማዘጋጀቱን	-11.4529
▁ኪዩ	-11.453
ዘነጋ	-11.4531
▁ከውስጥ	-11.4531
▁ጄሚ	-11.4532
ሮቹ	-11.4532
3,000	-11.4534
▁እንድንሰራ	-11.4535
▁ይገልጻሉ።	-11.4535
▁አጽድቋል።	-11.4535
24/7	-11.4537
▁ወታደሮቹ	-11.4539
▁ተጉዘው	-11.4539
▁ደራ	-11.454
▁የሲቲ	-11.454
ብራይተን	-11.4542
▁ዓዲግራት	-11.4543
▁ስለሌለ	-11.4545
▁የካፒታል	-11.4545
ቦች	-11.4546
▁ዱራሜ	-11.4546
▁ባገኘው	-11.4546
ጉልበት	-11.4547
▁ይናገራል።	-11.4548
▁በመምታት	-11.455
▁ተክሌ	-11.4551
▁የተጣራ	-11.4551
03	-11.4552
▁ጨርሶ	-11.4553
መፎካከር	-11.4557
▁ሚሊ	-11.4557
▁እዝ	-11.456
▁1.2	-11.4561
▁አክ	-11.4567
▁ሰማያዊ	-11.4567
▁የዩጋንዳ	-11.4568
▁ተው	-11.4569
▁ዋይን	-11.457
▁በቴክኒክ	-11.457
▁የሰማያዊዎቹ	-11.4573
▁የሚሄድ	-11.4573
▁በቴ	-11.4576
▁በሃይማኖት	-11.4577
▁ሲያስ	-11.4577
▁መጽሐፉ	-11.4578
የትግራይ	-11.458
▁አይቻልም።	-11.4582
▁ካርሎስ	-11.4583
▁ምዕራባዊ	-11.4584
▁ለህማም	-11.4584
▁ሊያልፍ	-11.4585
▁•••	-11.459
▁በአነስተኛ	-11.4593
▁ኮሚቴዎች	-11.4593
▁እየተስተዋለ	-11.4595
▁በዓመቱ	-11.4597
▁ሀጫሉ	-11.4598
▁መስማማታቸውን	-11.4599
▁በአሸናፊነት	-11.4599
▁መምህራንን	-11.46
▁የገለጸ	-11.46
▁መደብር	-11.4601
▁ተወስኗል	-11.4605
▁ከወላይታ	-11.4605
ኃይል	-11.4607
▁ሙለር	-11.4608
▁ተጠየቀ	-11.4608
▁ወንጀለኞችን	-11.4609
▁ከተሰጣቸው	-11.461
▁እርስዎ	-11.4616
▁ይዘናል	-11.4616
01	-11.4621
▁ኃላፊዋ	-11.4621
▁የተወለደው	-11.4622
▁140	-11.4623
▁በስሩ	-11.4623
▁ሀገሩን	-11.4625
▁115	-11.4625
▁ለቀናት	-11.4628
▁በተገኙ	-11.4631
▁ይሰማ	-11.4631
ጠጣ	-11.4632
▁ሰጭ	-11.4633
▁ከእሱ	-11.4634
▁በአሸባሪው	-11.4634
▁አቋሙ	-11.4635
▁ደበሌ	-11.4635
▁አጥብቆ	-11.4635
▁በገለልተኛ	-11.4635
▁ሲያሳርፉ	-11.4636
▁የሚሸፍን	-11.4636
▁እንደሚያገኝ	-11.4636
▁ወርቅነሽ	-11.4636
▁እንዲረጋገጥ	-11.4636
▁በህመም	-11.4637
▁መልሰዋል።	-11.4637
▁ዝርያዎች	-11.4637
▁የተቋሙን	-11.4638
▁ቋንቋን	-11.4639
▁የተፈፀመውን	-11.464
አስገድዶ	-11.4641
▁ባስከተለው	-11.4642
▁በጸሎት	-11.4643
▁ቁስ	-11.4643
ይስ	-11.4643
▁መድህኒ	-11.4644
ገፅ	-11.4647
ጣል	-11.4647
▁በመጣል	-11.4647
▁እንደሚመሩት	-11.465
ቀጣ	-11.465
▁መስኖ	-11.4653
ስማማ	-11.4654
▁ያስታወቀ	-11.4658
▁አለባት	-11.4659
▁አንዋር	-11.466
ቶኪዮ	-11.4663
▁ከዛሬው	-11.4665
▁ጋኔ	-11.4666
▁አልቻልኩም	-11.4666
▁የጉልበት	-11.4667
▁ጥያቄዎ	-11.4668
▁ኢጋድ	-11.4671
▁ዘመዶቻቸው	-11.4672
▁ፕላስ	-11.4673
▁ዞር	-11.4674
▁ዳርዊን	-11.4675
▁እንደሚሳተፉ	-11.4676
▁ሻምበል	-11.4677
▁ኢፕድ	-11.4677
▁ሱልጣን	-11.4679
▁መቀለ	-11.4681
▁ስታር	-11.4682
▁እየተጠቀሙ	-11.4682
ብሳይት	-11.4683
▁107	-11.4685
▁ጣዕም	-11.4686
▁አሎንሶ	-11.4686
▁ወንድማማቾች	-11.4686
▁ሰደድ	-11.4687
▁4-0	-11.4687
▁ካቫኒ	-11.4687
96	-11.4688
▁ነስር	-11.4688
▁እየተካሄዱ	-11.4688
▁ለመሙላት	-11.4688
▁ሳይችሉ	-11.4688
ሱን	-11.4689
▁በማውረድ	-11.4689
ረሳ	-11.4697
▁ለሚያስፈልጋቸው	-11.4698
▁ሀረር	-11.4698
▁መቆየታቸው	-11.4701
▁ተወዳጁ	-11.4701
▁ተሳት	-11.4701
▁ለጥቂት	-11.4702
▁ተመስርቶ	-11.4703
▁የህገ	-11.4704
▁ሲሰማ	-11.4706
▁የፕሬስ	-11.4706
ህለ	-11.4706
▁አትችልም	-11.4708
▁ትከሻ	-11.471
▁መመዝገቡን	-11.4711
▁ረዥም	-11.4712
▁ቢሾፍቱ	-11.4714
▁መገኘታቸው	-11.4714
▁ሰይፉ	-11.4717
▁ከጥቅም	-11.4719
ላደረገው	-11.472
▁ጥግ	-11.4721
ቅደም	-11.4722
▁ፊልድ	-11.4723
▁ከመሆን	-11.4723
▁7:00	-11.4725
▁የምትገኝ	-11.4726
▁የሚሸጥ	-11.4729
ካቸው	-11.4731
▁ለልጆች	-11.4732
▁ሂደቶች	-11.4734
▁ኦሾ	-11.4737
▁ጥናታዊ	-11.4738
▁ስለመሆናቸው	-11.4738
▁ክንፈ	-11.4738
▁100,000	-11.4739
▁እንደሚያስችል	-11.474
▁እንደሚያስፈልገው	-11.4741
▁ሰርተው	-11.4743
▁አሰልጣኛቸው	-11.4744
▁የክለቦች	-11.4744
▁እንደተናገረው	-11.4745
▁የድንጋይ	-11.4747
▁እንደመጣ	-11.4747
▁የጋና	-11.4748
▁የተፈጸሙ	-11.4749
ተነሳው	-11.4751
መወዳደር	-11.4751
ሆኑ	-11.4752
▁በገቢ	-11.4752
▁የተደረገባቸው	-11.4754
▁የሶማሊያው	-11.4756
▁እንዲደረግላቸው	-11.4756
▁መሙላት	-11.4757
▁አጠናቀዋል	-11.476
▁በመደበኛው	-11.476
▁ወጥተዋል	-11.4761
▁ድምጻዊ	-11.4764
▁እዚሁ	-11.4764
▁የነበረዉን	-11.4764
▁መጣሉን	-11.4769
ታችንን	-11.4772
▁ናቸዉ፡፡	-11.4776
▁ኮንዶሚኒየም	-11.4777
▁ማስተላለፉን	-11.4781
ወልድ	-11.4782
▁ደንበኞቹ	-11.4782
መዉሰድ	-11.4785
▁የአበባ	-11.4786
▁አመጽ	-11.4787
▁ጉዳያቸውን	-11.4788
▁ዓለማቀፍ	-11.479
▁አይኖራቸውም	-11.479
▁በማስቀመጥ	-11.479
▁የተከናወኑ	-11.479
▁ባልሆኑ	-11.479
▁ቦታ፦	-11.4791
▁የአሸናፊዎች	-11.4792
▁ህክምናውን	-11.4792
▁ምስጋናውን	-11.4793
▁መሳርያ	-11.4793
ችኝ	-11.4794
▁ለማስፈጸም	-11.4795
▁ከቤተሰብ	-11.4795
ኩም	-11.4796
▁ለውጪ	-11.4797
ምናልባት	-11.4797
▁የመጠለያ	-11.4798
▁3,000	-11.4798
▁ለዓቃቤ	-11.4799
▁ስሙን	-11.4799
▁የገለጹት፡፡	-11.48
▁ለመተካት	-11.48
▁ተጎጂዎችን	-11.48
▁በሚሰጠው	-11.4801
▁የቆመ	-11.4802
▁ቅፅበት	-11.4804
ፈረ	-11.4807
▁ጸጋ	-11.4807
▁በማህበረሰቡ	-11.4808
▁240	-11.4808
▁ዓይነቱ	-11.4808
▁ተመዝግቧል	-11.4809
▁ልና	-11.4809
▁በኃላፊነት	-11.4809
▁በሁለትዮሽ	-11.4809
ለመ	-11.481
▁ኪሮስ	-11.4811
▁በጨረታ	-11.4812
ራችሁ	-11.4815
▁ሥም	-11.4817
▁የህልውና	-11.4817
▁አልጀዚራ	-11.4818
▁በመረጃ	-11.482
▁እንዳይጠቀስ	-11.4822
▁የሚበልጡ	-11.4823
▁ከሚኖሩ	-11.4825
▁አይታወቅም	-11.4826
1500	-11.4827
▁እዮብ	-11.4828
▁ቫ	-11.4829
ሙስና	-11.4831
▁በሆቴል	-11.4831
▁ውንጀላ	-11.4832
ስቲክ	-11.4833
▁ጎሮ	-11.4833
▁ደርሶበት	-11.4833
▁የደረሱበት	-11.4833
ዳል	-11.4834
ችውን	-11.4837
▁የሚጠይቁ	-11.4838
▁ተነሳ	-11.4838
▁ጉለሌ	-11.4839
▁ሆናችሁ	-11.484
▁የሚከሰት	-11.484
▁ለመመከት	-11.4842
▁ዳን	-11.4842
▁አንስቷል።	-11.4845
▁ትራስ	-11.4846
▁ባርሴሎናዎች	-11.4848
▁ወያኔ	-11.485
ብት	-11.4853
▁ስጋታቸውን	-11.4853
▁የሚፈፀሙ	-11.4855
▁ዘግናኝ	-11.4859
▁ተፈጠረ	-11.4859
▁ያየ	-11.486
▁ፈጽመዋል	-11.486
▁እስከሚ	-11.4861
▁የጠየቀ	-11.4861
▁የተባለችው	-11.4862
▁አቅርቦቱ	-11.4862
ጂንግ	-11.4863
▁መመገብ	-11.4864
▁ዝላታን	-11.4865
▁ስለምን	-11.4869
▁ተደራራቢ	-11.4871
ጋራ	-11.4871
▁የተጠቀሰው	-11.4871
▁ድርጅታዊ	-11.4874
▁ከተጠናቀቀ	-11.4874
▁አሉኝ	-11.4875
▁ያስታወቀው።	-11.4875
▁ህልፈተ	-11.4877
▁ለብሶ	-11.4877
▁የምገባ	-11.4879
▁ከእነሱ	-11.488
▁ካሴ	-11.488
ቲኖ	-11.4882
▁ከማንም	-11.4882
▁ይረዳል	-11.4883
▁ጓደኛው	-11.4884
▁ቤጂንግ	-11.4884
መሰ	-11.4885
▁እንደተለመደ	-11.489
ወለድ	-11.4892
ውሉ	-11.4892
▁ተዘግተው	-11.4894
▁ሀርናንዴዝ	-11.4894
▁ሴክሬታሪያት	-11.4894
▁ፓርቴ	-11.4895
▁እየተጠበቀ	-11.4895
▁እንዲቋቋም	-11.4895
ፈት	-11.4895
ሥላሴ	-11.4895
▁በብር	-11.4896
▁በጉዞ	-11.4897
▁ራስህን	-11.4899
ታቸዉን	-11.4899
▁በእንጨት	-11.4899
▁ብራዚላዊ	-11.49
▁ኢንደስትሪ	-11.4901
▁የማሰባሰብ	-11.4902
▁ይችል	-11.4902
▁ውሉ	-11.4903
▁መሸጫው	-11.4904
▁በሐምሌ	-11.4904
▁ተቃውሟቸው	-11.4905
▁መሞት	-11.4905
▁በኢራቅ	-11.4906
▁እየደረሰባቸው	-11.4907
2000	-11.4909
▁በትልቅ	-11.4909
▁የተከለከሉ	-11.4909
------------	-11.491
▁ሳምሶን	-11.4911
አስ	-11.4911
አባ	-11.4914
▁በሊቢያ	-11.4917
▁በግብጽ	-11.492
▁ወደስራ	-11.4921
▁ሰውዬው	-11.4923
▁2.5	-11.4924
▁የሆቴል	-11.4929
አሸባሪው	-11.493
▁ከተከሰተ	-11.493
▁ማስፈንጠሪያ	-11.4931
ልኛል	-11.4933
1,000	-11.4935
▁መወያየታቸውን	-11.4936
ፍቱ	-11.4937
ንሲ	-11.494
▁ከኔ	-11.494
▁እንዲፈጸም	-11.4945
▁የተከፈለ	-11.4946
▁ኤሌክትሮኒክስ	-11.4946
▁ሸለቆ	-11.4947
▁ግሪዝማን	-11.4947
▁ጥልቀት	-11.4947
▁ቨርጅ	-11.4947
▁በርናቦ	-11.4947
ትራ	-11.4947
▁9:30	-11.4947
▁ላላችው	-11.4947
▁ለማዘመን	-11.4949
▁መደብሮች	-11.4949
▁ፓኪስታን	-11.4949
▁ኪሎሜትር	-11.495
ተስ	-11.4952
▁ሽንፈታቸው	-11.4953
▁ሊገነባ	-11.4953
▁የቀሩት	-11.4953
▁የኮንስትራክሽን	-11.4953
▁ለውይይት	-11.4953
▁አጣሪ	-11.4955
ተገኘው	-11.4956
▁አስቦ	-11.4957
▁የመገጣጠሚያ	-11.496
▁በጉለሌ	-11.496
▁ዘብ	-11.4962
▁አጥተዋል።	-11.4964
▁የአምቦ	-11.4965
▁ዲኤታ	-11.4965
▁ከጠቅላላ	-11.4967
▁አግኝቷል	-11.497
▁ላሉት	-11.4971
▁ሚስ	-11.4971
▁ወልዋሎ	-11.4972
▁ወጥቷል	-11.4973
▁አዝ	-11.4975
ኪሎ	-11.4976
▁ቀጥለዋል።	-11.4977
▁ለቀጣዩ	-11.498
▁ለነበሩ	-11.498
▁ጠብቀው	-11.4982
▁መረበሽ	-11.4984
▁በፓርቲው	-11.4984
▁እንደሚወጣ	-11.4985
▁ምክክሩ	-11.4987
▁ያሏቸውን	-11.4987
ተከሳሽ	-11.4988
አሸባሪነት	-11.4988
▁ድሬ	-11.4988
▁ኢራቅ	-11.4991
▁አረጋውያን	-11.4993
▁ከደረሰው	-11.4996
▁የሚገነባው	-11.4996
▁ፈቃደኞች	-11.4997
▁መጽሐፍት	-11.4999
▁ከአደጋው	-11.4999
ንኮ	-11.4999
▁ለማፍራት	-11.5
▁(3)	-11.5
▁እንደገለፀው	-11.5001
▁የተገለፀው	-11.5001
▁እንዲማሩ	-11.5002
▁መፃፍ	-11.5002
▁የሶስተኛ	-11.5004
▁የቁሳቁስ	-11.5005
▁ኦሳሱና	-11.5006
▁ይመለሳሉ	-11.5007
▁መፈተኛ	-11.5007
▁ለዜጎች	-11.5008
▁ከፍርድ	-11.5008
▁አሰሳ	-11.5009
▁ከተቀላቀለ	-11.501
▁ተመርጠዋል።	-11.5011
▁ለሚያ	-11.5012
▁ለተማሪዎቹ	-11.5015
▁በናይሮቢ	-11.5018
▁ዮርክ	-11.5019
▁የመጀመርያው	-11.5019
▁በርሜል	-11.5019
▁የጫነ	-11.502
▁ትችላለች	-11.5022
▁ቀጥሎም	-11.5023
▁የቫይረሱን	-11.5024
▁ሊመጣ	-11.5024
▁ሚሌ	-11.5024
▁የሚወጣ	-11.5027
▁እደ	-11.5027
▁ሁል	-11.5029
▁መቁረጥ	-11.503
▁ተከሳ	-11.5031
▁ግምትዎ	-11.5034
93	-11.5035
▁ስንቅ	-11.5038
▁ሊሰሩ	-11.5039
ሰት	-11.5039
▁ስርጭቱ	-11.5042
!”	-11.5043
▁አንገት	-11.5044
▁ከእነ	-11.5047
▁ዲፕሎማ	-11.5049
▁ማስፈጸሚያ	-11.5053
▁ትሬዲንግ	-11.5053
▁አውቀው	-11.5053
▁አወጣጥ	-11.5053
▁አስመርቋል፡፡	-11.5055
▁ፓትሪክ	-11.5055
▁ነገሥት	-11.5056
▁በተሞላበት	-11.5056
▁ጣሪያ	-11.5057
▁አካቷል።	-11.5058
▁የፍተሻ	-11.5058
▁ሬ	-11.5059
4,000	-11.5059
▁በተዘዋዋሪ	-11.5061
▁ተለይተዋል።	-11.5063
▁ተለይቶ	-11.5063
▁ሬስቶራንት	-11.5063
▁ተስማማ	-11.5063
▁የንጽህና	-11.5064
▁ሰርግ	-11.5064
▁የተላከው	-11.5064
▁ቅመም	-11.5066
▁ፈልጎ	-11.5066
ራቸውን	-11.5067
74	-11.5068
▁የሚከናወኑ	-11.5072
▁ርዕይ	-11.5072
▁የተፈጠሩ	-11.5074
▁ፓርኩ	-11.5075
▁ተደምጠዋል፡፡	-11.5076
▁የኤፌ	-11.5077
▁የትውልድ	-11.5077
ዎቻቸውን	-11.5079
▁በቤተሰብ	-11.5083
▁ክላስተር	-11.5084
▁ድንጋጤ	-11.5085
▁ሚኒስቴር፣	-11.5085
▁ተግባራቸው	-11.5086
▁የግብፁ	-11.5089
▁ሀይ	-11.5091
▁ጠበቃው	-11.5091
▁በየእለቱ	-11.5092
▁እናቀርባለን።	-11.5094
▁ዝነኛ	-11.5095
▁መንገደኞችን	-11.5096
▁የዘለቀው	-11.5098
▁ምኒሊክ	-11.5099
▁ብር፣	-11.5102
▁የተነሱት	-11.5102
ፋት	-11.5106
▁ዘለንስኪ	-11.5106
▁በፈረቃ	-11.5106
▁ዎከር	-11.5106
▁ክትባቶች	-11.5107
▁ሽዴ	-11.5107
▁ቁጥራ	-11.5108
▁በአንደኛ	-11.5109
▁የመልቀቂያ	-11.5109
▁ድግስ	-11.511
ግብ	-11.511
▁ስብዕና	-11.5112
▁ከሽንፈት	-11.5114
ትድ	-11.5117
ቫር	-11.5118
▁ግድያውን	-11.512
▁የጨረታ	-11.5121
▁ማስተማሩ	-11.5122
ጣጥ	-11.5124
▁ገንቢ	-11.5125
ባቸዋል።	-11.5125
▁ፔፔ	-11.5126
▁ዳይ	-11.5126
▁ልዩነቶች	-11.5127
▁እንወዳለን።	-11.5128
▁4-3-3	-11.513
▁ሎሚ	-11.5132
▁አውቶቡስ	-11.5134
ሸነፉ	-11.5136
▁የወገብ	-11.5137
▁ይገምቱ	-11.5141
▁የኪነ	-11.5142
▁ሺሻ	-11.5142
▁የሆነችውን	-11.5142
ደጋፊዎች	-11.5145
ላኩት	-11.5147
▁ተሰጥኦ	-11.515
▁የአንዱ	-11.515
▁እንደደረሱ	-11.5151
▁እስረኛ	-11.5156
▁በጎዳና	-11.5158
1000	-11.516
▁ጊዜያቸው	-11.516
▁እንዲቀንስ	-11.5161
▁እያስከተለ	-11.5161
▁እንዲተላለፍ	-11.5161
▁ጥሶ	-11.5161
▁እየሆኑ	-11.5162
▁ሎጂስቲክስ	-11.5163
▁መፈጸማቸውን	-11.5163
▁የራሷ	-11.5164
▁ፋራህ	-11.5165
▁ተሰብስበው	-11.5167
ጠባ	-11.5167
▁አስቤ	-11.5168
▁ለሕግ	-11.517
3000	-11.517
▁የታንዛኒያ	-11.5172
▁አቪ	-11.5172
▁መስተንግዶ	-11.5174
▁ትክክለኛነት	-11.5175
▁ከሌላው	-11.5176
▁እየተከሰተ	-11.5176
▁ያጣል	-11.5178
▁ነገሩን	-11.5184
▁ኪዳነ	-11.5186
▁ይሄም	-11.519
▁ለእስራኤል	-11.5193
ድን	-11.5195
▁ከገንዘብ	-11.5195
በመቶ	-11.5196
ጀመረበት	-11.5196
ያቸውን	-11.5197
▁በተፈጸመው	-11.5198
▁ተሰጠ	-11.5198
▁የሚሄዱ	-11.5199
▁ማህበረሰቡን	-11.52
ልፍ	-11.5201
▁የመስራት	-11.5201
▁እንደሚለው	-11.5201
▁ገለፁ	-11.5203
▁መንግስትና	-11.5204
▁6:00	-11.5204
ኤክሳይዝ	-11.5206
መጡበት	-11.5207
ስታዲየም	-11.5209
▁እያልኩ	-11.5209
ናገር	-11.5209
▁ማይክሮ	-11.5211
▁መጠቀሚያ	-11.5214
▁ተደብቆ	-11.5214
▁እንዲሄዱ	-11.5216
▁ቀለል	-11.5217
▁አሰጣጡ	-11.5217
▁ማደሪያ	-11.5218
▁እንዳሳወቀው	-11.5218
ፍቅረኛ	-11.5221
▁ቆይተዋል፡፡	-11.5221
▁ከአዳማ	-11.5221
▁ያለንበት	-11.5222
▁በሚኖሩ	-11.5222
▁ጽዮን	-11.5222
▁ለማረፍ	-11.5223
▁የሕገ	-11.5225
▁አልተሳካም።	-11.5226
▁የእነ	-11.5226
▁ርጭት	-11.5227
▁ለማኅበራዊ	-11.5227
ደስ	-11.5227
▁ማንን	-11.5229
▁ደራሲ፦	-11.523
▁ዳይሬክተሯ	-11.523
▁እንደሚቀርብ	-11.5234
ጣቸው	-11.5234
▁ተሰርቶ	-11.5236
▁የስርጭት	-11.5236
▁በታሪኩ	-11.524
▁የሚከበር	-11.5242
▁ጀምረው	-11.5243
▁በአገልግሎት	-11.5244
▁በባህላዊ	-11.5244
▁የዲላ	-11.5245
▁እንደምታ	-11.5246
▁መስቀለኛ	-11.5246
▁አይመስለኝም	-11.5248
▁ከተያዙ	-11.5249
▁ለሆነው	-11.525
▁ለሁለቱ	-11.525
▁ሺፕ	-11.5252
▁መከሰት	-11.5254
ፌድሪ	-11.5254
▁ጅብ	-11.5254
▁ዜጎቹ	-11.5255
▁በማስፈራራት	-11.5256
2009	-11.5256
▁ከጅማ	-11.5259
▁ስነምግባር	-11.526
▁ጀሞ	-11.5261
ኝነት	-11.5262
ላቸዋል	-11.5263
▁ኢሬቻ	-11.5265
▁ግብፃዊው	-11.5265
▁ሚደቅሳ	-11.5268
▁የማጠቃለያ	-11.5268
▁ለመበተን	-11.5269
▁ፈይሳ	-11.5269
▁ለዉጥ	-11.5269
▁ለመፈተን	-11.5269
▁ቫራን	-11.527
▁ኒኪታህ	-11.527
▁መስተጓጎል	-11.527
▁ግዛቸው	-11.527
▁ካለፈ	-11.5271
▁አውግዘዋል።	-11.5271
▁ሲከበር	-11.5272
▁ሊቆም	-11.5275
ኒየም	-11.5276
▁በሕክምና	-11.5279
▁ቢሊየነር	-11.528
▁በአርባምንጭ	-11.5282
ታን	-11.5283
▁የወር	-11.5283
▁ከተረጋገጠ	-11.5284
▁ባየርን	-11.5286
▁ይጠበቅባቸዋል።	-11.5286
▁ጨዋታቸው	-11.5288
▁ሪቻርልሰን	-11.5288
▁ሳራ	-11.5289
▁የጊዜያዊ	-11.529
▁አንሱ	-11.5293
▁በሸራተን	-11.5293
▁መድፍ	-11.5294
▁ውሏል	-11.5294
▁የቡንደስሊጋው	-11.5297
▁አለ፤	-11.53
▁የተጣለባቸው	-11.5301
▁የበዓሉ	-11.5302
▁የሚኖሩት	-11.5302
▁ብፁዓን	-11.5302
▁የማሊ	-11.5302
▁አይደለንም	-11.5303
ያችሁን	-11.5305
▁ላይብረሪ	-11.5305
▁ዝግጅታቸውን	-11.5306
ፁ	-11.5309
▁እየተመራ	-11.531
▁ከጦር	-11.531
▁3-2	-11.5311
▁በከፋ	-11.5312
▁ሞልቶ	-11.5314
▁አቀረቡ	-11.5316
▁የተጠረጠረው	-11.5316
▁ጠፋ	-11.5316
▁በቃሉ	-11.5322
▁ከተመራቂዎቹ	-11.5323
▁091366	-11.5323
▁ተጭኖ	-11.5323
እሱ	-11.5325
▁ጣና	-11.5326
▁አሊሰን	-11.5326
▁ባካሄዱት	-11.5326
▁በከፈተው	-11.5327
▁ሚሳኤሎች	-11.5329
▁የዳታ	-11.5329
▁እድሎች	-11.5329
▁የተባለለት	-11.533
▁ለማበረታታት	-11.533
▁መርኃግብር	-11.5331
▁ለማቋረጥ	-11.5331
ከፈቱት	-11.5331
▁የሚፈጥሩ	-11.5332
ሌይ	-11.5332
▁ምግቦችን	-11.5332
▁አሳወቀ	-11.5338
▁መስታወት	-11.5339
▁ግድቡን	-11.5339
ጠቃ	-11.534
▁የተግባር	-11.5345
▁ፈልጌ	-11.5345
▁ፈንታሌ	-11.5345
▁የሚመጥን	-11.5346
▁ተቀምጠዋል	-11.5348
▁ሊገቡ	-11.535
አንፊልድ	-11.5352
ቶን	-11.5355
▁የሱማሊያ	-11.5355
የም	-11.5357
▁በወጣቶች	-11.5357
ፈጠሩ	-11.5358
▁ዳግማዊት	-11.5359
▁091085153	-11.536
▁ጠየቀ።	-11.536
ተሰጣቸው	-11.536
▁የኳታሩ	-11.5366
▁አንጻራዊ	-11.5366
▁መወሰን	-11.5367
61	-11.5368
ሙት	-11.5371
▁መሰረዙን	-11.5374
▁20.	-11.5374
▁መሸሻ	-11.5374
ኮራ	-11.5377
▁ገበሬ	-11.5377
▁መፈጸሙ	-11.5378
▁ደብረጽዮን	-11.5378
▁ሲያገኝ	-11.538
ዕለተ	-11.5381
ያዊው	-11.5382
▁መክፈት	-11.5382
▁ቆመው	-11.5383
▁የግለሰብ	-11.5383
▁ሞትን	-11.5383
▁የልጅነት	-11.5384
▁በደረሰባቸው	-11.5384
▁መመረጣቸው	-11.5385
▁አውጥተው	-11.5386
▁የተጋለጡ	-11.5387
▁ካርዶች	-11.5387
▁የሚያደርስ	-11.5388
▁በልምምድ	-11.5389
▁ለተጠቃሚዎች	-11.5389
ልማት	-11.539
▁የቋሚ	-11.5391
▁ሰጡ	-11.5393
▁የተገመተ	-11.5393
▁የኮሙዩኒኬሽን	-11.5394
▁ለሚያደርገው	-11.5397
ሚገኘዉ	-11.5397
ቡት	-11.5398
▁ለፋና	-11.5399
▁አፈጉባኤ	-11.54
▁ድመት	-11.54
ተከታዩ	-11.5401
▁በአምቦ	-11.5401
▁የተሰበሰበው	-11.5404
▁ቢያደርግም	-11.5405
▁ከድርጅቱ	-11.5406
▁ይካሄዳል፡፡	-11.5408
ዊቷ	-11.5409
▁ጁንታው	-11.5409
▁ያገለገሉት	-11.5411
ታዲያ	-11.5412
ያኑ	-11.5412
▁በረንዳ	-11.5417
▁የመሳሰሉት	-11.542
▁ከሰአት	-11.542
ማንም	-11.5421
ደራ	-11.5422
መጋቢት	-11.5423
▁1)	-11.5425
▁አይተው	-11.5426
▁ደንቡ	-11.5429
▁ከእዚህ	-11.543
▁የጀርባ	-11.5431
▁ሲገጥሙ	-11.5433
▁ፌዴራላዊ	-11.5433
▁ሌዋንዶውስኪ	-11.5433
▁ፔድሮ	-11.5433
▁እየተፈለገ	-11.5434
▁አሸንፎ	-11.5435
▁እንዲቀላቀሉ	-11.5435
▁እናተ	-11.5435
▁በለሚ	-11.5435
ፍት	-11.5435
▁በቢሮው	-11.5436
▁አቅርቦትን	-11.5437
▁የሚጓዙ	-11.5438
▁በመሙላት	-11.5439
▁ዝናቡ	-11.544
▁የዳሰሳ	-11.5442
▁ከኋላ	-11.5442
▁በተረጋጋ	-11.5446
▁መመለሻ	-11.5447
▁ድላቸው	-11.5448
▁የጋብቻ	-11.5449
▁መስመሩ	-11.5449
ተርፍ	-11.5451
▁ቨርዴ	-11.5456
▁ኬላዎች	-11.5456
▁ህክምናው	-11.5457
▁ጠይቀዋል	-11.5458
▁የቀጠለው	-11.5458
▁ከደረሱ	-11.5459
▁መውጣታቸው	-11.5459
▁በጠ	-11.5463
▁ማስመለስ	-11.5463
ያለ	-11.5466
▁በገጠር	-11.5467
▁እንፈልጋለን።	-11.5468
2519	-11.5469
▁በጋዜጠኛ	-11.547
▁ዜሮ	-11.5471
▁ተልኮ	-11.5473
ኩኝ	-11.5475
▁ስርዓቶች	-11.5478
▁ጹ	-11.5481
▁ጥራቱ	-11.5483
▁የፈረንጆቹ	-11.5485
▁የህብረቱ	-11.5485
▁የመሸጫ	-11.5489
▁ቨርነር	-11.5489
▁ቀደሙ	-11.5489
▁ተመተው	-11.549
▁ስለመኖሩ	-11.549
3777	-11.549
▁ፋኪ	-11.549
▁መሾሙ	-11.549
▁እንደሚያቀርብ	-11.5491
▁መፈተን	-11.5491
▁ኦፊሰር	-11.5491
▁ቡልቡላ	-11.5492
▁ይጠቁማል።	-11.5492
▁አላውቅም።	-11.5492
▁እንደሚመለሱ	-11.5493
▁የቼልሲው	-11.5494
▁መፅሃፍ	-11.5495
▁መገንዘብ	-11.5495
ክት	-11.5495
የአዲስ	-11.5495
▁ለአዲሱ	-11.5498
▁ሀጂ	-11.5499
መደበኛ	-11.55
▁የሚመስል	-11.55
ቲክ	-11.5501
▁በተቀናጀ	-11.5504
▁እንዲመራ	-11.551
▁ተቀላቅሏል።	-11.5513
▁ቁመና	-11.5514
▁ሰርቷል	-11.5515
▁ጋላታሳራይ	-11.552
▁የቀሩ	-11.552
▁የአርባምንጭ	-11.5521
▁ዙማ	-11.5521
▁ሰርጂዮ	-11.5523
▁የወለጋ	-11.5524
▁ግድግዳ	-11.5524
▁አገራችን	-11.5525
▁በዲላ	-11.5525
▁በመኝታ	-11.5526
▁(1)	-11.5528
▁እዚያው	-11.5528
በተ	-11.5531
▁መሃላ	-11.5532
▁ያወጣ	-11.5533
▁ኦዳ	-11.5535
▁አዝማሚያ	-11.5538
ማሩ	-11.5539
▁ምስኪን	-11.5539
▁ነበረ።	-11.5539
▁ባደረሱ	-11.5541
▁የቻናላችን	-11.5542
▁20,000	-11.5542
▁እንደሚኖሩ	-11.5543
▁አሟልተው	-11.5545
▁ተዕለት	-11.5546
▁ጨምሯል	-11.5549
▁አሳውቃለች።	-11.555
አጎራባች	-11.5552
▁ጠቅሰው፤	-11.5552
▁የኃይማኖት	-11.5554
▁ተመላሾች	-11.5555
▁የኮሚዩኒኬሽን	-11.5555
ከተሞች	-11.5556
▁ለዶቼ	-11.5556
▁ለሌላቸው	-11.5557
▁የመካከለኛው	-11.5558
▁ትዝታ	-11.5558
▁መዋል	-11.5559
▁ትችላለህ	-11.5563
▁እየተፈጠረ	-11.5564
ቃቸው	-11.5565
▁ሕዝብን	-11.5566
▁በድረ	-11.5568
▁የሚተገበር	-11.5568
▁ወክሎ	-11.5569
▁እስያ	-11.5574
▁በዩኒቨርሲቲ	-11.5576
▁ያሳያሉ።	-11.5577
▁በተባለች	-11.5577
ፈፀመችው	-11.558
▁ይዘዙን።	-11.558
▁ዜማ	-11.558
▁እወዳለሁ	-11.5581
▁ሆሮ	-11.5582
▁ከረ	-11.5582
▁ቲሞ	-11.5584
ሰላሳ	-11.5585
ቴሌኮም	-11.5586
▁አጓጊ	-11.5586
ቀረበበት	-11.5587
▁መቆያ	-11.559
▁ግማሹ	-11.5591
▁ዓባይ	-11.5591
ገምተው	-11.5592
▁የጠፋ	-11.5595
▁ንብረታቸውን	-11.5595
መዘገብ	-11.5596
▁ፒኤስቪ	-11.5596
▁የተሰማራ	-11.5597
▁በግድያ	-11.5597
▁ካር	-11.56
▁ሙሀመድ	-11.5601
▁ውድድሯ	-11.5601
▁በማገልገል	-11.5601
▁መካካል	-11.5601
▁ባምላክ	-11.5601
▁የጣሰ	-11.5601
▁የሚያደርጋቸው	-11.5602
▁ለመጎብኘት	-11.5602
▁አዝናኝ	-11.5602
▁ፌር	-11.5603
▁ትተው	-11.5603
▁ሊቀጥል	-11.5605
▁ሞራ	-11.5606
▁ተፈራርሟል።	-11.5606
▁በቆሎ	-11.5607
▁ኢት	-11.5608
▁ቤተሰቦቼ	-11.5609
▁በፋይናንስ	-11.561
▁የባለሙያዎች	-11.561
ቀና	-11.5611
▁ዕድሉ	-11.5614
▁የሱማሌ	-11.5614
▁1,000	-11.5615
▁ላበረከቱት	-11.5616
▁የኦ	-11.5617
▁የተገኘውን	-11.5617
▁በአጭሩ	-11.5617
▁በሰዓቱ	-11.5617
▁የሚከሰቱ	-11.5617
▁የተከፈተው	-11.562
▁መጡ	-11.5621
▁."	-11.5622
▁ፈገግታ	-11.5622
▁የተጨዋቹ	-11.5624
ኩበት	-11.5625
▁ነበረች።	-11.5626
▁መልካ	-11.5627
▁ይጨምራል	-11.5627
▁ቤንፊካ	-11.5628
▁ሙከራው	-11.5629
▁የሚተላለፉ	-11.5629
▁አጣ	-11.563
▁በወሎ	-11.5631
▁እውነታው	-11.5637
▁ያለባት	-11.564
ከረ	-11.564
▁አርቲስቶች	-11.5641
▁108	-11.5642
መሠረት	-11.5643
▁በኪሎ	-11.5643
▁ዳሌ	-11.5643
▁ደንበኞችን	-11.5646
▁ተገኝ	-11.5648
▁ንግግራቸው	-11.5649
▁ወደሚገኝ	-11.5652
ሲያ	-11.5655
▁ህሊና	-11.5656
▁በመመዝገብ	-11.5658
▁የሚንቀሳቀስ	-11.5658
▁ሃዘን	-11.5658
ክለብ	-11.5659
▁ያስቀመጠው	-11.5659
▁ሲገልፁ	-11.566
▁ካደረጉት	-11.5663
▁ተስማምተዋል።	-11.5666
▁ለምለም	-11.5667
▁ይዘዋል።	-11.5668
▁ልማድ	-11.5668
▁በድህረ	-11.5668
▁አካባቢዎቻቸው	-11.5669
▁ሳድ	-11.567
▁ስለማ	-11.5674
▁በግለሰቦች	-11.5676
▁ኮም	-11.5677
▁ዶኔስክ	-11.5678
ሃገር	-11.5679
▁ሲሪ	-11.5682
▁አንፈልግም	-11.5684
▁ሜታ	-11.5684
▁መጥፋቱን	-11.5684
▁ቪኒሰስ	-11.5687
▁ቅን	-11.5687
:15	-11.5687
▁የባይደን	-11.5687
▁ከወረዳው	-11.5687
▁አብሮነት	-11.5688
▁ዕለትም	-11.5689
ብሎ	-11.569
▁የአቻነ	-11.5691
▁ያስረዱት	-11.5691
▁አይችሉም።	-11.5693
▁መገለጹ	-11.5694
▁ቤታችን	-11.5694
▁ነበር፣	-11.5695
▁ዩኒየን	-11.5696
▁አይቪ	-11.5697
▁ፍሪ	-11.5698
▁ማራዶና	-11.5701
▁ዳባ	-11.5701
▁የቅርስ	-11.5702
▁ከጁ	-11.5705
▁ኪሜ	-11.5707
▁ስድብ	-11.5712
▁ማስተዋል	-11.5712
▁ያሸነፈው	-11.5713
▁አቤት	-11.5714
ስትብሮም	-11.5714
▁ለማገልገል	-11.5714
▁የቅበላ	-11.5715
▁ከፋለ	-11.5715
▁በሌሉበት	-11.5715
▁እንደሚከበር	-11.5715
▁ሲፈጽሙ	-11.5715
▁ሲጓጓዝ	-11.5716
▁ሲደረጉ	-11.5717
▁ለፌዴራል	-11.5717
▁ለማጥቃት	-11.5719
▁በዋነኛነት	-11.5722
▁የማውጣት	-11.5722
▁ፈለቀ	-11.5722
▁የተሳተፉት	-11.5723
▁ሽሮ	-11.5723
▁ጎበዜ	-11.5724
▁ለቤተሰቦቻቸው	-11.5724
▁ደብዳቤው	-11.5724
▁ማሻሻያዎች	-11.5725
▁መጉላላት	-11.5726
▁ማሳለፉን	-11.5727
▁ተረኛ	-11.5727
▁ተወስኖ	-11.5728
ብሊካን	-11.5728
▁እናቷ	-11.573
▁ላቀ	-11.573
▁እየተደረገበት	-11.5733
▁ይኖርባቸዋል	-11.5734
▁ኪስ	-11.5738
▁ቤንያሚ	-11.5739
▁ደውለው	-11.5744
መኖርያ	-11.5745
▁ንጉ	-11.5745
ድስ	-11.5746
▁የሚከፈል	-11.5747
ክሪስታል	-11.5749
▁ለጥያቄ	-11.5752
▁ታስ	-11.5752
▁የተሰረቁ	-11.5753
ነቃ	-11.5753
▁የመሠረተ	-11.5755
▁630	-11.5755
▁መኖርያ	-11.5756
ረዳት	-11.5756
▁ደንበኝነት	-11.5757
▁ወረዳ፣	-11.5757
▁የጥርስ	-11.5762
▁ሀሳቦችን	-11.5766
▁አናት	-11.5766
▁በአካባቢዉ	-11.577
▁ጓደኞቼ	-11.5771
▁10:30	-11.5771
▁ሰኢድ	-11.5772
▁ስላልሆነ	-11.5772
▁ለማጎልበት	-11.5774
▁ይቁም	-11.5774
▁ፖሊ	-11.5775
▁የሀረሪ	-11.5776
▁እንደሚያስፈልጋቸው	-11.5776
▁እደሩ	-11.5777
▁መተማ	-11.5778
▁የሚፈለገው	-11.5779
▁ክላሽንኮ	-11.578
▁ለሮይተርስ	-11.5782
▁የሆናችሁ	-11.5782
▁ደህንነታቸው	-11.5783
▁ኒውዮርክ	-11.5783
▁ብልሽት	-11.5783
▁ማርኬቲንግ	-11.5784
▁አባወራዎች	-11.5785
▁በማምረት	-11.5786
▁የምናውቀው	-11.5786
▁ተይዘዋል፡፡	-11.5787
▁በሞስኮ	-11.5788
▁ያሏቸው	-11.5789
▁ማግኘቷ	-11.579
▁ባጫ	-11.5792
▁የመቀሌ	-11.5793
▁የሶማሊ	-11.5793
▁ካማላ	-11.5794
▁ኦባማ	-11.5797
▁ክፍለከተማ	-11.58
▁የፀጥታና	-11.5801
▁ፉ	-11.5804
▁እዚ	-11.5806
▁ከቀጠለ	-11.5809
87	-11.581
▁ሰቆጣ	-11.5812
▁160	-11.5814
▁ዘግቧል	-11.5815
1997	-11.5816
▁የፀሐይ	-11.5816
▁ተብላ	-11.5819
ዳቸው	-11.582
▁ባልተ	-11.5822
▁ህንጻዎች	-11.5822
▁ማሪያ	-11.5825
ትራምፕ	-11.5825
▁አካ	-11.5828
▁እንዲከናወን	-11.583
▁ሲጀምሩ	-11.5831
▁መለወጥ	-11.5832
▁ጫኝ	-11.5833
▁እንደማት	-11.5833
▁ታስሮ	-11.5834
▁አዘጋጅቷል።	-11.5834
▁ጭንቅላት	-11.5836
▁አክለዉ	-11.5839
▁ሲሞት	-11.5839
▁አቅራቢዎቹ	-11.584
▁የሽኝት	-11.5842
▁ይከበራል።	-11.5842
አር	-11.5843
▁በድሬደዋ	-11.5843
▁አስታወቁ፡፡	-11.5844
▁ኖቶች	-11.5844
▁የምሽት	-11.5845
ረጋ	-11.5845
እየ	-11.5847
▁ወርቃማ	-11.5847
▁ክብረወሰን	-11.5848
▁ውብሸት	-11.5848
▁ምርትን	-11.5849
▁የተከሰሱ	-11.5849
▁ድብቅ	-11.5853
▁ሶስቱን	-11.5853
▁ከተባለው	-11.5853
▁የሚያመጣ	-11.5857
▁ምሰሶ	-11.5858
▁አልፋ	-11.5858
▁ያቀረበችው	-11.5858
▁አብዮታዊ	-11.5859
የካቲት	-11.5859
▁2026	-11.586
▁ሆነህ	-11.586
▁ንጹህ	-11.586
▁አስፈፃሚዎች	-11.5861
▁ፈጥሮ	-11.5862
▁በኮምቦልቻ	-11.5864
▁በፕሮግራሙ	-11.5864
▁ከራስ	-11.5866
▁ያስባሉ	-11.5866
▁ስቴቨን	-11.5869
▁ቀረበ	-11.5871
ቀጣዩ	-11.5874
▁በሳይንስ	-11.5875
የአማራ	-11.5875
▁ኒስ	-11.5879
▁ሲጠይቁ	-11.5881
ድግ	-11.5883
▁ኳሱ	-11.5884
ዩፋ	-11.5884
▁ነጠላ	-11.5885
▁ጎርደን	-11.5887
▁ጉተሬዝ	-11.5887
▁የምታደርገው	-11.5887
▁አምርቶ	-11.5887
ቀጠር	-11.5888
▁እንደተናገሩት፤	-11.5888
▁አፅድቋል።	-11.5888
▁እዲ	-11.5889
▁እንዲከፍል	-11.5889
▁ሞራታ	-11.589
▁የአቅርቦት	-11.5891
▁ያገ	-11.5892
▁አሥር	-11.5894
▁የሚወሰድ	-11.5894
ለች፡፡	-11.5895
▁እየወጣ	-11.5895
▁የሕብረተሰብ	-11.5899
▁ዝማሬ	-11.5899
81	-11.5902
▁ውለዋል፡፡	-11.5903
▁ፍላጎቶች	-11.5905
▁የተለመደው	-11.5906
▁ከአሰልጣኝ	-11.5909
▁ግድም	-11.5909
▁ጋብ	-11.5909
▁መመሪያዎችን	-11.591
▁በጎል	-11.591
▁ከወር	-11.5911
▁132	-11.5915
▁ባለን	-11.5915
▁ሕዝቡን	-11.5916
▁ከሚባሉ	-11.5916
▁ሐመር	-11.5919
▁ህዝብና	-11.592
▁ኢህአዴግ	-11.592
▁የደጋፊዎች	-11.5921
▁ፕሮፌሽናል	-11.5923
ይን	-11.5924
▁ኦፌኮ	-11.5924
▁ሊቀርብ	-11.5925
▁ገላ	-11.5925
▁ማንነታቸውን	-11.5926
▁ፀር	-11.593
▁የሚፈጠረው	-11.5931
▁የጀመሩ	-11.5932
▁ሌት	-11.5935
▁ሞያሌ	-11.5937
▁እያደረጉት	-11.5938
▁ሪፖርቱን	-11.5939
▁21.	-11.5941
▁ያገኙትን	-11.5941
▁ለመድፍነ	-11.5945
▁በመካከላቸው	-11.5945
መጋጨቱ	-11.5945
▁ፍጡር	-11.5945
▁ማፍራት	-11.5945
▁ደረሱ	-11.5945
ለትን	-11.5945
▁ጠቅሷል፡፡	-11.5946
ሪኮስት	-11.5947
▁ማገዝ	-11.5947
▁ይገባ	-11.5947
▁ተከትለው	-11.5947
▁ደምቢ	-11.5948
▁ታመዋል።	-11.5948
▁ዲያሎ	-11.5948
▁ተመልክተዋል።	-11.5948
▁መዘናጋት	-11.595
▁እያሰሙ	-11.595
ቂያ	-11.5951
▁ይሄዳል	-11.5951
▁ትን	-11.5951
▁ላፖርታ	-11.5953
▁መግለፅ	-11.5954
▁ክሳቸው	-11.5955
▁እየታዩ	-11.5955
▁ስብሰባዎች	-11.5955
▁ሮቢት	-11.5956
▁ተከፋይ	-11.5956
ሚያዚያ	-11.5957
▁በከተማችን	-11.5959
▁ቶም	-11.5959
▁ተከፍሎ	-11.5959
▁ተግባሩን	-11.596
▁ስንብት	-11.596
▁ተዘጋጅቷል።	-11.596
▁ጠየቁ	-11.5961
▁የመጫወት	-11.5962
▁በልብ	-11.5967
ብስ	-11.5967
▁የእራት	-11.5968
ሰጣት	-11.5968
ዝን	-11.5969
▁270	-11.5971
▁የተወሰነው	-11.5972
▁ዉድመት	-11.5973
▁አሳውቆ	-11.5973
▁ቅዱ	-11.5974
ዋሉት	-11.5974
▁አለመሆናቸውን	-11.5976
▁በዝግጅቱ	-11.5976
▁ዲፕሎማት	-11.5979
▁ግለሰቡን	-11.5979
▁በጠቅላላው	-11.5981
▁በተመድ	-11.5982
▁ከንቱ	-11.5982
መነ	-11.5982
▁ፈቃዱ	-11.5984
ደረግ	-11.5984
▁ክልክ	-11.5985
ጆርናል	-11.599
▁ካምፓኒ	-11.5991
ጓዝ	-11.5993
ምባ	-11.5994
957	-11.5994
▁ሀገርን	-11.5996
▁መለቀቃቸውን	-11.5997
▁እየተሰማ	-11.5997
▁መካከልም	-11.5999
▁ጋሞ	-11.5999
ለዉ	-11.6002
ማሪያም	-11.6002
መረጥ	-11.6002
▁ተከ	-11.6003
▁ተረጋግጦ	-11.6003
▁አመላካች	-11.6003
▁እፈልጋለው	-11.6003
▁የሚያሟሉ	-11.6004
▁እንዲጠየቁ	-11.6004
▁ማድረጓን	-11.6007
▁ጌቱ	-11.6007
▁ተከብሯል።	-11.6007
▁የእርምት	-11.6007
9444	-11.6007
▁በግንባር	-11.6008
▁በአክብሮት	-11.601
▁ተከራይ	-11.601
▁የማፍረስ	-11.6011
▁መብላት	-11.6013
▁እንደተፈጠረ	-11.6013
▁የጠየቁት	-11.6015
▁የፓስፖርት	-11.6015
ፋል	-11.6015
▁በድንጋይ	-11.6016
▁መቀበሉን	-11.6019
▁በቡራዩ	-11.6019
ቀይር	-11.602
▁በሰ	-11.6022
▁በማሳወቅ	-11.6025
▁የቀረ	-11.6025
▁ፈተናቸው	-11.6026
▁በማለቱ	-11.6027
▁ሐውልት	-11.6029
ላክ	-11.603
▁ተከስቷል	-11.603
▁ፈፅመዋል	-11.6032
▁ከቅዱስ	-11.6032
▁ወኔ	-11.6034
ራዕይ	-11.6035
ሲዮ	-11.6035
ሰጠ	-11.6036
▁ከተደረጉ	-11.6038
▁ዳኘው	-11.6038
▁102	-11.6039
▁የሌሊት	-11.6043
ስቲ	-11.6044
ቤል	-11.6046
መንግስታዊ	-11.6046
ይዝ	-11.6046
▁ባህሩ	-11.6048
▁እንዲወሰድ	-11.6048
▁ያማረ	-11.605
ቲኪቫህ	-11.605
▁የቃል	-11.6053
▁ከፈጣሪ	-11.6053
92	-11.6055
ክመ	-11.6056
ህግ	-11.6056
▁ቸኮል	-11.6061
▁ስዕል	-11.6061
ረሱ	-11.6063
▁ጎጆ	-11.6063
▁ተችተዋል።	-11.6063
▁ተመርቋል።	-11.6064
▁ጎጂ	-11.6064
▁ከወረዳ	-11.6064
▁በአካባቢ	-11.6065
▁መግደሉን	-11.6067
▁ዘና	-11.6068
▁ይርዳው	-11.6068
▁ተከልክሏል።	-11.6069
▁የተጋነነ	-11.6069
▁የሚያውቅ	-11.6072
▁ሩቅ	-11.6074
/2010	-11.6075
ባሉ	-11.6075
▁ባደረገች	-11.6075
▁ሊፈታ	-11.6076
▁ምሰሶዎች	-11.6076
▁ጭብጥ	-11.6077
ሆነ	-11.6078
▁ተክሉ	-11.6079
▁ምሩቃን	-11.6079
▁ሕጎች	-11.6079
▁በፓርላማ	-11.608
ላወቁ	-11.608
▁አልኩት	-11.608
▁በዝምታ	-11.608
ልናል	-11.6081
▁አሐዱ	-11.6083
▁እነዚሁ	-11.6084
▁ፋሲካ	-11.6084
ጂቢ	-11.6085
▁ለበጎ	-11.6085
እስራኤል	-11.6086
▁ምእራብ	-11.6089
▁ዶክተሩ	-11.6089
▁ቃጠሎው	-11.6089
▁ተሳትፈዋል	-11.609
▁ካሜራዎች	-11.6096
▁ሰልፉን	-11.6097
ቀላል	-11.61
▁ዝምታን	-11.61
ገደ	-11.6101
▁መንግስቱን	-11.6102
▁እንጅባራ	-11.6103
▁ለገንዘብ	-11.6105
ቀረ	-11.6106
▁ቡሩንዲ	-11.6107
▁በሙከራ	-11.6107
▁ከፍሎ	-11.6108
▁በከተሞች	-11.6108
▁ከራሱ	-11.6109
▁የቆሰሉ	-11.6111
▁ያልተጠበቀ	-11.6111
ሰኝ	-11.6111
▁ሹፌሮች	-11.6112
ገነባ	-11.6113
ደረሱት	-11.6113
▁ሳሱሎ	-11.6113
▁ስማቸውን	-11.6113
▁ያለፈበት	-11.6114
251921935862	-11.6121
▁ሮድሪጌዝ	-11.6121
▁አራጌ	-11.6122
▁ለማከም	-11.6122
▁የግቢው	-11.6122
▁ቤታቸውን	-11.6123
▁ተከላካዩ	-11.6123
ኔት	-11.6123
▁አናሳ	-11.6124
▁ይገባኛል	-11.6125
▁በመፍታት	-11.6127
▁የማስተማር	-11.6127
▁ለገሃር	-11.6127
86	-11.6127
▁ከመጀመሪያው	-11.6129
▁ይማር	-11.6131
▁ቫላዶሊድ	-11.6132
▁በእኩል	-11.6133
ቅድስት	-11.6133
▁ስለማይ	-11.6135
▁ገለጹ፡፡	-11.6136
▁ተወ	-11.6137
▁መከናወኑን	-11.6137
ርት	-11.6138
▁በኦነግ	-11.6138
▁አስተናግደዋል።	-11.6138
▁ከአምናው	-11.6138
▁የታማሚዎች	-11.6139
▁ባደረገዉ	-11.6139
▁ህጉን	-11.6139
▁ዘመናት	-11.614
▁ጥቅሞች	-11.6141
▁እሷን	-11.6141
▁ከፕሬዝዳንት	-11.6142
▁ከጀመሩ	-11.6143
▁ካደረጋቸ	-11.6146
▁በኮሚሽኑ	-11.6146
▁ሚዛናዊ	-11.6147
▁ሽማግሌዎች፣	-11.615
▁ይወስዳሉ	-11.615
ክፍል	-11.6152
▁ማሻሻያው	-11.6153
ጣና	-11.6155
▁ለዶይ	-11.6156
▁የከተማውን	-11.6157
▁በተሳሳተ	-11.6157
▁በመመስረት	-11.6158
▁መታየቱን	-11.6159
▁ከተቋረጠ	-11.6161
▁ዝቅተኛው	-11.6162
ሚችለው	-11.6163
▁የእውነት	-11.6165
▁አህጉራዊ	-11.6166
▁ሰጠ።	-11.6166
▁ዩኒፎርም	-11.6168
መኝታ	-11.6169
▁አጋጥሞታል	-11.617
▁ሰብረው	-11.6171
ቅዳሜ	-11.6171
▁እስካል	-11.6172
▁ስልጠናዎችን	-11.6173
ትላንቱ	-11.6173
አስከሬን	-11.6173
ሳንድሮ	-11.6174
ማይ	-11.6174
▁ሞያ	-11.6177
▁መዘጋጀቱ	-11.6178
▁በኒውዮርክ	-11.6178
ዱን	-11.6179
▁101	-11.618
▁የምንሸልም	-11.6181
▁ድፍረት	-11.6181
▁በብድር	-11.6181
▁ቀዉስ	-11.6181
▁ተጠያቂነትን	-11.6183
▁አራዘመ	-11.6183
▁እንዲለቁ	-11.6183
▁አጥተው	-11.6183
▁ያለህ	-11.6185
▁ስትለው	-11.6186
▁እንዳልተ	-11.6187
▁ያሳወቀው	-11.6187
▁ቀላቅሎ	-11.6189
▁ብና	-11.619
▁የማቋቋም	-11.6191
▁በማውገዝ	-11.6191
▁የተመለሱት	-11.6191
▁በማስተላለፍ	-11.6192
▁አንባቢ	-11.6192
ዛው	-11.6192
-12	-11.6195
▁ወስደዋል።	-11.6197
▁ተቋርጧል።	-11.6197
▁ህመምተኞች	-11.62
▁የሚመለከቱ	-11.6201
▁ኩላሊት	-11.6201
▁ወረቀቶች	-11.6201
በተለይ	-11.6201
▁የኢትዮጵያውያን	-11.6202
▁ከሱ	-11.6204
▁ቪጎ	-11.6204
▁የስጋ	-11.6205
▁ሚድያዎች	-11.6206
ስቶ	-11.6208
▁ከማረሚያ	-11.621
▁ትንተና	-11.6211
▁ሴልቲክ	-11.6216
▁ዮንግ	-11.6217
▁እያደረሱ	-11.622
▁የሚሉትን	-11.622
▁በተጀመረው	-11.6221
▁ገፃችን	-11.6221
▁እንደገቡ	-11.6222
▁እየሩሳሌም	-11.6224
▁የምንለው	-11.6224
▁በፅሁፍ	-11.6225
ጣሉ	-11.6225
▁ማርታ	-11.6226
▁የማድሪድ	-11.6226
▁ወርልድ	-11.6227
▁ያካሄደው	-11.6232
▁እፎይታ	-11.6234
ንፁህ	-11.6235
▁የተነገረው	-11.6238
▁ይመስለኛል።	-11.6238
▁መግለፃቸው	-11.624
▁ፈረንሳዊ	-11.624
▁በጉምሩክ	-11.624
▁የሺሻ	-11.6241
እኔም	-11.6241
▁ሳያገኝ	-11.6241
▁ሲያከናውን	-11.6241
▁እንደማይፈልጉ	-11.6242
▁እያሳዩ	-11.6244
▁ወባ	-11.6244
▁ለማነጋገር	-11.6244
▁ገዝተው	-11.6245
▁ኢድ	-11.6245
▁የእንጨት	-11.6246
▁ራይትስ	-11.6246
▁የፈጠረው	-11.6248
ርአፕ	-11.6248
▁የሐዋሳ	-11.625
▁........	-11.625
▁ቅጠል	-11.6255
ድዮ	-11.6255
▁መመስረት	-11.6256
▁በተጨባጭ	-11.6257
▁ዓቃቢ	-11.6261
▁የዉሃ	-11.6261
ለፈ	-11.6262
▁ቦሪስ	-11.6262
▁ባደረጉ	-11.6262
ሚጀምረው	-11.6269
ሯቸው	-11.6272
2005	-11.6273
▁በዓለማችን	-11.6274
ባጃጅ	-11.6276
▁ህልሜ	-11.6276
▁የተቋማት	-11.6277
ቆዩ	-11.6277
▁ግብአቶች	-11.6279
▁ያስፈልጋቸዋል	-11.6281
▁አናውቅም	-11.6281
▁የነገው	-11.6283
▁ተደርጎላቸው	-11.6283
▁በቶተንሀም	-11.629
▁ንጽህና	-11.629
▁መሆናቸዉ	-11.6291
▁የሚፈጠር	-11.6292
▁ውይይቱን	-11.6292
▁የተሳተፉበት	-11.6292
▁ጠብቁ	-11.6293
▁ማራዘም	-11.6295
▁ብሉ	-11.6295
▁የዘለቀ	-11.6296
▁138	-11.6296
▁ሬንጀርስ	-11.6298
ፈጥኖ	-11.6298
▁መሀከል	-11.6301
ህር	-11.6302
▁ይጠቀሳሉ።	-11.6303
▁ቶክ	-11.6304
▁ማገገማቸውን	-11.6305
ጊዜ	-11.6306
▁የተመረቁ	-11.6312
▁አባላት፣	-11.6313
▁ይጠይቃል	-11.6313
▁የፕሪሚየር	-11.6314
▁የፍጥነት	-11.6315
የእስራኤል	-11.6315
▁ፊልሙ	-11.6316
▁ማሸነፉ	-11.6316
ጠብቅ	-11.6317
▁ዋጋቸው	-11.6317
▁ክልከላው	-11.6317
ነቷን	-11.6318
▁የተካሄዱ	-11.6319
▁ደጃዝማች	-11.6319
▁ጌዲዮን	-11.6319
ኖም	-11.6319
▁ሰርጌ	-11.6319
▁አስተዳድር	-11.6319
▁የማጥፋት	-11.6319
▁ግሪን	-11.632
▁ተከስቷል።	-11.6322
ኞቹ	-11.6323
▁ዝርዝሩ	-11.6323
▁በመሆኗ	-11.6324
▁ማሰልጠን	-11.6325
▁ፈፃሚዎች	-11.6326
ነቀ	-11.6327
▁የተጀመሩ	-11.6331
▁እንደተጠበቀ	-11.6333
▁እንደቆየ	-11.6334
▁ያነሱ	-11.6334
...?	-11.6335
ምክትል	-11.6338
▁ድምፃቸውን	-11.634
መንት	-11.634
▁እሷም	-11.6341
▁ሐዋሳ	-11.6342
▁ቤተሰቦችን	-11.6343
▁ዙ	-11.6345
▁ኮሮናቫይረስ	-11.6345
▁ታካሚ	-11.6348
▁መንታ	-11.6349
▁እንቅስቃሴው	-11.6349
▁ነርስ	-11.6351
▁ሰብእ	-11.6355
▁የተማሪዎቹ	-11.6356
▁ባለፋ	-11.6357
ፀግሽ	-11.636
▁እድሪስ	-11.6362
▁ፔሬዝ	-11.6362
▁ያልተገደበ	-11.6362
▁በስደት	-11.6362
▁መግለጽ	-11.6362
▁የሚበልጥ	-11.6362
ያዛቸው	-11.6363
▁አመላክተዋል፡፡	-11.6363
ገድ	-11.6364
ጠዋት	-11.6364
▁ስቶንስ	-11.6365
▁ሊያገኝ	-11.6365
▁የገለጸው።	-11.6366
▁የሚያገኙት	-11.6368
▁የቀረበበት	-11.637
▁በመልበስ	-11.637
▁ፍሊክ	-11.6373
▁ይመልከቱ።	-11.6373
▁የዘረፋ	-11.6374
ኮን	-11.6375
▁የአደባባይ	-11.6375
በውስጥ	-11.6376
▁ንግስት	-11.6376
▁ታያቸው	-11.6376
▁የዩኒቨርሲቲውን	-11.6376
▁የመፍትሔ	-11.6378
▁እንመኛለን።	-11.6379
▁ዚነ	-11.6379
▁ይጠይቃል።	-11.6382
▁ተቀጥረ	-11.6382
▁አውታሮች	-11.6383
▁የታየበት	-11.6385
መሬት	-11.6386
ግባ	-11.6387
▁ሶማሌላንድ	-11.6389
▁ችላለች	-11.6389
▁ዝምታ	-11.639
ተማሪዎች	-11.639
▁106	-11.6393
▁ሳይች	-11.6393
▁ልብሶች	-11.6396
▁አዋጭ	-11.6396
▁ለሆነ	-11.6397
▁አሸነፈ	-11.6397
▁ከሷል።	-11.6398
ርጌሳ	-11.6399
▁ብዙዎቹ	-11.6401
▁ተወያዩ	-11.6402
▁አይደሉም።	-11.6408
▁አሮጌ	-11.6408
▁ሲቪሎች	-11.641
▁የእግዚአብሔር	-11.6411
▁በልማት	-11.6411
▁የረዥም	-11.6411
ጋዜጠኛ	-11.6412
▁ከሸገር	-11.6412
▁ማገዱን	-11.6412
▁የሚያገኝ	-11.6412
▁ህዋ	-11.6421
▁ሮይ	-11.6421
▁ለማቆየት	-11.6422
▁ማርኬት	-11.6423
▁ስፓርት	-11.6423
▁እንደምንችል	-11.6423
ጠጡ	-11.6423
▁ቁምጣ	-11.6423
▁የሚከለክል	-11.6424
▁የሱዳኑ	-11.6424
▁ያመጣችሁ	-11.6424
▁ወሲባዊ	-11.6425
▁የሚሸጡ	-11.6426
▁ተግዳሮት	-11.6426
አንዲት	-11.6427
▁ሲሸጡ	-11.6429
▁በዕ	-11.6429
▁በግብ	-11.643
▁ሊገኝ	-11.643
በአዲስ	-11.643
▁መቸገራቸውን	-11.6431
▁ተቀን	-11.6433
▁ሜኑ	-11.6435
▁በትህትና	-11.6436
▁ሊባል	-11.6436
ርዴ	-11.6437
▁ፈንድቶ	-11.6437
▁የሰርግ	-11.6437
የስራ	-11.6437
▁አወዛጋቢ	-11.6437
▁ሀይለማርያም	-11.6438
▁ሊያገኙ	-11.6439
▁የጊኒ	-11.644
▁ተፈትነ	-11.6441
▁በመቋረጡ	-11.6442
▁በረራው	-11.6443
ሮና	-11.6445
▁ራሳችሁን	-11.6446
▁ኮሪደር	-11.6446
▁አሸንፈው	-11.6446
▁ቫይረሱን	-11.6447
▁ችግኞች	-11.6447
▁የታሰበው	-11.6448
▁የኢዜማ	-11.6449
ዋናው	-11.6449
▁መጨመሩ	-11.6449
▁በካናዳ	-11.6449
▁ዊል	-11.6451
▁በጉብኝቱ	-11.6451
▁አወቀ	-11.6455
▁ሰዎቹ	-11.6455
▁ለሚሰሩ	-11.6455
▁22.	-11.6456
ናል፡፡	-11.6457
▁አፍጋኒስታን	-11.6461
▁ዝሆኖች	-11.6462
ንጹሃን	-11.6465
▁ኮከቦች	-11.6466
▁ፍልስጤም	-11.6466
▁መጣችሁ	-11.6467
▁ግሪክ	-11.6469
▁እርሳቸው	-11.6473
ተደረገለት	-11.6477
▁ተመ	-11.648
▁ሳምራዊት	-11.648
ሌስተር	-11.6482
▁ማቅለያ	-11.6483
ሔ	-11.6484
▁ሳያደርስ	-11.6484
▁መርዳሳ	-11.6484
▁እየተመለሰ	-11.6485
▁እንደሚቀላቀል	-11.6485
▁አስፍረዋል።	-11.6485
▁ሪጅን	-11.6485
ቁራኛ	-11.6486
2023/24	-11.6486
ሙትአን	-11.6487
▁አገኘ	-11.6487
▁ተቆጥበዋል።	-11.6488
▁ኃላ	-11.6489
▁በሀረሪ	-11.6489
የስ	-11.6492
▁በምስራቃዊ	-11.6493
▁መተግበሪያን	-11.6493
ነጋ	-11.6493
▁ጆሴፍ	-11.6493
▁በፊፋ	-11.6493
▁ታዛቢ	-11.6494
ፈልግ	-11.6496
▁በዱባይ	-11.6497
▁ባሸነፈ	-11.6497
▁መቀጣቱን	-11.6497
▁ሳቅ	-11.6497
▁ኃላፊነቱ	-11.6498
▁ቲኬት	-11.65
▁ከእግር	-11.6501
▁ሀይለ	-11.6502
▁የዝግጅት	-11.6503
ብሽ	-11.6507
▁ሜሪ	-11.6508
▁ከቁጥጥር	-11.6508
▁የለንደን	-11.6508
▁ከተናገሩት	-11.6511
▁በቆይታቸው	-11.6511
ታለች።	-11.6511
ያለው	-11.6512
▁ሰላማዊት	-11.6513
▁አደጋዉን	-11.6513
▁መቆጠብ	-11.6515
▁ጤነኛ	-11.6515
▁የወልዲያ	-11.6516
▁የታገቱ	-11.6516
መጭው	-11.6517
የሚ	-11.6518
▁እያየን	-11.652
▁ድንግል	-11.6521
▁ሀማስ	-11.6522
ዳኝነት	-11.6523
▁ገዳማት	-11.6523
▁አላማው	-11.6523
▁መሆናቸውም	-11.6524
▁መመልከቱን	-11.6527
ዎችና	-11.6527
▁ያዕቆብ	-11.6532
▁ጠፊ	-11.6532
▁በሰልፉ	-11.6532
▁የቀረበባቸው	-11.6532
▁ሮኬት	-11.6535
▁በስልጠናው	-11.6535
የኔ	-11.6536
▁ማሳወቁን	-11.6539
▁ሽሬ	-11.6539
▁ሄንሪ	-11.6539
▁እድሎችን	-11.6539
▁የከፈተው	-11.654
▁የከረመ	-11.6541
▁መዝጋት	-11.6545
ጥዋቱ	-11.6546
▁በመስበር	-11.6546
▁ተጠይቆ	-11.6546
▁ክሩስ	-11.6546
▁የምርጫው	-11.6546
▁ክፍያን	-11.6547
▁ለማደስ	-11.6547
ስለዚህ	-11.6547
ባክን	-11.6547
▁ጦርነቶች	-11.6547
▁እየሠሩ	-11.6548
▁አልሲሲ	-11.655
▁ሸሽተው	-11.655
ፑ	-11.655
▁የምጣኔ	-11.655
▁አካሂደዋል።	-11.655
▁የቀያዮቹ	-11.6551
▁አበርክተዋል።	-11.6551
▁ለዘላለም	-11.6552
▁የተከፈተ	-11.6552
▁እየሄዱ	-11.6555
04	-11.6555
▁በእንስሳት	-11.6555
▁ጉድጓዶች	-11.6556
▁ሊሰጡ	-11.6557
▁ተወስኗል፡፡	-11.6557
▁የፋሲል	-11.656
▁አሳልፈው	-11.656
▁ሌን	-11.6561
▁ብሌን	-11.6565
ለደረሰው	-11.6567
▁ስብከቱ	-11.6567
▁አለበት፡፡	-11.6568
▁ኃላፊው፤	-11.6568
▁የነዋሪዎች	-11.6568
▁የሚያበቃው	-11.6573
▁በመጣ	-11.6574
▁ሱራፌል	-11.6575
▁ባይሆን	-11.6577
▁ያደርግ	-11.658
ስተ	-11.6584
▁126	-11.6586
▁190	-11.6588
▁ስደተኞቹ	-11.6588
▁አጥነት	-11.6589
▁104	-11.659
▁እንደማያ	-11.659
ያቸዉ	-11.6591
▁መቀነሱን	-11.6591
▁ቲሸርት	-11.6591
▁ሃጫሉ	-11.6592
ጠብ	-11.6592
▁ተገን	-11.6594
ሞላ	-11.6594
▁መዘጋጀታቸውን	-11.6596
▁ቁሳዊ	-11.6596
▁ቡርኪናፋሶ	-11.6598
▁በመጡ	-11.6598
▁ከህዝቡ	-11.66
▁ምሽግ	-11.6602
▁ቴክ	-11.6603
መድህን	-11.6604
▁እንዳለዉ	-11.6607
ጋባ	-11.6608
▁እያስተማረ	-11.6608
▁እንዳልነበር	-11.6608
▁እያከናወኑ	-11.6608
▁ወስዳችሁ	-11.6608
▁ወንድወሰን	-11.6609
▁የማረጋጋት	-11.6613
▁መተላለፊያ	-11.6614
▁በመደረጉ	-11.6615
▁ለማደናቀፍ	-11.6615
▁አይደለም፣	-11.6615
▁ይላል፡፡	-11.6615
▁ቀራንዮ	-11.6615
▁መውሰዳቸውን	-11.6617
▁በወዳጅነት	-11.6617
የክልሉ	-11.6622
▁መዋቅሩ	-11.6622
▁ቶሪኖ	-11.6622
▁በሚያስችል	-11.6624
▁230	-11.6624
▁ክፍያውን	-11.6625
እንዴት	-11.6627
▁ውህደት	-11.6627
▁ቄራ	-11.6628
▁ለእያንዳንዳቸው	-11.6629
ቀኝ	-11.6629
ስቴ	-11.6629
▁የሊቢያ	-11.663
•••	-11.663
▁ዳኛቸው	-11.6631
▁ያስገባ	-11.6632
▁አገልጋዮች	-11.6635
▁መጠየቃቸው	-11.6635
▁ቤተሰቡን	-11.6636
ራችን	-11.6637
▁ሙጂብ	-11.6637
▁የእንግሊዙ	-11.6639
!!!!	-11.6639
▁የላቸውም።	-11.664
▁ተዋጊዎችን	-11.664
▁ሆናለች	-11.6641
▁ዊሊያምስ	-11.6641
▁አህያ	-11.6643
ስትራቴጂክ	-11.6643
▁የሞከረው	-11.6644
▁ችግኞችን	-11.6645
▁አፅን	-11.6645
▁ከሊባኖስ	-11.6645
▁ወራሽ	-11.6645
ገራ	-11.6645
▁አያስፈልግም	-11.665
▁በረራዎችን	-11.6651
▁የሚጠበቅበት	-11.6652
▁ዕርምጃ	-11.6654
▁ማደግ	-11.6656
▁አደረገች	-11.6659
▁እንደምትገኝ	-11.6659
▁መሰ	-11.666
▁ኢኖ	-11.6661
ለዩ	-11.6662
▁ስፔናዊ	-11.6665
ሪህ	-11.6669
▁ለማስፋፋት	-11.667
▁የሬድዮ	-11.667
▁ህመሞች	-11.667
▁ማስተዋወቅ	-11.667
▁ለመለወጥ	-11.667
▁ሳያገኙ	-11.6671
▁ክርስቲያኑ	-11.6672
▁የጸጥታው	-11.6672
▁እንችላለን።	-11.6672
ጡት	-11.6675
▁የመታሰቢያ	-11.6675
▁ምስክርነት	-11.6676
▁ዘርቢ	-11.6677
መደረግ	-11.6681
▁ይገመታል።	-11.6682
▁ስልኩ	-11.6682
▁ውሏል፡፡	-11.6683
▁ተድላ	-11.6683
▁ሮው	-11.6686
▁በዘለለ	-11.6687
▁ለፍትህ	-11.6687
▁ካቶሊካዊ	-11.6688
▁እናሳውቃለን።	-11.6689
▁ማሰራጨት	-11.6689
▁ከጋምቤላ	-11.6691
ተመድ	-11.6692
▁አሳማኝ	-11.6692
▁በዶላር	-11.6693
▁በማሳለፍ	-11.6694
▁የተዘጉ	-11.6695
ድራ	-11.6697
▁የሚገርመው	-11.67
▁መግለጻቸው	-11.6701
▁ገጥሞ	-11.6704
ሞቱ	-11.6705
▁መስሪያቤቱ	-11.6705
▁በሰብአዊ	-11.6706
ተም	-11.6707
▁በፓኪስታን	-11.6708
▁ቅኝ	-11.6708
▁መንጋው	-11.6713
▁ውጤታቸው	-11.6717
▁ያመጣል	-11.6717
▁እንደነበርና	-11.6717
▁በይ	-11.6718
▁በእሱ	-11.6718
▁የተከናወነው	-11.6719
3/2016	-11.6719
▁እናድርግ	-11.6722
ታለች	-11.6723
▁በኢትዮጵያውያን	-11.6727
▁ሄደን	-11.6727
▁ጋዜጠኞችን	-11.6728
▁በስፖርት	-11.6731
▁በጉልበት	-11.6731
▁ተሳፋሪ	-11.6731
ሰሙ	-11.6733
▁ላስመዘገቡ	-11.6733
▁ምርምራ	-11.6733
▁የተሰማ	-11.6733
▁ትንበያ	-11.6735
▁ቁስል	-11.6737
ዳት	-11.6737
▁የሚጥስ	-11.6737
ይቼ	-11.674
▁በምላሹ	-11.674
▁አልባሳትን	-11.6742
ያዊያን	-11.6742
▁ከጀርመን	-11.6743
▁የኮምፒውተር	-11.6743
ልኩ	-11.6743
ዮሽ	-11.6744
▁ስቱትጋርት	-11.6746
▁ለአስራ	-11.6748
▁ሲመራ	-11.6748
▁ሃሳባቸው	-11.6748
▁ሽጉጦች	-11.6752
▁የሚፈፅሙ	-11.6755
▁መልቀቃቸውን	-11.6755
▁ኮቫ	-11.6755
▁በማጥፋት	-11.6756
▁ለኢፕድ	-11.6757
▁የሚደግፉ	-11.676
▁የነጻነት	-11.676
▁እየጣለ	-11.676
▁ከቆዩ	-11.6762
▁እምቢ	-11.6763
▁ካራ	-11.6764
▁አንስተዋል	-11.6764
▁ላውታሮ	-11.6765
▁እናምናለን	-11.6766
▁ትረካ	-11.6766
ነቴ	-11.6767
▁ስብሃት	-11.6768
▁የፕሬዝዳንቱ	-11.677
▁አይቀርም።	-11.677
▁አምስተኛው	-11.677
▁በወልዲያ	-11.6773
ሐረማያ	-11.6774
▁ላንተ	-11.6776
▁በጥሬ	-11.6777
▁ዛምቢያ	-11.6777
▁ሰለባዎች	-11.6778
▁ሲፋን	-11.6779
........	-11.6779
▁ሰዐት	-11.678
ፈስ	-11.6782
ቪየር	-11.6786
▁በአደጋዉ	-11.6786
ሸሽ	-11.6786
ሳሳ	-11.6787
▁በርቀት	-11.6787
▁ሚስቴ	-11.6788
▁የኖር	-11.679
▁በፈጣሪ	-11.6791
ቴፒ	-11.6791
▁ይገ	-11.6792
በስ	-11.6793
▁ሀገራትን	-11.6794
ወን	-11.6794
▁የአማርኛ	-11.6795
▁ተቋራ	-11.6796
▁ለሬድዮ	-11.6796
▁ሙሐመድ	-11.6796
▁በቁርጠኝነት	-11.6796
▁አደንግዝ	-11.6796
▁ሙባረክ	-11.6796
▁ለአውሮፓ	-11.6797
▁እንዲጠበቅ	-11.6797
▁የዋግ	-11.6797
▁ብሩጅ	-11.6797
▁እያገለገሉ	-11.6797
▁እንዲከላከል	-11.6798
▁የሚያገናኝ	-11.6798
ጋል	-11.6798
▁ሳይቆይ	-11.6799
▁ንፅህና	-11.6801
▁አበርክቷል።	-11.6801
▁እስከመጨረሻው	-11.6801
▁በሀረር	-11.6802
▁ለተቋሙ	-11.6804
▁ከሶማሌ	-11.6807
▁አፍሪካው	-11.6808
▁ሲያቀርብ	-11.681
▁ለተወሰኑ	-11.6811
▁አካላትም	-11.6812
▁1.1	-11.6812
▁ትንታኔ	-11.6812
▁እንደማለት	-11.6813
▁እንዲረዳ	-11.6813
▁የሌለዉ	-11.6813
▁ሠመራ	-11.6815
▁የድርድር	-11.6815
▁ባለትዳር	-11.6816
▁ማሳሰቢያ፦	-11.6817
▁በሴርያው	-11.6817
▁ኤቶ	-11.6817
▁ልጄን	-11.6819
▁ኢኮኖሚክስ	-11.682
▁ሴቷ	-11.6822
▁ሰይጣን	-11.6825
▁አሊስተር	-11.6826
▁የፍ	-11.6826
▁ቢሆኑ	-11.6827
▁ግንባታዎች	-11.683
▁አጥተዋል	-11.683
▁የታሰሩት	-11.683
▁እስራኤልን	-11.6832
▁እየተወጣ	-11.6834
▁ዘመዶች	-11.6835
▁ጂንካ	-11.6836
▁አስክሬኑ	-11.6837
▁ሠላማዊ	-11.6839
▁መጫን	-11.684
▁ተመልሷል።	-11.6843
ሚዎች	-11.6846
▁ሩዝ	-11.6848
▁በአራቱ	-11.6849
▁በፕሪቶሪያ	-11.685
▁ተስፈኛ	-11.685
▁ለእነዚህ	-11.6852
▁ሰውነቱ	-11.6852
▁መብቱ	-11.6859
▁ፊንፊኔ	-11.6859
44444	-11.686
▁ዙሮች	-11.6861
▁መስማቱን	-11.6861
▁ተደራጅቶ	-11.6861
▁ያለማቋረጥ	-11.6861
▁ጓደኞች	-11.6862
ገብያ	-11.6863
▁የሆነበት	-11.6865
▁ለቡ	-11.6866
ጎንደር	-11.6867
▁ኤድዋርድ	-11.6871
ሰኔ	-11.6871
▁የዕውቅና	-11.6871
ሪስ	-11.6873
▁ይሮ	-11.6873
▁በማግስቱ	-11.6873
▁ሴኔጋላዊው	-11.6873
▁መርዝ	-11.6874
▁ስልጠናዎች	-11.6874
▁ለእያንዳንዱ	-11.6874
▁ፍቱን	-11.6877
▁ፕሮፓጋንዳ	-11.6878
▁በራሷ	-11.6878
▁ተጋድሎ	-11.6879
▁ራል	-11.6883
▁ከመጀመሪያ	-11.6884
▁ያለኝን	-11.6886
▁ዲናሞ	-11.6886
▁ከከተማዋ	-11.6887
▁ፍስሃ	-11.6888
ሀላፊነት	-11.689
▁የሚሰሩት	-11.689
ባባ	-11.6891
▁ይውላል	-11.6891
▁የእንግሊዝኛ	-11.6892
▁በወልድያ	-11.6894
▁መቅረቱ	-11.6894
▁የተከሳሽ	-11.6896
▁ታዳጊው	-11.6899
▁ካሊ	-11.6901
▁ጉዞውን	-11.6901
▁አሚኮ	-11.6901
▁ከግቢ	-11.6902
▁የተቀመጠውን	-11.6903
▁ማንነቱ	-11.6903
▁ይደረጋል፡፡	-11.6906
.........	-11.6908
▁ፓርቲያቸው	-11.6909
እዚህ	-11.6913
▁በሚንቀሳቀሱ	-11.6913
▁አፈና	-11.692
▁ቁም	-11.692
▁ለሚያደርጉት	-11.692
▁ከህይወት	-11.692
▁ኮፒው	-11.6921
▁ይቻላል፡፡	-11.6922
▁23.	-11.6922
▁ማድረሱ	-11.6923
▁ማሸነፋቸውን	-11.6923
▁ስብስባቸው	-11.6923
▁ስርጭቱን	-11.6924
▁ይጠብቃሉ	-11.6924
▁ፈቃዳቸው	-11.6924
▁ድምቀት	-11.6924
▁እንዳልሆኑ	-11.6925
▁ዳጋሎ	-11.6925
▁ከቢቢሲ	-11.6926
▁እንዲሻሻል	-11.6926
▁ስኮት	-11.6926
▁ያጡት	-11.6927
▁ሲፈፀም	-11.6927
▁ያስረዳሉ።	-11.6927
ፈተና	-11.6927
▁ማስተር	-11.6927
▁የድርጅት	-11.6928
▁ተቋራጭ	-11.6928
▁አስፍሯል።	-11.6928
▁ኤዲን	-11.6928
▁ሚሊዮኖች	-11.693
▁እንደሆን	-11.6931
▁ለተጎጂዎች	-11.6931
▁ገጠር	-11.6932
▁ያሳተፈ	-11.6933
▁ግብአት	-11.6933
ውም።	-11.6934
▁የሹመት	-11.6934
ደርግ	-11.6935
▁ትርፋማ	-11.6937
▁ኮላ	-11.6937
▁116	-11.6938
▁ለበዓሉ	-11.694
▁አረጋግጧል፡፡	-11.694
▁ውዱ	-11.6942
▁ጣ	-11.6942
▁ዝና	-11.6943
▁የሚፈጠሩ	-11.6944
▁ከተሰማ	-11.6945
ዕይታ	-11.6947
▁ከቱርክ	-11.6947
ፈለ	-11.6948
አሚኮ	-11.6948
▁ተኬ	-11.6949
ዚያ	-11.6949
አዎ	-11.6949
▁የተውጣጣ	-11.6949
▁ተገኝቷል፡፡	-11.695
▁በወ	-11.6951
▁የስፔኑ	-11.6951
ፈቀዱ	-11.6952
▁ታማኝነት	-11.6954
▁በካፍ	-11.6954
▁የአርሶ	-11.6955
▁ሲጠየቁ	-11.6956
▁ይጠበቅባቸዋል	-11.6959
ኤቨርተን	-11.6961
▁ግምቶቻ	-11.6962
ጠው	-11.6963
▁ስጋቶች	-11.6965
▁ይጀመራል።	-11.6965
ጣት	-11.6966
▁ሀር	-11.6966
▁ሉሲዎቹ	-11.6969
▁የዲፕሎማቲክ	-11.6969
▁ለጋራ	-11.697
▁ከብት	-11.697
▁ትኩሳት	-11.6971
ፈተኑ	-11.6971
ዊያን	-11.698
ስብስብ	-11.6984
ነብ	-11.6986
ጠቀም	-11.6987
▁አሳሰበ	-11.6987
▁አስተዋፅ	-11.6987
እሁድ	-11.6988
▁መገባደጃ	-11.6989
▁ተፈርሞ	-11.6989
▁ለማዘዋወር	-11.6989
▁ደብቆ	-11.6989
▁ሬድ	-11.6989
▁በማዕድን	-11.6989
▁እያሳደረ	-11.6989
▁እየተዳረጉ	-11.699
▁አስታውሰዋል፡፡	-11.699
▁እስኪጠናቀቅ	-11.6991
▁እንዲለቀቅ	-11.6991
▁ይዞታዎች	-11.6992
▁ታናሽ	-11.6992
▁ወራሪው	-11.6992
▁በሚችል	-11.6993
▁ሰርቆ	-11.6994
▁የተናጠል	-11.6994
▁ቀይሮ	-11.6995
▁ለአርሰናል	-11.6995
▁ሰብሮ	-11.6996
▁መደበኛው	-11.6998
▁የማያዳግም	-11.6998
▁እንደተደረገ	-11.6998
▁ሲገዙ	-11.6999
▁የዛምቢያ	-11.6999
▁እንደሚያሳዩት	-11.6999
▁በጎረቤት	-11.7
▁ከምት	-11.7002
▁በሥነ	-11.7003
▁በእጃቸው	-11.7009
▁750	-11.701
▁ሩ	-11.7013
▁ጉዱሩ	-11.7015
▁ተመርጧል።	-11.7019
▁ሞዛምቢክ	-11.7021
አካዳሚክ	-11.7021
በርግ	-11.7021
▁ጠቁመዋል	-11.7021
▁ሰማንያ	-11.7021
▁መመዝገቢያ	-11.7023
▁ትላለች	-11.7024
▁የለ	-11.7025
▁የጥሬ	-11.7026
▁ተለያየ	-11.7033
▁ብፁዕነታቸው	-11.7035
በሳ	-11.7035
▁ለዩኒቨርሲቲው	-11.7038
▁ሞቶ	-11.7039
▁አራ	-11.704
▁4-1	-11.704
ዩኒቨርስቲው	-11.704
መሸነፍ	-11.7043
▁የሆነችዉ	-11.7043
▁ሲተመ	-11.7043
▁ለከተማው	-11.7044
ረከብ	-11.7044
▁አጋሮ	-11.7045
▁በባዶ	-11.7045
▁ከደረጃ	-11.7045
▁135	-11.7046
▁ድር	-11.705
▁ስፔሻሊቲ	-11.705
▁ያልጠበቀ	-11.7052
▁ዲያቆን	-11.7053
▁እንደማያውቁ	-11.7054
▁በትጋት	-11.7054
▁ስጠኝ	-11.7054
▁0913586742	-11.7055
▁አቀራረብ	-11.7055
▁ፍል	-11.7055
▁አሳዉቋል።	-11.7056
▁መሪዎችን	-11.7057
▁እንዲዘጋ	-11.7057
▁ጨዋነት	-11.7058
---------------	-11.706
▁የስምንተኛ	-11.7061
▁በፓርኩ	-11.7061
▁በሱማሊያ	-11.7061
▁ለወላጆች	-11.7063
▁ወኪሉ	-11.7064
▁እንዳለብን	-11.7064
▁አንጎላ	-11.7067
▁ሲመት	-11.7068
▁በመተግበር	-11.7068
▁መሳሪያው	-11.7069
ቄለም	-11.7069
ከሰ	-11.707
▁እርድ	-11.707
▁ሱማሌ	-11.7071
▁ገዳማውያን	-11.7072
▁ቤተሰቦቻቸውን	-11.7072
ግር	-11.7073
▁ግርማዊ	-11.7073
▁በታማኝነት	-11.7074
▁ውለታ	-11.7079
▁አብረዋቸ	-11.7079
ሰስ	-11.7079
▁ብዙዎችን	-11.708
▁አትክልት	-11.7081
▁ይዛችሁ	-11.7082
▁ከሀምሌ	-11.7082
▁ትናንትና	-11.7083
ወሰን	-11.7084
▁እቅዱ	-11.7085
መቁሰል	-11.7086
▁ተቋሙን	-11.7087
▁ተመዝግቦ	-11.7087
▁ታወር	-11.7087
▁ዓድዋ	-11.7088
▁እንደሚታይ	-11.7088
▁ይቀርባል	-11.7089
▁የእለቱ	-11.7089
▁መጨረስ	-11.709
▁መስርቶ	-11.7092
ቷል፡፡	-11.7092
ሰረ	-11.7093
▁ቻናሉን	-11.7093
▁ተሞክረ	-11.7094
▁ሚኪ	-11.7095
▁512	-11.7095
▁ያስታወቁት	-11.7095
▁ገብታ	-11.7096
ሰብዓዊ	-11.7098
▁ገቡ።	-11.7098
▁እጠይቃለሁ	-11.7099
ዲፕሎማ	-11.71
▁በተከፈተ	-11.71
▁የእውቀት	-11.7101
▁ግዳጅ	-11.7102
ባብ	-11.7106
▁ምታት	-11.7106
▁የማስ	-11.7108
▁ኢሌ	-11.7108
▁በገ	-11.7109
▁ከምግብ	-11.7112
▁(,	-11.7113
ወትሮው	-11.7114
▁ከባለ	-11.7114
▁ጀርመናዊ	-11.7115
▁ሙዝ	-11.7116
▁ይገልፃል።	-11.7123
▁በመምሰል	-11.7123
▁መመርመሪያ	-11.7124
▁መኪኖችን	-11.7124
▁የትንሳኤ	-11.7126
▁አንቀ	-11.7128
▁መቃረቡ	-11.7129
ስምምነቱ	-11.713
▁ለነባር	-11.7131
▁ፊርሚንሆ	-11.7133
▁የህዝብን	-11.7138
ልቅ	-11.7138
▁ከቀረጥ	-11.7138
▁ለጥቃቱ	-11.7139
▁ተካሄደ	-11.7141
▁ከዋሉ	-11.7142
▁ሐዘን	-11.7142
▁የአህያ	-11.7143
ስፖርታዊ	-11.7148
▁ይወስዳል	-11.7149
▁የማውቀው	-11.7149
▁ስምምነቶችን	-11.715
ርክ	-11.7151
▁ዉድድር	-11.7152
9/2016	-11.7155
▁ፕሮግራሙን	-11.7158
180	-11.7162
▁የጋዜጠኛ	-11.7164
ማራ	-11.7165
▁ፍቅሩ	-11.7166
▁በአቅራቢያ	-11.7167
▁በፍትህ	-11.7167
▁ጋራዥ	-11.7167
ድጋሜ	-11.7168
▁ቅሬታውን	-11.7168
▁ጉዞው	-11.7168
▁ቀብራቸው	-11.7168
▁ከደብረ	-11.7168
▁የሚቻል	-11.7171
▁አበበች	-11.7174
▁ቢሉም	-11.7175
▁ከፋ	-11.7179
▁የአባይ	-11.7182
▁ሰብስቦ	-11.7185
▁ባይታወቅም	-11.7185
▁አሰላለፎች	-11.7185
▁ተመዛኞች	-11.7185
▁ፔድሪ	-11.7185
▁ባነሰ	-11.7186
▁ጁንታ	-11.7186
▁ሲፈልጉ	-11.7187
▁አግተው	-11.7187
▁አውቆ	-11.7187
ለውጥ	-11.7189
▁ውዴ	-11.7189
▁ለቼልሲ	-11.7191
▁እየተጓዙ	-11.7191
▁የገለፅና	-11.7191
▁የድርጊቱ	-11.7191
▁መነኮሳት	-11.7193
▁በምርምር	-11.7194
ፃፈው	-11.7195
▁ተሰጥቷቸዋል።	-11.7195
ገደብ	-11.7196
▁ለዘላቂ	-11.7196
▁113	-11.7197
▁ነዋይ	-11.7198
▁ግንባታውን	-11.7199
ዋለች	-11.7199
ሰአታት	-11.72
▁ለክልል	-11.72
▁ያሳያሉ	-11.7203
▁በሰብል	-11.7203
▁ለአስር	-11.7203
▁ጠምባሮ	-11.7204
▁የዶላር	-11.7205
▁ነበረው	-11.7205
▁ቡርኪና	-11.7205
▁የተበላሸ	-11.7205
▁አሳሰበ።	-11.7205
ጊያ	-11.7208
ወሎ	-11.7209
▁ጸሀፊ	-11.721
▁አቅምን	-11.7211
▁ያገኘዉ	-11.7211
▁የአርበኞች	-11.7212
▁የሚባለውን	-11.7213
▁ትራክ	-11.7215
ደግፍ	-11.7215
▁ዮርዳኖስ	-11.7216
▁ካርቶን	-11.7217
ምክንያትነት	-11.7217
ዚሁ	-11.7217
▁ለጸጥታ	-11.722
▁ይገባሉ።	-11.722
▁ብሎክ	-11.7221
ታዎች	-11.7221
▁እንዲኖሩ	-11.7222
የውጭ	-11.7222
▁ይገባናል	-11.7224
▁የገበታ	-11.7225
▁የአፍጋኒስታን	-11.7226
▁ጀዋር	-11.7226
▁የእምነቱ	-11.7227
ነሃሴ	-11.7232
▁ሰባቱ	-11.7233
▁ዴሞክራቲክ	-11.7237
▁ማውጫ	-11.7237
ባላ	-11.7237
ጠር	-11.7238
▁ኢጎ	-11.7239
▁ኤደን	-11.7239
▁ሃሳቦችን	-11.724
▁ለማን	-11.724
▁ኔዘርላንዳዊው	-11.7243
▁የአሳ	-11.7244
▁ሮቤ	-11.7246
▁ዩኒሴፍ	-11.7247
▁ሞቱ	-11.7248
▁ስራችን	-11.7249
ጊዚያዊ	-11.725
▁ተሰብስቦ	-11.7251
▁ሊንጋርድ	-11.7251
▁ጂሮና	-11.7251
▁መዛባት	-11.7251
▁ተናግሮ	-11.7252
ሎዲሚ	-11.7252
▁ጂቡቲ	-11.7252
▁ባልደረቦች	-11.7252
▁ለማደራጀት	-11.7252
▁ሲጫወቱ	-11.7253
▁ሊያመራ	-11.7255
▁ተናግራለች፡፡	-11.7256
▁የወሰን	-11.7256
▁ሳም	-11.7258
▁በሰዓት	-11.726
ቫን	-11.7261
▁የአብ	-11.7262
▁በፈጸመው	-11.7263
ሳስ	-11.7264
▁ተሰጥቷል	-11.7265
▁3)	-11.7265
▁ቀስቃሽ	-11.7265
▁ኬክ	-11.7266
▁በማይታወቅ	-11.7267
ፋሲል	-11.7268
▁እየተጓዘ	-11.7268
▁በአፍ	-11.7268
▁መለያችን	-11.7268
▁በማሟላት	-11.7268
▁የሲቪክ	-11.7268
▁ጥቃቅን	-11.7269
▁ወቀሳ	-11.727
▁የሰብል	-11.727
▁በአርሲ	-11.7271
▁ስለሚችሉ	-11.7273
▁ቻይናዊ	-11.7274
▁የምንሰራው	-11.7276
▁የሁለተኛው	-11.7277
ቀረበለት	-11.7278
▁ስቲ	-11.7278
ቻለው	-11.7282
▁ኃብት	-11.7284
▁ገዳዎች	-11.7284
▁ዘገባውን	-11.7285
▁ለተወሰነ	-11.7285
▁የስኬት	-11.7286
▁በቀጠለው	-11.7287
▁ጀምረናል	-11.7287
▁ተገደዋል	-11.7288
ዓለምአቀፍ	-11.7289
ታማ	-11.729
▁ድምፀ	-11.7291
▁ከማለት	-11.7291
▁ማኅበረሰቡ	-11.7292
▁አያውቅም።	-11.7292
▁መቅጠር	-11.7293
2004	-11.7296
▁ጉዞዎች	-11.7296
▁አስፈርሟል	-11.7297
▁ይገለፃል	-11.7297
▁በመመደብ	-11.7298
▁ታየ	-11.7298
▁በውሳኔው	-11.7299
▁ማህበረሰቦች	-11.7299
▁ድሃ	-11.7302
▁አውግ	-11.7304
▁በሶስተኛ	-11.7305
ቅድመ	-11.7306
ይሁን	-11.7307
▁ከመንገድ	-11.7309
ፊት	-11.7309
▁ተሾሙ	-11.7309
▁መብታቸውን	-11.731
▁ነብዩ	-11.7311
▁መለስተኛ	-11.7312
▁የሌላቸውን	-11.7314
▁ኪነ	-11.7314
ሽው	-11.7315
▁ያደረሰ	-11.7317
መለከተው	-11.7317
▁ለመቀልበስ	-11.7318
እንግድነት	-11.7318
▁ኢድሪስ	-11.7318
▁ቃለምልልስ	-11.7318
▁ያተኮሩ	-11.7318
▁ሰዓቱ	-11.7318
▁ኪዳኔ	-11.7318
▁ልዕልት	-11.7318
▁በርናርዶ	-11.7318
▁አጽንኦት	-11.7319
ወስድ	-11.7319
▁ህጋዊነት	-11.732
▁ተኩሶ	-11.732
▁በኩ	-11.7321
▁የመፈንቅለ	-11.7322
▁የፍጆታ	-11.7323
▁ለማቃለል	-11.7324
▁አስነብቧል፡፡	-11.7324
ች፣	-11.7325
ተስፋ	-11.7325
▁ቴክኖ	-11.7326
▁ለማህበረሰቡ	-11.7326
▁አፋን	-11.7327
▁እንደሚቆዩ	-11.7328
▁ቀንቶታል	-11.7329
▁ከዚ	-11.7329
▁ያጋጠሙ	-11.733
▁መናፈሻ	-11.7332
▁ተፈናቅለዋል።	-11.7332
▁የሚጫወተው	-11.7332
▁አሽ	-11.7332
ታችሁን	-11.7333
▁ፕሮቶኮል	-11.7333
▁የሙስሊም	-11.7341
▁በላ	-11.7341
▁እየደረሱ	-11.7342
▁የሚኖረውን	-11.7342
▁ከባንኩ	-11.7343
▁ክርስቲያኒቱ	-11.7344
▁መለዋወጫ	-11.7344
▁በማወቅ	-11.7347
▁የተራዘመ	-11.7347
▁ከአርባ	-11.7347
▁የወሰዱት	-11.7348
▁ህግም	-11.7348
▁ቴሪ	-11.7352
▁የሚያካሂዱ	-11.7352
▁አድራሻ፦	-11.7355
▁አበው	-11.7356
▁በኤጀንሲው	-11.7358
▁በደብዳቤው	-11.7358
▁አቢይ	-11.7359
▁የሚያስችለው	-11.7361
▁አሳድ	-11.7361
▁ይጠናቀቃል።	-11.7364
▁አንዳ	-11.7366
▁የአብን	-11.7367
ርታ	-11.7367
▁እያለፈ	-11.7369
▁ቤልጅዬም	-11.737
▁ጽጌ	-11.7371
ዎቼ	-11.7371
▁ነብስ	-11.7372
▁በስታዲየም	-11.7374
▁ከታክስ	-11.7379
▁የሚኖራቸው	-11.7379
ሕይወት	-11.7379
▁የተገኘበት	-11.738
▁የግጭቱ	-11.7381
ያችሁ	-11.7382
▁ዴሊ	-11.7382
▁አቀማመጥ	-11.7385
▁ካልተቻለ	-11.7385
▁ቡራዩ	-11.7385
▁ካደረጋችሁ	-11.7385
▁ማገልገል	-11.7385
▁ዕፀ	-11.7386
▁ቱፋ	-11.7386
▁እንዲታቀቡ	-11.7386
▁መቃረባቸው	-11.7387
▁ሰዋች	-11.7388
▁ቤከር	-11.7388
▁በርሄ	-11.7389
▁በተሟላ	-11.7389
▁መዘጋጀት	-11.739
▁እድላቸው	-11.739
▁ሴክተር	-11.7391
▁እንደማይሆን	-11.7391
ገዛ	-11.7395
▁ተለያይተዋል።	-11.7396
▁የምለው	-11.7396
▁የሚጠበቅባቸውን	-11.7398
▁ተወስደዋል።	-11.7399
▁በምእራብ	-11.7399
▁ቦይ	-11.74
6,000	-11.7401
▁ኤምባሲዎች	-11.7401
ዞን	-11.7401
ቀጥል	-11.7402
▁ኃይሉን	-11.7402
ተህ	-11.7403
▁ጠይቋል	-11.7404
▁ወከባ	-11.7404
ኤች	-11.7405
▁በኢንተር	-11.7405
▁የሚያውቀው	-11.7406
ያኖ	-11.7408
▁የተጠረጠረ	-11.7408
ሉ፡፡	-11.7408
▁ጣብያ	-11.741
▁ቅዱስነታቸው	-11.741
▁በግሉ	-11.741
▁ዳርፉር	-11.7413
▁ወጣቱን	-11.7416
▁ጅራ	-11.7417
▁ከሚኒስቴሩ	-11.7418
ድርጊቱ	-11.7418
▁ጎልማሳ	-11.7419
▁የዉጭ	-11.742
▁ያስፈልገዋል	-11.7422
▁መፅሄት	-11.7422
▁ሩሲያን	-11.7422
▁በእዚህ	-11.7422
አቃቤ	-11.7424
አፈጻጸም	-11.7425
▁ኤክስፖ	-11.7427
ሪካ	-11.7427
▁ንብረቱ	-11.7427
▁የሚጫወት	-11.7428
▁ተባለ፡፡	-11.7428
▁መሮጥ	-11.7429
▁በሚባሉ	-11.743
▁ማከማቻ	-11.7432
ንዴ	-11.7432
▁የፕሪቶሪያው	-11.7437
▁በአትሌት	-11.7439
የአፍሪካ	-11.744
▁ፈተናዎችን	-11.744
05	-11.744
▁እንዳልነበረ	-11.7441
▁አይቼ	-11.7446
▁በሽብርተኝነት	-11.7446
▁ጥያቄያቸው	-11.7448
▁ከተባሉ	-11.745
▁ትለኛለች	-11.7452
▁ካራገር	-11.7453
▁አስመጪዎች	-11.7453
▁እንዲያበቃ	-11.7454
▁እንደሚደረጉ	-11.7454
▁ተፈጸመ	-11.7455
▁ለህልፈት	-11.7455
▁የበረሃ	-11.7457
▁መጠ	-11.7458
▁የድሮ	-11.7461
▁አቁመው	-11.7461
▁ተርባይኖች	-11.7461
▁ዋን	-11.7462
▁እንዳይወጣ	-11.7463
▁የግሪክ	-11.7463
▁ይታመናል።	-11.7464
▁ዋሉ።	-11.7465
▁የተሳሳቱ	-11.7466
▁ቻድ	-11.7466
ዋለች።	-11.7467
▁ማንኛዉ	-11.7469
▁ሀምዶክ	-11.7469
ወዳደር	-11.747
▁ስቱዲዮ	-11.747
▁በላሊበላ	-11.7471
▁ባስቀመጠ	-11.7471
▁ክብካቤ	-11.7472
▁አሳወቀ።	-11.7477
ሯል	-11.7478
▁ጥያቄያችን	-11.7479
ሥተኛ	-11.748
▁የቤተክርስቲያን	-11.748
▁የህዳሴው	-11.7483
▁ተቃራኒ	-11.7483
የአሜሪካ	-11.7484
▁ለጦርነት	-11.7485
▁-----------	-11.7488
▁በሀ	-11.7488
▁አድርሷል	-11.749
▁የሩጫ	-11.749
▁አስታወቀች።	-11.75
▁እራሳቸው	-11.75
▁ባለሙሉ	-11.7502
▁ኪር	-11.7504
መሪው	-11.7505
▁ንብ	-11.7506
▁ፍልሰተኞች	-11.7507
▁ጃል	-11.7507
▁መዳረሻዎች	-11.751
▁ከዩናይትድ	-11.7511
ተያዘዉ	-11.7512
▁አደለም	-11.7514
▁ጋሽ	-11.7516
▁ፓርላማው	-11.7517
▁በመዝጋት	-11.7518
▁ድሪባ	-11.752
▁ዳሬክተር	-11.752
▁እንዲያገለግሉ	-11.7521
▁አሳታፊ	-11.7521
▁ሚሊዬን	-11.7521
▁የዘመ	-11.7522
▁እንደማይሰጥ	-11.7522
▁እንደምታደርግ	-11.7522
▁ይሁንላችሁ	-11.7522
▁ሲወስዱ	-11.7523
▁የዩሮ	-11.7523
▁መቅረቡ	-11.7524
▁ሰራተኛው	-11.7525
▁ሌላኛዋ	-11.7525
▁ሲገልፅ	-11.7525
▁ኑኖ	-11.7526
▁የላትም	-11.7528
▁ተጀመረ።	-11.7528
▁አክስዮ	-11.7529
▁ላኪዎች	-11.7529
▁የሚያውቁት	-11.7532
▁የዳጉ	-11.7532
▁ያዘጋጁት	-11.7534
▁ቆርጦ	-11.7535
▁በያዘው	-11.7536
ሴን	-11.7539
▁ለውጡን	-11.754
9/2015	-11.754
ግሸን	-11.754
▁ተዘዋውረ	-11.7541
▁ያደረገዉ	-11.7541
ደሞዝ	-11.7541
ነገሩ	-11.7541
▁ይውላል።	-11.7542
▁የመላው	-11.7543
▁የፈጣን	-11.7544
▁ራዮ	-11.7547
▁ሁነት	-11.7547
ብቃቱን	-11.7549
▁የትኩረት	-11.755
ረድ	-11.7552
እጅግ	-11.7553
▁የፈለጉ	-11.7555
▁እርባታ	-11.7556
▁የነበረባቸው	-11.7556
ከፍል	-11.7556
▁የቦረና	-11.7557
▁አጣዬ	-11.7557
▁ይኖርብናል	-11.7559
▁አፍቃሪ	-11.756
▁በኮንሶ	-11.756
▁ገቢው	-11.7563
▁አልሚ	-11.7564
▁በጠዋት	-11.7564
2.5	-11.7565
ሳችሁ	-11.7567
▁ከሚጠበቁ	-11.7567
▁ጠባሳ	-11.7568
▁ቤተክህነት	-11.7571
▁ይኖራል።	-11.7572
▁ላፕቶፖች	-11.7574
▁ድሮን	-11.7577
ኖረ	-11.7578
▁ከተሰኘ	-11.7579
900	-11.7579
▁የማዕከሉ	-11.758
▁ኬንያውያን	-11.758
▁የሚነሳ	-11.758
▁እንደሚደረግም	-11.7581
▁አጥፍቶ	-11.7581
1996	-11.7582
[...]
