<pad>	0
<unk>	0
<s>	0
</s>	0
▁የ	-0
▁በ	-1
▁አ	-2
▁እ	-3
▁መ	-4
▁ተ	-5
▁ከ	-6
▁እን	-7
▁ለ	-8
ል።	-9
ቸው	-10
▁ወ	-11
▁ነ	-12
▁ይ	-13
ዎች	-14
▁ማ	-15
ላይ	-16
▁ስ	-17
▁ያ	-18
▁የሚ	-19
▁እና	-20
▁ም	-21
▁ሰ	-22
▁ብ	-23
▁የተ	-24
▁ሲ	-25
▁ላይ	-26
▁እንደ	-27
፡፡	-28
▁ባ	-29
▁ው	-30
▁ግ	-31
▁አስ	-32
▁ክ	-33
ነት	-34
▁ነው	-35
ደረ	-36
▁በመ	-37
ዋል።	-38
ስት	-39
▁ገ	-40
▁ት	-41
ውን	-42
ችን	-43
▁ቀ	-44
▁እንዲ	-45
▁ጥ	-46
▁1	-47
▁የአ	-48
ንግ	-49
▁በተ	-50
ደር	-51
▁በአ	-52
▁ቤ	-53
▁"	-54
▁ሚ	-55
ኢት	-56
▁ድ	-57
▁2	-58
ኢትዮ	-59
ል፡፡	-60
▁የመ	-61
ንድ	-62
▁ጋ	-63
ሪያ	-64
▁ህ	-65
▁ዓ	-66
ሆን	-67
ጵያ	-68
ሆኑ	-69
ኢትዮጵያ	-70
በት	-71
..	-72
▁ደ	-73
ለው	-74
ቸውን	-75
▁ወደ	-76
ርት	-77
▁ሊ	-78
▁ከተ	-79
ራት	-80
ተኛ	-81
ቶች	-82
▁ሁ	-83
▁ሀ	-84
▁ለመ	-85
▁ጉ	-86
በር	-87
▁ል	-88
▁ጋር	-89
ሆነ	-90
▁እየ	-91
ለት	-92
ንት	-93
ማሪ	-94
▁ሳ	-95
ስጥ	-96
ገር	-97
▁-	-98
▁ታ	-99
▁እንደሚ	-100
▁በማ	-101
▁ለማ	-102
ስተ	-103
ዚህ	-104
▁ኮ	-105
▁ዘ	-106
▁ካ	-107
00	-108
ለም	-109
▁ውስጥ	-110
ገል	-111
ድር	-112
ጨዋ	-113
▁ጠ	-114
▁ባለ	-115
▁ፍ	-116
▁ቢ	-117
▁ዋ	-118
▁ዩ	-119
ቨር	-120
ረት	-121
ራዊ	-122
ምህ	-123
በረ	-124
ዲስ	-125
▁(	-126
▁እስ	-127
▁ፈ	-128
▁ጉዳ	-129
ድረ	-130
▁አካ	-131
▁በሚ	-132
▁ፕ	-133
01	-134
▁እንዳ	-135
▁የማ	-136
▁ከተማ	-137
ጊዜ	-138
ቱን	-139
▁አን	-140
▁አይ	-141
▁ግን	-142
መት	-143
ሁን	-144
▁የም	-145
▁ሰዎች	-146
▁የሚያ	-147
▁ምክ	-148
ገባ	-149
▁።	-150
ንስ	-151
▁ኢ	-152
ትን	-153
▁መስ	-154
ሪካ	-155
ሎች	-156
▁መሆኑ	-157
▁አል	-158
▁ገል	-159
▁፣	-160
ዛሬ	-161
ታወ	-162
ሰብ	-163
▁ች	-164
ምህርት	-165
▁ቤት	-166
▁3	-167
▁ሲሆን	-168
▁አስተ	-169
ጀመ	-170
ዋል	-171
ጨዋታ	-172
▁ክል	-173
ረጃ	-174
▁ምን	-175
--	-176
▁ሚኒ	-177
ኒቨር	-178
ጥር	-179
▁አለ	-180
▁ጊዜ	-181
መራ	-182
▁ይህ	-183
▁ተከ	-184
▁ነው።	-185
መለ	-186
ናል	-187
ንያ	-188
▁እየተ	-189
▁ተና	-190
ልጣ	-191
ላት	-192
ቅር	-193
▁ቡ	-194
ጠና	-195
▁ሆ	-196
▁የነ	-197
▁መንግ	-198
ታው	-199
ናት	-200
ያን	-201
ባቢ	-202
▁ኤ	-203
▁አበ	-204
▁ፖ	-205
▁ያለ	-206
▁ኢትዮጵያ	-207
ሲቲ	-208
▁መን	-209
ዋል፡፡	-210
▁ጨዋታ	-211
ደረገ	-212
ብር	-213
ተር	-214
▁ተማሪ	-215
▁ብር	-216
▁ቁ	-217
▁ተናግ	-218
ከል	-219
▁ከፍ	-220
ገኙ	-221
ገኘ	-222
ኒቨርሲቲ	-223
ዎችን	-224
▁ምር	-225
▁ክፍ	-226
▁ሙ	-227
▁መረጃ	-228
ለያ	-229
▁ዶ	-230
▁ክልል	-231
ግራ	-232
ይት	-233
ምሮ	-234
▁መሆኑን	-235
▁መል	-236
ርድ	-237
▁የት	-238
ሽን	-239
ፊት	-240
ታት	-241
▁ዳ	-242
▁ቅ	-243
ከተ	-244
ላቸው	-245
ረዳ	-246
▁አበባ	-247
ታቸው	-248
ሮች	-249
▁በላይ	-250
▁ስለ	-251
▁ቦ	-252
▁ኃ	-253
▁አባ	-254
ግር	-255
ግባ	-256
ድን	-257
ይወ	-258
የር	-259
▁ዝ	-260
▁የእ	-261
▁አቶ	-262
▁የሰ	-263
ሊስ	-264
▁ጀ	-265
▁ቀን	-266
▁እያ	-267
▁ስራ	-268
▁ድር	-269
ሎት	-270
ብረ	-271
▁የኢትዮጵያ	-272
▁ና	-273
▁አንድ	-274
▁ሌ	-275
▁5	-276
▁ደረ	-277
ማት	-278
▁የወ	-279
ረስ	-280
ለን	-281
▁ተናግረ	-282
ገድ	-283
ገለ	-284
▁4	-285
▁ዕ	-286
▁ነበር	-287
ባቸው	-288
ዮን	-289
ረጋ	-290
ደጋ	-291
▁0	-292
ችሁ	-293
ዓት	-294
▁ዩኒቨርሲቲ	-295
ገልግ	-296
▁ተጠ	-297
▁ከአ	-298
ሰራ	-299
▁“	-300
ቢያ	-301
ኞች	-302
ላፊ	-303
መል	-304
▁ፓ	-305
ርካ	-306
ላል	-307
▁ማን	-308
▁ሃ	-309
ሁም	-310
ለች	-311
ሚያ	-312
▁አሳ	-313
ፈል	-314
ድረግ	-315
▁ከፍተኛ	-316
201	-317
▁ዛሬ	-318
▁ሥ	-319
ግለ	-320
ሏል።	-321
ተና	-322
▁በቀ	-323
▁የስ	-324
▁!	-325
በሩ	-326
▁እስከ	-327
▁ማስ	-328
▁ስር	-329
ዎቹ	-330
ላም	-331
▁አገልግ	-332
▁አር	-333
ገኛ	-334
ረው	-335
ክል	-336
ቦች	-337
ሉት	-338
▁እንዲሁም	-339
ዳን	-340
▁ብለ	-341
ተው	-342
▁ነገር	-343
▁ዓመት	-344
▁ከመ	-345
▁በዚህ	-346
▁ምክንያ	-347
▁አሰ	-348
▁ትምህርት	-349
ጨማሪ	-350
▁የው	-351
▁መሰ	-352
▁ተማሪዎች	-353
▁አድር	-354
▁በእ	-355
ዝብ	-356
ስቲ	-357
▁ሳይ	-358
ጿል።	-359
▁ሕ	-360
ቋል።	-361
▁ሺ	-362
ኛው	-363
▁ላ	-364
▁አም	-365
መር	-366
▁ተቋ	-367
ካሄ	-368
ታል	-369
ለያዩ	-370
ኋላ	-371
▁በሰ	-372
▁ፕሬ	-373
▁ተብ	-374
▁ኦ	-375
▁ሲሉ	-376
▁ፖሊስ	-377
ሪዎች	-378
▁ጎ	-379
ክት	-380
ራል	-381
▁የህ	-382
▁ብቻ	-383
▁.	-384
መን	-385
▁ዋና	-386
▁አካባቢ	-387
ከላ	-388
▁ሞ	-389
ገኝ	-390
▁፤	-391
ይል	-392
▁ተገል	-393
ጦር	-394
▁ኮሚ	-395
in	-396
ኔታ	-397
ቤት	-398
▁ሴ	-399
ስተር	-400
▁ደረጃ	-401
▁የቀ	-402
ምና	-403
▁አዲስ	-404
▁አሁን	-405
▁አስተዳ	-406
▁ሜ	-407
▁ሚኒስት	-408
▁በኋላ	-409
▁በስ	-410
▁ቴ	-411
ምን	-412
ስቴ	-413
ታቸውን	-414
▁ሰው	-415
ጣት	-416
▁አቀ	-417
ሳይ	-418
▁ዜ	-419
▁አስታው	-420
▁ደግ	-421
▁ሁኔታ	-422
ጥታ	-423
▁እር	-424
መድ	-425
▁ን	-426
ሆና	-427
▁በት	-428
ጀመሪያ	-429
ይም	-430
▁ሁሉ	-431
▁ሚሊ	-432
▁መንግስት	-433
...	-434
ተሰ	-435
ንን	-436
▁ጨ	-437
ቷል።	-438
▁6	-439
▁መካ	-440
ሜሪካ	-441
▁ሶ	-442
ማራ	-443
ደረጉ	-444
▁ደግሞ	-445
▁•	-446
▁ራ	-447
ቫይ	-448
▁ዞ	-449
ሳት	-450
▁ምክንያት	-451
▁ክለ	-452
▁ያለው	-453
▁ህይወ	-454
▁አገልግሎት	-455
ዮች	-456
ፍሪካ	-457
ወሰ	-458
er	-459
ችል	-460
ኤል	-461
ጠቀ	-462
ዘጋ	-463
▁ተናግረዋል።	-464
ባት	-465
ገን	-466
ደው	-467
▁ሲል	-468
▁አብ	-469
▁መር	-470
▁ሽ	-471
▁ሀገ	-472
ዳንት	-473
▁የነበረ	-474
ቃት	-475
ቅም	-476
ጠበ	-477
ፖርት	-478
▁:	-479
▁ውጤ	-480
ነው	-481
an	-482
ጠር	-483
ደረሰ	-484
▁ሚኒስቴ	-485
▁ናቸው	-486
▁ዲ	-487
ጤና	-488
▁7	-489
▁201	-490
▁መግለ	-491
ቸዉ	-492
ታዊ	-493
▁ጠቅ	-494
▁ይገኛ	-495
▁ቆ	-496
▁ወቅ	-497
ሪክ	-498
----	-499
▁ስም	-500
▁ወረዳ	-501
የት	-502
ንጀ	-503
▁መንገድ	-504
▁ሰዓት	-505
▁ያስ	-506
ደም	-507
▁ለአ	-508
▁ወር	-509
▁አደጋ	-510
▁መካከል	-511
ግብ	-512
ሩን	-513
ምር	-514
ቀው	-515
ባለ	-516
▁ሆነ	-517
ተን	-518
ላለ	-519
ያስ	-520
ጅት	-521
▁ግብ	-522
ቶችን	-523
ትል	-524
▁አው	-525
▁በፊት	-526
ችስተር	-527
on	-528
▁ውድ	-529
▁ሚኒስቴር	-530
▁ጀምሮ	-531
▁ጉዳይ	-532
▁8	-533
ርቲ	-534
▁ቡድን	-535
▁ዞን	-536
ናይት	-537
ወጣ	-538
ፍት	-539
▁ሺህ	-540
ገና	-541
ጥጥር	-542
ዘብ	-543
▁ብለዋል።	-544
....	-545
ንክ	-546
ሉ።	-547
ያቄ	-548
ጫዋ	-549
ክር	-550
ተዋል።	-551
ሩት	-552
▁ቁጥር	-553
▁ተከት	-554
▁ሊግ	-555
መው	-556
▁የሆነ	-557
▁ግለ	-558
ስራ	-559
ዲያ	-560
▁ተፈ	-561
▁ፕሮ	-562
▁ተከትሎ	-563
ንም	-564
ግራይ	-565
ክተር	-566
▁t	-567
▁ጉዳት	-568
▁የሀ	-569
ቀር	-570
▁ኢን	-571
▁ተወ	-572
▁ቃ	-573
▁ፈተና	-574
▁መግለጫ	-575
▁ከዚህ	-576
▁አሰልጣ	-577
▁ዙ	-578
▁ገልጸ	-579
▁ፕሬዝ	-580
ጠናቀ	-581
ሥት	-582
▁ጥያቄ	-583
▁ተቀ	-584
ለሁ	-585
ብስ	-586
▁የኮ	-587
ፈው	-588
ሉን	-589
ስር	-590
▁አመ	-591
▁ይፋ	-592
▁ችግር	-593
ም።	-594
ገቡ	-595
ጠው	-596
▁ቦታ	-597
▁ድጋ	-598
ክምና	-599
ገኘው	-600
▁በኢትዮጵያ	-601
ንጫ	-602
▁በነ	-603
▁ሚኒስትር	-604
▁ማህ	-605
ክስ	-606
▁ብዙ	-607
▁ተጨዋ	-608
▁ተሰ	-609
▁የግ	-610
▁'	-611
ማር	-612
▁ሪ	-613
ኖች	-614
▁ሁለት	-615
ላን	-616
▁መጠ	-617
ከት	-618
▁?	-619
▁አስተዳደር	-620
ኖር	-621
ናይትድ	-622
▁ያል	-623
▁ጣ	-624
▁ክፍል	-625
▁9	-626
▁እንዲያ	-627
▁ተጫዋ	-628
▁ለተ	-629
ሔራዊ	-630
ረም	-631
▁ልዩ	-632
ሸነ	-633
▁ወቅት	-634
ከተማ	-635
ኩል	-636
▁ሲያ	-637
▁ወይም	-638
ቧል።	-639
ላማ	-640
▁የኢ	-641
re	-642
▁ሥራ	-643
▁ዓመ	-644
ፉት	-645
▁በህ	-646
ምነት	-647
ረብ	-648
▁በወ	-649
/201	-650
በል	-651
ገደ	-652
▁በዓ	-653
19	-654
▁ውጤት	-655
▁ኃላፊ	-656
ገው	-657
▁አመት	-658
▁ኪ	-659
▁የትምህርት	-660
▁ተመ	-661
ህን	-662
ገራ	-663
ሯል።	-664
▁ከሚ	-665
▁እንደሆነ	-666
ia	-667
ዲዮ	-668
▁አት	-669
ምንት	-670
▁በም	-671
ቀጥ	-672
▁ስል	-673
ሪቱ	-674
▁ድረስ	-675
▁መሰረት	-676
ጠቃ	-677
▁ያሉ	-678
▁ሚሊዮን	-679
ቡብ	-680
▁ተነ	-681
▁ሂ	-682
▁10	-683
▁ይታወ	-684
▁ጦር	-685
ንዳ	-686
ብረት	-687
በው	-688
ድሞ	-689
ሳኔ	-690
▁የተሰ	-691
ሱን	-692
▁ቢሮ	-693
ክልሉ	-694
ረን	-695
▁ነጥ	-696
▁ጥቃት	-697
ሮና	-698
▁በሀ	-699
▁በቁ	-700
▁ተገልጿል።	-701
▁ቤተ	-702
ያዘ	-703
▁ነበር።	-704
ለቱ	-705
ማን	-706
000	-707
ንግስት	-708
▁ሮ	-709
ደን	-710
▁ፋ	-711
▁ድጋፍ	-712
▁ቫይ	-713
ጠት	-714
▁አሰልጣኝ	-715
ናው	-716
▁ሌሎች	-717
▁በተጨማሪ	-718
▁ነዋ	-719
▁የታ	-720
▁ለሚ	-721
▁ር	-722
▁ሙሉ	-723
ክለ	-724
ዶች	-725
ከርካ	-726
ከሰ	-727
▁የሚያስ	-728
▁በርካ	-729
▁ጠቅላይ	-730
▁ጭ	-731
ባይ	-732
en	-733
▁አስፈ	-734
▁ዩናይትድ	-735
▁20	-736
ሰው	-737
ደረግ	-738
ነሳ	-739
ብት	-740
▁ሀገር	-741
▁አይደ	-742
ራን	-743
▁በአዲስ	-744
ፈጸ	-745
ንጀል	-746
▁በው	-747
▁ዝግ	-748
▁የባ	-749
▁ክለብ	-750
▁ማዕ	-751
▁መቀ	-752
▁ሆኖ	-753
▁ሬ	-754
▁ሱ	-755
ቀት	-756
ጋት	-757
ጣይ	-758
▁ምንም	-759
ቂያ	-760
▁A	-761
▁አባላት	-762
▁ፕሬዝዳንት	-763
▁ማንችስተር	-764
ረጋገ	-765
▁ምርመራ	-766
ተኞች	-767
ደረገው	-768
▁አካላት	-769
▁ተቋማት	-770
▁ምክር	-771
▁የአዲስ	-772
▁ነው፡፡	-773
ዊው	-774
at	-775
መስ	-776
ሬት	-777
▁ለማስ	-778
ጡት	-779
ጨረ	-780
መረ	-781
▁አቀፍ	-782
▁ገን	-783
በራዊ	-784
▁ተግባ	-785
▁S	-786
▁የመጀመሪያ	-787
▁እድ	-788
ምፒ	-789
▁ጨምሮ	-790
▁ሲቲ	-791
▁ቡድ	-792
ገሪቱ	-793
▁ከእ	-794
==	-795
▁በቁጥጥር	-796
▁በኩል	-797
ጀት	-798
ባል	-799
▁ዜጎ	-800
ንግድ	-801
▁ገልጿል።	-802
ታደ	-803
ስተኛ	-804
ጠረ	-805
ድሪ	-806
ብራ	-807
▁ቀናት	-808
ሉም	-809
ችንን	-810
▁አመራ	-811
ፈፀ	-812
ጭት	-813
al	-814
ለች።	-815
▁ደር	-816
ግኘ	-817
▁ቤቱ	-818
▁ሳምንት	-819
▁ነገ	-820
▁የሚገኙ	-821
▁V	-822
▁ብሔራዊ	-823
or	-824
▁ማለ	-825
▁በየ	-826
▁ፓርቲ	-827
ኦሮ	-828
ፋት	-829
ቲክ	-830
ቾች	-831
▁ቤቶች	-832
▁ጽ	-833
▁ቶ	-834
▁ሐ	-835
▁በኮ	-836
ፌዴ	-837
▁የተለያዩ	-838
ከፍ	-839
ላንት	-840
ሙሉ	-841
▁ውሳኔ	-842
it	-843
▁ብሎ	-844
▁በርካታ	-845
▁ዋንጫ	-846
ሜን	-847
መጣ	-848
ይና	-849
ዳር	-850
ሽከርካ	-851
ልቅ	-852
ነቱ	-853
ያው	-854
ስፒ	-855
▁ገልፀ	-856
▁12	-857
ቡን	-858
▁ረ	-859
▁እንዳይ	-860
ሳተ	-861
▁ተደር	-862
▁ቻ	-863
ህል	-864
he	-865
ታል።	-866
▁የሆኑ	-867
ታወቀ	-868
▁በደ	-869
is	-870
▁የበ	-871
▁የደ	-872
▁T	-873
▁የነበሩ	-874
ኝነት	-875
▁ቫይረስ	-876
▁በበ	-877
ደት	-878
ግራም	-879
ሰባ	-880
ጠራ	-881
▁አቅር	-882
ከያ	-883
ሳብ	-884
ቀረ	-885
▁በሁ	-886
▁ከነ	-887
ንቲ	-888
ዛት	-889
ደርጉ	-890
▁ፍርድ	-891
ጣሪ	-892
የን	-893
▁፦	-894
ሰጥ	-895
▁አድ	-896
▁በመሆኑ	-897
ሞች	-898
ለተኛ	-899
▁ጥሪ	-900
ልጣን	-901
▁እንደሚያ	-902
▁ኩ	-903
ላው	-904
ጋራ	-905
ፈት	-906
▁በግ	-907
▁አለመ	-908
▁ተጨዋች	-909
ኑን	-910
▁በታ	-911
▁በሚል	-912
ምጃ	-913
ቲካ	-914
▁ፎ	-915
▁በመቶ	-916
ትር	-917
ስታ	-918
ጠቃላይ	-919
▁አስታውቋል።	-920
ዳጅ	-921
ከር	-922
▁ህይወት	-923
▁ነጥብ	-924
ችው	-925
ደራ	-926
▁ሸ	-927
ላሽ	-928
▁እንደነ	-929
▁ዕለት	-930
ከና	-931
▁ማሳ	-932
▁እነ	-933
▁ምርጫ	-934
▁አጋ	-935
▁C	-936
▁ገልጸዋል።	-937
ሮፓ	-938
▁በጥ	-939
▁እንደተ	-940
ሰን	-941
ደርግ	-942
▁አሸ	-943
▁ድርጅት	-944
ጨረሻ	-945
▁በሌ	-946
▁M	-947
▁ምንጭ	-948
▁አዳ	-949
መልክ	-950
ላክ	-951
መለከተ	-952
20	-953
▁አሳው	-954
ከታ	-955
ጆች	-956
ላቀ	-957
▁ሻ	-958
▁አቅ	-959
▁ሠ	-960
▁ይች	-961
▁ባንክ	-962
ርፍ	-963
ያዊ	-964
▁እንቅ	-965
ቨርፑ	-966
▁09	-967
▁ተጨማሪ	-968
▁ዳይ	-969
ርክ	-970
▁በጣ	-971
ላቸውን	-972
▁ሀገራት	-973
▁ፀ	-974
ንቀ	-975
▁ሰላም	-976
▁መድረ	-977
ልም	-978
ሊያ	-979
ካባቢ	-980
▁ተብሎ	-981
▁ድም	-982
▁የተባ	-983
▁ይህን	-984
▁ቴሌ	-985
el	-986
▁ሰራ	-987
▁በተለ	-988
▁ግለሰ	-989
ዛሬው	-990
ሙያ	-991
ሊዝ	-992
▁ከባ	-993
▁የፈ	-994
▁ዉ	-995
▁ጉዳዮች	-996
ከላከያ	-997
▁ችግ	-998
▁መሆና	-999
,000	-1000
ረጋግ	-1001
▁ያሉት	-1002
ራቸው	-1003
▁በተለያዩ	-1004
ላር	-1005
▁ዐ	-1006
▁ዴ	-1007
ቅድ	-1008
▁መንግሥት	-1009
▁አይደለም	-1010
ደበ	-1011
▁ቆይ	-1012
ገብ	-1013
ሀም	-1014
ላችሁ	-1015
ስቃ	-1016
▁ኃይ	-1017
▁ያሳ	-1018
▁እርምጃ	-1019
▁ልጅ	-1020
▁ኬ	-1021
▁ቪ	-1022
▁የዩ	-1023
ከናወ	-1024
▁በዚህም	-1025
▁በማድረግ	-1026
▁የካ	-1027
ያዙ	-1028
ልፍ	-1029
▁በድ	-1030
12	-1031
▁ጨዋታዎች	-1032
ልድ	-1033
▁ቃል	-1034
▁ዓለም	-1035
▁ዋጋ	-1036
▁ገንዘብ	-1037
ረሱ	-1038
▁አማ	-1039
ቨርፑል	-1040
▁የኤ	-1041
ውያን	-1042
!!	-1043
ቆጣ	-1044
▁ዳይሬ	-1045
▁መስመር	-1046
▁እጅ	-1047
▁ከሰ	-1048
ar	-1049
▁ፊ	-1050
▁የውጭ	-1051
ሪያል	-1052
▁ክር	-1053
▁11	-1054
ያይ	-1055
▁ግድ	-1056
▁ጋዜ	-1057
▁ድን	-1058
ማይ	-1059
ይይት	-1060
ችሉ	-1061
▁ዘግ	-1062
▁ይታወሳ	-1063
▁ሰጥ	-1064
▁ግንኙ	-1065
▁የስራ	-1066
ስፋ	-1067
▁ማድረግ	-1068
▁ጆ	-1069
ልሲ	-1070
ደባ	-1071
ፍራ	-1072
▁ያለውን	-1073
ስቃሴ	-1074
ግኘት	-1075
::	-1076
▁ግንባ	-1077
ቻቸው	-1078
▁ዘመ	-1079
▁ሆስፒ	-1080
▁እስካ	-1081
ou	-1082
▁E	-1083
▁ሊያ	-1084
▁የብ	-1085
ሬን	-1086
▁ህዝብ	-1087
▁በሆነ	-1088
▁ቢሆን	-1089
ለቲካ	-1090
▁በማለት	-1091
:00	-1092
▁መልዕ	-1093
▁ማድሪ	-1094
▁በር	-1095
ዕራ	-1096
ላጊ	-1097
▁አይነት	-1098
▁ምክትል	-1099
▁ይህንን	-1100
▁የአሜሪካ	-1101
▁ኮሚሽን	-1102
▁ስታ	-1103
50	-1104
ርሴ	-1105
ፈር	-1106
ፊያ	-1107
▁ሩ	-1108
es	-1109
▁የምት	-1110
▁እንግ	-1111
▁Via	-1112
▁መም	-1113
▁ኃይል	-1114
ዘር	-1115
▁ናቸው።	-1116
ያዝ	-1117
▁ዶላር	-1118
▁ምስ	-1119
▁እው	-1120
ቹን	-1121
ልን	-1122
▁አዋ	-1123
ሸነፍ	-1124
▁የጥ	-1125
ነጋ	-1126
ቼልሲ	-1127
ቀዋል።	-1128
▁ተብሏል።	-1129
▁ወረ	-1130
▁አፍሪካ	-1131
ኳን	-1132
▁ዜጎች	-1133
30	-1134
ጠቀም	-1135
▁ህግ	-1136
▁ግብር	-1137
ውው	-1138
ሚየር	-1139
ነር	-1140
መለስ	-1141
ቷል	-1142
▁በሙሉ	-1143
▁አትሌ	-1144
▁ባለስ	-1145
ፈልጋ	-1146
am	-1147
▁እንቅስቃሴ	-1148
ቻችን	-1149
ይወት	-1150
ሎጂ	-1151
ሁኑ	-1152
▁የሚል	-1153
ኪና	-1154
ወስ	-1155
በትን	-1156
▁ሁሉም	-1157
▁የጤና	-1158
ፌደ	-1159
▁ጤና	-1160
▁በዛሬው	-1161
▁ማለት	-1162
▁እንዳለ	-1163
▁አጥ	-1164
ሥራ	-1165
▁የተፈ	-1166
▁የፖ	-1167
ጠበቅ	-1168
ንደ	-1169
▁ይሆና	-1170
▁ይገባ	-1171
ናን	-1172
▁ምላሽ	-1173
ታይ	-1174
▁የፀ	-1175
▁ብሏል።	-1176
▁የነበረው	-1177
ዓለም	-1178
▁ሶስት	-1179
ርያ	-1180
ላንድ	-1181
▁የማይ	-1182
ኖሩ	-1183
ድድር	-1184
▁ዓመታት	-1185
▁ለማድረግ	-1186
ምት	-1187
▁የቀድሞ	-1188
▁ግንኙነት	-1189
ኛውም	-1190
▁በማስ	-1191
▁ወንጀል	-1192
ካም	-1193
▁አንዱ	-1194
▁እለት	-1195
▁ተገልጿ	-1196
▁አህ	-1197
▁በጣም	-1198
ካል	-1199
▁ዙሪያ	-1200
ናገ	-1201
▁ትራ	-1202
▁በቅር	-1203
ጠሩ	-1204
▁ተጫዋች	-1205
▁ባለሙያ	-1206
▁ባለፉት	-1207
▁አክ	-1208
▁ጣቢያ	-1209
▁P	-1210
▁መሳ	-1211
በቃ	-1212
▁ቤተሰ	-1213
ከራ	-1214
▁ወታደ	-1215
▁አየር	-1216
ic	-1217
▁19	-1218
▁የለም	-1219
▁በአንድ	-1220
በሌ	-1221
በያ	-1222
▁ወጣ	-1223
ዥን	-1224
የም	-1225
ኳስ	-1226
ይን	-1227
ፈለ	-1228
▁በፍ	-1229
ሃን	-1230
▁24	-1231
ሰሩ	-1232
ኦሮሚያ	-1233
▁እስካሁን	-1234
ሏል	-1235
▁አካል	-1236
▁እንድ	-1237
10	-1238
▁ቀደም	-1239
▁እንጂ	-1240
ዚያ	-1241
▁መመ	-1242
ሻሻ	-1243
▁እኔ	-1244
▁ጫ	-1245
▁መድ	-1246
▁ተናግረዋል፡፡	-1247
ቪድ	-1248
ላዊ	-1249
▁B	-1250
ሌክት	-1251
ሰናል	-1252
--------	-1253
▁ወራት	-1254
ቋል፡፡	-1255
▁F	-1256
▁ስብ	-1257
▁ማስተ	-1258
ቫህ	-1259
ቦት	-1260
ቆም	-1261
▁ቀር	-1262
ቅና	-1263
ከለ	-1264
▁የሕ	-1265
▁ስምምነት	-1266
▁ለእ	-1267
▁፡	-1268
ቱም	-1269
▁ውድድር	-1270
▁የሞ	-1271
ፌደራል	-1272
ዝገባ	-1273
▁ጌ	-1274
▁ነዋሪዎች	-1275
▁15	-1276
ታችን	-1277
▁መሪ	-1278
ረድ	-1279
▁ምሽ	-1280
▁በቀጣይ	-1281
▁መው	-1282
የው	-1283
▁የመንግስት	-1284
ቀመ	-1285
▁ስት	-1286
▁አስታወቀ	-1287
ሰር	-1288
▁ሄ	-1289
ከላከል	-1290
▁ድርጊ	-1291
ስቶ	-1292
ስጠት	-1293
25	-1294
ካይ	-1295
▁ከወ	-1296
▁ገብ	-1297
ባሳ	-1298
▁አራት	-1299
▁ጉባ	-1300
ዱስ	-1301
▁ከሆነ	-1302
ለጠ	-1303
▁ማድሪድ	-1304
▁ውጪ	-1305
▁ጠይ	-1306
ገንዘብ	-1307
ርሴሎ	-1308
▁መንገ	-1309
▁አካባቢዎች	-1310
▁ተጠር	-1311
▁ድርጅ	-1312
▁በዘ	-1313
ካባቢው	-1314
▁ምርጥ	-1315
▁ከማ	-1316
▁የገ	-1317
ጸጥታ	-1318
ስራት	-1319
▁የገለ	-1320
▁ቢሊ	-1321
ብስራት	-1322
ጫወ	-1323
ion	-1324
ቲት	-1325
ካሄድ	-1326
om	-1327
ደርስ	-1328
ልስ	-1329
▁ፅ	-1330
ከፍተኛ	-1331
▁ከባድ	-1332
ሞክ	-1333
ሳሳይ	-1334
▁ማድረ	-1335
▁የል	-1336
▁ከቀ	-1337
▁ዘመን	-1338
▁ተነግ	-1339
ልክ	-1340
ሰጣ	-1341
▁ሆስፒታል	-1342
▁ሰር	-1343
ላጎ	-1344
ትና	-1345
▁30	-1346
ውሮፓ	-1347
▁ዜና	-1348
ወቅ	-1349
ዋን	-1350
▁የደረሰ	-1351
▁አሜሪካ	-1352
▁ልማት	-1353
ድስት	-1354
▁ሊቨርፑል	-1355
et	-1356
▁እንደነበር	-1357
ደሩ	-1358
ህር	-1359
ዘው	-1360
▁የፍ	-1361
ቅረ	-1362
▁ሌላ	-1363
ጠየ	-1364
▁ጦርነት	-1365
▁በጉ	-1366
ቲክቫህ	-1367
▁ገለ	-1368
ክኖ	-1369
▁:-	-1370
▁አገ	-1371
▁ሆኗ	-1372
▁ባል	-1373
ላሉ	-1374
ኞቹ	-1375
ወጥ	-1376
ጣቂ	-1377
▁በሽ	-1378
▁የዋ	-1379
▁ሆነው	-1380
ዳማ	-1381
▁ሚዲያ	-1382
ራዊት	-1383
ማኖ	-1384
ሄራዊ	-1385
▁መብ	-1386
▁ግጭት	-1387
▁የምር	-1388
▁ሜዳ	-1389
ሳቀ	-1390
ጠቅ	-1391
▁ቱ	-1392
▁ይሄ	-1393
▁በተጨማሪም	-1394
ንግሊዝ	-1395
▁የሁ	-1396
ቃል።	-1397
▁ውይይት	-1398
ናዊ	-1399
ስቲያን	-1400
▁ቼልሲ	-1401
▁s	-1402
▁መኖ	-1403
ማቸው	-1404
▁እንዴ	-1405
▁ጥቅም	-1406
ንደር	-1407
ጋሚ	-1408
▁አድርጓ	-1409
▁እንኳን	-1410
▁ወጥ	-1411
ቀላቀ	-1412
▁የቆ	-1413
መዘ	-1414
▁ዙር	-1415
▁ተከሳ	-1416
ደበኛ	-1417
ህንነት	-1418
▁እኛ	-1419
▁መሆን	-1420
▁14	-1421
▁ለው	-1422
ብረተሰ	-1423
ዳታ	-1424
ሮፕ	-1425
▁w	-1426
▁አሁንም	-1427
▁የሊ	-1428
▁ፍላጎ	-1429
ቴሌ	-1430
ስተዳ	-1431
ሮችን	-1432
▁መተ	-1433
ሲያ	-1434
ሙን	-1435
ኒክ	-1436
▁እንዳል	-1437
ባቂ	-1438
▁ግለሰብ	-1439
ወር	-1440
ቪዥን	-1441
ይማኖ	-1442
▁ሰብ	-1443
▁መሳሪያ	-1444
▁የአፍሪካ	-1445
ብኝ	-1446
▁/	-1447
▁ገልፀዋል።	-1448
ናፊ	-1449
ዝር	-1450
▁የከተማ	-1451
▁ለብስራት	-1452
-0	-1453
በረሰብ	-1454
ኦን	-1455
ዘጋጀ	-1456
ጠብ	-1457
መቱ	-1458
ኬሽን	-1459
ሳቸው	-1460
ሌክትሪክ	-1461
ሽከርካሪ	-1462
ዉን	-1463
▁ኮሚቴ	-1464
ሷል።	-1465
▁በኃ	-1466
ing	-1467
▁የክልሉ	-1468
ካሄደ	-1469
▁ትላንት	-1470
ቻል	-1471
ጠኛ	-1472
▁መሠ	-1473
ቷል፡፡	-1474
▁ክት	-1475
ክኖሎጂ	-1476
ቃድ	-1477
ከታተ	-1478
ርሴሎና	-1479
▁ይገኛል።	-1480
መሰ	-1481
ገረ	-1482
ሬሽን	-1483
ተዋል	-1484
በዋል።	-1485
ጠይ	-1486
▁ወንድ	-1487
ሏል፡፡	-1488
ለዋል።	-1489
▁የሚሆኑ	-1490
ባሪ	-1491
ሰማ	-1492
▁አባል	-1493
▁ዶክተር	-1494
ሰት	-1495
ሶች	-1496
ጥሮ	-1497
▁አላ	-1498
▁አስተያ	-1499
ሶማ	-1500
ሚዎች	-1501
▁የድ	-1502
▁ቢሆንም	-1503
ዱን	-1504
▁አስፈላጊ	-1505
▁ጅ	-1506
▁ወይ	-1507
ጀር	-1508
▁ህዝ	-1509
▁c	-1510
▁ሥር	-1511
ቫይረሱ	-1512
ፉን	-1513
▁አገልግሎ	-1514
ድዮ	-1515
▁ምሽት	-1516
▁ሁለተኛ	-1517
▁ዕድ	-1518
▁ዳይሬክተር	-1519
ንድሮ	-1520
▁ገቢ	-1521
▁እንደማይ	-1522
▁መርሐ	-1523
ሰጡ	-1524
ጀመረ	-1525
▁የሌ	-1526
▁ጠቁ	-1527
▁ቀበሌ	-1528
▁አህመድ	-1529
▁ግለሰቦች	-1530
ሆናል	-1531
▁ጥሩ	-1532
▁መልኩ	-1533
ነሱ	-1534
ወሓ	-1535
▁በረ	-1536
▁የውድድር	-1537
▁ተስፋ	-1538
▁ይሆናል	-1539
ቀል	-1540
ብን	-1541
ኒቨርስቲ	-1542
ዕራብ	-1543
ህበራዊ	-1544
▁)	-1545
▁የዘ	-1546
▁የቀረ	-1547
▁አማራ	-1548
▁የምን	-1549
▁a	-1550
▁ከስ	-1551
ንቅ	-1552
ኒኬሽን	-1553
▁the	-1554
ed	-1555
ቅረብ	-1556
ቋረ	-1557
▁አያ	-1558
▁ጥረት	-1559
▁ሴት	-1560
▁ኤም	-1561
ከብ	-1562
▁ክፍለ	-1563
ቋቋ	-1564
▁የቻ	-1565
ወጣው	-1566
▁ወን	-1567
▁ባለው	-1568
▁ሳይሆን	-1569
▁ደን	-1570
▁የጦር	-1571
ጧል።	-1572
▁ንግ	-1573
▁ክፍያ	-1574
▁ኒ	-1575
▁ይታወሳል።	-1576
ኳይ	-1577
ቦችን	-1578
▁የፀጥታ	-1579
ስን	-1580
▁የሰላም	-1581
and	-1582
▁መፍት	-1583
ሄድ	-1584
ምህር	-1585
▁ህክምና	-1586
▁አመራሮች	-1587
ዓዊ	-1588
ቸኳይ	-1589
▁አምባሳ	-1590
-1	-1591
▁f	-1592
ብረተሰቡ	-1593
▁በመሆን	-1594
ቂቃ	-1595
ርቶ	-1596
በረው	-1597
▁የአማራ	-1598
ገናኛ	-1599
ፈልግ	-1600
▁መንግስ	-1601
▁ፒ	-1602
▁አምስት	-1603
ዋሳ	-1604
ናቸው	-1605
▁በጎ	-1606
▁አለም	-1607
ሱዳን	-1608
▁በይ	-1609
ገነ	-1610
▁13	-1611
▁የፊት	-1612
ደብ	-1613
ጀመር	-1614
▁ያላቸው	-1615
ያያዘ	-1616
▁ትኩ	-1617
ክሬን	-1618
ናንት	-1619
▁ሪፖርት	-1620
▁አርሰናል	-1621
ንግሥት	-1622
▁የሰው	-1623
▁ቅር	-1624
▁አፈ	-1625
ኮች	-1626
መለከ	-1627
▁ሴቶች	-1628
ንስፖርት	-1629
ጋቢ	-1630
▁ጁ	-1631
▁ዝር	-1632
ለቀ	-1633
ጀም	-1634
▁ባይ	-1635
ታወቂያ	-1636
▁ጉባኤ	-1637
▁ኮሚሽ	-1638
▁ተገኝ	-1639
▁የትግራይ	-1640
▁ለህ	-1641
ከፈ	-1642
ደኛ	-1643
ኮኖ	-1644
ዲሱ	-1645
▁ቋ	-1646
▁ጄ	-1647
ፖር	-1648
ላማዊ	-1649
▁ክስ	-1650
▁ተቃ	-1651
▁ዳር	-1652
▁በቅርቡ	-1653
▁b	-1654
▁የራ	-1655
ከረም	-1656
▁ተገ	-1657
▁ይሆናል።	-1658
▁ትልቅ	-1659
ወሓት	-1660
ውውር	-1661
▁በተመለከተ	-1662
ጉን	-1663
ፃሜ	-1664
▁ሂደት	-1665
▁መዋ	-1666
▁ነፃ	-1667
▁ታሪክ	-1668
▁በራ	-1669
▁የትራ	-1670
▁በዋ	-1671
▁ያህል	-1672
▁ኳስ	-1673
▁ሪያል	-1674
ካሄደው	-1675
▁ስጋት	-1676
ለማ	-1677
ምድ	-1678
ሎችን	-1679
ስቲያ	-1680
▁18	-1681
▁ስነ	-1682
▁ያልተ	-1683
ውል	-1684
መዋል።	-1685
▁ሻምፒ	-1686
il	-1687
▁ኮን	-1688
▁ንግድ	-1689
ከፋ	-1690
ቸዉን	-1691
▁ውጭ	-1692
▁የክ	-1693
▁ታጣቂ	-1694
ለን።	-1695
▁መሆናቸውን	-1696
ርስ	-1697
ኤስ	-1698
ችሁን	-1699
▁አሉ	-1700
ዘጋጅ	-1701
▁ይሁን	-1702
ሙት	-1703
▁መፈ	-1704
▁የፕ	-1705
ፋር	-1706
▁መግ	-1707
▁ሳይንስ	-1708
ac	-1709
▁ሚሊየን	-1710
▁አሳውቋል።	-1711
ወጡ	-1712
ውስ	-1713
ስራኤል	-1714
ተት	-1715
▁[	-1716
▁ነዉ	-1717
▁አሸናፊ	-1718
ገሩ	-1719
▁ለሁ	-1720
▁ግንባታ	-1721
ገባው	-1722
▁ዘግቧል።	-1723
ጋል	-1724
ረተ	-1725
ርሚየር	-1726
▁ተከታ	-1727
▁መጥ	-1728
▁ቢያ	-1729
▁በትግራይ	-1730
▁ተገልጿል	-1731
ልማት	-1732
በሩት	-1733
ለፍ	-1734
▁ጊ	-1735
▁በኮሮና	-1736
▁የህዝብ	-1737
▁ሚኒስትሩ	-1738
▁o	-1739
ጠናቀቅ	-1740
▁ስፍራ	-1741
▁በስም	-1742
▁አድርጎ	-1743
▁I	-1744
▁መታ	-1745
▁በሌላ	-1746
▁ጉዳዩ	-1747
▁ስብሰባ	-1748
▁ዝግጅት	-1749
▁መልዕክት	-1750
ቢሲ	-1751
ራር	-1752
▁የቤ	-1753
▁ካለ	-1754
ርትራ	-1755
▁አግ	-1756
▁አሳስ	-1757
▁እግር	-1758
▁መጠን	-1759
st	-1760
ፈልጉ	-1761
▁እጅግ	-1762
▁ባለፈው	-1763
ማሽ	-1764
▁D	-1765
▁ችሏል።	-1766
▁የዓለም	-1767
ራሲ	-1768
▁መብት	-1769
====	-1770
▁ስልጠና	-1771
▁‹	-1772
ላቅ	-1773
ነትን	-1774
▁17	-1775
ተዋል፡፡	-1776
ምፕ	-1777
ዘን	-1778
▁የጎ	-1779
▁በዓል	-1780
▁ምዝገባ	-1781
▁መከላከያ	-1782
▁መኪና	-1783
ኒያ	-1784
ኔት	-1785
ላል።	-1786
▁25	-1787
▁::	-1788
▁አጠቃላይ	-1789
▁ቀጥ	-1790
-19	-1791
ጥረት	-1792
▁መልካም	-1793
▁ጃ	-1794
▁ማር	-1795
▁አድርገ	-1796
ዳት	-1797
ደረጉት	-1798
▁ብለው	-1799
▁በአማራ	-1800
▁እንዴት	-1801
▁ሉ	-1802
▁ይዞ	-1803
ዳሚ	-1804
▁ስን	-1805
15	-1806
ፌዴራል	-1807
ንሲ	-1808
▁ደጋ	-1809
▁ሰራተኞች	-1810
24	-1811
ኛል	-1812
▁p	-1813
ንቲባ	-1814
▁ታው	-1815
▁ዘርፍ	-1816
ደግ	-1817
▁በኢ	-1818
▁ይህም	-1819
በብ	-1820
ነስ	-1821
ገለጸ	-1822
▁ፕሮግራም	-1823
▁ሬዲዮ	-1824
ቃል	-1825
▁ባን	-1826
▁ፎቶ	-1827
▁ሃላፊ	-1828
▁ነዋሪ	-1829
ግባት	-1830
▁አልተ	-1831
መለሱ	-1832
th	-1833
ሟል።	-1834
▁ምንጭ፦	-1835
▁ኡ	-1836
▁በበኩ	-1837
▁አንዳ	-1838
▁ባርሴሎና	-1839
▁ተሸ	-1840
▁ተጠቃ	-1841
ጋጠ	-1842
ለውን	-1843
››	-1844
▁የማን	-1845
ሯል	-1846
▁የህክምና	-1847
▁16	-1848
▁ተግባር	-1849
▁ማረ	-1850
ሰጠ	-1851
▁መዝ	-1852
▁ከም	-1853
ደባባይ	-1854
▁ኢንተር	-1855
▁አራ	-1856
▁ብሄራዊ	-1857
▁እንደሚገኝ	-1858
ዘግ	-1859
▁በባ	-1860
▁በብ	-1861
▁ካል	-1862
መም	-1863
ነግ	-1864
ንቀሳቀ	-1865
▁የግል	-1866
▁ኃይሎች	-1867
▁በዩ	-1868
▁በኃላ	-1869
▁ሎ	-1870
▁ደረጄ	-1871
▁በክልሉ	-1872
መጡ	-1873
ባቸውን	-1874
ቸዋል	-1875
ጠረው	-1876
▁ህገ	-1877
▁ደብ	-1878
▁ማዕከል	-1879
▁ከተሞች	-1880
ያቸው	-1881
ረጋገጥ	-1882
ሪስ	-1883
▁መረጃዎች	-1884
▁ከት	-1885
▁ወስ	-1886
ሰቡ	-1887
ግና	-1888
ነቱን	-1889
ቸዋል።	-1890
▁የሚገኘው	-1891
ፊዎች	-1892
▁ቴሌቪዥን	-1893
▁ዩኒቨርሲቲው	-1894
ላለፍ	-1895
▁የሰብ	-1896
▁ባለስልጣ	-1897
▁m	-1898
▁ፔ	-1899
▁በሕ	-1900
▁በከተማ	-1901
▁የሆነው	-1902
▁ፍላጎት	-1903
▁ፕሬዚ	-1904
▁‹‹	-1905
▁ሀላፊ	-1906
▁የንግድ	-1907
ቆጣጠር	-1908
▁ተነግሯል።	-1909
▁አምባሳደር	-1910
▁ቢሊዮን	-1911
▁አረጋግ	-1912
ሳው	-1913
ቃቤ	-1914
ናል።	-1915
▁፡፡	-1916
▁በተያያዘ	-1917
▁~	-1918
▁መደበኛ	-1919
▁እነዚህ	-1920
▁የኮሮና	-1921
ከበር	-1922
▁የሆኑት	-1923
▁የተነሳ	-1924
▁የገንዘብ	-1925
ቤቱ	-1926
▁ብራ	-1927
▁ሁለቱ	-1928
▁ሱዳን	-1929
ለኝ	-1930
▁በተለይ	-1931
▁*	-1932
▁የሚቆ	-1933
▁በቫይረሱ	-1934
▁ህፃ	-1935
ቁት	-1936
▁ሀይ	-1937
▁ቁጥጥር	-1938
▁ተደርጓ	-1939
gr	-1940
መዝ	-1941
ፎች	-1942
▁|	-1943
▁የሴ	-1944
▁ይመስ	-1945
ንቃ	-1946
ስቡ	-1947
ናይ	-1948
ወዳ	-1949
▁የላ	-1950
▁የሥራ	-1951
ፏል።	-1952
▁በይፋ	-1953
በራ	-1954
ገት	-1955
▁G	-1956
▁R	-1957
▁ቅሬ	-1958
▁ብለዋል፡፡	-1959
▁መሠረት	-1960
ቢይ	-1961
▁ተያይ	-1962
ባብ	-1963
▁ዘር	-1964
▁ይጠበ	-1965
ሞት	-1966
ቷን	-1967
▁ቴክኖሎጂ	-1968
▁ርዕ	-1969
ገራችን	-1970
▁ወጣቶች	-1971
▁ኢንስ	-1972
▁ደህንነት	-1973
▁መነ	-1974
▁በመተ	-1975
ማስ	-1976
▁ቅድ	-1977
▁ዩኒቨርስቲ	-1978
▁አውሮፕ	-1979
ለውም	-1980
ሰተኛ	-1981
▁ቡድኑ	-1982
▁የምግብ	-1983
▁እንደሚችል	-1984
ኬት	-1985
ጠል	-1986
▁ሜትር	-1987
▁የጸጥታ	-1988
▁ያደረገ	-1989
▁ማሸነፍ	-1990
ጮች	-1991
▁በል	-1992
▁አድራ	-1993
▁ትኩረት	-1994
▁በሊ	-1995
▁በጋራ	-1996
ent	-1997
▁መለ	-1998
▁በጀት	-1999
ሊጋ	-2000
▁ባለሙያዎች	-2001
ሻለ	-2002
ጋዊ	-2003
▁ዉስጥ	-2004
ol	-2005
ጅም	-2006
13	-2007
ሳስ	-2008
ድብ	-2009
ረፍ	-2010
▁W	-2011
▁ድል	-2012
▁ቲ	-2013
▁ነጋ	-2014
ረንሳይ	-2015
▁ንብረት	-2016
ኞችን	-2017
▁አማካ	-2018
▁ህብረት	-2019
▁ተማሪዎችን	-2020
ሬዳ	-2021
▁ትክ	-2022
▁ለመፍ	-2023
▁ባለመ	-2024
▁የተወሰ	-2025
ምረ	-2026
ስቱ	-2027
ጠዋል።	-2028
ቀርብ	-2029
▁ቅዱስ	-2030
ሽከርካሪዎች	-2031
▁ከታ	-2032
ይማኖት	-2033
▁ምግብ	-2034
▁በሚያ	-2035
▁ስድስት	-2036
ልያ	-2037
ክሲ	-2038
ያዛ	-2039
ግሪ	-2040
▁ትን	-2041
▁የፖለቲካ	-2042
ላችን	-2043
ሙስ	-2044
▁መቶ	-2045
አት	-2046
▁22	-2047
▁አረ	-2048
▁ከንቲባ	-2049
ሰበ	-2050
ቁን	-2051
ዋት	-2052
ግን	-2053
ስራቅ	-2054
▁ፕሮጀ	-2055
▁በአሁኑ	-2056
▁የአውሮፓ	-2057
ቋል	-2058
ዳቸው	-2059
▁ከሁ	-2060
▁ፊት	-2061
▁በስምኦን	-2062
ንካ	-2063
▁ከሌ	-2064
▁and	-2065
ሳቢ	-2066
ካዮች	-2067
▁ዓይ	-2068
▁ከበ	-2069
▁ስልክ	-2070
▁አመታት	-2071
▁የተባለ	-2072
▁ዐቢይ	-2073
▁ቤተሰብ	-2074
ዚሁ	-2075
ዳሜ	-2076
▁of	-2077
▁ፕሪ	-2078
ምሌ	-2079
ኮኖሚ	-2080
▁ጥር	-2081
ተሰብ	-2082
ርሽ	-2083
▁ፌ	-2084
▁ተቋም	-2085
▁መስጠት	-2086
▁የእንግሊዝ	-2087
ርማ	-2088
▁1.	-2089
▁መቆ	-2090
▁ተጋ	-2091
ቀበል	-2092
▁ስሜ	-2093
▁ማስረጃ	-2094
ኩስ	-2095
ሶስት	-2096
▁አስረድ	-2097
▁የቡ	-2098
ደጋጋሚ	-2099
▁ኢትዮጵያዊ	-2100
ለመ	-2101
ዩት	-2102
▁ወጪ	-2103
▁በተመ	-2104
▁በመግለ	-2105
ማማ	-2106
ጭር	-2107
▁ጥቃ	-2108
▁፥	-2109
ሬዳዋ	-2110
በሪያ	-2111
▁አስራ	-2112
ደርጋ	-2113
ጥነት	-2114
▁በጋ	-2115
▁እየተደረገ	-2116
ክለቡ	-2117
ኮም	-2118
ድሩ	-2119
ፈራ	-2120
ባንያ	-2121
▁ማኅ	-2122
▁ሊቀ	-2123
▁የሽ	-2124
▁መፍትሄ	-2125
ኩት	-2126
ጀንሲ	-2127
▁በደረሰ	-2128
ለጋ	-2129
ሰድ	-2130
▁O	-2131
▁ደቂቃ	-2132
ዳቤ	-2133
▁አመራር	-2134
ደረጃ	-2135
▁ከሀ	-2136
ሳቸውን	-2137
▁በሰጡት	-2138
ቆጥ	-2139
ቴል	-2140
▁በደቡብ	-2141
▁ቡና	-2142
▁ንግግር	-2143
22	-2144
ሱት	-2145
ውም	-2146
▁d	-2147
▁in	-2148
▁በሽታ	-2149
▁በአጠቃላይ	-2150
▁አቅም	-2151
ዛዝ	-2152
ኒት	-2153
ደገ	-2154
ቆማ	-2155
የንስ	-2156
▁ደቡብ	-2157
▁ዝርዝር	-2158
▁አደባባይ	-2159
ላስ	-2160
ዳሪ	-2161
▁ተደም	-2162
▁ስፔ	-2163
▁የጉ	-2164
▁የአለም	-2165
ክሮ	-2166
ጠኝ	-2167
▁ከላይ	-2168
▁ይገኛል	-2169
ፊክ	-2170
▁ተሳ	-2171
▁ወገ	-2172
ታል፡፡	-2173
▁ፍቅር	-2174
▁ሰዎችን	-2175
▁L	-2176
▁ተዋ	-2177
▁ነኝ	-2178
▁ተናግሯል።	-2179
op	-2180
▁የፓ	-2181
ባር	-2182
ቶን	-2183
▁ቆይታ	-2184
▁መምሪያ	-2185
ግል	-2186
▁አቋ	-2187
▁ድምፅ	-2188
▁ተጠርጣሪ	-2189
መንት	-2190
▁ለም	-2191
ምሩ	-2192
ቶቹ	-2193
አዊ	-2194
▁N	-2195
▁ለማግኘት	-2196
ባበር	-2197
▁መምህ	-2198
▁አስቀ	-2199
▁ክልሎች	-2200
11	-2201
ጹት	-2202
▁23	-2203
▁50	-2204
▁...	-2205
▁ተደርጎ	-2206
ሁድ	-2207
ሬዝ	-2208
▁H	-2209
ሰጠው	-2210
▁ተመል	-2211
▁ትናንት	-2212
▁ኖ	-2213
▁ስለሚ	-2214
▁ለመስጠት	-2215
▁ድርጅቶች	-2216
▁ኑ	-2217
▁የፌደራል	-2218
▁ዮ	-2219
ስቡክ	-2220
ቂት	-2221
ጫው	-2222
▁+	-2223
ግም	-2224
ጠፋ	-2225
ገለፀ	-2226
ፖሊስ	-2227
ቻቸውን	-2228
▁መስከረም	-2229
ቐለ	-2230
▁ለምን	-2231
▁በቤ	-2232
▁21	-2233
ጠቅላይ	-2234
▁በታች	-2235
▁ተፈና	-2236
▁ጥቅምት	-2237
ፈን	-2238
ንቃቄ	-2239
ማሪዎች	-2240
ህፈት	-2241
ከባቢ	-2242
▁መደረጉ	-2243
us	-2244
ስስር	-2245
▁እርዳታ	-2246
ሔር	-2247
ታማ	-2248
▁መመሪያ	-2249
▁አስተያየት	-2250
▁የሚያስችል	-2251
ጫወት	-2252
ሦስት	-2253
ay	-2254
ሊት	-2255
▁ተወካዮች	-2256
le	-2257
ኔል	-2258
ውጣት	-2259
▁አንዳንድ	-2260
ካት	-2261
▁ለወ	-2262
ዝም	-2263
ሊያን	-2264
▁እድል	-2265
▁የዩኒቨርሲቲ	-2266
ቱት	-2267
▁ጸ	-2268
▁ያገኘ	-2269
▁J	-2270
▁መሀ	-2271
መሩ	-2272
▁ቅሬታ	-2273
▁ከጥ	-2274
▁ልጆች	-2275
▁አለበት	-2276
▁ይችላል	-2277
ir	-2278
▁ተዘግ	-2279
ባዊ	-2280
▁ክትትል	-2281
▁የእሳት	-2282
ተንሀም	-2283
▁ኢትዮ	-2284
▁እስራ	-2285
ik	-2286
ልት	-2287
ኪያ	-2288
▁ተይ	-2289
ሱም	-2290
▁የጋራ	-2291
ንቋ	-2292
▁የሃ	-2293
▁መያዛ	-2294
▁አገር	-2295
ation	-2296
▁....	-2297
▁ወታደራዊ	-2298
23	-2299
▁በፈ	-2300
▁መጀመ	-2301
▁እንዲህ	-2302
▁የመጨረሻ	-2303
▁ወጣት	-2304
▁አመልክ	-2305
▁በኤ	-2306
▁አዋጅ	-2307
▁ባወጣው	-2308
▁የአንድ	-2309
▁ሹ	-2310
▁አፍ	-2311
▁ወንጀ	-2312
ሳተፉ	-2313
▁እጥረት	-2314
▁ከህ	-2315
▁ማህበር	-2316
ላላ	-2317
ቀጥል	-2318
▁ግል	-2319
▁ዘንድ	-2320
▁ፕርሚየር	-2321
ታር	-2322
ዎቹን	-2323
▁ልክ	-2324
▁ተጠና	-2325
▁ይገባል	-2326
__	-2327
ጋቢት	-2328
▁የአየር	-2329
ሰዋል።	-2330
▁የማስ	-2331
▁ተግባራዊ	-2332
▁ማህበረሰብ	-2333
▁ፍፃሜ	-2334
▁በተለይም	-2335
▁መሸ	-2336
▁ለዚህ	-2337
ላቂ	-2338
▁ካር	-2339
ዱት	-2340
ፃሚ	-2341
▁ጓ	-2342
ለዋል	-2343
▁26	-2344
▁ቅዳሜ	-2345
as	-2346
▁ቫ	-2347
ሉ፡፡	-2348
ረፍት	-2349
▁የለ	-2350
ot	-2351
▁ብዬ	-2352
▁ናት	-2353
▁መወሰ	-2354
▁መኖሪያ	-2355
▁መና	-2356
▁ውሃ	-2357
▁ገበያ	-2358
▁በተመሳሳይ	-2359
ናብ	-2360
ኤስጂ	-2361
▁በሰላም	-2362
ዳጊ	-2363
▁ጉዞ	-2364
▁ለውጥ	-2365
▁ስለሆነ	-2366
▁የደቡብ	-2367
▁ከደ	-2368
▁ለማሳ	-2369
▁በወቅ	-2370
▁ትምህር	-2371
▁ትስስር	-2372
▁በከፍተኛ	-2373
18	-2374
▁የዝ	-2375
▁የኢን	-2376
▁የሀገሪቱ	-2377
የሁ	-2378
ጣል	-2379
ጠቀሙ	-2380
▁ማግኘት	-2381
ክተ	-2382
ረዳት	-2383
▁ትዕ	-2384
▁የካቲት	-2385
▁በሳ	-2386
▁አዲሱ	-2387
▁የማንችስተር	-2388
በላ	-2389
▁ቦርድ	-2390
▁የሀገር	-2391
▁ዩኒቨርሲቲዎች	-2392
ቀረቡ	-2393
▁ወል	-2394
▁ግራ	-2395
▁ክለቦች	-2396
ተናገ	-2397
▁ፍት	-2398
▁አጠና	-2399
▁የሚፈ	-2400
▁ከአንድ	-2401
▁ኢትዮጵያውያን	-2402
ራሽ	-2403
▁የሲ	-2404
▁የኦ	-2405
▁+25	-2406
▁ችሎት	-2407
▁2016	-2408
▁ኤጀንሲ	-2409
▁ባለስልጣናት	-2410
ላትን	-2411
ኬንያ	-2412
▁27	-2413
▁አስታውቋል፡፡	-2414
ም፣	-2415
ዲህ	-2416
gram	-2417
ነታቸው	-2418
▁በቂ	-2419
▁ዋናው	-2420
▁ኩባንያ	-2421
▁√	-2422
መልከት	-2423
▁ቦታዎች	-2424
▁እየሰራ	-2425
▁ከኢትዮጵያ	-2426
ቡር	-2427
ዳዩ	-2428
▁ዲግሪ	-2429
▁ዌ	-2430
▁እራ	-2431
▁እንድት	-2432
▁28	-2433
▁ስቴ	-2434
▁ፈቃድ	-2435
ዘዋ	-2436
ስትሪ	-2437
▁አብይ	-2438
▁ሰላማዊ	-2439
▁ማክ	-2440
▁ወላ	-2441
▁ሆኗል	-2442
▁ተመራ	-2443
▁ተገቢ	-2444
ጋሪ	-2445
▁ያሳያ	-2446
▁ኮሌ	-2447
▁ጀር	-2448
▁ባለቤት	-2449
ዎን	-2450
▁መፅ	-2451
▁ሰነ	-2452
ፈረ	-2453
▁ነጻ	-2454
▁ሙከራ	-2455
▁በኦሮሚያ	-2456
▁ተሽከርካሪ	-2457
ur	-2458
ስል	-2459
ደሰ	-2460
ጡን	-2461
▁ሰኔ	-2462
▁ሰን	-2463
▁አስተዳደሩ	-2464
▁y	-2465
▁«	-2466
ምረው	-2467
ፈጸመ	-2468
▁ህይወታቸው	-2469
አብ	-2470
ጓዝ	-2471
▁2.	-2472
▁የቅ	-2473
ስቸኳይ	-2474
▁ህጻ	-2475
▁አደ	-2476
▁የዲ	-2477
ሩሲያ	-2478
▁ተሰም	-2479
▁የቴሌ	-2480
▁ሽልማት	-2481
ባሲ	-2482
ዳሴ	-2483
ም፡፡	-2484
▁ቤተሰቦ	-2485
▁እንደተናገ	-2486
:-	-2487
▁ቀጠ	-2488
▁ከው	-2489
ነኛ	-2490
ጋና	-2491
▁ሼ	-2492
▁ተጠቃሚ	-2493
▁ደብዳቤ	-2494
oin	-2495
ፎርድ	-2496
▁ስታዲ	-2497
▁የተከሰ	-2498
▁እንዲሆን	-2499
ክልል	-2500
▁ውል	-2501
ሠራ	-2502
ከናወን	-2503
em	-2504
ቀበ	-2505
ዜማ	-2506
ደረጋ	-2507
▁ማጣ	-2508
▁በአካባቢው	-2509
ባሉ	-2510
▁ቀጣይ	-2511
▁ክርስቲያን	-2512
ማቸውን	-2513
▁የቤት	-2514
ሞን	-2515
ንፈ	-2516
ፐር	-2517
▁ደም	-2518
▁ዝግጁ	-2519
▁መስተዳ	-2520
▁ወረርሽ	-2521
▁አዛ	-2522
ልኝ	-2523
ካሂ	-2524
▁የወጣ	-2525
▁ችግሮች	-2526
ቆጠር	-2527
▁ቻና	-2528
▁ኪሎ	-2529
ሳኝ	-2530
ገበ	-2531
▁ባሉ	-2532
ደርገው	-2533
▁ጥቆማ	-2534
14	-2535
ረቃ	-2536
ከረ	-2537
▁29	-2538
▁to	-2539
▁አስከ	-2540
▁የተያዙ	-2541
▁አድርጓል።	-2542
▁ተራ	-2543
▁ኤፍ	-2544
▁100	-2545
▁መግባ	-2546
▁እናት	-2547
▁ድርጊት	-2548
▁በመጠቀም	-2549
▁ይገኛሉ።	-2550
ያንዳን	-2551
▁መሬት	-2552
▁ሚላን	-2553
▁ምርት	-2554
▁በተፈ	-2555
▁ታጣቂዎች	-2556
ንታ	-2557
ድሮ	-2558
▁ሀሳብ	-2559
▁ሕዝብ	-2560
▁በዓለም	-2561
ቀርቡ	-2562
▁በቅ	-2563
ሸን	-2564
ንጉ	-2565
ያት	-2566
▁ተች	-2567
▁ሃይል	-2568
▁እንደሚገኙ	-2569
ገዛ	-2570
ጠቁ	-2571
ስትና	-2572
▁ላለ	-2573
▁ግዛት	-2574
▁በሁሉም	-2575
▁አስመልክ	-2576
ሰል	-2577
ገዳ	-2578
ፁም	-2579
▁ሬድዮ	-2580
▁ሮናል	-2581
▁ባለስልጣን	-2582
▁የቀረበ	-2583
ላይታ	-2584
ንስት	-2585
▁ልም	-2586
▁ዓመቱ	-2587
▁ስርዓት	-2588
▁እንደሌ	-2589
▁ኮንት	-2590
▁ትክክለ	-2591
ንቱ	-2592
▁ጋዜጠኛ	-2593
▁ደስ	-2594
▁ደንበ	-2595
▁በሀገሪቱ	-2596
▁ገልጸዋል፡፡	-2597
ec	-2598
ሜዳ	-2599
ያቂ	-2600
▁መፍ	-2601
▁እስራኤል	-2602
ሊን	-2603
▁ተለ	-2604
▁መጨረሻ	-2605
ለህ	-2606
▁ለበ	-2607
▁ሜሲ	-2608
▁እግ	-2609
ሞክራሲ	-2610
ራቸውን	-2611
ረር	-2612
ብብር	-2613
▁ባህር	-2614
▁ፕሬዚዳንት	-2615
▁ደሞ	-2616
▁ጋዜጣ	-2617
▁መገናኛ	-2618
▁ሰራዊት	-2619
▁ክፍሎች	-2620
▁ለመከላከል	-2621
60	-2622
ub	-2623
ዲት	-2624
▁ቁጥ	-2625
▁እየተሰራ	-2626
ይይ	-2627
▁በክ	-2628
ለች፡፡	-2629
▁ሆቴል	-2630
▁የመንግሥት	-2631
ad	-2632
ረዳው	-2633
▁ትች	-2634
▁በሚገኘው	-2635
▁ተጫዋቾች	-2636
ናቀ	-2637
ሰቢያ	-2638
▁የፋ	-2639
▁ጠባቂ	-2640
▁ጥናት	-2641
▁መስሪያ	-2642
▁በመቀ	-2643
▁መልዕክ	-2644
▁ስራዎች	-2645
▁አስታወቀ።	-2646
ድያ	-2647
▁መገደ	-2648
▁ስለመ	-2649
▁ይደው	-2650
▁በትላንት	-2651
▁የኦሮሚያ	-2652
ሌት	-2653
ቻሉ	-2654
ዞኑ	-2655
ደል	-2656
▁በቦ	-2657
▁የወንጀል	-2658
▁ልጆ	-2659
▁የመጣ	-2660
▁እንደተናገሩት	-2661
ናሽ	-2662
▁ዱ	-2663
▁ትር	-2664
▁ግቢ	-2665
▁ትግራይ	-2666
ልማ	-2667
ጊያ	-2668
ለያየ	-2669
▁እንዳስ	-2670
▁በማህበራዊ	-2671
ርቅ	-2672
ውሞ	-2673
▁እሁድ	-2674
▁መሆናቸው	-2675
ሾች	-2676
ኛውን	-2677
▁ብል	-2678
ቶሪ	-2679
▁ኤር	-2680
ምንታት	-2681
▁አስተላል	-2682
▁ህብረተሰቡ	-2683
ማው	-2684
ይቶ	-2685
ፍና	-2686
▁እየተካሄደ	-2687
**	-2688
64	-2689
▁ህን	-2690
▁ሰለ	-2691
▁ዘገባ	-2692
▁ተከሳሽ	-2693
▁ክርስቲያ	-2694
▁ለኢትዮጵያ	-2695
ለሁ።	-2696
▁አለው	-2697
▁2015	-2698
▁ቤተክር	-2699
▁በተደጋጋሚ	-2700
ቀረበ	-2701
ፈረም	-2702
▁ሆኖም	-2703
▁የተባለው	-2704
ጣኝ	-2705
ኖረው	-2706
▁ሰባት	-2707
▁ይሰጣ	-2708
▁እስራት	-2709
▁በመጀመሪያ	-2710
▁ቅጣት	-2711
▁ቤተሰቦች	-2712
▁የተደረገ	-2713
▁ምል	-2714
▁ማሻሻ	-2715
ራረ	-2716
ራዘ	-2717
ገነባ	-2718
▁አትሌት	-2719
▁የፊ	-2720
▁የምታ	-2721
▁ጥበቃ	-2722
▁ቶተንሀም	-2723
27	-2724
▁ግቦች	-2725
ዝግ	-2726
ናዊው	-2727
▁መኮ	-2728
▁ዘመቻ	-2729
▁°	-2730
ቅድመ	-2731
▁መጨ	-2732
▁መጽ	-2733
▁ሙኒክ	-2734
▁ቋንቋ	-2735
▁ግድያ	-2736
▁+2519	-2737
:30	-2738
▁አቡ	-2739
ቧል፡፡	-2740
▁ሕይወት	-2741
▁ተሳት	-2742
▁ከአዲስ	-2743
/2016	-2744
▁የነበረውን	-2745
ኦሮሞ	-2746
▁ከሚያ	-2747
▁ተረጋግ	-2748
ወያ	-2749
ጀምር	-2750
▁ግድብ	-2751
▁በሚገኙ	-2752
▁ማንኛውም	-2753
oo	-2754
ምቤ	-2755
ጨት	-2756
ጄሪያ	-2757
▁ማም	-2758
▁የቦ	-2759
▁የጋ	-2760
▁አቅራ	-2761
▁በአሜሪካ	-2762
▁ወረዳዎች	-2763
ቁም	-2764
ele	-2765
▁200	-2766
▁የጨዋታ	-2767
ሟል	-2768
ራይ	-2769
▁ጥላ	-2770
▁ተመሳሳይ	-2771
▁የኤሌክትሪክ	-2772
የአ	-2773
ሽታው	-2774
▁የሚለው	-2775
ማሩ	-2776
▁ሂደ	-2777
▁ብላ	-2778
▁ዓይነት	-2779
▁ዝውውር	-2780
▁የተገኘ	-2781
iv	-2782
ክቶ	-2783
▁ሠራ	-2784
▁አልባ	-2785
▁ተጠቁ	-2786
▁እንዲፈ	-2787
▁የመሬት	-2788
▁ግንቦት	-2789
▁በአፍሪካ	-2790
ቻለ	-2791
መለከት	-2792
▁ቀጠሮ	-2793
▁በማን	-2794
▁ነገሮች	-2795
▁የተናገ	-2796
ብሪካ	-2797
▁ፖሊ	-2798
▁ባየር	-2799
▁እንደሚገባ	-2800
40	-2801
ha	-2802
ጣዩ	-2803
▁ፈር	-2804
ፌሰር	-2805
▁ለብ	-2806
▁መገኘ	-2807
▁ሮናልዶ	-2808
▁ስለዚህ	-2809
▁ስታዲየም	-2810
ናና	-2811
ንተ	-2812
ድረስ	-2813
▁የመከላከያ	-2814
id	-2815
ላቁ	-2816
ነህ	-2817
ዮር	-2818
▁አግኝ	-2819
▁ገልጿ	-2820
▁በሌሎች	-2821
▁አስተዋ	-2822
▁ሃይ	-2823
▁የተመ	-2824
▁የሚታወ	-2825
▁ተብሏል፡፡	-2826
ሊክ	-2827
▁ሀይል	-2828
▁ማብራ	-2829
▁ኬንያ	-2830
ነዚህ	-2831
▁ሰም	-2832
▁መንገዶች	-2833
▁የፌዴራል	-2834
▁ህመም	-2835
▁እድሜ	-2836
▁ብስራት	-2837
▁መምህራን	-2838
▁ሞት	-2839
▁አለማ	-2840
.....	-2841
▁ይታወቃል።	-2842
ሳካ	-2843
ታዉ	-2844
ገስ	-2845
▁ኅ	-2846
▁3.	-2847
▁ይዘ	-2848
ያጭ	-2849
▁ኔ	-2850
ፈፀመ	-2851
▁you	-2852
▁የእስራኤል	-2853
ig	-2854
ሰስ	-2855
ቂቅ	-2856
▁መክ	-2857
ቅርታ	-2858
▁የቴ	-2859
▁ተጠቅ	-2860
▁ጥንቃቄ	-2861
▁የመጀመሪያው	-2862
ጋይ	-2863
▁አስመልክቶ	-2864
▁ለሀ	-2865
▁በምር	-2866
▁መድረክ	-2867
▁ራዲዮ	-2868
▁የሶማ	-2869
▁መንግስታት	-2870
ጠን	-2871
ጥቅ	-2872
▁ሚል	-2873
▁ሸዋ	-2874
ገራቸው	-2875
▁የግብ	-2876
▁ሻምፒየንስ	-2877
BC	-2878
ከሉ	-2879
ገገ	-2880
ደርሱ	-2881
▁ስላ	-2882
▁አስፈፃሚ	-2883
ሽኑ	-2884
ፁት	-2885
▁U	-2886
ኖሪያ	-2887
ግባብ	-2888
ጠኞች	-2889
▁ለቀ	-2890
▁በሃ	-2891
ጣሪዎች	-2892
▁ሲሆኑ	-2893
▁ተሳታ	-2894
▁ቢያንስ	-2895
▁አረቢያ	-2896
▁የተሰኘ	-2897
▁ወረርሽኝ	-2898
▁ነበር፡፡	-2899
▁እያደረገ	-2900
ow	-2901
ናግ	-2902
ጎች	-2903
▁ጆር	-2904
▁በተደረገ	-2905
ቁር	-2906
▁ጂ	-2907
በታል።	-2908
▁ተወስ	-2909
▁አዘጋጅ	-2910
▁የሰሜን	-2911
▁ማህበራዊ	-2912
ታን	-2913
ምስት	-2914
ስተዋ	-2915
▁ጉዳዩን	-2916
▁እንደገለ	-2917
35	-2918
ፍን	-2919
ዳንቱ	-2920
▁የዕ	-2921
▁ያላ	-2922
▁መስራት	-2923
▁ስፖርት	-2924
▁ጎንደር	-2925
▁ለመፍታት	-2926
ሻል	-2927
▁ሰልፍ	-2928
▁ስርዓ	-2929
▁ቀላል	-2930
▁ከዚያ	-2931
ትስ	-2932
ጻሚ	-2933
▁ጳ	-2934
መለከተው	-2935
ብረተሰብ	-2936
▁አስታውቀዋል።	-2937
▁ዛ	-2938
ንካራ	-2939
ጋንዳ	-2940
▁እንደሚያስ	-2941
ዊት	-2942
ጊዜው	-2943
▁ሰዓ	-2944
▁የሚገ	-2945
▁መጋቢት	-2946
▁ቡድኖች	-2947
ካተ	-2948
▁ኦሮ	-2949
▁ዕድል	-2950
ቪል	-2951
200	-2952
▁ካሳ	-2953
▁ስምንት	-2954
▁ይደውሉ	-2955
▁ለመጀመሪያ	-2956
▁ትራንስፖርት	-2957
un	-2958
ካን	-2959
ፏል	-2960
▁ሊጉ	-2961
ሯል፡፡	-2962
▁ባለሥ	-2963
▁l	-2964
▁ጀም	-2965
▁ገደ	-2966
▁ተሰጥ	-2967
▁ተከታታይ	-2968
ሐል	-2969
ጥም	-2970
ሳተፍ	-2971
ጠናቀቀ	-2972
ንባ	-2973
ጣጫ	-2974
▁40	-2975
▁2014	-2976
▁ጨዋታውን	-2977
ካታ	-2978
ጊስ	-2979
ጣሚ	-2980
ከላዊ	-2981
ጠበቀ	-2982
▁የተቀ	-2983
▁ዳግም	-2984
▁ጭማሪ	-2985
ባለው	-2986
▁ዝቅ	-2987
▁መልስ	-2988
▁መነሻ	-2989
▁አድራሻ	-2990
▁ያደረጉ	-2991
ባይል	-2992
▁ካም	-2993
▁የዜ	-2994
ጀርመን	-2995
▁ደስታ	-2996
17	-2997
ላህ	-2998
ቋቋም	-2999
ደረሱ	-3000
▁ተከላ	-3001
▁መንግሥ	-3002
▁ታዳጊ	-3003
▁የተለ	-3004
▁የነበሩት	-3005
45	-3006
ሄዱ	-3007
ሮን	-3008
ባበ	-3009
▁እቃ	-3010
▁የዓ	-3011
▁ማብራሪያ	-3012
▁የሚያደርጉ	-3013
ሚን	-3014
ሳቁ	-3015
ፔን	-3016
▁በን	-3017
▁ደብረ	-3018
/2015	-3019
▁የሰብዓዊ	-3020
▁የተባበሩት	-3021
ውና	-3022
ገባት	-3023
ፈጸም	-3024
▁ሕግ	-3025
▁ከብ	-3026
▁ሶስተኛ	-3027
▁በቀጥታ	-3028
▁በመሆኑም	-3029
-2	-3030
▁ቀሪ	-3031
ይናንስ	-3032
▁ኮማን	-3033
▁አድርገው	-3034
▁ማስታወቂያ	-3035
▁ደመ	-3036
▁ሚንስት	-3037
▁አቅጣጫ	-3038
▁ጨምረው	-3039
▁መያዛቸው	-3040
▁መተግ	-3041
▁ሆኗል።	-3042
▁እምነት	-3043
ለጥ	-3044
▁ተመልክ	-3045
▁እስኪ	-3046
▁የመግ	-3047
▁ይዘው	-3048
▁የነዳጅ	-3049
ro	-3050
ሲል	-3051
▁ድምጽ	-3052
▁የለም።	-3053
▁የተሻለ	-3054
▁ጠቁመዋል።	-3055
ማል	-3056
ሪን	-3057
▁ገብረ	-3058
▁በሁለት	-3059
▁ፒኤስጂ	-3060
ቧል	-3061
ካኤል	-3062
ንድሮው	-3063
ዱስትሪ	-3064
▁ቅድመ	-3065
▁በዚሁ	-3066
▁በግል	-3067
ሷል	-3068
ቀፍ	-3069
▁ሰል	-3070
▁ሰኞ	-3071
▁ፌዴ	-3072
▁አብዛ	-3073
▁ጌታቸው	-3074
ter	-3075
ያዘው	-3076
▁ኤሌክትሪክ	-3077
ቃወ	-3078
▁ኒው	-3079
▁እዚህ	-3080
▁እንደምት	-3081
ሪት	-3082
ነበረ	-3083
▁ቤን	-3084
▁ነው፤	-3085
▁ጭምር	-3086
▁ወታደሮች	-3087
▁ተናግረዋል	-3088
▁n	-3089
▁የቢ	-3090
ዮርጊስ	-3091
▁2013	-3092
▁አከባቢ	-3093
eb	-3094
▁አጥቂ	-3095
▁ደርሶ	-3096
▁የምርጫ	-3097
ናገር	-3098
▁1,	-3099
▁ለገ	-3100
▁ባህ	-3101
▁የን	-3102
▁የሙ	-3103
▁ከመረብ	-3104
▁የሱዳን	-3105
▁ያላቸውን	-3106
▁የሚያደርግ	-3107
ያም	-3108
ባባሪ	-3109
ጂታል	-3110
▁ከግ	-3111
▁ጎን	-3112
▁መሆኑንም	-3113
መራው	-3114
▁መከላከል	-3115
▁የሚቆጠሩ	-3116
ቡቲ	-3117
ጠለ	-3118
ሰልጣ	-3119
▁ሀብ	-3120
▁እያለ	-3121
▁ፋብሪካ	-3122
39	-3123
ችኋ	-3124
ከባ	-3125
ኮት	-3126
ዚቃ	-3127
ንነት	-3128
▁ለት	-3129
▁ህጋዊ	-3130
/2014	-3131
ወደ	-3132
▁ሽን	-3133
ጀመረው	-3134
▁መጀመሪያ	-3135
▁ደጋፊዎች	-3136
ዳረ	-3137
▁ግጭ	-3138
▁ትዕዛዝ	-3139
▁በነበረው	-3140
ቴን	-3141
ጣቸው	-3142
▁መጣ	-3143
▁ርዕሰ	-3144
▁በትላንትናው	-3145
28	-3146
▁ኮር	-3147
▁የቱ	-3148
▁ውድድ	-3149
▁ተገልጿል፡፡	-3150
ወለ	-3151
ጣራ	-3152
ጪው	-3153
ቀላቀሉ	-3154
▁በህገ	-3155
▁ጥራት	-3156
▁መሪዎች	-3157
▁በሀገር	-3158
ሃት	-3159
ረክ	-3160
ን፣	-3161
▁ሊሆን	-3162
▁ሰሜን	-3163
▁ተጠያቂ	-3164
▁አማራጭ	-3165
▁ጊዜያዊ	-3166
ገደሉ	-3167
▁ስደ	-3168
▁ፍሬ	-3169
▁ተሰማ	-3170
▁ተቋሙ	-3171
ጎዳ	-3172
▁ልብ	-3173
▁አባት	-3174
▁በወቅቱ	-3175
▁ወገኖች	-3176
ፈፀም	-3177
▁ሚና	-3178
▁ስሜት	-3179
▁ተቀብ	-3180
▁ካርድ	-3181
▁ክለቡ	-3182
▁የሚጠ	-3183
▁ጉብኝ	-3184
▁የምርመራ	-3185
▁ፕሪሚየር	-3186
▁በትምህርት	-3187
▁ጫና	-3188
▁ስምም	-3189
▁በቀለ	-3190
▁ተፈናቃ	-3191
▁አውሮፕላን	-3192
ህሳስ	-3193
▁የህግ	-3194
▁በበኩላቸው	-3195
21	-3196
77	-3197
▁ዊ	-3198
ነራል	-3199
ሰጣቸው	-3200
ጨዋታው	-3201
▁ማረፊያ	-3202
▁በሰሜን	-3203
▁ወቅታዊ	-3204
▁ችለዋል።	-3205
ቀም	-3206
ቆስ	-3207
ፎር	-3208
ቬንቱ	-3209
ታወቁ	-3210
ጠራው	-3211
▁ያው	-3212
▁መርሃ	-3213
▁ሁሉንም	-3214
ንና	-3215
▁ሰፊ	-3216
▁የጣ	-3217
ረጋጋት	-3218
▁እረፍት	-3219
▁የኮቪድ	-3220
▁ኮንትራት	-3221
▁ፕሮፌሰር	-3222
im	-3223
▁የመስ	-3224
▁የምና	-3225
ሎምፒ	-3226
መልስ	-3227
▁ሊዮ	-3228
2016	-3229
▁በጦር	-3230
▁የውሃ	-3231
▁አድርገዋል።	-3232
▁ተሽከርካሪዎች	-3233
▁ትል	-3234
▁አቻ	-3235
▁አሰራ	-3236
▁ደርሷል።	-3237
መልከ	-3238
ጥፋት	-3239
ገኙበት	-3240
▁ከቀኑ	-3241
ንቀሳቀሱ	-3242
▁አገራት	-3243
▁ይልቅ	-3244
ስማ	-3245
ሽቱ	-3246
ራች	-3247
ሰረ	-3248
ባችን	-3249
ደርገ	-3250
ቀላቀል	-3251
በአ	-3252
ንጋ	-3253
ስተካ	-3254
▁የአር	-3255
ag	-3256
ሸጥ	-3257
▁ያመ	-3258
▁ያን	-3259
▁ፍቃድ	-3260
▁ኤምባሲ	-3261
▁መላ	-3262
▁እንደማ	-3263
▁የፖሊስ	-3264
elegram	-3265
▁ይጠበቃል።	-3266
▁አስረድተዋል።	-3267
ጧል	-3268
ቻይና	-3269
▁እሱ	-3270
▁የሟ	-3271
▁ዘጠኝ	-3272
▁መግቢያ	-3273
▁እንዲቀ	-3274
▁ሳምንታት	-3275
▁በፍጥነት	-3276
ረታ	-3277
ኖስ	-3278
▁ሳው	-3279
▁ሶማ	-3280
▁ከዛ	-3281
ከታተል	-3282
▁መስቀል	-3283
▁ማሻሻያ	-3284
▁አትሌቲ	-3285
▁በመንግስት	-3286
----------------	-3287
ላሴ	-3288
ዚአብ	-3289
▁ታደሰ	-3290
▁ተገለጸ	-3291
ብቅ	-3292
▁የጠ	-3293
▁በረራ	-3294
▁አርብ	-3295
▁የሚመ	-3296
▁ህፃናት	-3297
▁አንስተ	-3298
ፕሎ	-3299
ሴቶች	-3300
▁ኮሌጅ	-3301
▁የድር	-3302
▁ቅርንጫ	-3303
▁በመገኘ	-3304
ረግ	-3305
ቆይ	-3306
ኒስት	-3307
▁ክብር	-3308
▁አስቆጥ	-3309
▁ይችላሉ	-3310
ሕር	-3311
ቀደ	-3312
▁በፕ	-3313
▁ይፈ	-3314
▁ጥያቄዎች	-3315
▁የትራንስፖርት	-3316
ታሉ	-3317
▁ለመቀ	-3318
▁ብዛት	-3319
▁ተያይዞ	-3320
▁የትራፊክ	-3321
▁ተደርጓል።	-3322
ረምት	-3323
▁ተደራ	-3324
▁መረጃዎችን	-3325
!"	-3326
በተ	-3327
ከው	-3328
ጦታ	-3329
▁ለሰ	-3330
▁ሀብት	-3331
▁ረቂቅ	-3332
▁ሰአት	-3333
▁ወሳኝ	-3334
▁ሀሰተኛ	-3335
▁አቅርቦት	-3336
▁ይመስላል	-3337
ላሳ	-3338
▁”	-3339
ቃቸው	-3340
▁አስታዉ	-3341
▁ኮሚሽኑ	-3342
▁ባደረጉት	-3343
▁ቤተክርስቲያን	-3344
ነገ	-3345
ኒው	-3346
ዲና	-3347
ድኑ	-3348
ጣን	-3349
ግባር	-3350
ብራቶሪ	-3351
▁በመስጠት	-3352
ች።	-3353
ንኩ	-3354
ገኙት	-3355
በርካታ	-3356
▁ነበሩ	-3357
▁ተጠባቂ	-3358
▁ያገኘነው	-3359
በታ	-3360
ነትና	-3361
▁አልፎ	-3362
▁ትራምፕ	-3363
▁ከሁለት	-3364
▁የተኩስ	-3365
▁ኮሚሽነር	-3366
▁አማካኝነት	-3367
ም፤	-3368
ውሰድ	-3369
ግብር	-3370
▁ህል	-3371
▁መሞ	-3372
▁ንጉ	-3373
▁መሀመድ	-3374
▁የሚወስ	-3375
▁ጠንካራ	-3376
▁ታውቋል።	-3377
ለኛ	-3378
ዬን	-3379
ሻንጉ	-3380
ዟል።	-3381
▁ለሌ	-3382
▁የመን	-3383
▁ፈጣሪ	-3384
ቆያ	-3385
ላሉ።	-3386
ዊተር	-3387
ዷል።	-3388
▁ምት	-3389
▁የሳ	-3390
▁አመቱ	-3391
▁ድርሻ	-3392
▁መደረጉን	-3393
▁ባደረገው	-3394
80	-3395
▁በላ	-3396
▁ከቤ	-3397
መዘገቡ	-3398
▁ኢትዮጵያን	-3399
ሮቹ	-3400
ጅቱ	-3401
ከናወነ	-3402
▁ወደፊት	-3403
▁ትክክለኛ	-3404
▁ፓርቲዎች	-3405
?"	-3406
▁ፉ	-3407
▁ብቸ	-3408
▁ቦር	-3409
▁ስትል	-3410
▁አቀባ	-3411
▁የዛሬ	-3412
▁ያስተ	-3413
▁ለማወቅ	-3414
▁የሚሰራ	-3415
ቋሙ	-3416
▁ለፍ	-3417
▁ችሎ	-3418
▁ተቀም	-3419
▁ነዳጅ	-3420
▁ወርቅ	-3421
▁በሁለቱ	-3422
▁ናቸው፡፡	-3423
ረበ	-3424
ብሮ	-3425
ሐመድ	-3426
▁ሕዝ	-3427
▁ተመር	-3428
▁ሚልዮን	-3429
▁ማረጋገ	-3430
▁ስርጭት	-3431
ሩም	-3432
ምቤላ	-3433
ዶችን	-3434
▁ሙስ	-3435
በራቸው	-3436
ታወቀው	-3437
▁ቁሳቁ	-3438
▁ቻይና	-3439
▁ምዕራብ	-3440
▁ብለዋል	-3441
▁ድርድር	-3442
ወራ	-3443
ቨስት	-3444
መለከታቸው	-3445
44	-3446
▁th	-3447
▁ህዳር	-3448
▁አደጋው	-3449
▁የሚችል	-3450
ተሻ	-3451
ነቶች	-3452
▁ነን	-3453
▁የዳ	-3454
▁ጥቅ	-3455
▁ብርሃ	-3456
▁አንተ	-3457
▁እስር	-3458
▁ግብረ	-3459
▁ጽህፈት	-3460
▁በመተባበር	-3461
ዮቹ	-3462
ጁን	-3463
▁ቀይ	-3464
▁ንብረ	-3465
▁አላማ	-3466
▁አዳዲስ	-3467
▁አስቸኳይ	-3468
ሴን	-3469
መለክ	-3470
ቋረጥ	-3471
▁በሞ	-3472
▁ከዛሬ	-3473
▁ያገኛ	-3474
▁የአካል	-3475
▁አይደለም።	-3476
ዘረ	-3477
ers	-3478
▁ሀያ	-3479
▁ካሉ	-3480
ጠናቀቁ	-3481
▁የወሰ	-3482
▁መብራት	-3483
▁ማለፉን	-3484
▁እንዳለበት	-3485
ch	-3486
ነታ	-3487
የተ	-3488
▁ገና	-3489
▁0-0	-3490
▁አብረ	-3491
▁እቅድ	-3492
ረንሳ	-3493
ዎችና	-3494
ቬንቱስ	-3495
▁መተግበሪያ	-3496
ce	-3497
ሐሴ	-3498
▁ባሳ	-3499
▁ታስ	-3500
▁ሩሲያ	-3501
▁አብዱ	-3502
▁መጠቀም	-3503
▁ትብብር	-3504
▁አቀባይ	-3505
▁እንዳለው	-3506
▁ምክንያቱም	-3507
ባባ	-3508
ዑዲ	-3509
ድም	-3510
ሪዝም	-3511
ጨመረ	-3512
ፈጸሙ	-3513
ፕሎማ	-3514
▁ድረ	-3515
ረጋገጠ	-3516
▁ሀገራ	-3517
▁ስብስ	-3518
▁ምስጋና	-3519
▁ቲክቫህ	-3520
▁ዘመናዊ	-3521
▁የሚሆን	-3522
▁አስተዳዳሪ	-3523
100	-3524
ኖችን	-3525
ረዋል።	-3526
▁በተከሰ	-3527
▁የሚገኝ	-3528
▁ፖለቲካ	-3529
▁ሰጥተዋል።	-3530
ሁፍ	-3531
▁ገዳ	-3532
ጠናከር	-3533
ፌስቡክ	-3534
ab	-3535
ሺህ	-3536
▁70	-3537
▁አታ	-3538
▁ምድብ	-3539
ዳል	-3540
ፋን	-3541
500	-3542
ሞኑን	-3543
▁መልሶ	-3544
▁ብለን	-3545
ቲን	-3546
ናትን	-3547
▁ስልጣን	-3548
▁ተሳትፎ	-3549
ለል	-3550
ቆች	-3551
ልስጤ	-3552
▁በገ	-3553
ሻንጉል	-3554
▁ነበረ	-3555
▁አጋር	-3556
▁በነገው	-3557
▁አስኪያ	-3558
▁ይገኛሉ	-3559
▁ፕሮጀክ	-3560
▁ኮማንደር	-3561
▁]	-3562
▁e	-3563
▁h	-3564
▁አሕ	-3565
▁ጅማ	-3566
ገንባት	-3567
▁ተፈታ	-3568
▁መብቶች	-3569
▁ሠራዊት	-3570
▁ተቀባይ	-3571
ሰና	-3572
ንዛ	-3573
ዲን	-3574
በታል	-3575
ዎች፣	-3576
▁4.	-3577
ነጋገር	-3578
▁ሲሆን፤	-3579
16	-3580
ሴት	-3581
ፋሪ	-3582
ፐብ	-3583
ሻሻል	-3584
ቀመጥ	-3585
▁In	-3586
▁ልዑ	-3587
▁ዩሮ	-3588
▁ልምድ	-3589
▁በሊጉ	-3590
▁በሰጠው	-3591
▁ፕሮግራ	-3592
▁በመግባት	-3593
▁የአካባቢው	-3594
▁በካ	-3595
▁ዕጣ	-3596
▁ውድቅ	-3597
▁የሚችሉ	-3598
▁የአደጋ	-3599
▁ይፈልጋ	-3600
▁የሚደረግ	-3601
▁ይገኛል፡፡	-3602
ለቅ	-3603
ሳል	-3604
thi	-3605
በራት	-3606
ኔራል	-3607
▁አነ	-3608
▁የሸ	-3609
ናቸውን	-3610
▁ሊዮኔል	-3611
▁አንደኛ	-3612
▁እንግሊ	-3613
▁የሕዝብ	-3614
▁የኦሮሞ	-3615
▁የዝውውር	-3616
▁ጠይቀዋል።	-3617
ሀን	-3618
ድሜ	-3619
ላዊው	-3620
ሶችን	-3621
ግስት	-3622
ጠንቀ	-3623
▁ይቻ	-3624
▁አለን	-3625
▁ከሌሎች	-3626
▁ይቅርታ	-3627
ore	-3628
የቱን	-3629
▁ሲኖ	-3630
▁በቴሌ	-3631
▁የመሐል	-3632
▁የበለጠ	-3633
ወል	-3634
ጉም	-3635
ርቶዶ	-3636
ደንት	-3637
▁በዕ	-3638
▁ገፅ	-3639
2014	-3640
ጋጠመው	-3641
▁ሦስት	-3642
▁ጠዋት	-3643
▁ፑ	-3644
▁ይታ	-3645
▁2017	-3646
▁ህይወቱ	-3647
▁በአሁን	-3648
▁ማስቆጠር	-3649
▁አቅርበዋል።	-3650
com	-3651
ጀንቲ	-3652
ከታተሉ	-3653
▁በቀን	-3654
▁ወዲህ	-3655
▁መድረሱን	-3656
pp	-3657
ረከ	-3658
ቀን	-3659
ቃሉ	-3660
በሳ	-3661
▁ማው	-3662
▁ኤል	-3663
▁ከል	-3664
▁ከሳ	-3665
▁ለመግ	-3666
▁መኮንን	-3667
▁የቀድሞው	-3668
ፍቶ	-3669
ፖሊ	-3670
▁ታማ	-3671
ፈልገው	-3672
▁ተባለ	-3673
▁ካምፓ	-3674
▁በድጋሚ	-3675
▁የገለጹት	-3676
▁ይታወሳል፡፡	-3677
70	-3678
ተኮ	-3679
ዝና	-3680
▁ማይ	-3681
▁ግም	-3682
▁ለሚያ	-3683
▁በመስ	-3684
▁ችሏል	-3685
▁የቅድመ	-3686
▁አሰልጣኙ	-3687
▁ከተለያዩ	-3688
▁የማህበራዊ	-3689
▁የተናገሩት	-3690
▁is	-3691
▁መደ	-3692
▁ብሩ	-3693
ፔክተር	-3694
▁ክስተ	-3695
▁የዋጋ	-3696
▁አሕመድ	-3697
ኝታ	-3698
ይታ	-3699
ፈታ	-3700
ተናል	-3701
ገበው	-3702
ሳይንስ	-3703
▁መልቀ	-3704
▁መኖር	-3705
▁ቻናል	-3706
▁ይሆን	-3707
▁ተቃውሞ	-3708
▁የሚሰጥ	-3709
▁መታወቂያ	-3710
▁የስፖርት	-3711
ው።	-3712
ማርኛ	-3713
▁እጩ	-3714
▁ዝናብ	-3715
ዚአብሔር	-3716
▁አንስቶ	-3717
ህና	-3718
ኗል።	-3719
▁ሐምሌ	-3720
▁መልክ	-3721
▁ድንበር	-3722
▁ለማስፈረም	-3723
========	-3724
▁ቪላ	-3725
▁መሰል	-3726
▁መቀመ	-3727
▁መንፈ	-3728
▁ወለጋ	-3729
▁እንግሊዝ	-3730
▁ያሳያል።	-3731
▁ፕሮጀክት	-3732
ለበት	-3733
ዘነጋ	-3734
ድድሩ	-3735
▁ከጠ	-3736
▁ምንድ	-3737
▁ይኖር	-3738
▁እያንዳን	-3739
▁ለመቆጣጠር	-3740
▁እንደሚችሉ	-3741
▁ገልጿል፡፡	-3742
ርሲ	-3743
ዓመቱ	-3744
ፈለጉ	-3745
▁ክብ	-3746
ሎምፒክ	-3747
▁ባለፈ	-3748
ቃቂ	-3749
ኖቹ	-3750
ጀመሩ	-3751
ገተኛ	-3752
▁ጎል	-3753
2015	-3754
▁የከፍተኛ	-3755
29	-3756
▁ፓር	-3757
▁ሀዋሳ	-3758
▁ግንባር	-3759
ሰኞ	-3760
ሲብ	-3761
ረጅም	-3762
ገናኘ	-3763
ገናኝ	-3764
▁ተቋማ	-3765
▁ጉብኝት	-3766
▁የሚሆኑት	-3767
ሊንግ	-3768
▁ስጋ	-3769
ሰብሰብ	-3770
▁500	-3771
▁ለንደ	-3772
▁በምን	-3773
▁መረጃው	-3774
▁ብዙሃን	-3775
▁አለብን	-3776
ጣቱ	-3777
ሳችሁ	-3778
▁ወድ	-3779
ሆናቸው	-3780
በረሰቡ	-3781
▁የሚታ	-3782
▁የሚለውን	-3783
▁ተሰምቷል።	-3784
ናቱ	-3785
በልጥ	-3786
▁ሳያ	-3787
▁ሃሳብ	-3788
▁ብራዚ	-3789
▁እንስ	-3790
▁ዓላማ	-3791
▁በከተማዋ	-3792
ሃል	-3793
▁አርቴ	-3794
▁ዌስት	-3795
ቀዋል፡፡	-3796
▁ለበለጠ	-3797
▁መንገዱ	-3798
▁ለቲክቫህ	-3799
▁v	-3800
ሆስፒ	-3801
ቅርብ	-3802
▁ልት	-3803
ቃል፡፡	-3804
ፈዋል።	-3805
▁መሰረ	-3806
▁አለኝ	-3807
▁የሊጉ	-3808
▁ጊዮርጊስ	-3809
▁በተደረገው	-3810
ጻጸ	-3811
ንዶች	-3812
▁በሰው	-3813
▁ክፍት	-3814
▁ልምምድ	-3815
▁መስተዳድር	-3816
ሃም	-3817
ሻገር	-3818
ቸጋሪ	-3819
ዘጋጁ	-3820
▁ዝም	-3821
▁ለማን	-3822
▁መጠየ	-3823
▁ሊቀመን	-3824
▁ሰዓታት	-3825
▁ያስፈልጋ	-3826
▁01	-3827
▁አርባ	-3828
▁አቀፉ	-3829
▁ያስቆ	-3830
▁በጉዳዩ	-3831
▁የቲክቫህ	-3832
▁እንዲያደርጉ	-3833
ችልም	-3834
▁60	-3835
▁ካፕ	-3836
▁አክለ	-3837
▁ይቀጥ	-3838
ነታቸውን	-3839
▁ተናገሩ	-3840
▁የተባሉ	-3841
▁ዩናይት	-3842
▁ሚዲያዎች	-3843
▁አስፈላጊውን	-3844
ዛን	-3845
ይህ	-3846
▁ህወሓት	-3847
▁እንዳያ	-3848
▁ተማሪዎቹ	-3849
ሃብ	-3850
ዮችን	-3851
▁ወንዶች	-3852
▁የክልል	-3853
▁ያለበት	-3854
ኬል	-3855
ክሬ	-3856
▁ተል	-3857
▁እኮ	-3858
▁ወሎ	-3859
▁በህግ	-3860
▁የኮሚ	-3861
▁እንድታ	-3862
▁ወረቀት	-3863
▁አስፈጻሚ	-3864
▁ተዘግቧል።	-3865
▁አሳስቧል።	-3866
ሳሌ	-3867
ዩብ	-3868
ሪቱን	-3869
ርዳታ	-3870
ተኛው	-3871
▁ራሱን	-3872
▁ባለቤ	-3873
▁እያሳ	-3874
▁ኮከብ	-3875
▁የማህ	-3876
▁ለአንድ	-3877
▁ተጨዋቾች	-3878
▁አውሮፕላ	-3879
ረፋ	-3880
ዛው	-3881
ዜአ	-3882
▁በሶማ	-3883
▁በድር	-3884
▁ኮሪያ	-3885
▁ሚንስትር	-3886
▁Telegram	-3887
ወድ	-3888
ጣጥ	-3889
▁ኣ	-3890
ist	-3891
ረዋል	-3892
▁ወዳ	-3893
ኖራቸው	-3894
▁ልብስ	-3895
▁እያስ	-3896
▁የባለ	-3897
▁ለንደኑ	-3898
ሎን	-3899
ስትራ	-3900
ፈኞቹ	-3901
▁መቼ	-3902
▁ቦሌ	-3903
ምምነት	-3904
▁ሲያስ	-3905
ርቶዶክስ	-3906
በዋል፡፡	-3907
▁ሰብዓዊ	-3908
▁ችግሩን	-3909
▁የኤርትራ	-3910
ዳና	-3911
▁ብት	-3912
▁ካሜ	-3913
▁ገንዘ	-3914
ገልግሎት	-3915
▁በበኩሉ	-3916
▁ቢሊየን	-3917
▁ጋርዲዮ	-3918
▁ሠራተኞች	-3919
▁አስቀድሞ	-3920
▁ጠይቋል።	-3921
ምስ	-3922
ሊዮን	-3923
በረታ	-3924
ፀጥታ	-3925
ተኞችን	-3926
▁ስቴትስ	-3927
▁ዜጎችን	-3928
▁የሴቶች	-3929
መቻ	-3930
ሰለ	-3931
ቶኒ	-3932
ንዴ	-3933
ግባቡ	-3934
▁የሚሉ	-3935
▁ተቀባይነት	-3936
▁እንዲደረግ	-3937
ቀሰ	-3938
▁ቬ	-3939
▁ኳ	-3940
▁ዎ	-3941
ገለፅ	-3942
▁ይኖ	-3943
▁በስፋት	-3944
▁እውቅና	-3945
ሁት	-3946
ሚር	-3947
ዋር	-3948
▁‘	-3949
▁ለጥ	-3950
▁ሚያ	-3951
▁ናይ	-3952
▁ሞገስ	-3953
▁ሪፖር	-3954
▁2012	-3955
▁ተግባራት	-3956
▁አለባቸው	-3957
ርጦ	-3958
ሳዊ	-3959
ነብ	-3960
ዕኖ	-3961
ታቸዉ	-3962
ክኒክ	-3963
▁ሕገ	-3964
▁ስህ	-3965
▁ባስ	-3966
ለን፡፡	-3967
▁መጽሐ	-3968
▁ስለተ	-3969
▁የወደ	-3970
▁አሰላለፍ	-3971
▁ኢንስቲት	-3972
▁እንደሚሰጥ	-3973
ምጣት	-3974
▁አቤ	-3975
▁አና	-3976
▁ከኮ	-3977
▁ህንፃ	-3978
▁ሊንክ	-3979
▁ሰነድ	-3980
▁የሁለት	-3981
▁ያደረገው	-3982
▁ኢንዱስትሪ	-3983
▁ተጠርጣሪዎች	-3984
ሎስ	-3985
ሸት	-3986
ook	-3987
ስታን	-3988
ፈፀሙ	-3989
▁ጥፋ	-3990
▁በአለም	-3991
▁አባቶች	-3992
▁እንዳሉ	-3993
▁በተገኙበት	-3994
........	-3995
▁የዩኒቨርሲቲው	-3996
ለዉ	-3997
ቃቱ	-3998
ine	-3999
ችለው	-4000
▁ታይ	-4001
▁ጣል	-4002
ዳቸውን	-4003
▁ላይም	-4004
▁መያዙ	-4005
▁በመያዝ	-4006
▁ለመመለስ	-4007
os	-4008
ቀስ	-4009
ጣራት	-4010
▁መቻ	-4011
▁ክህ	-4012
▁ጣቢያዎች	-4013
▁ተጠቁሟል።	-4014
NA	-4015
ስኮ	-4016
ጠነ	-4017
▁ሲነ	-4018
▁ግዜ	-4019
ሸነፊያ	-4020
▁ገደማ	-4021
▁ልዩነት	-4022
▁ሲሆን፣	-4023
▁በሱዳን	-4024
▁አግባብ	-4025
▁የሚኖሩ	-4026
ኒቨርሲቲው	-4027
▁ጋርዲዮላ	-4028
▁ኢንስፔክተር	-4029
▁በቡ	-4030
▁ቀዳሚ	-4031
▁አርቲ	-4032
▁ኢንጂ	-4033
▁እናም	-4034
▁ህጻናት	-4035
▁ያደርጋ	-4036
▁ተጎ	-4037
▁አሊ	-4038
▁ምዕራ	-4039
▁Join	-4040
▁ሥርዓት	-4041
▁በኮቪድ	-4042
▁መጀመሩን	-4043
▁በአውሮፓ	-4044
ly	-4045
ሆነው	-4046
ካሄዱ	-4047
▁90	-4048
▁በጅ	-4049
▁ታላቅ	-4050
▁የአል	-4051
▁ያለፈ	-4052
▁ኢኮኖሚ	-4053
▁ከእስር	-4054
ሌይ	-4055
ወቀ	-4056
ጋዬ	-4057
ምንቱ	-4058
ሳሰብ	-4059
ወሰነ	-4060
▁ቋሚ	-4061
▁ጠብ	-4062
▁ርቀት	-4063
▁ኮርፖ	-4064
▁ድልድ	-4065
▁ለመስራት	-4066
▁አይዘነጋ	-4067
▁እያደረጉ	-4068
▁የማሸነፊያ	-4069
ET	-4070
▁በፓ	-4071
▁የኔ	-4072
ተኝነት	-4073
▁በውጭ	-4074
▁ኒውካ	-4075
▁የዚህ	-4076
▁ያለመ	-4077
ላክቷል።	-4078
▁ለሁለት	-4079
▁ሰለሞን	-4080
▁ባይደን	-4081
▁ተመራቂ	-4082
▁የሚባል	-4083
ቨስትመንት	-4084
▁ተደምጠዋል።	-4085
ረኛ	-4086
▁የሩ	-4087
▁መስጠ	-4088
▁ማለፍ	-4089
▁ሳቢያ	-4090
▁የተቃ	-4091
▁የመረጃ	-4092
▁የላብራቶሪ	-4093
ጋን	-4094
መዝገብ	-4095
▁ኃላፊነት	-4096
▁የሚገኙት	-4097
ዋቂ	-4098
ጋዜ	-4099
መረጡ	-4100
ወሰደ	-4101
ጋቸው	-4102
ዘጋጀት	-4103
▁የመው	-4104
▁ላለፉት	-4105
▁ድርጅቱ	-4106
▁አንድነት	-4107
▁ሀሳ	-4108
▁ሳን	-4109
▁ጉድ	-4110
ኅበራዊ	-4111
▁ትችላ	-4112
▁በአግባቡ	-4113
▁ኢትዮጵያዊያን	-4114
ከም	-4115
▁ለስ	-4116
▁ፈቃ	-4117
▁ፍቃ	-4118
ዘጋጀው	-4119
▁በምት	-4120
▁አሰራር	-4121
▁የሰብአዊ	-4122
ፈተ	-4123
ፌዴሪ	-4124
▁በነፃ	-4125
▁ለአዲስ	-4126
▁በነበረ	-4127
▁ተሳታፊ	-4128
▁እውነት	-4129
▁የባህር	-4130
▁የተለየ	-4131
ምቦ	-4132
ውልድ	-4133
▁ሆና	-4134
▁ለነ	-4135
▁በድን	-4136
▁ቫይረሱ	-4137
ናቂ	-4138
ላለፈ	-4139
ልጠና	-4140
ክተሩ	-4141
▁35	-4142
▁ለኢ	-4143
▁ታግ	-4144
▁ፔፕ	-4145
▁ቦታው	-4146
▁ኤሪክ	-4147
▁ለመሆን	-4148
▁ሰጥቷል።	-4149
አይ	-4150
ፃፀ	-4151
▁g	-4152
ላይን	-4153
ታችሁ	-4154
▁በአን	-4155
▁አዳማ	-4156
▁ምንጮች	-4157
▁ብርሃኑ	-4158
▁አቀባበል	-4159
▁አድርጓል	-4160
86	-4161
ቾቹ	-4162
ከን	-4163
ቢዎች	-4164
ደገፍ	-4165
ጠየቅ	-4166
▁on	-4167
▁ሁሌ	-4168
▁ሙያ	-4169
▁ዳን	-4170
▁ዐቃቤ	-4171
▁ጥቂት	-4172
▁በእንግሊዝ	-4173
ሞላ	-4174
ገዝ	-4175
ወሰዱ	-4176
▁የቁ	-4177
▁ማለዳ	-4178
▁ሲኖዶ	-4179
▁ቢቢሲ	-4180
▁ባንኩ	-4181
▁ችግሩ	-4182
▁አርቴታ	-4183
▁የፈተና	-4184
▁እንግሊዛ	-4185
▁እየጨመረ	-4186
.5	-4187
ሙዝ	-4188
ቀና	-4189
▁ሾ	-4190
ቨርተን	-4191
▁ሲሉም	-4192
▁በስተ	-4193
▁በዋና	-4194
▁ዘላቂ	-4195
▁የአን	-4196
▁ታህሳስ	-4197
▁ማድረጉን	-4198
▁ይቀላቀሉ	-4199
▁us	-4200
▁ራስ	-4201
▁ከጎ	-4202
▁ወኪ	-4203
▁ገበ	-4204
ሰባሰብ	-4205
▁ፍትህ	-4206
ቸዋል፡፡	-4207
▁መሐመድ	-4208
▁ክልላዊ	-4209
▁የበላይ	-4210
▁በምዕራብ	-4211
ወዝ	-4212
ደስ	-4213
ደቡ	-4214
ገናኙ	-4215
▁መሥ	-4216
▁ሥነ	-4217
▁ገጽ	-4218
▁ፍራ	-4219
2013	-4220
▁ማቅረ	-4221
የታቸውን	-4222
▁የለውም	-4223
▁እንዳሉት	-4224
▁የሚያሳይ	-4225
▁የብሔራዊ	-4226
99	-4227
ess	-4228
ቅምት	-4229
ባቸዉ	-4230
ይተን	-4231
▁መጋ	-4232
▁ቴን	-4233
▁ሕይወ	-4234
▁ባህል	-4235
▁ታሪካ	-4236
▁ትጥቅ	-4237
ባቸዋል።	-4238
▁የተሰጠ	-4239
▁ደስተኛ	-4240
▁የኢኮኖሚ	-4241
ላቱ	-4242
ያቸውን	-4243
▁ላሊጋ	-4244
▁አቋም	-4245
▁የሚተ	-4246
▁አንቶኒ	-4247
▁ፌዴሬሽን	-4248
ity	-4249
ችውን	-4250
▁አዲ	-4251
ሰልጣኝ	-4252
ገባቸው	-4253
ጠንቀቂያ	-4254
▁እንደም	-4255
▁ከምሽቱ	-4256
▁የኢትዮ	-4257
ግሌ	-4258
ፓን	-4259
▁መድሃ	-4260
▁ስጦታ	-4261
ላጭ	-4262
ፈፀመው	-4263
▁ማርቲ	-4264
▁ቀውስ	-4265
▁ቀድሞ	-4266
▁ፓርክ	-4267
▁ህዝቦች	-4268
▁ሽመልስ	-4269
▁በመገኘት	-4270
▁አክለውም	-4271
▁ጁቬንቱስ	-4272
ቂጤ	-4273
ትነት	-4274
▁መዘ	-4275
▁ማኔ	-4276
▁ሰጪ	-4277
▁ከኢ	-4278
ለማችን	-4279
▁ትንሽ	-4280
▁ዝግጅ	-4281
ገራቸውን	-4282
▁ፌስቡክ	-4283
▁አስኪያጅ	-4284
AH	-4285
ምራ	-4286
ሱስ	-4287
ጦች	-4288
▁ኮሙ	-4289
▁ዘው	-4290
▁የኃ	-4291
ልስፍና	-4292
▁ምረቃ	-4293
▁ሽያጭ	-4294
▁በርን	-4295
▁አለፈ	-4296
▁በፖሊስ	-4297
▁ከቀናት	-4298
▁ድሬዳዋ	-4299
37	-4300
ri	-4301
ህረ	-4302
በስ	-4303
እምሮ	-4304
▁በለ	-4305
▁በሶ	-4306
▁የሐ	-4307
▁ግዴ	-4308
ሟል፡፡	-4309
▁አብሮ	-4310
▁አጋማሽ	-4311
▁ዋስትና	-4312
▁አስተባባሪ	-4313
▁ትምህርታቸውን	-4314
ቆት	-4315
ዋሪ	-4316
ጓዙ	-4317
ሞክራ	-4318
▁ቀጠና	-4319
▁አዛዥ	-4320
▁እየታ	-4321
▁የወሩ	-4322
▁ለሚገኙ	-4323
▁ማክሰኞ	-4324
▁ተገኝተው	-4325
▁አቅርቧል።	-4326
ቦቹ	-4327
ውንት	-4328
▁Ch	-4329
▁የሻ	-4330
▁አውጥ	-4331
▁ዞኖች	-4332
▁የተከ	-4333
▁ይጀም	-4334
▁ግርማ	-4335
▁አስቶን	-4336
▁ዘገባው	-4337
▁የሽብር	-4338
መኑ	-4339
ንዶ	-4340
ዮሽ	-4341
ላለፉ	-4342
በርግ	-4343
ኒየም	-4344
ናችን	-4345
▁80	-4346
ፐብሊክ	-4347
▁ወይዘ	-4348
▁ማስተማር	-4349
ረሰ	-4350
ጲያ	-4351
ከሰት	-4352
ላል፡፡	-4353
በረከት	-4354
ፋቸውን	-4355
▁የጊዜ	-4356
▁ገደብ	-4357
ርቹ	-4358
በን	-4359
ነች	-4360
ው፣	-4361
ውንድ	-4362
▁ልማ	-4363
▁አሻ	-4364
▁ፍፁም	-4365
የትኛውም	-4366
ጎዱ	-4367
ናቀሉ	-4368
▁ጋብ	-4369
መለከቱ	-4370
▁ሳላህ	-4371
▁አልቻ	-4372
▁ዛሬም	-4373
▁የልማት	-4374
▁የኬንያ	-4375
▁ይህንንም	-4376
IK	-4377
ቢቢሲ	-4378
ቲንግ	-4379
ቻለው	-4380
▁ቁር	-4381
▁በሲ	-4382
▁for	-4383
▁መርሀ	-4384
▁ሲባል	-4385
▁ተወዳ	-4386
▁ነጋዴ	-4387
▁የተሳ	-4388
▁ማለትም	-4389
▁ብርሃን	-4390
▁ቴሌኮም	-4391
▁የባንክ	-4392
▁የሆነውን	-4393
▁በተካሄደው	-4394
ሳሽ	-4395
ከባድ	-4396
የውን	-4397
ፋጣኝ	-4398
ላችንን	-4399
▁በመል	-4400
▁ተገድ	-4401
▁ከሜዳ	-4402
▁ዘይት	-4403
▁የከፋ	-4404
▁ይሄን	-4405
▁በአፋር	-4406
▁በመጨረሻ	-4407
▁ሊቀመንበር	-4408
ሎፕ	-4409
ሮው	-4410
ሰመ	-4411
ስክ	-4412
መዋል	-4413
ችበት	-4414
▁32	-4415
▁ማራ	-4416
▁ፈጥ	-4417
▁ሽልማ	-4418
▁አንደ	-4419
▁ደጋፊ	-4420
/2013	-4421
▁ምርቶች	-4422
▁እንዲቆ	-4423
▁ከሀገር	-4424
▁የባህል	-4425
▁ደረጃን	-4426
▁አገልግሎቶች	-4427
ሪፍ	-4428
ርግ	-4429
ኝም	-4430
ኤታ	-4431
ማግሌ	-4432
ጃቸው	-4433
▁በኦ	-4434
▁አቡነ	-4435
▁ይካሄ	-4436
▁ጥገና	-4437
▁ሀይሎች	-4438
▁ሰንጠረ	-4439
▁ኃላፊዎች	-4440
▁ኮሚኒኬሽን	-4441
ምብ	-4442
ጆቹ	-4443
ልበት	-4444
ናቶች	-4445
▁በዲ	-4446
▁ብሄ	-4447
▁አሌ	-4448
▁የጭ	-4449
▁ብቃት	-4450
▁አበበ	-4451
▁እርግ	-4452
▁ግብፅ	-4453
ተሪ	-4454
ዋቱ	-4455
▁K	-4456
ቀመጡ	-4457
▁re	-4458
▁አጠ	-4459
▁የሶ	-4460
ተርኔት	-4461
▁ከባለ	-4462
▁ደረሰ	-4463
▁መዝገብ	-4464
▁ስታንዳ	-4465
▁በሚቀጥ	-4466
▁ተብለው	-4467
▁አላቸው	-4468
ረፈ	-4469
ሮኮ	-4470
ቭስ	-4471
ደታ	-4472
ፋል	-4473
IKV	-4474
ማሪያ	-4475
ምራት	-4476
ያዎች	-4477
▁ሳል	-4478
IKVAH	-4479
thiop	-4480
ዩኒኬሽን	-4481
▁ለህዝብ	-4482
▁ያመለክ	-4483
▁እንደሚሆን	-4484
90	-4485
ሪም	-4486
በጣ	-4487
ube	-4488
ይይቱ	-4489
▁ምባ	-4490
____	-4491
ቻችንን	-4492
▁1-0	-4493
▁ሀብታ	-4494
▁መንስ	-4495
▁ተላል	-4496
▁በቀላሉ	-4497
▁በአካል	-4498
▁ተፈጥሮ	-4499
ሞክራሲያዊ	-4500
ul	-4501
ቀኑ	-4502
▁ተፅ	-4503
▁ውስ	-4504
ንዳንድ	-4505
▁አረጋ	-4506
▁አንቀ	-4507
▁ደሞዝ	-4508
▁ሚኒስቴሩ	-4509
▁ማረጋገጫ	-4510
▁እንደሆኑ	-4511
▁የተገኘው	-4512
▁የተፈጠረ	-4513
▁በዘንድሮው	-4514
ኗን	-4515
ዩም	-4516
ጭበር	-4517
▁አስር	-4518
▁ሀገሪቱ	-4519
▁ሀገራዊ	-4520
▁በስልክ	-4521
▁ነፃነት	-4522
▁የሚያሳ	-4523
▁ለተጨማሪ	-4524
▁አልፏል።	-4525
ሳሰ	-4526
ጀንዳ	-4527
▁45	-4528
▁መልእ	-4529
▁ባሉት	-4530
▁መጠለያ	-4531
▁ፈረንሳይ	-4532
▁አስታወቀ፡፡	-4533
ገመ	-4534
ጥን	-4535
ፋው	-4536
ቀርባ	-4537
ንሰር	-4538
▁በከ	-4539
▁ነፍ	-4540
▁ጌታ	-4541
መዘገበ	-4542
▁አሳል	-4543
▁ድንቅ	-4544
▁ፕሬዜ	-4545
▁አዳራሽ	-4546
▁ጆርናል	-4547
▁ቅርንጫፍ	-4548
▁የደረሰው	-4549
▁የደህንነት	-4550
ut	-4551
ጠይቅ	-4552
▁የሱ	-4553
▁ደራሲ	-4554
▁መንቀጥ	-4555
▁ሲኖዶስ	-4556
▁የእግር	-4557
▁የጀርመን	-4558
▁በሀገራችን	-4559
if	-4560
ስካ	-4561
ድሮስ	-4562
▁85	-4563
▁ምስል	-4564
▁በራሱ	-4565
▁ይፋዊ	-4566
▁ኤርትራ	-4567
▁እንዲሰጥ	-4568
▁የተገለፀ	-4569
▁አሳስበዋል።	-4570
ሊቲ	-4571
ይነ	-4572
all	-4573
ደንብ	-4574
ሷል፡፡	-4575
ናል፡፡	-4576
ከናወኑ	-4577
▁መቐለ	-4578
መዋል፡፡	-4579
▁ተመዝግ	-4580
▁ተከላካይ	-4581
▁ፈተናውን	-4582
ድዋ	-4583
መልካ	-4584
▁ምዘ	-4585
▁ይቀ	-4586
ስርዓት	-4587
▁ጉሙዝ	-4588
▁መፍትሔ	-4589
▁አራተኛ	-4590
▁አውሮፓ	-4591
▁ኦሮሚያ	-4592
▁ትችላላችሁ	-4593
▁የተማሪዎች	-4594
ቢው	-4595
ዩን	-4596
ann	-4597
▁5.	-4598
▁የር	-4599
▁የዞኑ	-4600
▁ለዚህም	-4601
▁በህይወት	-4602
▁ስታንዳርድ	-4603
▁አመልክቷል።	-4604
ሌን	-4605
ሎም	-4606
ወሩ	-4607
ገጥ	-4608
ታወቅ	-4609
ወስድ	-4610
▁የዶ	-4611
ደረሰው	-4612
▁ማንም	-4613
▁ወገን	-4614
▁ኃላፊው	-4615
▁የሩሲያ	-4616
▁የስልክ	-4617
▁ግቦችን	-4618
▁ጨዋታዎችን	-4619
ሀብ	-4620
ማረ	-4621
ከሩ	-4622
ያል	-4623
ያሜ	-4624
ምረት	-4625
ባኖስ	-4626
ወጣት	-4627
ቶቻችን	-4628
▁ልውው	-4629
▁መድኃ	-4630
▁ምድር	-4631
▁ይደረ	-4632
▁ከሚገኙ	-4633
▁አደጋዎች	-4634
▁መገደላቸውን	-4635
▁አሳውቀዋል።	-4636
▁አሽከርካሪዎች	-4637
ራሉ	-4638
ስፈ	-4639
ቿን	-4640
ፍያ	-4641
ith	-4642
▁ብሏል	-4643
▁ነሐሴ	-4644
▁አርሶ	-4645
▁አብር	-4646
▁አማካሪ	-4647
▁የተሰራ	-4648
▁አርጀንቲ	-4649
▁የሚመራው	-4650
ቃይ	-4651
••	-4652
▁ለሕ	-4653
▁ላል	-4654
ጠኝነት	-4655
▁አደረ	-4656
▁ኪንግ	-4657
▁የመድ	-4658
▁ሰራተኛ	-4659
▁የተመሰ	-4660
ርባ	-4661
ሳን	-4662
ድስ	-4663
▁መቃ	-4664
▁እህ	-4665
▁ከፈ	-4666
▁መፅሀ	-4667
▁ተወላ	-4668
▁አስደ	-4669
▁ሃይሎች	-4670
▁ሌሎችም	-4671
▁ማረሚያ	-4672
▁ተጨዋቹ	-4673
▁የሟቾች	-4674
▁ተችሏል።	-4675
▁አስቸጋሪ	-4676
▁በአስቸኳይ	-4677
▁ተፈናቃዮች	-4678
▁እንዳለባቸው	-4679
ራባ	-4680
ቴር	-4681
ጉት	-4682
ጨው	-4683
ቀሳቀ	-4684
ጨምር	-4685
▁St	-4686
▁ለታ	-4687
▁ይባ	-4688
ቀረበው	-4689
ደርጉት	-4690
▁ፀጥታ	-4691
▁መቀመጫ	-4692
▁ቤቶችን	-4693
▁ወላጆች	-4694
▁ለማቅረብ	-4695
▁አልነበረ	-4696
▁የፋይናንስ	-4697
▁እንደገለጹት	-4698
ራው	-4699
ኩን	-4700
የቱ	-4701
በትም	-4702
ወርቅ	-4703
ጠዋል	-4704
▁ወሬ	-4705
▁መለያ	-4706
▁የአው	-4707
▁ፊልም	-4708
▁ሰብሳቢ	-4709
▁ተስፋዬ	-4710
▁አንዳን	-4711
▁አነስተኛ	-4712
-3	-4713
ኑኤል	-4714
ከበረ	-4715
▁እሳ	-4716
▁ካሬ	-4717
ለፍነው	-4718
ፈጸመው	-4719
▁በአብ	-4720
▁ወዲያ	-4721
▁የገቡ	-4722
ንቀሳቀስ	-4723
▁መመለስ	-4724
▁ስብስብ	-4725
▁ተዘጋጅ	-4726
▁ክርስቲያኖ	-4727
ራሪ	-4728
ችግ	-4729
ጅን	-4730
ራል።	-4731
ደርሳ	-4732
ጠየቁ	-4733
▁ሊያስ	-4734
▁በልዩ	-4735
▁በጋዛ	-4736
▁አውቶ	-4737
▁ገለጸ	-4738
▁ፖሊሲ	-4739
▁በሚገኝ	-4740
▁ነጥቦች	-4741
▁ወይዘሮ	-4742
▁ጊዜያት	-4743
▁ተደርጓል	-4744
▁የህወሓት	-4745
▁ይችላል።	-4746
▁የአሜሪካን	-4747
▁እንደሚደረግ	-4748
ኤም	-4749
ፋቸው	-4750
▁''	-4751
▁ለሙሉ	-4752
▁ካለው	-4753
▁ጉባዔ	-4754
▁ግማሽ	-4755
▁2011	-4756
▁ሽማግሌ	-4757
▁በአደጋ	-4758
▁አንዲት	-4759
▁የክለቡ	-4760
▁ግለሰቡ	-4761
▁ፈተናው	-4762
26	-4763
od	-4764
ቶክ	-4765
ድርሻ	-4766
ፈጠር	-4767
▁ቢል	-4768
▁ከዋ	-4769
ቀረቡት	-4770
▁ማየት	-4771
▁ብድር	-4772
▁አሁኑ	-4773
▁የሕግ	-4774
▁የአመቱ	-4775
▁አካባቢው	-4776
▁የተገለጸ	-4777
▁የኢፌዴሪ	-4778
▁ኦርቶዶክስ	-4779
▁ያደረገውን	-4780
ov	-4781
ላሚ	-4782
ቢኔ	-4783
ባሪው	-4784
▁ተበ	-4785
▁ከፋ	-4786
ቃቸውን	-4787
ባቸዋል	-4788
▁ምባፔ	-4789
▁በማሳ	-4790
▁በቀጣ	-4791
▁በንግ	-4792
▁አሸን	-4793
▁የሀገ	-4794
▁የምስ	-4795
▁የዜና	-4796
▁ማሳረፍ	-4797
▁በዘላቂ	-4798
▁የሌለው	-4799
▁የመውጫ	-4800
▁የተጠረ	-4801
▁እንዲወጡ	-4802
▁አረጋግጠዋል።	-4803
ሀል	-4804
ቡት	-4805
ናዳ	-4806
ቱንም	-4807
▁ማእ	-4808
▁ጳጳ	-4809
▁መገለ	-4810
▁የብር	-4811
▁ጎሎች	-4812
▁ማቅረብ	-4813
▁ቅድሚያ	-4814
▁የሚገቡ	-4815
▁በትናንት	-4816
▁ኢንስቲትዩት	-4817
ew	-4818
um	-4819
ስና	-4820
ተዉ	-4821
ፁዕ	-4822
ወሰን	-4823
▁ረዳ	-4824
▁እያሉ	-4825
▁የመል	-4826
▁የማዕ	-4827
▁ሚካኤል	-4828
▁በመጪው	-4829
▁የሚሰሩ	-4830
▁ቴሌግራም	-4831
▁ኤቨርተን	-4832
▁የኢትዮጵያን	-4833
ሌዳ	-4834
ረጥ	-4835
ገም	-4836
ጌታ	-4837
our	-4838
ላቸዉ	-4839
▁33	-4840
▁ሰማ	-4841
▁ተር	-4842
ዎቻቸው	-4843
▁ሚኬል	-4844
▁ቀርቦ	-4845
▁ቢሮው	-4846
▁ተመስ	-4847
▁የማያ	-4848
▁መጫወት	-4849
▁ዌስትሀም	-4850
▁የጠቅላይ	-4851
▁ደንበኞች	-4852
07	-4853
48	-4854
ሮቢ	-4855
ቦር	-4856
red	-4857
ቀዋል	-4858
ጠይቃ	-4859
ፍራው	-4860
▁ከዩ	-4861
▁ይኸ	-4862
▁ዳኛ	-4863
▁ማግኘ	-4864
▁ረዳት	-4865
▁በሞት	-4866
▁ከበደ	-4867
▁ሀላንድ	-4868
▁ምልክት	-4869
▁ሰሞኑን	-4870
▁ስህተት	-4871
▁ተነገረ	-4872
▁አማካይ	-4873
ዳይ	-4874
▁ስኬ	-4875
▁በቴ	-4876
▁ይመ	-4877
▁ፈፅ	-4878
▁ህዝቡ	-4879
▁ከነማ	-4880
▁የተነ	-4881
▁የደም	-4882
▁ፍተሻ	-4883
/2012	-4884
▁አማርኛ	-4885
▁እንድን	-4886
▁ክትባት	-4887
▁ጠቅላላ	-4888
▁የሁለተኛ	-4889
▁ያደረጉት	-4890
▁ተረጋግጧል።	-4891
ቋሚ	-4892
ort	-4893
ክክር	-4894
▁መቅ	-4895
▁ሶዶ	-4896
▁የኩ	-4897
▁ሥርዓ	-4898
▁በጊዜ	-4899
▁ተኩስ	-4900
▁እገዳ	-4901
▁የሚሰ	-4902
▁ለጊዜው	-4903
▁ሻምፒዮ	-4904
▁እንደሚያደርግ	-4905
oc	-4906
ምባ	-4907
ጫኑ	-4908
ቾችን	-4909
ነተኛ	-4910
▁መሆ	-4911
ላችንም	-4912
▁ሕክምና	-4913
▁ዝቅተኛ	-4914
▁የሚጠጉ	-4915
▁ያመላክ	-4916
▁ስደተኞች	-4917
▁የተደረገው	-4918
▁,	-4919
በዋል	-4920
ነገር	-4921
ዋንዳ	-4922
ደሮች	-4923
ጣቱን	-4924
ፓርት	-4925
▁ቶሎ	-4926
▁ግዛ	-4927
▁በአስ	-4928
▁በዛሬ	-4929
▁ባለሞ	-4930
▁አሰፋ	-4931
▁አገግ	-4932
▁ፖርቹ	-4933
ደርገውን	-4934
▁በማሸነፍ	-4935
▁ባለሥልጣ	-4936
ንጅ	-4937
ኝ።	-4938
ገገሙ	-4939
▁ማሽ	-4940
▁ጠየ	-4941
2012	-4942
▁መሰረተ	-4943
▁ሥራዎች	-4944
▁ሰላምና	-4945
▁በተባለ	-4946
ለድ	-4947
▁ፆ	-4948
ከናው	-4949
▁34	-4950
▁ሸኔ	-4951
▁አርሴ	-4952
▁ኦሎምፒክ	-4953
▁ይሆናል፡፡	-4954
▁ጨዋታቸውን	-4955
ክሩ	-4956
▁ሀሪ	-4957
▁እማ	-4958
▁አብዲ	-4959
▁ዶርት	-4960
▁ግምት	-4961
▁በመላው	-4962
▁የሚገል	-4963
▁በሁለተኛ	-4964
▁የመግቢያ	-4965
▁የሞባይል	-4966
▁ምክንያቶች	-4967
▁የአስቸኳይ	-4968
ርሀ	-4969
ዎት	-4970
ዴዝ	-4971
ial	-4972
▁ቃለ	-4973
▁1-1	-4974
▁መመዝ	-4975
▁ማለፉ	-4976
▁ሳንቲ	-4977
▁ይገኙ	-4978
ዘርላንድ	-4979
▁ብሏል፡፡	-4980
▁የከተማው	-4981
▁ገልፀዋል፡፡	-4982
ቀድ	-4983
እኔ	-4984
ወቁ	-4985
ፋስ	-4986
irr	-4987
ሙስና	-4988
ሯቸው	-4989
ቲዩብ	-4990
ዳጅነት	-4991
▁በመን	-4992
▁አበራ	-4993
▁ክሎፕ	-4994
▁በእስር	-4995
▁ተደራሽ	-4996
▁ታሪካዊ	-4997
▁አሳሳቢ	-4998
▁አንድም	-4999
▁አጀንዳ	-5000
▁የስፔን	-5001
▁አቅራቢያ	-5002
▁የገለፁት	-5003
▁ለማረጋገጥ	-5004
''	-5005
SA	-5006
ጠብቅ	-5007
▁አጣ	-5008
▁በመጠ	-5009
▁አንጻ	-5010
▁ህገወጥ	-5011
▁የምክር	-5012
▁የቻይና	-5013
▁ዩክሬን	-5014
▁ፓውንድ	-5015
ስብ	-5016
ሳችን	-5017
ባበሩት	-5018
ናልባት	-5019
ከታታይ	-5020
▁300	-5021
▁አቃቤ	-5022
▁ለመፍጠር	-5023
▁እንደነበረ	-5024
ኑሮ	-5025
መንድ	-5026
ዘርፉ	-5027
▁ሳሙ	-5028
▁ቤል	-5029
ላፊነት	-5030
▁መቅረ	-5031
▁እኩል	-5032
▁የሞት	-5033
▁ያደር	-5034
▁ጠበቃ	-5035
▁ሲደረግ	-5036
▁በቻይና	-5037
▁አጋጣሚ	-5038
▁ያሉበት	-5039
▁መቆጣጠር	-5040
▁ፈተናዎች	-5041
▁አይዘነጋም።	-5042
▁እንዲያደርግ	-5043
.1	-5044
ምሳ	-5045
ሟላ	-5046
ከስ	-5047
ውጣ	-5048
ለቀቁ	-5049
ክታር	-5050
▁ማት	-5051
▁ነግ	-5052
▁ዲያ	-5053
hare	-5054
▁ትልቁ	-5055
▁አስጠ	-5056
▁አድማ	-5057
▁ጓደኛ	-5058
▁ፀጋዬ	-5059
▁ቤታቸው	-5060
▁ተደረገ	-5061
▁ፓርቲው	-5062
▁በተለያየ	-5063
▁እንዳልተ	-5064
▁የመኖሪያ	-5065
▁የምዕራብ	-5066
65	-5067
ቸር	-5068
ኖረ	-5069
ዛም	-5070
ጎን	-5071
ፎካ	-5072
est	-5073
ንባታ	-5074
ክሲኮ	-5075
ውቅና	-5076
▁ጫማ	-5077
▁መደብ	-5078
▁ቀጣዩ	-5079
▁ታዲያ	-5080
▁እሳት	-5081
▁ጥይት	-5082
▁ማስታወ	-5083
▁ገልፀው	-5084
▁ቻናላችን	-5085
▁የከተማዋ	-5086
▁በመግለጫው	-5087
▁ከስምምነት	-5088
እን	-5089
▁ሒ	-5090
▁ፈታ	-5091
ላለች።	-5092
▁ቅናሽ	-5093
▁አንፃ	-5094
▁አያይ	-5095
▁ከማን	-5096
▁ጥቁር	-5097
▁ሁለቱም	-5098
▁ሌስተር	-5099
▁መምህር	-5100
▁መንደር	-5101
▁የተገኙ	-5102
▁ሪፐብሊክ	-5103
▁የተዘጋጀ	-5104
▁ከትምህርት	-5105
ቆሙ	-5106
ኳር	-5107
ራዘም	-5108
ብርና	-5109
ፃናት	-5110
▁ድብ	-5111
▁ገዝ	-5112
ebook	-5113
ሬዝዳንት	-5114
▁በመባል	-5115
▁አድርጋ	-5116
▁የሚገኘ	-5117
▁መግለጫው	-5118
▁ቡድናቸው	-5119
▁በእስራኤል	-5120
ሶሳ	-5121
ድቡ	-5122
ጠሎ	-5123
በርት	-5124
▁31	-5125
▁መራ	-5126
▁ይል	-5127
ናንዴዝ	-5128
▁በአል	-5129
▁እርስ	-5130
▁ከመስ	-5131
ስተዳደር	-5132
ኒሻንጉል	-5133
▁አሁኑኑ	-5134
▁አምራች	-5135
▁አደረገ	-5136
▁ዘርፎች	-5137
▁የፓርቲ	-5138
▁ሁኔታዎች	-5139
▁ማሳሰቢያ	-5140
▁በውድድር	-5141
▁እንዲያስ	-5142
▁ከበሽታው	-5143
▁ድንገተኛ	-5144
acebook	-5145
▁ያደረጉትን	-5146
▁ህይወታቸውን	-5147
መታት	-5148
ራዊቱ	-5149
ቻለሁ	-5150
ነሱት	-5151
ሮፕላን	-5152
ኅንነት	-5153
▁ቪዲዮ	-5154
▁ዜና፡	-5155
▁ግዴታ	-5156
▁መቻሉን	-5157
▁ጨዋታው	-5158
▁የሚታወስ	-5159
▁እንዳልሆነ	-5160
▁የፈረንሳይ	-5161
AM	-5162
me	-5163
ሞኑ	-5164
ረዱ	-5165
ጅጋ	-5166
ፊል	-5167
ont	-5168
ሪያው	-5169
ፒታል	-5170
▁ለዘ	-5171
▁ስድ	-5172
▁ብሬ	-5173
tube	-5174
ቂቃዎች	-5175
▁ማቆያ	-5176
▁በስራ	-5177
▁ብቸኛ	-5178
▁ከውጭ	-5179
▁ወንዝ	-5180
▁ቡድኑን	-5181
▁የመኪና	-5182
▁ይበልጥ	-5183
▁ማረጋገጥ	-5184
▁ሰንጠረዥ	-5185
▁በምስራቅ	-5186
▁አትሌቶች	-5187
75	-5188
85	-5189
መጥ	-5190
ቦና	-5191
══	-5192
ስተው	-5193
ዳል።	-5194
▁በሐ	-5195
▁ተጽ	-5196
▁ዶር	-5197
ጠቀሱት	-5198
▁ሰፈር	-5199
/2017	-5200
▁ማርቆስ	-5201
▁በቅርብ	-5202
▁ተጋላጭ	-5203
▁ትርጉም	-5204
▁የሚሰጡ	-5205
▁ያገገሙ	-5206
ደረሰባቸው	-5207
▁ስራዎችን	-5208
▁ይደረጋል	-5209
ሬድ	-5210
ኪም	-5211
ዟል	-5212
የመ	-5213
ቃወም	-5214
▁በሸ	-5215
▁ብሔ	-5216
ግባባት	-5217
▁አለ።	-5218
▁የሊግ	-5219
▁መንስኤ	-5220
▁አስነብ	-5221
▁የሳይንስ	-5222
▁የተፈጥሮ	-5223
ሂም	-5224
ለር	-5225
ስያ	-5226
ቀቅ	-5227
ነሰ	-5228
ለመደ	-5229
ሳውዲ	-5230
ቸውም	-5231
▁ይለ	-5232
▁ፈጽ	-5233
▁ለመክ	-5234
▁ለቀው	-5235
▁ሌሊት	-5236
▁በባለ	-5237
▁ያለም	-5238
▁መውጣት	-5239
▁ምስራቅ	-5240
▁አብራር	-5241
▁ውድመት	-5242
▁የቆየው	-5243
▁የቡድን	-5244
▁ያሉትን	-5245
▁በከተማው	-5246
▁ነገሮችን	-5247
▁በትናንትናው	-5248
63	-5249
eg	-5250
ይድ	-5251
ጎብ	-5252
▁ዚ	-5253
ረጋጋ	-5254
▁ማደ	-5255
▁በቆ	-5256
▁ታከለ	-5257
▁ዴኤታ	-5258
▁ቱሪዝም	-5259
▁እንዳላቸው	-5260
ak	-5261
ለቲ	-5262
መነ	-5263
ማዊ	-5264
ይስ	-5265
ጃም	-5266
ETH	-5267
ረቤት	-5268
ቅናቄ	-5269
▁ለዓ	-5270
▁ብሮ	-5271
▁ተካ	-5272
▁ሚስት	-5273
▁ታዋቂ	-5274
▁ፑቲን	-5275
▁እድገት	-5276
▁የተማሪ	-5277
▁ብራይተን	-5278
▁አክለዋል።	-5279
▁ማስጠንቀቂያ	-5280
ልህ	-5281
ሥር	-5282
ርዶ	-5283
ጥብ	-5284
ላለን	-5285
▁ሃገ	-5286
▁ሺሕ	-5287
▁ፈል	-5288
▁ፍል	-5289
▁ሁሌም	-5290
▁ሌላው	-5291
▁ማወቅ	-5292
▁ተካሂ	-5293
▁ከድር	-5294
▁የያዘ	-5295
▁የሁለቱ	-5296
▁የመማር	-5297
▁ተከሳሾች	-5298
▁የቴሌግራም	-5299
ስቀ	-5300
ዙን	-5301
ill	-5302
ቀመጠ	-5303
ንበት	-5304
ፍትህ	-5305
▁በሪ	-5306
▁ሂደቱ	-5307
▁ሱፐር	-5308
▁ስያሜ	-5309
▁4:00	-5310
▁መስኮች	-5311
▁ባሻገር	-5312
▁ተወያይ	-5313
▁የሪያል	-5314
▁የሰጡት	-5315
▁ዳንኤል	-5316
▁ፈረንሳ	-5317
▁በማቅረብ	-5318
▁ተሸከርካ	-5319
▁አስተዋጽ	-5320
▁የሚገመት	-5321
▁ይቀጥላል	-5322
▁ይችላሉ።	-5323
▁ጋዜጠኞች	-5324
ቡዕ	-5325
ረሰብ	-5326
ቶችና	-5327
ወሃት	-5328
ወሰድ	-5329
ፈለግ	-5330
▁ማታ	-5331
▁ማዳ	-5332
▁አጫ	-5333
▁ዳጉ	-5334
▁ረገድ	-5335
▁ተቆጣ	-5336
▁ጥሰት	-5337
▁አቅርቦ	-5338
▁ጋዜጣዊ	-5339
▁ባለሥልጣን	-5340
▁ፕሬዝደንት	-5341
33	-5342
ጋፍ	-5343
ሊጋው	-5344
ሕፈት	-5345
ጥረው	-5346
▁ምህ	-5347
▁ከቦ	-5348
▁የሆ	-5349
▁ይበ	-5350
▁መስጫ	-5351
▁መዳረ	-5352
▁በእጅ	-5353
▁አቁም	-5354
▁የተጣ	-5355
▁ፈጠራ	-5356
ኦንላይን	-5357
▁ማስተካ	-5358
▁ባንኮች	-5359
▁የምዝገባ	-5360
በበ	-5361
ጫን	-5362
▁&	-5363
▁Y	-5364
!!!	-5365
▁በጽ	-5366
▁እሸ	-5367
▁እጥ	-5368
▁ደሳ	-5369
ማርያም	-5370
ፖለቲካ	-5371
▁ስፔሻ	-5372
▁ካልተ	-5373
▁የገባ	-5374
▁ጥቃቱ	-5375
▁ፋሲል	-5376
▁በኬንያ	-5377
▁ተፈናቅ	-5378
▁ሀገራችን	-5379
▁አርሴናል	-5380
▁የተወሰኑ	-5381
▁ይገባል።	-5382
▁ድርጊቱን	-5383
91	-5384
ል፣	-5385
ነቅ	-5386
ዴን	-5387
▁X	-5388
▁ሦ	-5389
ምንጭ	-5390
ሰዋል	-5391
ሻውን	-5392
ናልድ	-5393
▁መረ	-5394
▁ምቹ	-5395
ment	-5396
ንግተን	-5397
ኛውንም	-5398
▁ኢብራ	-5399
▁የድን	-5400
ናይጄሪያ	-5401
▁ለማስተ	-5402
▁ማንነት	-5403
▁ሽንፈት	-5404
▁ተገለፀ	-5405
▁ነጻነት	-5406
▁ከጠዋቱ	-5407
▁በፌደራል	-5408
▁ተከታዮች	-5409
??	-5410
ትም	-5411
አን	-5412
ገዙ	-5413
▁ጤ	-5414
ለቲከ	-5415
ተርስ	-5416
ግነት	-5417
ተናል።	-5418
ፏል፡፡	-5419
▁ሲዳማ	-5420
▁በማይ	-5421
▁በጤና	-5422
▁እንኳ	-5423
▁የስነ	-5424
▁ተከታት	-5425
▁ተወካይ	-5426
▁አስጠንቅ	-5427
▁የወረዳው	-5428
▁መንግስታዊ	-5429
ra	-5430
ማያ	-5431
ረና	-5432
ቪያ	-5433
ዋሚ	-5434
art	-5435
ግግር	-5436
▁ለል	-5437
▁ግዙ	-5438
▁ሚንስ	-5439
▁ሳውዝ	-5440
▁በትክ	-5441
▁ኃይሉ	-5442
▁የቤተ	-5443
▁ለሁሉም	-5444
▁ማድረጉ	-5445
▁ወላይታ	-5446
▁ገልጸው	-5447
ርጂ	-5448
ቻች	-5449
ገዱ	-5450
ጣው	-5451
ሚያዊ	-5452
ናገሩ	-5453
ካተተ	-5454
ጻናት	-5455
▁ለቤ	-5456
▁ከሊ	-5457
▁ጓደ	-5458
▁ስዩም	-5459
▁አረብ	-5460
▁ከሆኑ	-5461
▁ወረራ	-5462
annel	-5463
▁ሲገለፅ	-5464
▁ባለበት	-5465
▁ጀርመን	-5466
▁በደረሰው	-5467
ልታ	-5468
ልቻ	-5469
ኘው	-5470
ገግ	-5471
ላላቅ	-5472
▁ሁለ	-5473
▁ንፁ	-5474
▁አቤቱ	-5475
▁የሚሸ	-5476
▁ይሰማ	-5477
▁ጀመረ	-5478
▁ጸጥታ	-5479
▁ማጣሪያ	-5480
▁እንዲሰ	-5481
▁መሰረታዊ	-5482
▁በጨዋታው	-5483
▁እንዲያገኙ	-5484
▁ዳይሬክተሩ	-5485
ሎቹ	-5486
ሮባ	-5487
ኃን	-5488
ኝት	-5489
ግሉ	-5490
ናገራ	-5491
ጉዳዩ	-5492
ፈርት	-5493
ፍረስ	-5494
▁ዎል	-5495
▁ቁልፍ	-5496
▁ናስር	-5497
▁መስኮት	-5498
▁መኖሩን	-5499
▁በደብረ	-5500
▁ከነዚህ	-5501
▁የሚገባ	-5502
▁የገለጸ	-5503
▁ደርሷል	-5504
▁ጄኔራል	-5505
▁በርካቶች	-5506
▁በሰላማዊ	-5507
▁አርቲስት	-5508
▁የመገናኛ	-5509
98	-5510
ራስ	-5511
ብቡ	-5512
ክብ	-5513
▁ቼ	-5514
አሁን	-5515
ዕምሮ	-5516
ጫወቱ	-5517
▁55	-5518
▁በጭ	-5519
▁አወ	-5520
▁The	-5521
▁ለተፈ	-5522
▁በመፍ	-5523
▁ከቤት	-5524
▁ከነገ	-5525
▁ወኪል	-5526
▁ይገል	-5527
▁ጥበብ	-5528
▁ለፖሊስ	-5529
▁መግባት	-5530
▁ውጤታማ	-5531
▁ቀበሌዎች	-5532
▁በሚጠራው	-5533
▁አምስተኛ	-5534
▁እንዲሆኑ	-5535
▁የሚፈልጉ	-5536
thiopia	-5537
▁መንቀጥቀጥ	-5538
▁ባሳለፍነው	-5539
▁አገልግሎቱ	-5540
▁እንዲመለሱ	-5541
AN	-5542
ip	-5543
በባ	-5544
ውሉ	-5545
ምሩክ	-5546
▁በፅ	-5547
▁ተሾ	-5548
▁ውጊያ	-5549
▁ልውውጥ	-5550
▁መውሰድ	-5551
▁ቻናላችንን	-5552
▁አድርገዋል	-5553
va	-5554
ያኑ	-5555
ጎት	-5556
ኪንግ	-5557
ወስዱ	-5558
ዊያን	-5559
▁ስሙ	-5560
▁ዕቃ	-5561
ቀሳቀስ	-5562
ቲክቶክ	-5563
▁መስተ	-5564
▁መውደ	-5565
▁ሰበር	-5566
▁ብሎም	-5567
▁የሚሉት	-5568
▁እንደገና	-5569
▁የሚደረገው	-5570
95	-5571
ላኑ	-5572
ወረ	-5573
ዷል	-5574
ጉር	-5575
ሃመድ	-5576
ፈለገ	-5577
▁65	-5578
▁ለፈ	-5579
▁ሰባ	-5580
▁ክፉ	-5581
▁የጅ	-5582
▁ገጾ	-5583
▁አሳይ	-5584
▁ፓላስ	-5585
ላቸዋል።	-5586
▁with	-5587
▁ለረጅም	-5588
▁አልፏል	-5589
▁የገለፀ	-5590
▁መወሰኑን	-5591
▁ስምምነቱ	-5592
▁በጦርነቱ	-5593
ለፈ	-5594
ውኑ	-5595
ዝቡ	-5596
ዲሁ	-5597
ሰበው	-5598
ሸነፉ	-5599
ቅረኛ	-5600
ተሰቦ	-5601
ኛል።	-5602
ክሽን	-5603
▁በዝ	-5604
▁ኑሮ	-5605
▁ኩን	-5606
▁ምርምር	-5607
▁በሶስት	-5608
▁የምድብ	-5609
▁ከእነዚህ	-5610
▁የአካባቢ	-5611
▁መሳሪያዎች	-5612
መና	-5613
ቀብ	-5614
ገጠ	-5615
ሰመኮ	-5616
▁መሣ	-5617
▁ተደ	-5618
ታችንን	-5619
ጣቸውን	-5620
▁መቀጠ	-5621
▁ሮድሪ	-5622
▁ሰላሳ	-5623
▁ዕድሜ	-5624
▁የእን	-5625
▁ድረገ	-5626
▁ሲያልፍ	-5627
▁በህዝብ	-5628
▁ደሳለኝ	-5629
▁ተጠናቀቀ	-5630
▁ከደቂቃዎች	-5631
ሻው	-5632
ጠባ	-5633
ስቲክ	-5634
ንቨር	-5635
▁st	-5636
▁ማሞ	-5637
▁በሜ	-5638
▁የሮ	-5639
▁መመለ	-5640
▁ወይስ	-5641
▁ለቢቢሲ	-5642
▁በሆነው	-5643
▁አንፃር	-5644
▁አፈጻጸ	-5645
▁እፈልጋ	-5646
▁ዲፕሎማ	-5647
▁በህገወጥ	-5648
▁አለመሆኑ	-5649
▁ወንጀሎች	-5650
▁በቴሌግራም	-5651
▁አትሌቲክስ	-5652
▁እንደሆነም	-5653
▁በመጀመሪያው	-5654
ላከ	-5655
ጋጥ	-5656
ለትን	-5657
ሸነፈ	-5658
ብርብ	-5659
ነበር	-5660
▁ሰዉ	-5661
▁በቃ	-5662
▁ፊል	-5663
2017	-5664
▁ነባር	-5665
▁የመጡ	-5666
▁የሰራ	-5667
መንግስት	-5668
▁በአዲሱ	-5669
▁ጥፋተኛ	-5670
▁ሁለተኛው	-5671
▁በበሽታው	-5672
▁እንዲሰጡ	-5673
▁በቢ	-5674
▁ከኤ	-5675
ስፖርት	-5676
▁0-1	-5677
▁ህፃን	-5678
▁በመግ	-5679
▁ከምን	-5680
ኮኖሚያዊ	-5681
ደረጋቸው	-5682
▁ምክክር	-5683
▁ስራውን	-5684
▁በክለቡ	-5685
▁የክብር	-5686
▁ተመስገን	-5687
▁ተፈታኞች	-5688
▁የመንገድ	-5689
▁መርሐግብር	-5690
ሞቱ	-5691
ርኩ	-5692
ብህ	-5693
ate	-5694
ሏቸው	-5695
ምየር	-5696
ሟላት	-5697
ርላማ	-5698
ሸንፍ	-5699
▁6.	-5700
▁እም	-5701
▁የሪ	-5702
▁ሙዚቃ	-5703
▁በዞኑ	-5704
▁የበረ	-5705
▁ፖስት	-5706
ጠናቀቁን	-5707
▁አስቀም	-5708
▁አንጻር	-5709
▁አዳነች	-5710
▁ገብተው	-5711
▁የሚሆነው	-5712
▁ኮርፖሬሽን	-5713
ርሱ	-5714
ቃሽ	-5715
በቱ	-5716
ዕኮ	-5717
ዛሪ	-5718
ጤት	-5719
ሙማን	-5720
ማማኝ	-5721
▁መባ	-5722
▁ቶን	-5723
ናሽናል	-5724
ፋሪኮም	-5725
▁መከሰ	-5726
▁ማዕከ	-5727
▁አንዷ	-5728
▁ክሪስ	-5729
▁ከወዲሁ	-5730
▁ኮሚቴው	-5731
▁ያልሆኑ	-5732
▁ገልፀዋል	-5733
▁በአንዳንድ	-5734
▁ፕሬዝዳንቱ	-5735
ሊድ	-5736
ሯን	-5737
ባን	-5738
ክሳ	-5739
ቤቶች	-5740
ፎችን	-5741
▁!!	-5742
▁37	-5743
▁ምሁ	-5744
▁ሲፈ	-5745
▁በዚ	-5746
▁አየ	-5747
ልስጤም	-5748
▁መያዝ	-5749
▁በሆኑ	-5750
▁ተስማ	-5751
▁የፕሮ	-5752
▁ያገለ	-5753
▁ተቋርጦ	-5754
▁ችለዋል	-5755
▁ማስከበር	-5756
▁በገንዘብ	-5757
▁እንደዚህ	-5758
▁ይጠበቃል	-5759
▁ፕሬዜዳንት	-5760
42	-5761
ረቡ	-5762
ስሉ	-5763
ኔዝ	-5764
ዕና	-5765
ወገድ	-5766
ጠበቁ	-5767
▁መቁ	-5768
▁በሩ	-5769
****	-5770
ታቸዉን	-5771
▁ሎተሪ	-5772
▁ስላል	-5773
▁በማዕ	-5774
▁ኃይለ	-5775
▁ፈጣን	-5776
▁ሰብአዊ	-5777
▁በነበሩ	-5778
▁በአጭር	-5779
▁ተቀላቅ	-5780
▁አመልካ	-5781
▁ካምፓስ	-5782
▁ዘንድሮ	-5783
▁ጥቃቶች	-5784
▁እንደሌለ	-5785
▁እንዲገቡ	-5786
▁የሚደረገ	-5787
▁የተወሰነ	-5788
▁መናገራቸውን	-5789
▁ኢንቨስትመንት	-5790
ልፉ	-5791
ሷን	-5792
ጋች	-5793
ሆንም	-5794
ሪንግ	-5795
ትሪክ	-5796
ኒስቴ	-5797
ናገድ	-5798
▁ሁል	-5799
▁መዳ	-5800
▁አዉ	-5801
ርሲሳይ	-5802
▁መኝታ	-5803
▁ርዕስ	-5804
▁በመደ	-5805
▁በአማ	-5806
▁ከታች	-5807
▁ምንዛሬ	-5808
▁በማስተ	-5809
▁አስመር	-5810
▁ውጤቶች	-5811
▁ይቻላል	-5812
▁በድሬዳዋ	-5813
▁ውድድሮች	-5814
▁የምስራቅ	-5815
▁የዩክሬን	-5816
▁ፕሪምየር	-5817
▁አደረሳችሁ	-5818
ላቻ	-5819
ድካ	-5820
ፍል	-5821
መናን	-5822
ንቀሳ	-5823
አንድ	-5824
▁ራሽ	-5825
▁ኔት	-5826
▁አዝ	-5827
▁ውሎ	-5828
ደዋል።	-5829
▁ማመን	-5830
▁ባለማ	-5831
▁አጭር	-5832
▁ደንብ	-5833
redit	-5834
▁አቅራቢ	-5835
▁እናንተ	-5836
▁የሚመጣ	-5837
▁የወርቅ	-5838
......	-5839
▁ራሳቸውን	-5840
▁ስለመሆኑ	-5841
▁አትሌቲኮ	-5842
▁የፌስቡክ	-5843
ለሙ	-5844
ባኤ	-5845
ፈቻ	-5846
ሞችን	-5847
▁75	-5848
▁የይ	-5849
▁Our	-5850
▁የጉዞ	-5851
▁ሚያዚያ	-5852
▁የተመረ	-5853
▁ግብሮች	-5854
▁ፅህፈት	-5855
▁መልቀቂያ	-5856
▁የሶማሊያ	-5857
▁በመንግሥት	-5858
▁አመልክተዋል።	-5859
ob	-5860
ሽት	-5861
ትሌ	-5862
ግዳ	-5863
ጥሎ	-5864
ደንበ	-5865
ፈጠረ	-5866
▁Ad	-5867
▁ኢሳ	-5868
▁ኦሊ	-5869
▁አደራ	-5870
▁አጋጥ	-5871
▁ኮሮና	-5872
▁ያልሆነ	-5873
▁ያንብቡ	-5874
▁ጀነራል	-5875
▁ማህበራት	-5876
▁ተገቢውን	-5877
▁እነዚህን	-5878
▁የተከሰተ	-5879
▁የቴክኒክ	-5880
▁ተደምጧል።	-5881
ቆመ	-5882
ኔን	-5883
ደቀ	-5884
▁ቺ	-5885
ard	-5886
ምቀት	-5887
ቅረፍ	-5888
ቋረጡ	-5889
ክበር	-5890
ግጅጋ	-5891
▁36	-5892
▁be	-5893
▁ሃሳ	-5894
▁በዳ	-5895
▁ኬን	-5896
▁ህንጻ	-5897
▁በመጥ	-5898
▁ብፁዕ	-5899
▁የበጎ	-5900
▁ገለፀ	-5901
/2011	-5902
▁ባሉበት	-5903
▁ለመቀነስ	-5904
▁ቆይቷል።	-5905
▁አካላትን	-5906
▁በዘላቂነት	-5907
▁ዘግቧል፡፡	-5908
ሺያ	-5909
ጋቱ	-5910
ጹም	-5911
▁ልን	-5912
ሮባንድ	-5913
በረከተ	-5914
ዎቻችን	-5915
▁ሀዘን	-5916
▁መመረ	-5917
▁ቦርዱ	-5918
▁ዕቅድ	-5919
▁የመሰ	-5920
▁የቆየ	-5921
▁መቀበል	-5922
▁መያዙን	-5923
▁ንቅናቄ	-5924
▁ካለፈው	-5925
▁የኃይል	-5926
▁ችግሮችን	-5927
▁ኢንጂነር	-5928
▁እንፈልጋ	-5929
▁የፕርሚየር	-5930
▁በዩኒቨርሲቲው	-5931
ቪች	-5932
ኙን	-5933
ትርያ	-5934
ጨመር	-5935
ፈልገ	-5936
▁ሮማ	-5937
▁ብን	-5938
▁ኤሲ	-5939
▁ኮድ	-5940
▁ይተ	-5941
ረጋገጡ	-5942
ቃለች።	-5943
▁ህዳሴ	-5944
▁ማልያ	-5945
▁ሲቪል	-5946
▁ስፔን	-5947
▁ዋዜማ	-5948
ለዋል፡፡	-5949
▁መቀላቀ	-5950
▁በድምሩ	-5951
▁አደረጃ	-5952
▁ከክልሉ	-5953
▁ለመቀበል	-5954
▁ሳይንስና	-5955
ራቱ	-5956
ዛቤ	-5957
ect	-5958
መላለ	-5959
ሥራቅ	-5960
ቆየት	-5961
ናንተ	-5962
ዝነስ	-5963
ጀምሩ	-5964
▁ሉካ	-5965
▁እመ	-5966
ሚካኤል	-5967
▁ቃጠሎ	-5968
▁በዓሉ	-5969
▁ቶማስ	-5970
▁እስክ	-5971
▁ያለዉ	-5972
▁ጀምረ	-5973
ምፒየንስ	-5974
▁አቤቱታ	-5975
▁እንደመ	-5976
▁የፍቅር	-5977
▁ይሰጣል	-5978
▁የኢንተርኔት	-5979
.8	-5980
ct	-5981
ኪያስ	-5982
▁አጽ	-5983
▁ካስ	-5984
▁ደጀ	-5985
▁ገፁ	-5986
▁ፍር	-5987
ደራጀት	-5988
▁በመር	-5989
▁በኢን	-5990
▁ቱርክ	-5991
▁አደር	-5992
▁ትውልድ	-5993
▁ክረምት	-5994
▁የቅዱስ	-5995
▁ኒውካስል	-5996
▁እንስሳት	-5997
▁የሚሰጠው	-5998
▁Credit	-5999
▁ለመገንባት	-6000
▁አሽከርካሪ	-6001
▁የህብረተሰብ	-6002
ሰነ	-6003
ገሉ	-6004
ጎል	-6005
ላንታ	-6006
▁በሂ	-6007
▁ያግ	-6008
▁በተቃ	-6009
▁የተጋ	-6010
▁የፈለ	-6011
▁ይላል	-6012
▁ሌላኛው	-6013
▁በብዛት	-6014
▁የሚዲያ	-6015
▁ይጠቀሙ	-6016
▁መንግስቱ	-6017
▁ምናልባት	-6018
▁በአሰልጣኝ	-6019
▁አስተዋጽኦ	-6020
ማች	-6021
ካሪ	-6022
ጭቱ	-6023
ፍቱ	-6024
ለያይ	-6025
ዋለሁ	-6026
ገንዝ	-6027
▁ማዋ	-6028
▁በጠ	-6029
▁ተጨ	-6030
ላለፈው	-6031
ስተናግ	-6032
ንዛኒያ	-6033
▁ሂሳብ	-6034
▁መረብ	-6035
▁ምልክ	-6036
▁ሰጥቶ	-6037
▁ስራው	-6038
▁ዋነኛ	-6039
▁የለው	-6040
▁ምዕራፍ	-6041
▁ሳንቲም	-6042
▁እናቶች	-6043
▁ከሰዓት	-6044
▁የፍፃሜ	-6045
▁ይናገራ	-6046
▁ዲጂታል	-6047
▁ለማሳደግ	-6048
▁ሚንስቴር	-6049
▁የፊታችን	-6050
▁በማስገባት	-6051
▁የሚገኘውን	-6052
ሎቱ	-6053
ጠቡ	-6054
ለምዶ	-6055
ሬትስ	-6056
▁የሠ	-6057
▁የረ	-6058
▁ታላቁ	-6059
▁ነው፣	-6060
▁ይሰራ	-6061
▁ጀርባ	-6062
ሽንግተን	-6063
▁መሣሪያ	-6064
▁ከሰሞኑ	-6065
▁ክስተት	-6066
▁የሚውል	-6067
▁የሰዎች	-6068
▁የተከለ	-6069
▁ተጠናክሮ	-6070
38	-6071
ሳኤ	-6072
ከቱ	-6073
ጥሩ	-6074
መለሰ	-6075
ሬሽኑ	-6076
ባችሁ	-6077
ታትን	-6078
▁ለቅ	-6079
▁ኦፕ	-6080
▁ፅኑ	-6081
ፈልግም	-6082
▁ሃገር	-6083
▁በመም	-6084
▁በመክ	-6085
▁በራስ	-6086
▁ቤቱን	-6087
▁ተጠቂ	-6088
ጋዜጠኞች	-6089
▁በማሰብ	-6090
▁እንዳት	-6091
▁ያቀረበ	-6092
▁ከትግራይ	-6093
▁ያደርጋል	-6094
ከተል	-6095
ገቡን	-6096
ገድዶ	-6097
▁መስክ	-6098
▁አበር	-6099
▁የሰጠ	-6100
▁የአይ	-6101
▁የዘር	-6102
▁ያድር	-6103
▁ገልጾ	-6104
▁ለሌሎች	-6105
▁ሶማሊያ	-6106
▁ተልዕኮ	-6107
▁የሚመጡ	-6108
▁ጎሎችን	-6109
▁ጠቅሰው	-6110
▁ራሽፎርድ	-6111
▁በመሆናቸው	-6112
▁አንስተዋል።	-6113
▁አድርጓል፡፡	-6114
ሄደ	-6115
ሻሽ	-6116
ችዉ	-6117
ኮል	-6118
▁ቄ	-6119
rom	-6120
ለየት	-6121
▁2,	-6122
ቀመጠው	-6123
ክቶሬት	-6124
ጠቀሰው	-6125
▁ቴንሀ	-6126
▁የገጠ	-6127
▁ገብቶ	-6128
ጭበርበር	-6129
▁መድረሱ	-6130
▁አደገኛ	-6131
▁የርገን	-6132
▁ግብይት	-6133
▁በጋምቤላ	-6134
▁የሚደረጉ	-6135
▁ያለምንም	-6136
▁ዶርትመንድ	-6137
▁ቤተሰቦቻችን	-6138
▁እግዚአብሔር	-6139
▁የአገልግሎት	-6140
ርሶ	-6141
አል	-6142
act	-6143
ማንድ	-6144
ብረቱ	-6145
ተኞቹ	-6146
ካቲት	-6147
▁ስፖ	-6148
▁ታራ	-6149
▁ሀሰን	-6150
▁ሊትር	-6151
▁በየአ	-6152
▁ብሔር	-6153
▁ተጎጂ	-6154
▁ወጥቶ	-6155
▁ጎጃም	-6156
▁ጣልቃ	-6157
▁ፍለጋ	-6158
▁2023	-6159
▁እንዲታ	-6160
▁የቻለው	-6161
▁የገበያ	-6162
▁ድርጊቱ	-6163
▁ፍጥነት	-6164
▁ፓትርያ	-6165
▁ሀገራቸው	-6166
▁በተፈጠረ	-6167
▁ባለድርሻ	-6168
▁እንደሚሰራ	-6169
▁የዩናይትድ	-6170
47	-6171
ep	-6172
ve	-6173
ቅራ	-6174
በመ	-6175
ንብ	-6176
ዚል	-6177
ሐንስ	-6178
ረኞች	-6179
ቀበሉ	-6180
▁ማሰ	-6181
▁በፋ	-6182
▁ዋት	-6183
ዘዋወር	-6184
▁ሙስሊ	-6185
▁ረቡዕ	-6186
▁ተይዘ	-6187
▁አዋጁ	-6188
▁በመሄድ	-6189
▁እውቀት	-6190
▁ክለቡን	-6191
▁ፖለቲከ	-6192
▁ምንድነው	-6193
▁አገልግሎቱን	-6194
▁ኢንተርናሽናል	-6195
PE	-6196
ሃዊ	-6197
ርታ	-6198
ቨን	-6199
ናቃ	-6200
ውድ	-6201
ጋው	-6202
ሰላም	-6203
ያችን	-6204
▁አጎ	-6205
▁ይወ	-6206
▁ደካ	-6207
ገነባው	-6208
▁ማርያ	-6209
▁በውስ	-6210
▁የድም	-6211
ርሲሳይዱ	-6212
▁መስፈር	-6213
▁መንፈስ	-6214
▁መጽሐፍ	-6215
▁በአራት	-6216
▁አብዱል	-6217
▁አካዳሚ	-6218
▁ሁላችንም	-6219
▁በህክምና	-6220
▁በአደጋው	-6221
▁ጀምሯል።	-6222
▁የሃይማኖት	-6223
▁ገብተዋል።	-6224
▁እንግሊዛዊው	-6225
ap	-6226
ትሮ	-6227
ጽግና	-6228
▁ታሪ	-6229
▁ይሸ	-6230
ደተኞች	-6231
▁በቦሌ	-6232
▁ናፖሊ	-6233
▁ፈላጊ	-6234
ሆስፒታሉ	-6235
ሞክራቲክ	-6236
▁በጉዳት	-6237
▁በፀጥታ	-6238
▁አጫጭር	-6239
▁ክልከላ	-6240
▁የተቋቋ	-6241
▁ይደረጋ	-6242
▁ይጠበቅ	-6243
▁በአገሪቱ	-6244
▁እየተባለ	-6245
▁የሌላቸው	-6246
▁ተጠቃሚዎች	-6247
▁እንዳስታወቀው	-6248
49	-6249
ባስ	-6250
ፈቱ	-6251
▁ዣ	-6252
መሪያ	-6253
ንቅለ	-6254
ውነት	-6255
▁39	-6256
▁መኪ	-6257
▁ሴጣ	-6258
▁በሆ	-6259
▁በዶ	-6260
▁ደሴ	-6261
▁400	-6262
▁ሐሙስ	-6263
▁ነዉ።	-6264
▁ኢዜአ	-6265
▁እኛም	-6266
▁ወሲብ	-6267
▁ወደሚ	-6268
▁ፕሬስ	-6269
▁ማዕረግ	-6270
▁ሳሙኤል	-6271
▁በሀዋሳ	-6272
▁ኪሊያን	-6273
▁ይህንኑ	-6274
▁ድብደባ	-6275
▁12:00	-6276
▁ለማድረስ	-6277
▁በትክክል	-6278
▁ነገርግን	-6279
▁አልባሳት	-6280
▁እንደተሰ	-6281
▁እንዲወጣ	-6282
▁የሚደርስ	-6283
ok	-6284
ላድ	-6285
ዊስ	-6286
▁ከየ	-6287
▁የአሸ	-6288
▁የጠየ	-6289
▁ሲካሄድ	-6290
▁ኩንታል	-6291
▁ለመውሰድ	-6292
▁በዩክሬን	-6293
▁ናይጄሪያ	-6294
▁እርግጠኛ	-6295
▁የተሰኘው	-6296
▁ለማጠናከር	-6297
▁የተጀመረው	-6298
▁ዳይሬክቶሬት	-6299
ለስ	-6300
ሏን	-6301
ማቅ	-6302
ርሻ	-6303
ዘኛ	-6304
ሀመድ	-6305
ቋረጠ	-6306
ኔጋል	-6307
▁ለን	-6308
▁ንጹ	-6309
▁ኮሎ	-6310
▁ጆን	-6311
▁••	-6312
ይተርስ	-6313
▁በግብ	-6314
▁ተጀም	-6315
▁እገዛ	-6316
▁ከስራ	-6317
▁ድንጋ	-6318
▁ጥፋት	-6319
▁ፓሊስ	-6320
▁መምጣት	-6321
▁በሚያስ	-6322
▁ብዙኃን	-6323
▁ቴንሀግ	-6324
▁አሰጣጥ	-6325
▁አይገባ	-6326
▁ከዚህም	-6327
▁የሙዚቃ	-6328
▁የአፋር	-6329
▁የደረጃ	-6330
▁ዶናልድ	-6331
▁ጽሕፈት	-6332
▁ለማሸነፍ	-6333
▁መልእክት	-6334
▁መመልከት	-6335
▁ሲያደርጉ	-6336
▁በመውሰድ	-6337
▁በተለምዶ	-6338
▁የሚደርሱ	-6339
▁የተደረጉ	-6340
ዶቹ	-6341
ፊው	-6342
ጠሪያ	-6343
▁38	-6344
▁7.	-6345
▁Al	-6346
▁ሳት	-6347
▁ግሩ	-6348
▁ረጅም	-6349
▁ስንት	-6350
▁በቅድ	-6351
▁ተይዞ	-6352
▁አሉ።	-6353
▁ግልፅ	-6354
▁ሀብታሙ	-6355
▁የአገር	-6356
▁ለመቅረፍ	-6357
▁በመስራት	-6358
▁በተፈጠረው	-6359
▁የሊቨርፑል	-6360
▁ፈርናንዴዝ	-6361
▁ተመላክቷል።	-6362
nd	-6363
og	-6364
ረቱ	-6365
ሪታ	-6366
ራቅ	-6367
ት፣	-6368
ፆች	-6369
ቶቹን	-6370
▁ማብ	-6371
▁ቀዶ	-6372
▁የየ	-6373
▁ፀሀ	-6374
ላቸውም	-6375
▁ሃብት	-6376
▁በዝግ	-6377
▁ያስች	-6378
▁ደመቀ	-6379
ንትፎርድ	-6380
▁ርብርብ	-6381
▁ስማቸው	-6382
▁ስኬታማ	-6383
▁ብሮድካ	-6384
▁ትዊተር	-6385
▁የሲቪል	-6386
▁ተደጋጋሚ	-6387
▁የህይወት	-6388
▁የግንባታ	-6389
▁ብራዚላዊው	-6390
▁የማኅበራዊ	-6391
▁የተፈጠረው	-6392
▁ፕሮግራሞች	-6393
36	-6394
ኖም	-6395
ደለ	-6396
ive	-6397
ልተኛ	-6398
ማውዝ	-6399
ከርድ	-6400
ክሱም	-6401
▁ልታ	-6402
▁በዛ	-6403
▁ከሃ	-6404
▁የጸ	-6405
▁ዲዛ	-6406
▁ገባ	-6407
▁መዲና	-6408
▁ባልተ	-6409
▁ተመድ	-6410
▁ታክስ	-6411
▁የሚቀ	-6412
▁ያጋጠ	-6413
▁ጎዳና	-6414
▁መጠበቅ	-6415
▁መጨመር	-6416
▁አመቻች	-6417
▁የሶስት	-6418
▁የድጋፍ	-6419
▁ድልድይ	-6420
▁እንዲቆም	-6421
▁ፕሬዝዳን	-6422
▁ፖለቲካዊ	-6423
▁......	-6424
▁ተሳታፊዎች	-6425
▁ኮሙኒኬሽን	-6426
▁እንደገለፁት	-6427
ለሽ	-6428
ዋጭ	-6429
ዓቱ	-6430
ጃጅ	-6431
ጓዴ	-6432
▁=	-6433
ለኞች	-6434
ሞክር	-6435
ጠሩት	-6436
▁በሺ	-6437
▁በኋ	-6438
▁ቨር	-6439
▁ፎቅ	-6440
ላለፉት	-6441
ታለች።	-6442
▁በቋሚ	-6443
▁ባስተ	-6444
▁አቤቤ	-6445
▁ዳዊት	-6446
በታል፡፡	-6447
ጠናቀቀው	-6448
▁ማድረጋ	-6449
▁በኢትዮ	-6450
▁አንበሳ	-6451
▁ከተማዋ	-6452
▁የሰጠው	-6453
▁ለመግዛት	-6454
▁ኢኮኖሚያዊ	-6455
▁የተከሰተው	-6456
55	-6457
ብይ	-6458
ኾነ	-6459
ፅኦ	-6460
ፎቶ	-6461
ሰራው	-6462
በዚህ	-6463
ነሳት	-6464
ፃቸው	-6465
▁ራሱ	-6466
▁በሬ	-6467
▁በሻ	-6468
▁ቫን	-6469
▁ነህ	-6470
▁ከሐ	-6471
▁ክላ	-6472
ረንጓዴ	-6473
▁ሱቆች	-6474
▁ተዋጊ	-6475
▁ናቸዉ	-6476
▁0910	-6477
▁ለገበያ	-6478
▁ቀርበው	-6479
▁ተሰጥቶ	-6480
▁ተፅዕኖ	-6481
▁ኅብረት	-6482
▁አልያም	-6483
▁የቡድኑ	-6484
▁ዩቲዩብ	-6485
▁ነጋዴዎች	-6486
▁አባላትን	-6487
▁የአገሪቱ	-6488
▁ፍልስፍና	-6489
▁የሚያደርገውን	-6490
1,	-6491
ff	-6492
ሕዶ	-6493
ሠሩ	-6494
ሮብ	-6495
ቡላ	-6496
sta	-6497
ላለሁ	-6498
ቀጥሉ	-6499
ንደኛ	-6500
ፉትን	-6501
▁ማዘ	-6502
▁ሳካ	-6503
▁አቁ	-6504
▁ኤስ	-6505
▁የሥ	-6506
▁የከ	-6507
ሌክትሮ	-6508
ዎድሮስ	-6509
ጧል፡፡	-6510
▁እኔም	-6511
▁ክልሉ	-6512
▁ኮንጎ	-6513
▁መዋቅር	-6514
▁ማኅበር	-6515
▁በባህር	-6516
▁አመላክ	-6517
▁እየሰሩ	-6518
▁ከነበረው	-6519
▁የብሄራዊ	-6520
▁እያንዳንዳቸው	-6521
St	-6522
ሾቹ	-6523
ዛኝ	-6524
ዝድ	-6525
ረማያ	-6526
▁ለዩ	-6527
▁ተፋ	-6528
▁ከዘ	-6529
▁ገዢ	-6530
▁መሄድ	-6531
▁በተሰ	-6532
▁አጠቃ	-6533
▁የኑሮ	-6534
▁ግራም	-6535
▁በሴቶች	-6536
▁ትክክል	-6537
▁ወይንም	-6538
▁የመቐለ	-6539
▁የፍርድ	-6540
▁ይሁንና	-6541
▁ድንጋይ	-6542
TIKVAH	-6543
ግዚአብሔር	-6544
▁.....	-6545
▁አልቻለም	-6546
▁መኖራቸውን	-6547
▁አስተማማኝ	-6548
ርጋ	-6549
ደድ	-6550
ገማ	-6551
▁ሣ	-6552
ure	-6553
ንግስ	-6554
እንደ	-6555
የሱስ	-6556
▁..	-6557
▁wh	-6558
▁ስና	-6559
▁ቆስ	-6560
▁በሱ	-6561
ንስሳት	-6562
▁Pro	-6563
ስተካከል	-6564
▁መሆኑም	-6565
▁ማጥፋት	-6566
▁ሜዳሊያ	-6567
▁ተከሳሹ	-6568
▁እንዳሳ	-6569
▁የተውጣ	-6570
▁የክፍያ	-6571
▁የደረሱ	-6572
▁ለሁለተኛ	-6573
▁አለማየሁ	-6574
▁አማራጮች	-6575
▁እናደርሳ	-6576
▁የሚካሄድ	-6577
▁ማኅበረሰብ	-6578
▁እንዲቀጥል	-6579
▁የተመሰረተ	-6580
▁የሚደረገውን	-6581
ገታ	-6582
▁ኹ	-6583
ric	-6584
ሰራጩ	-6585
ታደግ	-6586
ኮችን	-6587
ዲያል	-6588
ጃፓን	-6589
ጠብቁ	-6590
ጥታው	-6591
▁ሩጫ	-6592
▁ካላ	-6593
▁ጥሰ	-6594
▁ሕጋዊ	-6595
▁መሸጫ	-6596
▁መድሀ	-6597
▁ሚስጥ	-6598
▁ስልጣ	-6599
▁ስፖር	-6600
▁በአው	-6601
▁ብርቱ	-6602
▁ተጠይ	-6603
▁ናት።	-6604
▁አድን	-6605
▁የለን	-6606
▁ግልጽ	-6607
▁መዋሉን	-6608
▁በቀጣዩ	-6609
▁በውሰት	-6610
▁ውስጥም	-6611
▁የኮንት	-6612
▁ዩንቨር	-6613
▁ማስተላለ	-6614
▁ማዕከላዊ	-6615
▁ሻምፒዮን	-6616
▁ጠቅሷል።	-6617
▁ተያይዟል።	-6618
▁አለመግባባት	-6619
▁እንደሚጀምር	-6620
▁የመርሲሳይዱ	-6621
▁የተፈጠረውን	-6622
67	-6623
68	-6624
ሊና	-6625
ቀጣ	-6626
በኙ	-6627
በጥ	-6628
ቪስ	-6629
ንቴ	-6630
ዞን	-6631
ጋሜ	-6632
ምነቱ	-6633
ራረዱ	-6634
ርያው	-6635
ነውን	-6636
ከፈተ	-6637
ድመው	-6638
ጋራት	-6639
▁ርእ	-6640
▁ኡማ	-6641
▁ፎር	-6642
ችለውን	-6643
ጠርጣሪ	-6644
▁ልደታ	-6645
▁በጥሩ	-6646
▁አመለ	-6647
▁አነጋ	-6648
▁የውጪ	-6649
▁መፍጠር	-6650
▁ከደቡብ	-6651
▁ያገኛሉ	-6652
▁ፌደራል	-6653
▁በመግለፅ	-6654
▁ተነግሯል	-6655
▁ተወላጆች	-6656
▁እንዲፈቱ	-6657
▁ከአሜሪካ	-6658
▁የማድረግ	-6659
▁ከመስከረም	-6660
▁የተጠረጠሩ	-6661
▁እንደሚቀጥል	-6662
ud	-6663
ረቀ	-6664
ራጌ	-6665
ሰሙ	-6666
ቃቢ	-6667
ብል	-6668
ኤፍ	-6669
፣የ	-6670
ልሀም	-6671
ፅግና	-6672
▁ከጉ	-6673
▁ኮፒ	-6674
መልከቱ	-6675
ጋላዊው	-6676
▁150	-6677
▁ሁሴን	-6678
▁ለፊት	-6679
▁ትውል	-6680
▁ካምፕ	-6681
▁ውይይ	-6682
▁ዘውዴ	-6683
▁ለፍርድ	-6684
▁መርማሪ	-6685
▁ታላላቅ	-6686
▁ከተማን	-6687
▁ከዓለም	-6688
▁የውስጥ	-6689
▁ደመወዝ	-6690
▁ግጭቶች	-6691
▁ለመግባት	-6692
▁አድራጎት	-6693
▁በሚመለከት	-6694
▁ጠቁመዋል፡፡	-6695
▁አስታውቀዋል፡፡	-6696
ሬስ	-6697
ቧን	-6698
ቴጂ	-6699
ኘት	-6700
ደቱ	-6701
▁j	-6702
ኒየር	-6703
ኖርም	-6704
ውቀት	-6705
▁an	-6706
▁በሴ	-6707
▁በች	-6708
▁ዕለ	-6709
▁ይነ	-6710
ታደራዊ	-6711
▁ማቆም	-6712
▁በሕገ	-6713
▁ባሕር	-6714
▁ችሎታ	-6715
▁አልጋ	-6716
▁አፋር	-6717
▁ዘመኑ	-6718
▁የወጡ	-6719
▁ግፊት	-6720
▁ሲደርስ	-6721
▁በአገር	-6722
▁ነበሩ።	-6723
▁መድሃኒት	-6724
▁በመግለጽ	-6725
▁እግርኳስ	-6726
▁ለማጠናቀቅ	-6727
az	-6728
ek	-6729
ለይ	-6730
ረሪ	-6731
ነን	-6732
ኩ።	-6733
ጋኒ	-6734
igh	-6735
ምርጫ	-6736
ክትል	-6737
ዓላዊ	-6738
▁48	-6739
▁ምእ	-6740
▁ሰይ	-6741
▁ስዊ	-6742
▁ዘዴ	-6743
▁የሬ	-6744
ምህራን	-6745
▁መጠጥ	-6746
▁በዝር	-6747
▁ካቢኔ	-6748
▁የሰነ	-6749
▁የታገ	-6750
▁ግቡን	-6751
▁ጥልቅ	-6752
▁መዳረሻ	-6753
▁በፍፁም	-6754
▁ኢሳያስ	-6755
▁እንደዘ	-6756
▁የቤተሰ	-6757
▁የተገደ	-6758
▁ይሄንን	-6759
▁ጠቁሟል።	-6760
▁እየተከናወነ	-6761
97	-6762
ሬዚ	-6763
በሻ	-6764
ይዝ	-6765
መውን	-6766
ሰቡን	-6767
ሳዕና	-6768
ነት፣	-6769
ንጅት	-6770
ያለሁ	-6771
▁ለደ	-6772
▁ቪን	-6773
▁እሷ	-6774
▁እባ	-6775
▁ይዛ	-6776
▁ወላጅ	-6777
▁ይኸው	-6778
መዘገበው	-6779
▁ሄክታር	-6780
▁መስፍን	-6781
▁መንገደ	-6782
▁ሪከርድ	-6783
▁በአዳማ	-6784
▁አለው።	-6785
▁አጠናቀ	-6786
▁ዎልቭስ	-6787
▁የሲዳማ	-6788
▁የተሰማ	-6789
▁የተከላ	-6790
▁መድኃኒት	-6791
▁አስታወቁ	-6792
▁የተሰጠው	-6793
▁በየትኛውም	-6794
▁ከመንግስት	-6795
▁የቴክኖሎጂ	-6796
▁ተገኝተዋል።	-6797
▁Facebook	-6798
ሙና	-6799
ገጣ	-6800
▁ሟ	-6801
▁ኛ	-6802
ite	-6803
ልድያ	-6804
አዲስ	-6805
ግራት	-6806
▁ለኮ	-6807
▁ኖር	-6808
▁ኢም	-6809
▁እጣ	-6810
▁ከሕ	-6811
▁ከቆ	-6812
▁ጠበ	-6813
ነታችን	-6814
ጣልያን	-6815
ፒኤስጂ	-6816
▁com	-6817
▁በእን	-6818
▁ጠቅሶ	-6819
▁በከፊል	-6820
▁ቲክቶክ	-6821
▁አፈፃፀ	-6822
▁ከጥቂት	-6823
▁ዜግነት	-6824
▁የሶማሌ	-6825
▁ግንዛቤ	-6826
▁ጥላሁን	-6827
▁መገኘቱን	-6828
▁አስተናግ	-6829
▁ጉዳዮችን	-6830
▁መንቀሳቀስ	-6831
▁መንግሥታት	-6832
▁በሚቀጥለው	-6833
34	-6834
ይሮ	-6835
ፍጨ	-6836
one	-6837
ህነት	-6838
ወሰኑ	-6839
▁በጀ	-6840
▁ተቆ	-6841
▁ውብ	-6842
ጃቸውን	-6843
▁ሹመት	-6844
▁በመላ	-6845
▁አካሂ	-6846
ክርስቲያ	-6847
▁ምንዛሪ	-6848
▁ስብከት	-6849
▁በመድረ	-6850
▁አደሮች	-6851
▁ከከተማ	-6852
▁የተጫዋ	-6853
▁ሲያደርግ	-6854
▁በወረዳው	-6855
▁እናደርጋ	-6856
▁የመስመር	-6857
▁በመጨረሻም	-6858
▁የተረጋገጠ	-6859
▁ዴሞክራሲያዊ	-6860
ህሉ	-6861
ለላ	-6862
ፋይ	-6863
ከተሉ	-6864
ጠናቅ	-6865
▁ትግ	-6866
▁ክን	-6867
ikva	-6868
ላውቅም	-6869
ታችሁን	-6870
▁ሊጉን	-6871
▁ምደባ	-6872
▁ሰለባ	-6873
▁ስለም	-6874
▁በቤተ	-6875
▁ንጋቱ	-6876
▁አያስ	-6877
▁ኦነግ	-6878
▁ክቡር	-6879
▁ድርቅ	-6880
▁ፍንዳ	-6881
ፈልጋቸው	-6882
▁በደንብ	-6883
▁የሚቆይ	-6884
▁የቼልሲ	-6885
▁ጦርነቱ	-6886
▁በስተቀር	-6887
▁በተያዘው	-6888
▁አንደኛው	-6889
▁እንደምን	-6890
▁ይፈልጋሉ	-6891
▁ደኅንነት	-6892
▁በሚደረገው	-6893
▁የሚወስደው	-6894
ህለ	-6895
ንጆ	-6896
አዴ	-6897
ፍስ	-6898
▁ጦ	-6899
ይንግ	-6900
ጠይቁ	-6901
▁47	-6902
▁ተክ	-6903
▁እል	-6904
ከተለው	-6905
▁ስትራ	-6906
▁አክሲ	-6907
▁የክት	-6908
ይማኖታዊ	-6909
▁በረከት	-6910
▁በየቀኑ	-6911
▁ተዋሕዶ	-6912
▁እንዲተ	-6913
▁የደብረ	-6914
▁ጉባኤው	-6915
▁መድፈኞቹ	-6916
▁ከአፍሪካ	-6917
▁የሕክምና	-6918
▁youtube	-6919
▁እንደሚያደርጉ	-6920
▁የሚመለከታቸው	-6921
AT	-6922
ww	-6923
ሟሉ	-6924
ኗል	-6925
ኩም	-6926
ደላ	-6927
ግዝ	-6928
ፈሩ	-6929
፣በ	-6930
300	-6931
ሀምፕ	-6932
ስተም	-6933
▁ተጣ	-6934
▁ዋለ	-6935
▁ይደ	-6936
▁ከተፈ	-6937
▁የክስ	-6938
▁ገለጻ	-6939
▁ሆስፒታ	-6940
▁በመቐለ	-6941
▁በሩሲያ	-6942
▁በፍርድ	-6943
▁ባላቸው	-6944
▁እንዲሁ	-6945
▁ከተማው	-6946
▁ካልሆነ	-6947
▁የሀዋሳ	-6948
▁እንግዶች	-6949
▁ከጨዋታው	-6950
▁እንደሚያሳ	-6951
▁ፕሮጀክቶች	-6952
▁ተመልክቷል።	-6953
▁የደረሰባቸው	-6954
ማም	-6955
ናስ	-6956
▁k	-6957
lay	-6958
ለፊት	-6959
ኞቹን	-6960
▁it	-6961
▁ማቀ	-6962
▁ምኞ	-6963
ማውያን	-6964
▁መሰና	-6965
▁መፈጸ	-6966
▁ሽፋን	-6967
▁ቅጥር	-6968
▁ተቆጥ	-6969
▁አንቺ	-6970
▁ወርቁ	-6971
▁የቻለ	-6972
▁ህሙማን	-6973
▁የሚያው	-6974
▁የጭነት	-6975
▁ጁኒየር	-6976
▁አስደናቂ	-6977
▁ተነግሯል፡፡	-6978
▁የሚያደርጉት	-6979
▁የማህበረሰብ	-6980
▁ያመለክታል።	-6981
sc	-6982
ረጡ	-6983
ናጋ	-6984
ant	-6985
ለችው	-6986
ላለች	-6987
ኔታው	-6988
ጠላት	-6989
▁በሙ	-6990
▁ቴክ	-6991
▁አሞ	-6992
▁የዉ	-6993
▁ግር	-6994
ነሪንግ	-6995
▁ለይቶ	-6996
▁በመታ	-6997
▁አገኘ	-6998
▁ካሜራ	-6999
▁የህዝ	-7000
▁የአስ	-7001
▁ያላት	-7002
▁0913	-7003
▁ሮበርት	-7004
▁በኋላም	-7005
▁ተይዘው	-7006
▁ከጀመረ	-7007
▁በስፍራው	-7008
▁በጎንደር	-7009
▁ባህርዳር	-7010
▁የምርምር	-7011
▁የተሳተፉ	-7012
▁የዲጂታል	-7013
▁ይመልከቱ	-7014
▁ተጠርጣሪው	-7015
▁አለመሆኑን	-7016
▁አረጋግጧል።	-7017
/0	-7018
88	-7019
ge	-7020
°°	-7021
ኤን	-7022
የስ	-7023
ጥል	-7024
▁ጾ	-7025
ላሊት	-7026
ካተቱ	-7027
ወጡት	-7028
ገራሚ	-7029
▁XI	-7030
▁ብቁ	-7031
▁ታካ	-7032
ከባቢው	-7033
▁ሞሮኮ	-7034
▁በመመ	-7035
▁በብዙ	-7036
▁የክል	-7037
▁ይመለ	-7038
▁2024	-7039
▁ለመላው	-7040
▁ለማስቀ	-7041
▁መርምሮ	-7042
▁መዘጋጀ	-7043
▁ባልደረ	-7044
▁እንሰራ	-7045
▁የዛሬው	-7046
▁ስለሆነም	-7047
▁በመደበኛ	-7048
▁ከትላንት	-7049
▁ለመቀላቀል	-7050
▁በኦንላይን	-7051
▁ያስፈልጋል	-7052
▁+251907	-7053
▁ዩኒቨርስቲዎች	-7054
መኔ	-7055
ራጭ	-7056
ዚን	-7057
ደቅ	-7058
ልጣኑ	-7059
ቃለን	-7060
ከፍሉ	-7061
ያዝያ	-7062
▁ሽጉ	-7063
▁ተን	-7064
▁የጽ	-7065
▁የፅ	-7066
▁ዳቦ	-7067
▁ጠር	-7068
ሚኒስት	-7069
ሰብዓዊ	-7070
ታወቁት	-7071
ዋሪዎች	-7072
▁ላልተ	-7073
▁መልካ	-7074
▁ቀንድ	-7075
▁በሕግ	-7076
▁ተቀጣ	-7077
▁ትግል	-7078
▁አለች	-7079
▁የመክ	-7080
▁የሚነ	-7081
▁የገቢ	-7082
▁ያገኙ	-7083
▁••●	-7084
▁ስርዓቱ	-7085
▁በምርጫ	-7086
▁ባለሀብ	-7087
▁ተጫዋቹ	-7088
▁እስከሚ	-7089
▁ክብደት	-7090
▁ክፍተት	-7091
▁የቱርክ	-7092
▁በንብረት	-7093
▁በእስራት	-7094
▁ተቋማትን	-7095
▁ክሪስታል	-7096
▁የድርጅቱ	-7097
▁ፊትለፊት	-7098
▁የተከላካይ	-7099
▁እናደርሳለን	-7100
ባጭ	-7101
ዊቷ	-7102
ዥም	-7103
ዴል	-7104
▁ቂ	-7105
dis	-7106
ለቀቅ	-7107
ልምና	-7108
ራቱን	-7109
ነርጂ	-7110
ግለሰ	-7111
ፈጥር	-7112
▁ሆን	-7113
▁ለሽ	-7114
▁ለግ	-7115
▁ማጓ	-7116
መስረት	-7117
▁መላው	-7118
▁እናው	-7119
▁ጊዜው	-7120
▁ግልጋ	-7121
▁ሃገራት	-7122
▁ተንቀሳ	-7123
▁ከሁሉም	-7124
▁ያላችሁ	-7125
▁ዮሐንስ	-7126
▁Share	-7127
▁ባካሄደው	-7128
▁ተገለጸ።	-7129
▁የቀረበው	-7130
▁የድሬዳዋ	-7131
▁የሀገሪቱን	-7132
▁አስነብቧል።	-7133
66	-7134
AR	-7135
se	-7136
ሊቱ	-7137
ሪው	-7138
እኖ	-7139
ዛዥ	-7140
ደመ	-7141
end	-7142
ቻልም	-7143
ከለኛ	-7144
ከሰቱ	-7145
▁43	-7146
▁ላሉ	-7147
▁ምላ	-7148
▁ቀኑ	-7149
▁ከድ	-7150
▁ከፕ	-7151
▁ውር	-7152
ሊላንድ	-7153
▁ለምት	-7154
▁ማሰል	-7155
▁ማሸነ	-7156
▁አንጋ	-7157
▁ኢራን	-7158
▁ክብረ	-7159
▁ዋልያ	-7160
▁የሰጡ	-7161
▁ግሩፕ	-7162
▁ተስማም	-7163
▁ወልቂጤ	-7164
▁የተቋሙ	-7165
▁ተዘግቧል	-7166
▁እንጠይቃ	-7167
▁ከጥቅምት	-7168
▁መጠናቀቁን	-7169
▁አገልግሎቶችን	-7170
ሳራ	-7171
ዋይ	-7172
ያያ	-7173
ert	-7174
ሰውን	-7175
ከፈል	-7176
ጋርድ	-7177
ፈዋል	-7178
▁8.	-7179
▁ET	-7180
▁ቡር	-7181
▁የኪ	-7182
ስተላል	-7183
ትናንት	-7184
ዳሪዎች	-7185
▁2-1	-7186
▁ለባለ	-7187
▁መላክ	-7188
▁መካሄ	-7189
▁ክትባ	-7190
▁ምስክር	-7191
▁በምስሉ	-7192
▁ተነስቶ	-7193
▁ከቅርብ	-7194
▁የውሳኔ	-7195
▁ያውቃሉ	-7196
▁በቀጣይም	-7197
▁መያዛቸውን	-7198
▁በተከሰተው	-7199
▁ይገኙበታል።	-7200
▁አስታዉቋል፡፡	-7201
ረጠ	-7202
ሬል	-7203
ድና	-7204
ran	-7205
በትና	-7206
ቡባዊ	-7207
ከብር	-7208
ከትል	-7209
ኪሞች	-7210
ገበያ	-7211
▁Ph	-7212
▁ሳለ	-7213
▁ተተ	-7214
የታቸው	-7215
▁2-0	-7216
▁ሲሰጥ	-7217
▁ታሳቢ	-7218
▁አያሌ	-7219
▁እኔን	-7220
▁የሚለ	-7221
▁የተወ	-7222
▁ጅቡቲ	-7223
ሰዋል፡፡	-7224
▁ማጣራት	-7225
▁ክህሎት	-7226
▁ፍቅረኛ	-7227
▁ምርቶችን	-7228
▁ስድስተኛ	-7229
▁ኢብራሂም	-7230
▁እንዲቀጣ	-7231
▁የተወሰደ	-7232
▁ይታወሳል	-7233
▁ደቂቃዎች	-7234
▁ማንኛውንም	-7235
▁ደርሰዋል።	-7236
▁ብሬንትፎርድ	-7237
CS	-7238
ev	-7239
ሪቶ	-7240
ራኒ	-7241
ርን	-7242
ኮስ	-7243
ere	-7244
ian	-7245
ምፒው	-7246
ጎችን	-7247
▁02	-7248
▁ሙሴ	-7249
▁ሩብ	-7250
ስቲክስ	-7251
▁በቤት	-7252
▁አሳር	-7253
▁ኮቪድ	-7254
▁ፊርማ	-7255
▁ማራቶን	-7256
▁በተመጣ	-7257
▁በፍቅር	-7258
▁አስመዝ	-7259
▁አፋጣኝ	-7260
▁የበጀት	-7261
▁የወርሀ	-7262
▁መረጋጋት	-7263
▁በወቅታዊ	-7264
▁አመልካቾች	-7265
▁አገግመዋል።	-7266
ማሌ	-7267
ሪዝ	-7268
ተዳ	-7269
ጦት	-7270
ern	-7271
ide	-7272
ላይት	-7273
ምረቻ	-7274
ሞክሩ	-7275
ቃችሁ	-7276
ጅምላ	-7277
▁ለራ	-7278
▁ሊቃ	-7279
▁ከሞ	-7280
▁ዜጋ	-7281
▁ጃክ	-7282
2700	-7283
ምራዊት	-7284
▁ለሆኑ	-7285
▁በውሃ	-7286
▁በግን	-7287
▁በጥር	-7288
▁ተለይ	-7289
▁ትርፍ	-7290
▁አያው	-7291
▁እየቀ	-7292
▁የማለ	-7293
መለከቱት	-7294
▁2020	-7295
▁ለመፍት	-7296
▁ሉዓላዊ	-7297
▁ማህበሩ	-7298
▁በሚባል	-7299
▁በሺዎች	-7300
▁አስከፊ	-7301
▁እንገኛ	-7302
▁የቀረቡ	-7303
▁የባንኩ	-7304
▁ሰምቷል።	-7305
▁በሶማሊያ	-7306
▁በአምስት	-7307
▁እስልምና	-7308
▁በፈረንሳይ	-7309
▁የቴሌቪዥን	-7310
▁ጠቅሰዋል።	-7311
▁ከማንችስተር	-7312
ሜት	-7313
ታች	-7314
ነሽ	-7315
ዳው	-7316
▁<	-7317
ክንያ	-7318
ጻቸው	-7319
▁ex	-7320
▁ለይ	-7321
▁ሰላ	-7322
▁ተጓ	-7323
ence	-7324
ራለች።	-7325
▁ማሰብ	-7326
▁ስላለ	-7327
▁ተሰል	-7328
▁የልዩ	-7329
▁የደረ	-7330
▁ያመጣ	-7331
▁ጥብቅ	-7332
ዎቻቸውን	-7333
▁ስለሚያ	-7334
▁በእሳት	-7335
▁በእግር	-7336
▁አመለካ	-7337
▁አሳዛኝ	-7338
▁ወስደው	-7339
▁የራሱን	-7340
▁ጣቢያው	-7341
▁መግባባት	-7342
▁ማምሻውን	-7343
▁በትዊተር	-7344
▁ከስልጣን	-7345
▁የሚጠበቅ	-7346
▁መዋላቸውን	-7347
▁የሚካሄደው	-7348
▁የሳይንስና	-7349
▁የዘንድሮው	-7350
▁እንፈልጋለን	-7351
ምጡ	-7352
ኾኑ	-7353
ዝን	-7354
ፈነ	-7355
▁ሓ	-7356
ika	-7357
መስል	-7358
ሜሽን	-7359
ረስት	-7360
ስፋፋ	-7361
ቀደው	-7362
ኩረት	-7363
ካቸው	-7364
ክረው	-7365
ዚያዊ	-7366
▁or	-7367
▁በፀ	-7368
▁በፊ	-7369
▁ኢት	-7370
▁የና	-7371
▁ያነ	-7372
ርሰናል	-7373
▁መጥፎ	-7374
▁ሲሰራ	-7375
▁በመካ	-7376
▁ተገደ	-7377
▁እንች	-7378
▁ከግን	-7379
▁ያተኮ	-7380
▁ይረዳ	-7381
ፌዴሬሽን	-7382
▁ለማለት	-7383
▁ለማየት	-7384
▁በተቋሙ	-7385
▁በጥይት	-7386
▁ተደርገ	-7387
▁ውጥረት	-7388
▁የህዳሴ	-7389
▁የቅርብ	-7390
ደረገባቸው	-7391
▁በዋናነት	-7392
▁በየዓመቱ	-7393
▁ተጫዋቹን	-7394
▁ቴዎድሮስ	-7395
▁አላውቅም	-7396
▁እውነተኛ	-7397
▁የተፈጸመ	-7398
▁የወላይታ	-7399
▁የሀገራችን	-7400
▁ይታወቃል፡፡	-7401
96	-7402
qu	-7403
ሃሴ	-7404
ባራ	-7405
ዞች	-7406
በከር	-7407
ትሌቲ	-7408
▁42	-7409
▁ከቡ	-7410
▁ዳግ	-7411
ላይዝድ	-7412
ምግባር	-7413
▁ሁከት	-7414
▁መስመ	-7415
▁በትን	-7416
▁የያዙ	-7417
▁ያሰለ	-7418
▁ይወስ	-7419
▁ምንጭ፡	-7420
▁ሞባይል	-7421
▁ስትሆን	-7422
▁በዓሉን	-7423
▁እንደቀ	-7424
▁እየሆነ	-7425
▁ክርክር	-7426
▁ዋንጫው	-7427
▁የብልት	-7428
270050	-7429
▁ሻምፒዮና	-7430
▁ቀርቧል።	-7431
▁በመደወል	-7432
▁አያይዘው	-7433
▁እንደማያ	-7434
▁የተለያየ	-7435
▁ማለታቸውን	-7436
▁የስደተኞች	-7437
▁የተከለከለ	-7438
▁ዩናይትድን	-7439
ሑፍ	-7440
ብሩ	-7441
ጣዊ	-7442
▁ዑ	-7443
ኒቶች	-7444
ኳታር	-7445
ገነቡ	-7446
▁3,	-7447
▁ሞል	-7448
▁በቱ	-7449
▁በኩ	-7450
▁ትእ	-7451
▁ሽብር	-7452
▁ተሞክ	-7453
▁ተዘር	-7454
▁ተፈራ	-7455
▁እነሱ	-7456
▁ኮንግ	-7457
▁የበኩ	-7458
▁የተቆ	-7459
▁ጃዋር	-7460
▁ፕሬዘ	-7461
etika	-7462
▁ህዝባዊ	-7463
▁ቁሳቁስ	-7464
▁በአየር	-7465
▁ባደረገ	-7466
▁አዲሱን	-7467
▁ከሶስት	-7468
▁የሚሰጠ	-7469
▁ፍራንክ	-7470
▁በጊዜያዊ	-7471
▁በጠቅላይ	-7472
▁በፌስቡክ	-7473
▁አፈጻጸም	-7474
▁ውድድሩን	-7475
▁በነበራቸው	-7476
▁ፈረንሳዊው	-7477
ID	-7478
MA	-7479
be	-7480
ንዱ	-7481
ከማ	-7482
ዋዕ	-7483
ዓሉ	-7484
▁ቸ	-7485
ብረው	-7486
ብናል	-7487
ዓመት	-7488
ግባኝ	-7489
▁ሆይ	-7490
▁በቶ	-7491
▁አኳ	-7492
ነቶችን	-7493
▁www	-7494
▁ሰብስ	-7495
▁ሳውዲ	-7496
▁በአዋ	-7497
▁በየነ	-7498
▁ተክለ	-7499
▁የእጅ	-7500
▁መሆኗን	-7501
▁መረጃና	-7502
▁መፅሀፍ	-7503
▁እየሰጠ	-7504
▁ከክለቡ	-7505
▁የግብፅ	-7506
▁መመዝገብ	-7507
▁ቁጥራቸው	-7508
▁የክረምት	-7509
▁የግብርና	-7510
ረሙ	-7511
ሮስ	-7512
ሳቱ	-7513
በቡ	-7514
የእ	-7515
ችሉም	-7516
ውሎስ	-7517
▁ch	-7518
▁ፆታ	-7519
ጠበቀው	-7520
▁መፈፀ	-7521
▁ብለህ	-7522
▁እናስ	-7523
▁በመላክ	-7524
▁በእርስ	-7525
▁በጸጥታ	-7526
▁ተጀመረ	-7527
▁ተገናኝ	-7528
▁አላችሁ	-7529
▁ካፒታል	-7530
▁የታላቁ	-7531
▁11:00	-7532
▁ሆነዋል።	-7533
▁ለማምጣት	-7534
▁ለማሻሻል	-7535
▁በመቃወም	-7536
▁አስገራሚ	-7537
▁አጠናክሮ	-7538
▁ማስተካከያ	-7539
▁የተፈናቀሉ	-7540
//	-7541
ሴፍ	-7542
ብሳ	-7543
ተህ	-7544
ነሩ	-7545
ድቅ	-7546
ጣኔ	-7547
ack	-7548
ism	-7549
ባቢያ	-7550
አበባ	-7551
▁44	-7552
▁ሮቤ	-7553
▁እቅ	-7554
▁ገድ	-7555
ሰራጨት	-7556
▁600	-7557
▁ቤቲካ	-7558
▁አስቆ	-7559
▁እሸቱ	-7560
▁የግድ	-7561
▁ያወጣ	-7562
▁ይዘን	-7563
▁ጀርመ	-7564
▁ሁልጊዜ	-7565
▁በሶማሌ	-7566
▁በእጅጉ	-7567
▁ታውቋል	-7568
▁አብረው	-7569
▁እቃዎች	-7570
▁እያስተ	-7571
▁ክልል፣	-7572
▁የሚመራ	-7573
▁የጀመረ	-7574
▁ያካተተ	-7575
የኢትዮጵያ	-7576
▁በሚኪያስ	-7577
▁በእነዚህ	-7578
▁ተናገሩ።	-7579
▁አይችልም	-7580
▁እየተጣራ	-7581
▁ውሳኔውን	-7582
▁የተሳሳተ	-7583
▁ህብረተሰብ	-7584
▁አከባቢዎች	-7585
▁ተጠርጣሪዎቹ	-7586
▁Ethiopia	-7587
IN	-7588
ss	-7589
ለጡ	-7590
ሎቲ	-7591
ረፉ	-7592
ሲሉ	-7593
ችም	-7594
ዉም	-7595
:45	-7596
ሉበት	-7597
ሚንቶ	-7598
ችኋል	-7599
ንደስ	-7600
ኤስቲ	-7601
ደራጀ	-7602
▁ኮም	-7603
▁ይው	-7604
Join	-7605
መልከቻ	-7606
ምቦልቻ	-7607
▁BBC	-7608
▁ሁሉን	-7609
▁ለተሰ	-7610
▁መላኩ	-7611
▁ሰራሽ	-7612
▁ወልደ	-7613
▁የክለ	-7614
▁ያለን	-7615
▁ይመጣ	-7616
ሀምፕተን	-7617
▁ህልውና	-7618
▁መግዛት	-7619
▁ማርያም	-7620
▁ምክኒያ	-7621
▁ከአራት	-7622
▁ኮማንድ	-7623
▁ውሳኔው	-7624
▁የጎርፍ	-7625
▁የፍትህ	-7626
▁ያገኘው	-7627
▁አስከሬን	-7628
▁አንቶኒዮ	-7629
▁እንዲገባ	-7630
▁የጀመረው	-7631
▁በተባበሩት	-7632
▁ከአካባቢው	-7633
▁የሚመለከተው	-7634
▁አስተያየታቸውን	-7635
nt	-7636
ሰቃ	-7637
ኝን	-7638
ወት	-7639
ዊች	-7640
ጋግ	-7641
ለፈው	-7642
ሾፍቱ	-7643
ይማር	-7644
▁ሆቴ	-7645
▁ሕን	-7646
▁መሾ	-7647
▁ስማ	-7648
▁ቀስ	-7649
▁ታቅ	-7650
▁አዘ	-7651
ደንዛዥ	-7652
▁መቆጣ	-7653
▁ቀዳማ	-7654
▁በሜዳ	-7655
▁በወረ	-7656
▁ከእኛ	-7657
▁ዓለማ	-7658
▁የተሸ	-7659
▁ይዞታ	-7660
▁ይጠብ	-7661
▁ደጀኔ	-7662
▁ድምፃ	-7663
▁ጭንቅ	-7664
▁መባሉን	-7665
▁በከባድ	-7666
▁በዘርፉ	-7667
▁እውነታ	-7668
▁ያስረዳ	-7669
▁ይላል።	-7670
▁ገልጿል	-7671
------	-7672
▁ለመጀመር	-7673
▁አመቻችቶ	-7674
▁የሚገናኙ	-7675
▁የተለመደ	-7676
▁እንደሚፈልግ	-7677
GB	-7678
ህም	-7679
ርብ	-7680
አስ	-7681
ዘጉ	-7682
ድራ	-7683
ፋዊ	-7684
ፍሮ	-7685
ፍታ	-7686
800	-7687
ረርጌ	-7688
ቆጥር	-7689
ከፍል	-7690
▁64	-7691
▁ማጥ	-7692
▁ከፊ	-7693
▁የሂ	-7694
▁የሜ	-7695
▁ጽኑ	-7696
ኗል፡፡	-7697
ኞቻችን	-7698
ኤስቲቪ	-7699
ወያየት	-7700
ግራቸው	-7701
▁are	-7702
▁ቀጥሎ	-7703
▁ትገኛ	-7704
▁እሱን	-7705
▁የስር	-7706
▁የብል	-7707
▁የተቋ	-7708
▁ሂደቱን	-7709
▁ራዲዮና	-7710
▁እራሱን	-7711
▁የተወለ	-7712
▁የግድያ	-7713
▁ፖሊሶች	-7714
▁••●◉	-7715
▁መረጃውን	-7716
▁ፋይናንስ	-7717
▁ማህበረሰቡ	-7718
▁በርንማውዝ	-7719
▁አለመረጋጋት	-7720
▁አስመርቋል።	-7721
▁አስተላልፏል።	-7722
▁ከሚመለከታቸው	-7723
.7	-7724
ሐይ	-7725
ቃሚ	-7726
በዛ	-7727
ቸት	-7728
ንጎ	-7729
ክቱ	-7730
ክን	-7731
ፕዚ	-7732
ech	-7733
ሙላት	-7734
ርነት	-7735
▁04	-7736
▁Ab	-7737
▁ውዝ	-7738
▁ደው	-7739
▁ፖል	-7740
ረጋግጥ	-7741
ብራዚል	-7742
ኒስቴሩ	-7743
ከለኛው	-7744
ጅመንት	-7745
▁መሀል	-7746
▁በትራ	-7747
▁የቆዩ	-7748
▁የብዙ	-7749
▁የግራ	-7750
▁መናገር	-7751
▁ምሁራን	-7752
▁በዛሬዉ	-7753
▁ተሰማር	-7754
▁ተጽዕኖ	-7755
▁ውጤቱን	-7756
▁የኦነግ	-7757
▁የወንድ	-7758
▁ማኅበራዊ	-7759
▁በራሳቸው	-7760
▁በተከሰተ	-7761
▁አለበት።	-7762
▁የሚመሩት	-7763
▁የንብረት	-7764
▁ያቀረቡት	-7765
▁ይሰጣል።	-7766
▁አስታውቋል	-7767
▁ግለሰቦችን	-7768
▁ስፔሻላይዝድ	-7769
▁አመላክቷል።	-7770
▁አስቆጥሯል።	-7771
ልፌ	-7772
እና	-7773
ዝቦ	-7774
age	-7775
ባለሁ	-7776
ብነት	-7777
ጠሩን	-7778
▁41	-7779
▁ምዕ	-7780
▁ተሟ	-7781
▁ተሻ	-7782
▁ታዬ	-7783
▁አፅ	-7784
▁ዩኒ	-7785
▁ጊኒ	-7786
ገልገል	-7787
▁ስርጭ	-7788
▁በአይ	-7789
▁ተሰብ	-7790
▁ታክሲ	-7791
▁አለቃ	-7792
▁የአም	-7793
▁ዴቪድ	-7794
▁ግዙፍ	-7795
▁ጎብኝ	-7796
▁ጠየቀ	-7797
▁Birr	-7798
▁ለሀገር	-7799
▁ለሰላም	-7800
▁መስራች	-7801
▁ሜክሲኮ	-7802
▁በቀድሞ	-7803
▁ተመስር	-7804
▁ኮሎኔል	-7805
▁የሁሉም	-7806
▁የበረራ	-7807
▁የወጣው	-7808
▁ፈቃደኛ	-7809
▁ፉልሀም	-7810
▁ለማውጣት	-7811
▁በበረከት	-7812
▁እንደምታ	-7813
▁ከፌደራል	-7814
▁ያቀረበው	-7815
▁አደረጃጀት	-7816
▁እፈልጋለሁ	-7817
▁ማድረጋቸውን	-7818
▁የሚያደርገው	-7819
▁የአስተዳደር	-7820
93	-7821
ለዋ	-7822
ላቹ	-7823
ልና	-7824
ስም	-7825
ተም	-7826
ቼን	-7827
ና፣	-7828
▁%	-7829
600	-7830
ሊያም	-7831
ላልቅ	-7832
ስትል	-7833
ንግሊ	-7834
ያያዥ	-7835
▁ለዶ	-7836
▁መጻ	-7837
▁ነጭ	-7838
▁ከካ	-7839
▁ይጨ	-7840
▁ድሮ	-7841
▁ልምም	-7842
▁መማር	-7843
▁ተሸን	-7844
▁አልበ	-7845
▁የልብ	-7846
▁ደህን	-7847
▁ገልፆ	-7848
▁ገርጂ	-7849
▁ጠቃሚ	-7850
▁ፈንታ	-7851
ስትራሊያ	-7852
▁5:00	-7853
▁Cont	-7854
▁ለምሳሌ	-7855
▁ለፈተና	-7856
▁ሞሀመድ	-7857
▁በበጀት	-7858
▁በድጋሜ	-7859
▁ተሸላሚ	-7860
▁ትራፊክ	-7861
▁የተፈረ	-7862
▁የጥላቻ	-7863
▁ለማስቆም	-7864
▁መታሰቢያ	-7865
▁ማዕከላት	-7866
▁በፌዴራል	-7867
▁ነዋሪዎቹ	-7868
▁የሚችለው	-7869
▁የፓርቲው	-7870
▁ያሰለጠና	-7871
▁መሞታቸውን	-7872
▁መንገዶችን	-7873
▁ስነስርዓት	-7874
▁እንደደረሰ	-7875
▁የአለማችን	-7876
▁የተገኘባቸው	-7877
ST	-7878
ራክ	-7879
ሽያ	-7880
ቤን	-7881
ጠሉ	-7882
ፕቶ	-7883
ass	-7884
ell	-7885
ስላሴ	-7886
ንታዊ	-7887
አዴግ	-7888
ወርክ	-7889
ዋንዶ	-7890
▁9.	-7891
▁ገመ	-7892
ምንተኛ	-7893
▁ልዑክ	-7894
▁ሲልቫ	-7895
▁ሲቲን	-7896
▁ሸገር	-7897
▁አሉት	-7898
▁ክፉኛ	-7899
ኒስትሮች	-7900
ክሳንደር	-7901
ጋኒስታን	-7902
▁ማዕከሉ	-7903
▁ምንድን	-7904
▁በስፔን	-7905
▁በኃይል	-7906
▁ቡንደስ	-7907
▁ከነበረ	-7908
▁የተያዘ	-7909
▁ፍንዳታ	-7910
▁ሪፖርተር	-7911
▁በመቀጠል	-7912
▁እየተሰጠ	-7913
▁ግልጋሎት	-7914
▁በተመጣጣኝ	-7915
▁አስተሳሰብ	-7916
▁እርምጃዎች	-7917
▁እንደሚፈልጉ	-7918
▁አቅርበዋል፡፡	-7919
▁አስረድተዋል፡፡	-7920
94	-7921
ry	-7922
ላጫ	-7923
ላ፣	-7924
ርና	-7925
ቃዊ	-7926
ፈጽ	-7927
ራባች	-7928
ቶች፣	-7929
ውስኪ	-7930
▁ምና	-7931
▁ጥረ	-7932
ቫይረስ	-7933
▁ለመስ	-7934
▁ለስራ	-7935
▁ሠላም	-7936
▁በወር	-7937
▁ከሰኔ	-7938
▁ኪሳራ	-7939
▁ዓይን	-7940
▁የሞቱ	-7941
▁የአፍ	-7942
▁የጠቆ	-7943
▁ገለጹ	-7944
▁ጠላት	-7945
▁2022	-7946
▁መሥሪያ	-7947
▁ማመላለ	-7948
▁ማውጣት	-7949
▁ማዕቀብ	-7950
▁በቦታው	-7951
▁ተቀብሎ	-7952
▁ውድድሩ	-7953
▁ለመድረስ	-7954
▁ተያይዟል	-7955
▁አቡበከር	-7956
▁ከትናንት	-7957
▁ከጠቅላይ	-7958
▁የተውጣጡ	-7959
▁አውሮፕላኖች	-7960
▁እየተደረገላቸው	-7961
ሐፍ	-7962
ሳች	-7963
ቦራ	-7964
ላንዳ	-7965
ስማማ	-7966
ከፋፈ	-7967
ደዋል	-7968
ጓጓዝ	-7969
▁ረፋ	-7970
▁ሹፌ	-7971
▁አፕ	-7972
▁ከጅ	-7973
ለታል።	-7974
መሰግና	-7975
ሳችንን	-7976
ነገረው	-7977
▁ሀገረ	-7978
▁ሰሌዳ	-7979
▁በአሸ	-7980
▁አርሲ	-7981
▁ኢላማ	-7982
▁ከጥር	-7983
▁ወገኖ	-7984
ረዋል፡፡	-7985
▁your	-7986
▁ማሳካት	-7987
▁ሲሆን፥	-7988
▁በእርግ	-7989
▁ተገኝቶ	-7990
▁ኤልያስ	-7991
▁ዕርዳታ	-7992
▁የቀብር	-7993
▁ለመጠበቅ	-7994
▁ምክንያቱ	-7995
▁በየጊዜው	-7996
▁አስገንዝ	-7997
▁አሸባሪው	-7998
▁ከሚገኘው	-7999
▁የተገኙት	-8000
▁የጎንደር	-8001
▁ያለባቸው	-8002
▁በማንኛውም	-8003
▁በተከታታይ	-8004
▁የወዳጅነት	-8005
▁ጥያቄዎችን	-8006
▁Channel	-8007
▁እንደሚካሄድ	-8008
▁እንደሚጠበቅ	-8009
▁ይጠበቃል፡፡	-8010
▁እንቅስቃሴዎች	-8011
▁አስተላልፈዋል።	-8012
ru	-8013
ገላ	-8014
ፍለ	-8015
lic	-8016
ባበቅ	-8017
ብራት	-8018
ቨርት	-8019
ወያዩ	-8020
ያስፖ	-8021
ደራስ	-8022
ፊልድ	-8023
▁67	-8024
▁ሼክ	-8025
▁ቱሉ	-8026
▁ኦዴ	-8027
▁ከራ	-8028
▁ጎበ	-8029
ስቲንግ	-8030
▁ሚድያ	-8031
▁በመው	-8032
▁ተሰር	-8033
▁አለሙ	-8034
▁ከጊዜ	-8035
▁የለኝ	-8036
▁የሚወ	-8037
▁የኒው	-8038
▁የገደ	-8039
▁ያክል	-8040
▁that	-8041
▁መጀመሩ	-8042
▁ስላለው	-8043
▁ትራንስ	-8044
▁ኔይማር	-8045
▁አእምሮ	-8046
▁አጠገብ	-8047
▁ከመሆኑ	-8048
▁ጄነራል	-8049
▁ፍልስጤ	-8050
▁ፓርላማ	-8051
▁10:00	-8052
▁ሃይማኖት	-8053
▁መስፈርት	-8054
▁በኤርትራ	-8055
▁በወንጀል	-8056
▁አብርሃም	-8057
▁ኤጀንሲው	-8058
▁ሽማግሌዎች	-8059
▁በመሰብሰብ	-8060
▁እንደሌለው	-8061
▁እንደሚቻል	-8062
▁የሚንቀሳቀሱ	-8063
ልል	-8064
ደይ	-8065
ግድ	-8066
▁Z	-8067
for	-8068
ብሰባ	-8069
ኒካል	-8070
ጫቸው	-8071
▁የቶ	-8072
▁የዱ	-8073
▁ገጹ	-8074
2023	-8075
ነዋል።	-8076
▁መንጋ	-8077
▁መውሰ	-8078
▁ቀለም	-8079
▁ተራራ	-8080
▁ተከፍ	-8081
▁ተፈጥ	-8082
▁ንግግ	-8083
▁አቋር	-8084
▁አንዴ	-8085
▁የወባ	-8086
▁ደካማ	-8087
ሆስፒታል	-8088
▁መስማማ	-8089
▁መክፈል	-8090
▁ቅድስት	-8091
▁በታጣቂ	-8092
▁በአብዛ	-8093
▁በጥቃቱ	-8094
▁ትውልደ	-8095
▁ኢነርጂ	-8096
▁ያሉት።	-8097
▁ዲዛይን	-8098
▁ድረገጽ	-8099
▁በምርመራ	-8100
▁አብዛኞቹ	-8101
▁አገራቸው	-8102
▁የምስክር	-8103
▁የኮሚሽኑ	-8104
▁ታውቋል፡፡	-8105
▁አይደለም፡፡	-8106
▁የመጀመሪያውን	-8107
IO	-8108
ሄር	-8109
ቆዩ	-8110
ኪዮ	-8111
ዌር	-8112
ይቱ	-8113
ain	-8114
ree	-8115
ላንኮ	-8116
ነሳው	-8117
ንቀት	-8118
▁ha	-8119
▁ለጣ	-8120
▁ኖሮ	-8121
▁ኦሪ	-8122
ረንሳዩ	-8123
ረንጆቹ	-8124
ደረጃው	-8125
ገናኘት	-8126
▁ሐሳብ	-8127
▁መነሳ	-8128
▁ምዘና	-8129
▁ሰልጣ	-8130
▁ቁጥሩ	-8131
▁ብረት	-8132
▁ተፈጽ	-8133
▁እንጅ	-8134
▁ውለው	-8135
▁የወል	-8136
▁ያነጋ	-8137
▁ጭፍጨ	-8138
ፎርሜሽን	-8139
▁ሚያዝያ	-8140
▁ማስተባ	-8141
▁በዕለቱ	-8142
▁አብረን	-8143
▁እንዳላ	-8144
▁ማመላለሻ	-8145
▁ስትራቴጂ	-8146
▁የተሰማሩ	-8147
▁የውይይት	-8148
▁ግንባታው	-8149
stagram	-8150
▁ለጋዜጠኞች	-8151
▁ተማሪዎቹን	-8152
▁ተፈናቅለው	-8153
▁አስቆጥሯል	-8154
▁እንዲመለስ	-8155
▁ባለሥልጣናት	-8156
43	-8157
ey	-8158
ለተ	-8159
ልባ	-8160
ቤል	-8161
ቪዬ	-8162
ኒስ	-8163
ፅሙ	-8164
ink	-8165
ተሮች	-8166
▁57	-8167
▁ላጣ	-8168
▁ልጁ	-8169
▁በኪ	-8170
▁ጨር	-8171
ሚዲያል	-8172
ታቸውም	-8173
▁ሉዊስ	-8174
▁ሲቲው	-8175
▁በሰሜ	-8176
▁ቪድዮ	-8177
▁ተረክ	-8178
▁አገል	-8179
▁ኦሮሞ	-8180
▁ከሶማ	-8181
▁የጋዜ	-8182
▁ጊዜን	-8183
▁ፈገግ	-8184
▁ሥልጠና	-8185
▁ሰላምን	-8186
▁ስርዓተ	-8187
▁በመዲና	-8188
▁በጥብቅ	-8189
▁ቪንሰስ	-8190
▁ተከስቶ	-8191
▁ነዉ፡፡	-8192
▁ዓመታዊ	-8193
▁ግምገማ	-8194
ዋንዶውስኪ	-8195
▁ለማጥፋት	-8196
▁በተፈጸመ	-8197
▁በትግስት	-8198
▁በዝርዝር	-8199
▁አስመዝግ	-8200
▁የእርዳታ	-8201
▁የጣልያን	-8202
▁አስተዋፅኦ	-8203
▁የተመዘገበ	-8204
▁+251907270050	-8205
ራም	-8206
ሹን	-8207
በእ	-8208
ባረ	-8209
ት።	-8210
ካቤ	-8211
ሚካል	-8212
ሠረተ	-8213
ገኝም	-8214
ግራፍ	-8215
ጠናው	-8216
▁ነክ	-8217
▁እኩ	-8218
▁ፍቅ	-8219
2011	-8220
ችልም።	-8221
ከፋፈል	-8222
ክተሮች	-8223
ወዳደር	-8224
▁መውጫ	-8225
▁ሲልም	-8226
▁ስኬት	-8227
▁ቅስቀ	-8228
▁ባህሪ	-8229
▁ተሾመ	-8230
▁ታይቶ	-8231
▁ወጣቱ	-8232
▁የላቀ	-8233
▁የመተ	-8234
▁የሙያ	-8235
▁ይላሉ	-8236
▁ጀማል	-8237
▁ገለፃ	-8238
▁ግብዣ	-8239
ህበረሰቡ	-8240
▁ሆሳዕና	-8241
▁ለሶስት	-8242
▁ኖቲንግ	-8243
▁ሁኔታውን	-8244
▁መቆየቱን	-8245
▁መከታተል	-8246
▁ተጠናቋል	-8247
▁ታራሚዎች	-8248
▁ነጥቦችን	-8249
▁እንዲኖር	-8250
▁ዋልያዎቹ	-8251
▁የተያያዘ	-8252
▁ለማስጀመር	-8253
▁ለማስገባት	-8254
▁ለማንኛውም	-8255
▁ተረጋግጧል	-8256
▁እንደነበሩ	-8257
▁የባርሴሎና	-8258
▁የደረሰውን	-8259
▁ቤተሰቦቻቸው	-8260
▁አስታዉቋል።	-8261
ክሪ	-8262
ወን	-8263
ጋብ	-8264
▁ጩ	-8265
ረሚያ	-8266
ሸባብ	-8267
ቬሽን	-8268
ዮኖች	-8269
▁46	-8270
▁ለባ	-8271
▁መሬ	-8272
2024	-8273
ብርኤል	-8274
ደባችሁ	-8275
▁በነጻ	-8276
▁ተጥሎ	-8277
▁አንቾ	-8278
▁ዐብይ	-8279
▁ዘረፋ	-8280
▁ደማቅ	-8281
ጣታቸውን	-8282
▁በዋለው	-8283
▁ባህላዊ	-8284
▁ተያያዥ	-8285
▁ተፈራር	-8286
▁አንቀጽ	-8287
▁እየታየ	-8288
▁ዋንጫን	-8289
▁የባሕር	-8290
▁የተጠየ	-8291
▁የዓይን	-8292
▁ያነሱት	-8293
▁ሀላፊነት	-8294
▁ለመሳተፍ	-8295
▁ሮይተርስ	-8296
▁በውይይቱ	-8297
▁በውድድሩ	-8298
▁አክሲዮን	-8299
▁እንግዲያ	-8300
▁ባለስልጣኑ	-8301
▁ኢንተርኔት	-8302
▁መግባታቸውን	-8303
▁የኮንትሮባንድ	-8304
መላ	-8305
ወች	-8306
ፍጣ	-8307
ast	-8308
ፍረት	-8309
ፖርቱ	-8310
▁--	-8311
▁54	-8312
▁ለቆ	-8313
▁ለካ	-8314
▁ነች	-8315
▁ያሰ	-8316
▁ፋና	-8317
ኪስታን	-8318
ጣታቸው	-8319
▁መቀሌ	-8320
▁በልም	-8321
▁ታማሚ	-8322
▁አጠራ	-8323
▁ወሰን	-8324
▁የተጠ	-8325
▁ይጠይ	-8326
▁ይጫኑ	-8327
▁ለመያዝ	-8328
▁ልማትና	-8329
▁ማህበረ	-8330
▁በክልል	-8331
▁አምላክ	-8332
▁እየመሩ	-8333
▁ወንድም	-8334
▁ይገልጻ	-8335
▁ጣልያን	-8336
▁ለከፍተኛ	-8337
▁በመኖሪያ	-8338
▁በመጥቀስ	-8339
▁ባጋጠመው	-8340
▁አስተያየ	-8341
▁አብዛኛው	-8342
▁እያንዳንዱ	-8343
▁የአርሰናል	-8344
ER	-8345
sh	-8346
ምች	-8347
ርፉ	-8348
ስለ	-8349
ቲቪ	-8350
ነካ	-8351
ረከብ	-8352
ሳኤል	-8353
ሸመኔ	-8354
ባሉት	-8355
ቪዲዮ	-8356
ቭዥን	-8357
ከሰተ	-8358
ዎችም	-8359
ጀርባ	-8360
ጅነት	-8361
▁መት	-8362
▁ቀነ	-8363
▁ቁጭ	-8364
▁ቢራ	-8365
▁ቲቪ	-8366
▁ችለ	-8367
▁ግዢ	-8368
▁ጥሎ	-8369
▁ፐር	-8370
ክሲዮን	-8371
▁0-2	-8372
▁App	-8373
▁ህጎች	-8374
▁በፅኑ	-8375
▁ነውና	-8376
▁አጥብ	-8377
▁የሰማ	-8378
▁ሊደረግ	-8379
▁ሰጥቷል	-8380
▁ብላንኮ	-8381
▁ብቸኛው	-8382
▁ተለዋጭ	-8383
▁አልቻል	-8384
▁ዕድገት	-8385
▁የመሀል	-8386
▁ለመደገፍ	-8387
▁በአፋጣኝ	-8388
▁አስተዳደ	-8389
▁አካውንት	-8390
▁እየደረሰ	-8391
▁ከኦሮሚያ	-8392
▁ወንጀሉን	-8393
▁የስልጣን	-8394
▁የገለፀው	-8395
▁ድርጊቶች	-8396
▁ተሸከርካሪ	-8397
▁አስፈላጊው	-8398
▁እየተከታተ	-8399
▁ፓትርያርክ	-8400
▁የዩኒቨርስቲ	-8401
▁ፖርቹጋላዊው	-8402
sp	-8403
ረሳ	-8404
ጀው	-8405
400	-8406
ies	-8407
ያዮቹ	-8408
▁05	-8409
▁56	-8410
▁at	-8411
▁መኾ	-8412
▁ማቲ	-8413
▁ቀጣ	-8414
▁ብታ	-8415
▁ትዝ	-8416
▁የጁ	-8417
▁የፌ	-8418
ight	-8419
ህይወት	-8420
ሳይደር	-8421
ገለግሉ	-8422
▁Sub	-8423
▁ሞተር	-8424
▁ቆይቶ	-8425
▁በወጣ	-8426
▁ተነስ	-8427
▁እውን	-8428
▁የመራ	-8429
▁የመቀ	-8430
▁የሳይ	-8431
▁ይሁኑ	-8432
▁ይፈጥ	-8433
▁ደርቢ	-8434
▁ዳርቻ	-8435
▁ግብጽ	-8436
▁መምህራ	-8437
▁መድረስ	-8438
▁ስልኮች	-8439
▁በስቲያ	-8440
▁ነግረው	-8441
▁አሸንፈ	-8442
▁አይቀር	-8443
▁የቅጣት	-8444
▁ለማካሄድ	-8445
▁ስፖርታዊ	-8446
▁ቁሳቁሶች	-8447
▁በተባለው	-8448
▁ተዘጋጅቶ	-8449
▁አንቾሎቲ	-8450
▁የአምስት	-8451
▁ይቻላል።	-8452
▁የተባለውን	-8453
▁የናይጄሪያ	-8454
▁========	-8455
▁አርጀንቲናዊው	-8456
▁Instagram	-8457
▁እንደሚያስፈልግ	-8458
51	-8459
87	-8460
መኛ	-8461
ራብ	-8462
ኑት	-8463
ጣጣ	-8464
▁ጡ	-8465
iss	-8466
ላለም	-8467
ማመን	-8468
ረምቱ	-8469
ስቶስ	-8470
ቸገሩ	-8471
ንድር	-8472
ከፈቱ	-8473
▁ለቡ	-8474
▁ቀና	-8475
▁ኦባ	-8476
▁ወክ	-8477
▁ፋይ	-8478
PESA	-8479
ጀመርያ	-8480
ፈረንስ	-8481
▁ሊድስ	-8482
▁መነጋ	-8483
▁ርእሰ	-8484
▁ሰርተ	-8485
▁ሲጓዝ	-8486
▁በአም	-8487
▁አምባ	-8488
▁ድህረ	-8489
▁መሪነት	-8490
▁በህንድ	-8491
▁አካሄድ	-8492
▁የሚያቆ	-8493
▁የተጎዱ	-8494
▁የእድሜ	-8495
▁ጥምረት	-8496
ክርስቲያን	-8497
▁ሚኒስትሯ	-8498
▁በተካሄደ	-8499
▁በትኩረት	-8500
▁በዘንድሮ	-8501
▁አማኑኤል	-8502
▁ኤርሊንግ	-8503
▁የሚሳተፉ	-8504
▁የሚገባው	-8505
▁ኢንሳይደር	-8506
▁ተሰምቷል፡፡	-8507
▁አሌክሳንደር	-8508
▁ያሰለጠናቸውን	-8509
32	-8510
EL	-8511
ሀሴ	-8512
ዓተ	-8513
የሩ	-8514
ደዱ	-8515
ግሽ	-8516
▁ቮ	-8517
▁ኀ	-8518
ሊበላ	-8519
ማሊያ	-8520
ሪያት	-8521
▁97	-8522
▁ሰጠ	-8523
▁ቻር	-8524
▁ከሜ	-8525
▁ወያ	-8526
▁ያቀ	-8527
▁ዲና	-8528
▁ፓኬ	-8529
scri	-8530
ረሰቦች	-8531
ብርሃን	-8532
ግሬሽን	-8533
▁ለግብ	-8534
▁ሲሳይ	-8535
▁ብርሀ	-8536
▁እጥፍ	-8537
▁ከመቶ	-8538
▁ያሬድ	-8539
▁ግብሩ	-8540
ጠዋል፡፡	-8541
▁መቀጠል	-8542
▁መጥተው	-8543
▁ማምረቻ	-8544
▁ምዘናና	-8545
▁ሬዲዮና	-8546
▁ስለማይ	-8547
▁ቀጥተኛ	-8548
▁በደስታ	-8549
▁ተጫዋቾ	-8550
▁አባላቱ	-8551
▁የማያስ	-8552
▁የወረዳ	-8553
ብረተሰቡን	-8554
▁በርንሌይ	-8555
▁በውይይት	-8556
▁ወስኗል።	-8557
▁የተነገረ	-8558
▁የዛሬውን	-8559
▁የገለጸው	-8560
▁ለትምህርት	-8561
▁ማድረጋቸው	-8562
▁ስምምነቱን	-8563
▁አመለካከት	-8564
---------	-8565
▁አድርገዋል፡፡	-8566
CO	-8567
iz	-8568
ለቃ	-8569
ሬም	-8570
ቋር	-8571
ታሩ	-8572
ቴክ	-8573
ነዉ	-8574
የህ	-8575
ያጎ	-8576
ጎማ	-8577
ጥረ	-8578
ፍር	-8579
ኒክስ	-8580
ኛዎቹ	-8581
ወቀው	-8582
▁ሴራ	-8583
▁አሠ	-8584
▁ዋሉ	-8585
▁የሄ	-8586
ክትሬት	-8587
ፎካካሪ	-8588
▁ህንድ	-8589
▁ስፋት	-8590
▁ቃሊቲ	-8591
▁በቀል	-8592
▁አውግ	-8593
▁ፈንድ	-8594
▁መሠረተ	-8595
▁ሴጣኖቹ	-8596
▁በአስራ	-8597
▁ቡድንን	-8598
▁ተብሏል	-8599
▁አለመቻ	-8600
▁እንግዳ	-8601
▁ከሐምሌ	-8602
▁ከአማራ	-8603
▁ከዚያም	-8604
▁የሚቀር	-8605
▁የተጨዋ	-8606
ተሰቦቻቸው	-8607
▁ሃላፊዎች	-8608
▁ኦዴጋርድ	-8609
▁የሆነችው	-8610
▁የተቃውሞ	-8611
▁ባለሞያዎች	-8612
▁የተካሄደው	-8613
ለቁ	-8614
ለፉ	-8615
ካሬ	-8616
ዘተ	-8617
ያተ	-8618
ድል	-8619
ግዚ	-8620
ጎስ	-8621
ጣሬ	-8622
ice	-8623
oll	-8624
ሊስት	-8625
ማችን	-8626
ቨርኩ	-8627
ዮርክ	-8628
ፋፋት	-8629
▁ቅዱ	-8630
▁ከሲ	-8631
▁ካን	-8632
▁ዕጩ	-8633
▁ዲሲ	-8634
▁ድቻ	-8635
▁ገቡ	-8636
▁ፀረ	-8637
▁ለመል	-8638
▁ለእኔ	-8639
▁ሊጎች	-8640
▁ሚዛን	-8641
▁ሲገኝ	-8642
▁በመጣ	-8643
▁በአሰ	-8644
▁ብይን	-8645
▁ንጉስ	-8646
▁አብራ	-8647
▁የማጣ	-8648
▁የራሱ	-8649
▁ገፆች	-8650
▁ጋዜጠ	-8651
▁ለዓለም	-8652
▁መሃመድ	-8653
▁መጠነኛ	-8654
▁ስርቆት	-8655
▁ቤንዜማ	-8656
▁ተቃዋሚ	-8657
▁አስገብ	-8658
▁የብድር	-8659
▁የተመራ	-8660
▁የእርስ	-8661
▁የወሰዱ	-8662
▁ያለፈው	-8663
▁መሆኑንና	-8664
▁መንፈሳዊ	-8665
▁በመውጣት	-8666
▁ተወዳዳሪ	-8667
▁እናቀርባ	-8668
▁እንዳይወ	-8669
▁የተፈፀመ	-8670
▁የዘንድሮ	-8671
▁ሆስፒታሎች	-8672
▁በማዕከላዊ	-8673
▁ባደረጋቸው	-8674
▁እናመሰግና	-8675
▁እንግዲያውስ	-8676
▁ሳውዝሀምፕተን	-8677
▁ብሮድካስቲንግ	-8678
▁አብራርተዋል።	-8679
▁አንስተዋል፡፡	-8680
ph	-8681
ሀድ	-8682
ኮፕ	-8683
ዩቱ	-8684
ያሳ	-8685
▁ቭ	-8686
ost	-8687
ብዳቤ	-8688
ታለች	-8689
አቀፍ	-8690
ያያዙ	-8691
ገቡት	-8692
ገቢያ	-8693
▁51	-8694
▁ለጉ	-8695
▁አሽ	-8696
▁101	-8697
▁ለመታ	-8698
▁መከራ	-8699
▁ሳያስ	-8700
▁ስለሌ	-8701
▁ስቃይ	-8702
▁በእኛ	-8703
▁አይን	-8704
▁ወዳጅ	-8705
▁ውስን	-8706
▁ያህሉ	-8707
ያንዳንዱ	-8708
▁ለንደን	-8709
▁ማስፈረ	-8710
▁ምርጫው	-8711
▁ቀጥሏል	-8712
▁በዓልን	-8713
▁ተባባሪ	-8714
▁አስረክ	-8715
▁አገራዊ	-8716
▁ከተያዘ	-8717
▁የመሳሰ	-8718
▁ያቀረቡ	-8719
▁ገፃቸው	-8720
▁ሃላፊነት	-8721
▁ሆስፒታሉ	-8722
▁ለመግታት	-8723
▁ማሰባሰብ	-8724
▁በመፍጠር	-8725
▁ከአምስት	-8726
▁የሚባለው	-8727
▁የሽግግር	-8728
▁የተባሉት	-8729
▁የተካሄደ	-8730
▁የውድድሩ	-8731
▁ይካሄዳል	-8732
▁በነበረበት	-8733
▁እንደዘገበው	-8734
▁ያመላክታል።	-8735
HO	-8736
ሞስ	-8737
ሸራ	-8738
ቋም	-8739
ችኃ	-8740
ኸኝ	-8741
ታደር	-8742
ኦነግ	-8743
ከፈት	-8744
ገሪያ	-8745
ጠቀስ	-8746
▁ለፕ	-8747
▁ልና	-8748
▁በዱ	-8749
▁ትሪ	-8750
▁ኋላ	-8751
▁አከ	-8752
▁የዐ	-8753
▁ፈን	-8754
ሰብአዊ	-8755
▁መሃል	-8756
▁ሞሪን	-8757
▁ብሩኖ	-8758
▁ትዳር	-8759
▁አምር	-8760
▁አሻራ	-8761
▁አዘጋ	-8762
▁ካርታ	-8763
▁ካውን	-8764
▁ዓመቷ	-8765
ከናወነው	-8766
▁ህልፈት	-8767
▁መጠየቅ	-8768
▁ሲናገር	-8769
▁በመጫን	-8770
▁በሚለው	-8771
▁በተለየ	-8772
▁ከኮሮና	-8773
▁ጥቃቱን	-8774
▁ጭፍጨፋ	-8775
▁በጦርነት	-8776
▁የቤተሰብ	-8777
▁የተመደቡ	-8778
▁የክልሉን	-8779
▁የፓርላማ	-8780
▁ጉዳተኞች	-8781
▁ፓስፖርት	-8782
▁ማስረጃዎች	-8783
▁በየደረጃው	-8784
▁ኮንፈረንስ	-8785
▁ይገኛሉ፡፡	-8786
IT	-8787
ሟን	-8788
ርጌ	-8789
ኅረ	-8790
ear	-8791
ጮችን	-8792
ፎርም	-8793
▁ታጋ	-8794
▁ቼክ	-8795
▁ኬላ	-8796
▁ዋቢ	-8797
▁የች	-8798
▁ያዘ	-8799
▁ስንል	-8800
▁ብዙም	-8801
▁ታውን	-8802
▁ኢንጅ	-8803
▁ገልጻ	-8804
▁ሴቶችን	-8805
▁በግልፅ	-8806
▁አበርክ	-8807
▁ፉክክር	-8808
▁ለማሳካት	-8809
▁ሳፋሪኮም	-8810
▁እንዲችሉ	-8811
▁የተላለፈ	-8812
▁ገለልተኛ	-8813
▁የመግባቢያ	-8814
________	-8815
▁ተደርጓል፡፡	-8816
▁የተደረገላቸው	-8817
.3	-8818
ቀፉ	-8819
ተራ	-8820
ዕል	-8821
ዕይ	-8822
ዳሉ	-8823
ጇን	-8824
ጓጉ	-8825
ሳውቅ	-8826
ስቱን	-8827
ስቶች	-8828
በት፣	-8829
ችግሩ	-8830
ኖሩም	-8831
ከተለ	-8832
▁95	-8833
▁En	-8834
▁ማፍ	-8835
▁ቀኝ	-8836
▁ቅን	-8837
▁የኬ	-8838
▁ጀግ	-8839
▁ጥይ	-8840
▁ፋኖ	-8841
9164	-8842
ላቸዋል	-8843
ማሪዎቹ	-8844
▁ለሌላ	-8845
▁መመር	-8846
▁ሲሰሩ	-8847
▁ሲገባ	-8848
▁ሴርያ	-8849
▁ቁመት	-8850
▁ተረድ	-8851
▁ታስቦ	-8852
▁አራዳ	-8853
▁አኳያ	-8854
▁እንባ	-8855
▁እየሞ	-8856
▁ካርሎ	-8857
▁የቅር	-8858
▁የአባ	-8859
▁ያደረ	-8860
▁ጥላቻ	-8861
▁ህይወቷ	-8862
▁ለሚሆኑ	-8863
▁ማጋራት	-8864
▁ቅስቀሳ	-8865
▁በሊትር	-8866
▁በተሻለ	-8867
▁በጉጉት	-8868
▁በጎርፍ	-8869
▁አምበል	-8870
▁ያላትን	-8871
▁ጋብሬል	-8872
▁ስፔናዊው	-8873
▁በመድረኩ	-8874
▁በትብብር	-8875
▁ባለቤቶች	-8876
▁እያካሄደ	-8877
▁ኩባንያው	-8878
▁የተመረጡ	-8879
▁ይወራረዱ	-8880
▁ገልጸዋል	-8881
▁ገንዘቡን	-8882
▁አሸናፊዎች	-8883
▁አካባቢውን	-8884
▁እየተከበረ	-8885
▁ኩባንያዎች	-8886
▁Contact	-8887
▁በማንችስተር	-8888
▁የሚያስገኘው	-8889
ለብ	-8890
ረመ	-8891
ሸጡ	-8892
ቲኖ	-8893
ታም	-8894
ትሪ	-8895
ከመ	-8896
ዴት	-8897
▁ሔ	-8898
are	-8899
ረሱን	-8900
ሳተፈ	-8901
ንግሥ	-8902
▁58	-8903
▁ሄዶ	-8904
▁ህመ	-8905
▁ቀረ	-8906
▁ቪዛ	-8907
▁ክሪ	-8908
▁የኛ	-8909
▁ይሰ	-8910
▁ገጥ	-8911
▁Man	-8912
▁ለህግ	-8913
▁ሌፕዚ	-8914
▁ሲገል	-8915
▁በስነ	-8916
▁ኤርዶ	-8917
▁እህል	-8918
▁ዘመድ	-8919
▁የመጠ	-8920
▁የኮሙ	-8921
▁ለመሸጥ	-8922
▁ምግባር	-8923
▁ሲናገሩ	-8924
▁ሲደርሱ	-8925
▁አለመኖ	-8926
▁አሰቃቂ	-8927
▁አያሌው	-8928
▁እጩዎች	-8929
▁ውርርድ	-8930
▁የሙስና	-8931
▁የፈጠራ	-8932
▁ጳውሎስ	-8933
▁ለበርካታ	-8934
▁ሥራዎችን	-8935
▁በሁለቱም	-8936
▁በማንሳት	-8937
▁እስረኞች	-8938
▁የማጣራት	-8939
▁ያለበትን	-8940
▁ቅሬታቸውን	-8941
▁ቡንደስሊጋ	-8942
▁እድሜያቸው	-8943
▁ዘግበዋል።	-8944
▁የተፈፀመው	-8945
▁ያደርጋል።	-8946
▁መሳሪያዎችን	-8947
2,	-8948
ቡል	-8949
ንቶ	-8950
ኮር	-8951
ዮት	-8952
ጋድ	-8953
ጠፉ	-8954
her	-8955
ማል።	-8956
ምንም	-8957
ታወስ	-8958
ቻለም	-8959
ናትና	-8960
ንም።	-8961
ዊውን	-8962
ዜጎች	-8963
ገጣጠ	-8964
▁ሲቀ	-8965
▁ከፓ	-8966
▁ኮከ	-8967
▁ያወ	-8968
ዷል፡፡	-8969
ፈለገው	-8970
ፈጸሙት	-8971
▁ማርሴ	-8972
▁ሥላሴ	-8973
▁ስተር	-8974
▁ተዋህ	-8975
▁ከሰው	-8976
▁ከጤና	-8977
▁ዝርያ	-8978
▁የተላ	-8979
▁ደህና	-8980
▁ግጭቱ	-8981
▁ጎርፍ	-8982
▁ፅሁፍ	-8983
▁0922	-8984
▁በውስጡ	-8985
▁ባለሞያ	-8986
▁አንዱን	-8987
▁እየሰጡ	-8988
▁የመጣው	-8989
▁የተመድ	-8990
▁የጥበቃ	-8991
▁ያወጣው	-8992
▁ጳጳሳት	-8993
▁ፍቃደኛ	-8994
916439	-8995
▁ሀላፊዎች	-8996
▁ባለመቻሉ	-8997
▁አፈፃፀም	-8998
▁እንቅፋት	-8999
▁ተካሂዷል።	-9000
▁ነዋሪዎችን	-9001
▁ይደረጋል።	-9002
▁ፕሬዘዳንት	-9003
▁Subscri	-9004
▁ትችላላችሁ።	-9005
▁አጠናቀዋል።	-9006
.6	-9007
ex	-9008
ቀዉ	-9009
ቀዱ	-9010
ተገ	-9011
ቸዋ	-9012
ኮሳ	-9013
ዛል	-9014
ጎጂ	-9015
ጠላ	-9016
ጨበ	-9017
▁i	-9018
Tok	-9019
ber	-9020
ረከቡ	-9021
ርቆስ	-9022
ቅም።	-9023
ቷቸው	-9024
ፈቀደ	-9025
ፋቅር	-9026
▁52	-9027
▁Us	-9028
▁un	-9029
▁ወራ	-9030
▁ገዛ	-9031
▁ጋና	-9032
ረኝነት	-9033
ስልጣኑ	-9034
ናገሩት	-9035
ዋሚዎች	-9036
ያዊዎቹ	-9037
▁pro	-9038
▁ለሁሉ	-9039
▁ሒሳብ	-9040
▁መለሰ	-9041
▁መጠበ	-9042
▁ሥራው	-9043
▁በመሰ	-9044
▁ትኬት	-9045
▁ነገረ	-9046
▁አመስ	-9047
▁እጦት	-9048
▁ይምጡ	-9049
ikTok	-9050
▁from	-9051
▁ማጓየር	-9052
▁ማጠናቀ	-9053
▁ተጠናቆ	-9054
▁ትእዛዝ	-9055
▁አካላዊ	-9056
▁አገሪቱ	-9057
▁ኢሰመኮ	-9058
▁ከሱዳን	-9059
▁የተሞላ	-9060
▁የታጠቁ	-9061
▁የእስር	-9062
▁ይግባኝ	-9063
▁ገለጸ።	-9064
▁መምጣቱን	-9065
▁ማስታወሻ	-9066
▁በተፈጥሮ	-9067
▁ቤተሰቦቹ	-9068
▁ይታወቃል	-9069
▁ለመመልከት	-9070
▁መድረሳቸው	-9071
▁ቁርጠኝነት	-9072
▁ተጠቅሷል።	-9073
▁አርባምንጭ	-9074
▁የተፈጸመው	-9075
ሄም	-9076
ሶቹ	-9077
በሰ	-9078
ብቶ	-9079
ቫል	-9080
ክራ	-9081
ድግ	-9082
መሰል	-9083
ሥላሴ	-9084
ሪያን	-9085
በኞች	-9086
ከበሩ	-9087
ካተት	-9088
ውልት	-9089
ጓቸው	-9090
▁78	-9091
▁ማቆ	-9092
▁ምድ	-9093
▁ተጉ	-9094
▁ያጣ	-9095
ions	-9096
ቻችሁን	-9097
ያዝነው	-9098
ጠቅላላ	-9099
▁800	-9100
▁መሠረ	-9101
▁ሳዑዲ	-9102
▁ተፈፅ	-9103
▁ኃይሌ	-9104
▁አሰም	-9105
▁አዋሽ	-9106
▁ዙርያ	-9107
▁ዝውው	-9108
▁ያሸን	-9109
▁ያንን	-9110
▁ዲያጎ	-9111
▁ዳኞች	-9112
▁ገለፁ	-9113
▁ጳጳስ	-9114
ስተናግድ	-9115
▁2021	-9116
▁ሦስተኛ	-9117
▁ሰጥተው	-9118
▁በሰዎች	-9119
▁በሽታው	-9120
▁ተላልፎ	-9121
▁ነበር፤	-9122
▁እነማን	-9123
▁ከግምት	-9124
▁ውሏል።	-9125
▁ዕውቅና	-9126
▁የማስተ	-9127
▁የጥበብ	-9128
▁ጎረቤት	-9129
▁ፎረስት	-9130
▁ለመጠቀም	-9131
▁መስጠቱን	-9132
▁በአካባቢ	-9133
▁ብልጽግና	-9134
▁ከተደረገ	-9135
▁ያለፉትን	-9136
▁አርጀንቲና	-9137
▁ደርሷል፡፡	-9138
▁አሳውቋል፡፡	-9139
ld	-9140
ኒን	-9141
ace	-9142
ማችሁ	-9143
ቢያው	-9144
ታላኑ	-9145
ታውን	-9146
ዘጋጃ	-9147
ዳችሁ	-9148
▁Un	-9149
▁ባላ	-9150
▁ከለ	-9151
ሚሊዮን	-9152
ኔታንያ	-9153
ከርከር	-9154
ከፈተው	-9155
ጠቃለያ	-9156
▁ሀይሉ	-9157
▁ላፍቶ	-9158
▁መሰጠ	-9159
▁መጥቶ	-9160
▁ማሳያ	-9161
▁ምሽቱ	-9162
▁በአፍ	-9163
▁በዚያ	-9164
▁አስገ	-9165
▁እንቁ	-9166
▁ከጦር	-9167
▁ወዘተ	-9168
▁ዉሳኔ	-9169
▁የራስ	-9170
▁የተዋ	-9171
▁ጉድጓ	-9172
▁ለማለፍ	-9173
▁ሌሎችን	-9174
▁መቀየር	-9175
▁መወሰኑ	-9176
▁ካላቸው	-9177
▁የሊጉን	-9178
▁ዩጋንዳ	-9179
▁መሰብሰብ	-9180
▁ማጠናቀቅ	-9181
▁በተሰጠው	-9182
▁በአማካይ	-9183
▁ኢትዮጲያ	-9184
▁ኤርፖርት	-9185
▁እንዲቆይ	-9186
▁ኦፕሬሽን	-9187
▁ዋንጫውን	-9188
▁የተጀመረ	-9189
▁የቴሌኮም	-9190
▁ያጠናቀቁ	-9191
▁TIKVAH	-9192
▁በሚቀጥሉት	-9193
▁በሳምራዊት	-9194
▁ኒውካስትል	-9195
▁የሚያስችሉ	-9196
▁የቀረበውን	-9197
▁በሚያደርገው	-9198
.4	-9199
ምያ	-9200
ሬቻ	-9201
ሲስ	-9202
ንዲ	-9203
ኖና	-9204
እኛ	-9205
ዞር	-9206
ግሬ	-9207
ግስ	-9208
ምፒዮ	-9209
ነኛው	-9210
ንተር	-9211
ዌስት	-9212
ዲንግ	-9213
ጡበት	-9214
▁53	-9215
▁59	-9216
▁ላስ	-9217
▁ልጄ	-9218
▁ሪል	-9219
▁ቁስ	-9220
▁ቢን	-9221
▁ታች	-9222
▁ኦዲ	-9223
▁ከክ	-9224
▁የጫ	-9225
▁ግሽ	-9226
ical	-9227
▁250	-9228
▁535	-9229
▁ህግን	-9230
▁ሊኖር	-9231
▁መኮን	-9232
▁በሥራ	-9233
▁ከአል	-9234
▁ኳታር	-9235
▁የእኔ	-9236
▁የጨረ	-9237
▁ይቅር	-9238
▁ሞሪንሆ	-9239
▁ቀዳሚው	-9240
▁በታሪክ	-9241
▁ተበዳይ	-9242
▁አይደል	-9243
▁እማኞች	-9244
▁የሚሆነ	-9245
▁የሚደር	-9246
▁የወሲብ	-9247
▁የገባው	-9248
▁ድንጋጌ	-9249
▁ግዛቶች	-9250
▁ለተለያዩ	-9251
▁ስፍራዎች	-9252
▁በሳምንት	-9253
▁በወላይታ	-9254
▁በደብዳቤ	-9255
▁በድንገት	-9256
▁ተቀብለው	-9257
▁እንቅልፍ	-9258
▁ከሰሞኑን	-9259
▁የገቢዎች	-9260
▁ግለሰቦቹ	-9261
▁ፕሮጀክቱ	-9262
▁በማዘጋጀት	-9263
▁ተንቀሳቃሽ	-9264
▁የሚታወቀው	-9265
▁የአክሲዮን	-9266
▁ያስታወቀው	-9267
▁ተጠቁሟል፡፡	-9268
▁የሻምፒየንስ	-9269
▁0922916439	-9270
av	-9271
ናጀት	-9272
ኪቫህ	-9273
ዛቸው	-9274
ዟቸው	-9275
ፅዮን	-9276
▁Re	-9277
▁ሀግ	-9278
▁ለች	-9279
▁ትጥ	-9280
▁ወግ	-9281
ላድሚር	-9282
ባሪዎች	-9283
▁ለመሸ	-9284
▁ማሰባ	-9285
▁ስለሺ	-9286
▁ሶስቱ	-9287
▁ባደረ	-9288
▁ነሃሴ	-9289
▁እህት	-9290
▁ከገባ	-9291
▁ውበት	-9292
▁የሀያ	-9293
▁የአቶ	-9294
▁የደመ	-9295
▁ይዘት	-9296
▁ገዳም	-9297
▁ፍጹም	-9298
ምፒውተር	-9299
ኔታንያሁ	-9300
▁1000	-9301
▁More	-9302
▁ለመግለ	-9303
▁ሥልጣን	-9304
▁ተፈታኝ	-9305
▁ዋናውና	-9306
▁የመልስ	-9307
▁የሳውዲ	-9308
▁ድንገት	-9309
▁ጤንነት	-9310
▁ለማቋቋም	-9311
▁መፈንቅለ	-9312
▁በመቶዎች	-9313
▁በስድስት	-9314
▁ብሔረሰብ	-9315
▁አስክሬን	-9316
▁ያስቆጠረ	-9317
▁ማኔጅመንት	-9318
▁በመቀላቀል	-9319
▁በመከላከያ	-9320
▁በቴክኖሎጂ	-9321
▁እንችላለን	-9322
▁የበላይነት	-9323
▁ይናገራሉ።	-9324
▁በሚያደርጉት	-9325
▁እናደርጋለን	-9326
▁የትምህርትና	-9327
.2	-9328
ለለ	-9329
ቅን	-9330
በሉ	-9331
ቢክ	-9332
ባታ	-9333
ክሌ	-9334
ዴፓ	-9335
▁>	-9336
ust	-9337
ልያን	-9338
ቃለሁ	-9339
ናቀል	-9340
ንደቅ	-9341
ደጋፊ	-9342
ገለጽ	-9343
ጦችን	-9344
ፈጠሩ	-9345
▁74	-9346
▁ሆኑ	-9347
▁ሳተ	-9348
▁በቻ	-9349
▁የጆ	-9350
line	-9351
ስፈላጊ	-9352
▁107	-9353
▁ለሊት	-9354
▁መቼም	-9355
▁መዋቅ	-9356
▁ማገገ	-9357
▁ሳጅን	-9358
▁በአቶ	-9359
▁ተቋቁ	-9360
▁ታደለ	-9361
▁አስመ	-9362
▁አስፍ	-9363
▁ወደብ	-9364
▁የአካ	-9365
▁ፀሀፊ	-9366
ሚግሬሽን	-9367
▁2:00	-9368
▁ለሕዝብ	-9369
▁ለክለቡ	-9370
▁ሩዋንዳ	-9371
▁እየሠራ	-9372
▁ወጥተው	-9373
▁የባቡር	-9374
▁ያለው።	-9375
▁ገጻቸው	-9376
▁ለአፍሪካ	-9377
▁ማስቀመጥ	-9378
▁ስለነበር	-9379
▁በመዲናዋ	-9380
▁አንዳንዴ	-9381
▁ከፍተኛው	-9382
▁የበርካታ	-9383
▁የዋስትና	-9384
▁የድንበር	-9385
▁ሁኔታዎችን	-9386
▁ለማስጠበቅ	-9387
▁በመቀናጀት	-9388
▁እንደሚሉት	-9389
▁ይካሄዳል።	-9390
▁በማስመልከት	-9391
TO	-9392
UN	-9393
up	-9394
ሔድ	-9395
ርቻ	-9396
ሰሳ	-9397
ኑም	-9398
ኦት	-9399
ዌይ	-9400
ጊቱ	-9401
ፃፍ	-9402
ፈሰ	-9403
ery	-9404
ሰማው	-9405
ክሮን	-9406
ዲካል	-9407
ጨረስ	-9408
▁79	-9409
▁ርዝ	-9410
▁ሲቪ	-9411
▁በሠ	-9412
▁በፖ	-9413
▁ባሕ	-9414
▁ተሹ	-9415
▁ጆዜ	-9416
▁ጳጉ	-9417
ቡላንስ	-9418
ቦራቶሪ	-9419
▁ሊሰጥ	-9420
▁ራስን	-9421
▁አውራ	-9422
▁ክሶች	-9423
▁ጃፓን	-9424
ፈዋል፡፡	-9425
▁0901	-9426
▁ሴኔጋል	-9427
▁ቀድመው	-9428
▁ቁጥሮች	-9429
▁በዓመት	-9430
▁ብዙዎች	-9431
▁ቦይንግ	-9432
▁ተቋማቱ	-9433
▁ትግበራ	-9434
▁የሚረዳ	-9435
▁ያተኮረ	-9436
▁ያድርጉ	-9437
▁ገቢዎች	-9438
▁ለመውጣት	-9439
▁ለመጨመር	-9440
▁መካከለኛ	-9441
▁በሚሊዮን	-9442
▁በቅርበት	-9443
▁በቅንጅት	-9444
▁ባለመሆኑ	-9445
▁ከየካቲት	-9446
▁ወጣቶችን	-9447
▁ፕሮግራሙ	-9448
▁ለማከናወን	-9449
▁ለተማሪዎች	-9450
▁ስተርሊንግ	-9451
▁ባለሀብቶች	-9452
▁ተጠርጥረው	-9453
▁የመከላከል	-9454
▁የተመለከቱ	-9455
ox	-9456
ሄል	-9457
ሙድ	-9458
ሬው	-9459
ቀይ	-9460
ብሪ	-9461
ተኩ	-9462
ኒቱ	-9463
ኪን	-9464
ዎስ	-9465
ዳም	-9466
ፅም	-9467
ike	-9468
ሊኮፕ	-9469
መናት	-9470
ቆጠሩ	-9471
ዘረጋ	-9472
ግርማ	-9473
▁(2	-9474
▁FM	-9475
▁ሹመ	-9476
▁በሮ	-9477
▁ቡል	-9478
▁ውሀ	-9479
▁ዓም	-9480
▁የጂ	-9481
▁ይከ	-9482
▁ገዥ	-9483
▁ፈላ	-9484
▁ፓል	-9485
ሰማራት	-9486
ስራቃዊ	-9487
ኖቬሽን	-9488
▁700	-9489
▁ሀሙስ	-9490
▁ለውጭ	-9491
▁ለጤና	-9492
▁መግደ	-9493
▁ምስክ	-9494
▁ሲያሳ	-9495
▁ሽንፈ	-9496
▁በጅማ	-9497
▁ተመዝ	-9498
▁ተያዘ	-9499
▁ተጠሪ	-9500
▁አባተ	-9501
▁ኮርያ	-9502
▁ውጤቱ	-9503
▁የስም	-9504
▁ፓኬጅ	-9505
▁ህዝብን	-9506
▁ለጥያቄ	-9507
▁ማርቲን	-9508
▁ሰዎችም	-9509
▁ተመላሽ	-9510
▁አክለው	-9511
▁እንወዳ	-9512
▁እድሳት	-9513
▁ለመቀየር	-9514
▁ለማክበር	-9515
▁በሕይወት	-9516
▁ታንዛኒያ	-9517
▁አረንጓዴ	-9518
▁አስገድዶ	-9519
▁አይቻልም	-9520
▁አይደሉም	-9521
▁የሚያወጣ	-9522
▁የተቀላቀ	-9523
▁የቱሪዝም	-9524
▁የትኛውም	-9525
▁የኩላሊት	-9526
▁ዴሞክራሲ	-9527
▁ሕይወታቸው	-9528
▁ሚኒስትሮች	-9529
▁በአብዛኛው	-9530
▁በዩናይትድ	-9531
▁እስክንድር	-9532
▁የሚሰጠውን	-9533
▁የአሜሪካው	-9534
▁የፍልስጤም	-9535
▁ተናግራለች።	-9536
▁ፍልስጤማውያን	-9537
መች	-9538
ሞቹ	-9539
ሳሉ	-9540
ተቤ	-9541
ኩኝ	-9542
ዊን	-9543
ይቅ	-9544
▁r	-9545
!››	-9546
700	-9547
828	-9548
ood	-9549
ራረጥ	-9550
ቀውን	-9551
ነገረ	-9552
ናገዱ	-9553
ይናው	-9554
ደረስ	-9555
ጂንግ	-9556
ጎበኙ	-9557
ጠነኛ	-9558
ፃፀር	-9559
▁88	-9560
▁Th	-9561
▁ለጋ	-9562
▁ሙዚ	-9563
▁ምግ	-9564
▁ስቶ	-9565
▁ቅፅ	-9566
▁ጠቀ	-9567
▁ጫካ	-9568
ህአዴግ	-9569
ያስፖራ	-9570
▁851	-9571
▁our	-9572
▁መቁሰ	-9573
▁ስለማ	-9574
▁ቀረበ	-9575
▁ቀርቶ	-9576
▁ቆሻሻ	-9577
▁በርስ	-9578
▁ተጠል	-9579
▁ታሪኩ	-9580
▁አርማ	-9581
▁እይታ	-9582
▁ከወጣ	-9583
▁የቤን	-9584
▁የጅማ	-9585
▁ይወጣ	-9586
▁ግብዓ	-9587
▁ፈታኝ	-9588
ivers	-9589
▁ሕብረት	-9590
▁መቀነስ	-9591
▁መገኘት	-9592
▁ማምረት	-9593
▁በሚጠራ	-9594
▁በእድሜ	-9595
▁ተመልሶ	-9596
▁እንስሳ	-9597
▁ከቻይና	-9598
▁ገጾችን	-9599
▁ጉድለት	-9600
▁መካሄዱን	-9601
▁መዝገቡን	-9602
▁ምክኒያት	-9603
▁በመቀበል	-9604
▁በሳምንቱ	-9605
▁ብሄረሰብ	-9606
▁ተጠቂዎች	-9607
▁ዲፕሎማሲ	-9608
▁ገብርኤል	-9609
.......	-9610
▁ምርመራውን	-9611
▁ሰራተኞችን	-9612
▁በሚካሄደው	-9613
▁ብላንኮዎቹ	-9614
▁ተከታትለው	-9615
▁አያይዘውም	-9616
▁የሁለትዮሽ	-9617
▁የተመዘገቡ	-9618
ue	-9619
ለታ	-9620
ሚል	-9621
ምቢ	-9622
ኖራ	-9623
ካኔ	-9624
ዙት	-9625
ዦች	-9626
ዶር	-9627
ሊየን	-9628
ካሂድ	-9629
ኮቪድ	-9630
ጣችሁ	-9631
ጥብጥ	-9632
▁4,	-9633
▁ምኒ	-9634
▁ሹም	-9635
▁በጊ	-9636
▁ተባ	-9637
▁ኪም	-9638
▁ጋራ	-9639
▁ጠላ	-9640
ስልምና	-9641
ከናውን	-9642
▁You	-9643
▁ለመር	-9644
▁ለጎን	-9645
▁መድን	-9646
▁ሚሊሻ	-9647
▁ማራዘ	-9648
▁ማሽን	-9649
▁ሜጀር	-9650
▁ምርጡ	-9651
▁ሰውዬ	-9652
▁ሲቪያ	-9653
▁በተከ	-9654
▁አሶሳ	-9655
▁ኤክስ	-9656
▁ኮንዶ	-9657
▁ያመጡ	-9658
▁ደጋግ	-9659
▁1:00	-9660
▁በንግድ	-9661
▁በወጣው	-9662
▁ብራዚል	-9663
▁ተቀይሮ	-9664
▁እመቤት	-9665
▁ከነበሩ	-9666
▁ወንበር	-9667
▁የሚባሉ	-9668
▁የሚኖር	-9669
▁ያደርገ	-9670
▁ፌዴራል	-9671
▁ህጻናትን	-9672
▁መንግሥቱ	-9673
▁በምክትል	-9674
▁በቋሚነት	-9675
▁በብሔራዊ	-9676
▁በጀርመን	-9677
▁ተመስርቶ	-9678
▁እንዲሰሩ	-9679
▁የሆኑትን	-9680
▁የቫይረሱ	-9681
▁የንግድና	-9682
▁የእንኳን	-9683
▁ማለፋቸውን	-9684
▁አዘጋጅነት	-9685
▁ይደውሉልን	-9686
▁ተገድለዋል።	-9687
ሌራ	-9688
ሞዝ	-9689
ሩስ	-9690
ነቷ	-9691
አቶ	-9692
ኦኤ	-9693
ዥያ	-9694
ያሌ	-9695
ጠጋ	-9696
ፍቲ	-9697
ላለህ	-9698
ሸገር	-9699
ሽከረ	-9700
ቆችን	-9701
ኖረን	-9702
ኩበት	-9703
ጻጸር	-9704
▁ሆራ	-9705
▁ማነ	-9706
▁ስመ	-9707
▁ካህ	-9708
▁ዴን	-9709
▁ገም	-9710
ላስቲክ	-9711
መጨረሻ	-9712
ሚኒየም	-9713
ቷቸዋል	-9714
ከተሉት	-9715
▁Com	-9716
▁ለመተ	-9717
▁ልቦና	-9718
▁ሽጉጥ	-9719
▁ተመላ	-9720
▁ታቦር	-9721
▁አምራ	-9722
▁የእኛ	-9723
▁የወረ	-9724
▁ይታያ	-9725
ጊዮርጊስ	-9726
▁መድፈር	-9727
▁በሕዝብ	-9728
▁ተችሏል	-9729
▁ተዋህዶ	-9730
▁ከአሁን	-9731
▁ካንሰር	-9732
▁ወዲያው	-9733
▁ውይይቱ	-9734
▁የታወቀ	-9735
▁የአራት	-9736
▁የድምፅ	-9737
▁ጌትነት	-9738
▁ጠቁመው	-9739
▁በማግኘት	-9740
▁በዘገባው	-9741
▁ብላለች።	-9742
▁ወዲያውኑ	-9743
▁ውሳኔዎች	-9744
▁የመማሪያ	-9745
▁የመክፈቻ	-9746
▁ለመንግስት	-9747
▁መንገደኞች	-9748
▁ቁሳቁሶችን	-9749
▁በማስቆጠር	-9750
▁አለመኖሩን	-9751
▁አልነበረም	-9752
▁እንዲከበር	-9753
▁ኮሙዩኒኬሽን	-9754
▁የቤተሰባችን	-9755
▁Subscribe	-9756
46	-9757
IC	-9758
ah	-9759
ላጅ	-9760
ባህ	-9761
ካፋ	-9762
ዘዝ	-9763
የሙ	-9764
ጅቶ	-9765
ፖች	-9766
▁_	-9767
ረዱት	-9768
ቅናት	-9769
በናል	-9770
ች፡፡	-9771
ዋቸው	-9772
ደግፍ	-9773
▁86	-9774
▁ላም	-9775
▁ከገ	-9776
▁ካሴ	-9777
ባውያን	-9778
▁1-2	-9779
▁For	-9780
▁day	-9781
▁ህጻን	-9782
▁መቻል	-9783
▁ረፋድ	-9784
▁ሲመጣ	-9785
▁ሲገቡ	-9786
▁ስኳር	-9787
▁በማው	-9788
▁ተደብ	-9789
▁ተገን	-9790
▁ታማኝ	-9791
▁ትሆና	-9792
▁ንፋስ	-9793
▁አባላ	-9794
▁እሴት	-9795
▁እክል	-9796
▁ከዛም	-9797
▁ካሉት	-9798
▁ወራሪ	-9799
▁የማኅ	-9800
▁የነገ	-9801
▁ይጠቀ	-9802
▁ጨምረ	-9803
▁ፍቃዱ	-9804
ስተዳደሩ	-9805
▁ሃላፊው	-9806
▁ልጆችን	-9807
▁ሕዝቦች	-9808
▁ማቀበል	-9809
▁ማእከል	-9810
▁ማዕድን	-9811
▁ሜዳልያ	-9812
▁በሲዳማ	-9813
▁በግልጽ	-9814
▁ተከታይ	-9815
▁አንዳር	-9816
▁ከአለም	-9817
▁ዝርፊያ	-9818
▁የመብት	-9819
▁ማርቲኔዝ	-9820
▁በፖለቲካ	-9821
▁ተከታዩን	-9822
▁ኪንግደም	-9823
▁ኮሚሽነሩ	-9824
▁የሚቻለው	-9825
▁የማለፊያ	-9826
▁የተቀመጠ	-9827
▁የአእምሮ	-9828
▁ያጋጠመው	-9829
▁ዶክትሬት	-9830
▁በማኅበራዊ	-9831
▁ተጠናቋል።	-9832
▁እንዲቆጠቡ	-9833
▁እያከናወነ	-9834
▁የራሳቸውን	-9835
▁ዩናይትዶች	-9836
▁አገልግሎትን	-9837
▁የሚኒስትሮች	-9838
▁የተከሰተውን	-9839
PA	-9840
ልኮ	-9841
ሲን	-9842
ካዩ	-9843
ውር	-9844
ውሮ	-9845
ፋና	-9846
ፌዲ	-9847
ebs	-9848
ork	-9849
ራባኦ	-9850
ባኤው	-9851
ታለን	-9852
ችሉት	-9853
ዓታት	-9854
ያዙት	-9855
ደለው	-9856
ደግፉ	-9857
ጆችን	-9858
ፕራይ	-9859
▁ሆኜ	-9860
▁ሊታ	-9861
▁ሱቅ	-9862
▁ቆር	-9863
▁አዎ	-9864
▁እዛ	-9865
▁ከቅ	-9866
▁ጋዛ	-9867
▁ጎብ	-9868
▁ፊሊ	-9869
ስርዓቱ	-9870
ቢያችን	-9871
ባቸውም	-9872
ቶቻቸው	-9873
ደራደር	-9874
▁ለሰው	-9875
▁ሰልፉ	-9876
▁ሰውን	-9877
▁ሳህለ	-9878
▁በለጠ	-9879
▁በመዝ	-9880
▁ብሄር	-9881
▁ተቃር	-9882
▁ተቃው	-9883
▁ከማስ	-9884
▁የሴት	-9885
▁የቀዶ	-9886
▁ለአራት	-9887
▁መረዳት	-9888
▁መፍታት	-9889
▁ተገደሉ	-9890
▁ተጨባጭ	-9891
▁አብያተ	-9892
▁ከሁለቱ	-9893
▁ከወራት	-9894
▁ወቅዱስ	-9895
▁ውዝግብ	-9896
▁የአቅም	-9897
ባቸዋል፡፡	-9898
▁መከሰቱን	-9899
▁ማሰልጠኛ	-9900
▁ምልክቶች	-9901
▁ሰጥተዋል	-9902
▁ሲረጋገጥ	-9903
▁በማውጣት	-9904
▁አስተናጋ	-9905
▁አጠቃቀም	-9906
▁እንደኾነ	-9907
▁ከነበሩት	-9908
▁ለመከታተል	-9909
▁ተጀምሯል።	-9910
▁እንዲደርስ	-9911
▁የኤሌክትሮ	-9912
▁ያስቆጠረው	-9913
▁ለህብረተሰቡ	-9914
▁ማስተባበሪያ	-9915
▁በህብረተሰቡ	-9916
▁ኢንጂነሪንግ	-9917
▁እንዲሰጣቸው	-9918
▁ከህብረተሰቡ	-9919
▁እንዳስታወቁት	-9920
ረቤ	-9921
ቀኝ	-9922
ተመ	-9923
ክሉ	-9924
ወጫ	-9925
የረ	-9926
ደነ	-9927
ደዋ	-9928
ፕድ	-9929
ልቀት	-9930
▁76	-9931
▁et	-9932
▁ሼር	-9933
▁በጸ	-9934
▁አሚ	-9935
▁እሺ	-9936
▁ከሽ	-9937
▁ይሻ	-9938
▁ፍሎ	-9939
2022	-9940
ምህረት	-9941
ታግራም	-9942
ናናትን	-9943
ዘዋዋሪ	-9944
ጀምረው	-9945
ጻቸውን	-9946
ፈፀሙት	-9947
▁ለማው	-9948
▁ሊቃነ	-9949
▁በእነ	-9950
▁ነፍስ	-9951
▁ከልብ	-9952
▁ክምች	-9953
▁ክፍሌ	-9954
▁የክር	-9955
▁ጨረታ	-9956
ቨርኩሰን	-9957
▁ሁኔታው	-9958
▁ለተሻለ	-9959
▁መዘገቡ	-9960
▁ማምጣት	-9961
▁ሰባተኛ	-9962
▁በማድረ	-9963
▁በቅዱስ	-9964
▁በታላቁ	-9965
▁ባለመቻ	-9966
▁ዕቃዎች	-9967
▁የቻሉት	-9968
▁የኢራን	-9969
▁Addis	-9970
▁ማድሪድን	-9971
▁በማድረስ	-9972
▁በቅድሚያ	-9973
▁በበርካታ	-9974
▁አስከባሪ	-9975
▁ኮንስትራ	-9976
▁የለበትም	-9977
▁የቁጥጥር	-9978
▁ይጀምራል	-9979
▁ላልተወሰነ	-9980
▁መንግስትን	-9981
▁አልፏል፡፡	-9982
▁የመምህራን	-9983
▁የተቋቋመው	-9984
▁በቤኒሻንጉል	-9985
▁እንደማይችል	-9986
▁የአውሮፕላን	-9987
31	-9988
?»	-9989
ib	-9990
io	-9991
ሺፕ	-9992
ቲቭ	-9993
ጋር	-9994
ፁን	-9995
oto	-9996
ሊባን	-9997
ሥራት	-9998
ውንም	-9999
ያችሁ	-10000
ደገፈ	-10001
ዳረጉ	-10002
ፌዲሪ	-10003
▁5,	-10004
▁68	-10005
▁ሃያ	-10006
▁በዉ	-10007
▁ባሰ	-10008
▁ቬለ	-10009
▁ተው	-10010
▁አዱ	-10011
▁ኦሞ	-10012
▁ከሱ	-10013
▁የጀ	-10014
▁ዳኒ	-10015
ስተዋል	-10016
▁120	-10017
▁ለቤት	-10018
▁ላለው	-10019
▁ሶማሌ	-10020
▁ቀኑን	-10021
▁ቆንጆ	-10022
▁ተከተ	-10023
▁ተወል	-10024
▁ተገኘ	-10025
▁ከሌላ	-10026
▁ከስር	-10027
▁ኮንቴ	-10028
▁ዝርዝ	-10029
▁የሥነ	-10030
▁ድርድ	-10031
▁ጋብቻ	-10032
▁ፋንታ	-10033
ጠራቸውን	-10034
▁ለኢዜአ	-10035
▁ልጃቸው	-10036
▁ሕጻናት	-10037
▁መጀመር	-10038
▁ማርከስ	-10039
▁ሮቤርቶ	-10040
▁ሮድሪጎ	-10041
▁አሉታዊ	-10042
▁አብዲሳ	-10043
▁አድርጉ	-10044
▁አገሮች	-10045
▁አፍንጫ	-10046
▁ካሳሁን	-10047
▁ውስጣዊ	-10048
▁የሌሎች	-10049
▁የቢሮው	-10050
▁ይላሉ።	-10051
▁ይጠናቀ	-10052
▁ጥርጣሬ	-10053
▁ለመጨረሻ	-10054
▁ለመፍትሔ	-10055
▁መግባቱን	-10056
▁ቭላድሚር	-10057
▁ተጠቅመው	-10058
▁ታጣቂዎቹ	-10059
▁እንዲቀጡ	-10060
▁የፒኤስጂ	-10061
▁ይፈልጋል	-10062
▁ስደተኞችን	-10063
▁ኃላፊነቱን	-10064
▁አውሮፕላኑ	-10065
▁እንሰራለን	-10066
▁እንዲያገኝ	-10067
▁የሚገኙትን	-10068
▁ይቀላቀሉ፡	-10069
▁በተጠናቀቀው	-10070
▁በጊዜያዊነት	-10071
▁ተናግሯል፡፡	-10072
▁የተመደባችሁ	-10073
ሊባ	-10074
ሜል	-10075
ራሚ	-10076
ቅላ	-10077
ቆር	-10078
ቢት	-10079
ባቱ	-10080
ታኔ	-10081
ናዉ	-10082
ናጀ	-10083
ናፈ	-10084
ኮቭ	-10085
ዚዮ	-10086
ደደ	-10087
ገቱ	-10088
ord	-10089
ምረቃ	-10090
ሳል።	-10091
ነው።	-10092
ከዚህ	-10093
ውንዴ	-10094
ድራል	-10095
ጂናል	-10096
ገልገ	-10097
ጋዮች	-10098
ጋጠመ	-10099
ጠነቀ	-10100
ጭበረ	-10101
▁49	-10102
▁መኩ	-10103
▁ሰሚ	-10104
▁ባዶ	-10105
▁ቸር	-10106
▁ከኃ	-10107
▁ወሰ	-10108
▁ዕዝ	-10109
▁ድራ	-10110
▁ጭኖ	-10111
ሰልጠን	-10112
▁ለመቅ	-10113
▁መሰብ	-10114
▁በፎቶ	-10115
▁ባቡር	-10116
▁ኒውስ	-10117
▁እራሱ	-10118
▁ከፍታ	-10119
▁ወለድ	-10120
▁የፀረ	-10121
▁ዮናስ	-10122
▁ጠብቆ	-10123
ikvah	-10124
ከፈላቸው	-10125
▁"...	-10126
▁መገለጫ	-10127
▁ማዋሉን	-10128
▁በጥራት	-10129
▁ብዙሀን	-10130
▁አክሱም	-10131
▁አያያዝ	-10132
▁አደረጉ	-10133
▁እንደታ	-10134
▁ከደረሰ	-10135
▁ዊሊያም	-10136
▁የመኖር	-10137
▁የአሁኑ	-10138
▁የአመራ	-10139
▁ጋምቤላ	-10140
▁ሆኗል፡፡	-10141
▁መጠበቂያ	-10142
▁ማዳበሪያ	-10143
▁ቃላቸውን	-10144
▁በተግባር	-10145
▁በአብላጫ	-10146
▁በያዝነው	-10147
▁ታማሚዎች	-10148
▁ኦሪጂናል	-10149
▁የሚፈልግ	-10150
▁ዩቲዩብ፡	-10151
▁ደረጃዎች	-10152
▁ሲንቀሳቀሱ	-10153
▁ተቃዋሚዎች	-10154
▁አስታወቁ።	-10155
▁የመጨረሻው	-10156
▁የተመለከተ	-10157
▁ተጠርጣሪዎችን	-10158
▁እንደሚከናወን	-10159
aw	-10160
ልጥ	-10161
ሏት	-10162
ሸጋ	-10163
ቀቱ	-10164
ባው	-10165
ጓደ	-10166
ign	-10167
ማርክ	-10168
ሟቸው	-10169
ባትን	-10170
ትመት	-10171
ኙነት	-10172
እንዲ	-10173
ኽምራ	-10174
ዉያን	-10175
ደራጁ	-10176
ጋጥም	-10177
ፍልድ	-10178
▁98	-10179
▁VI	-10180
▁ቀል	-10181
▁ክሊ	-10182
▁ጫፍ	-10183
ance	-10184
olog	-10185
ለባቸው	-10186
ሊንከን	-10187
መለከታ	-10188
ሳችሁን	-10189
ወሰደው	-10190
ደበኛው	-10191
ጆቻቸው	-10192
ገለግል	-10193
ገለጸው	-10194
▁con	-10195
▁ራድዮ	-10196
▁ሴክሬ	-10197
▁ስቴት	-10198
▁ቀጥታ	-10199
▁ቃላት	-10200
▁ባሎን	-10201
▁ቪክቶ	-10202
▁አምና	-10203
▁ከዚሁ	-10204
▁ዘጋቢ	-10205
▁የመር	-10206
▁ያግኙ	-10207
▁ጠቀሜ	-10208
▁ጥለው	-10209
▁2010	-10210
▁ለሽያጭ	-10211
▁ሌፕዚግ	-10212
▁መሳተፍ	-10213
▁መስዋዕ	-10214
▁መደረግ	-10215
▁ማትያስ	-10216
▁ቢዝነስ	-10217
▁ብላችሁ	-10218
▁ተሰብስ	-10219
▁አነጋግ	-10220
▁የሰሌዳ	-10221
▁የተጠቀ	-10222
▁የትዳር	-10223
▁የጠበቀ	-10224
▁ያለፉት	-10225
▁ይባላል	-10226
▁ይደረግ	-10227
▁ጌታሁን	-10228
▁ፈላስፋ	-10229
▁ለማሳየት	-10230
▁ለትግራይ	-10231
▁ስርጭትን	-10232
▁የሕይወት	-10233
▁የሚወስዱ	-10234
▁የሳይበር	-10235
▁የአትሌቲ	-10236
▁ፎቶግራፍ	-10237
▁መንግሥታዊ	-10238
▁ንብረታቸው	-10239
▁እንዲፈጠር	-10240
▁እንዳይገቡ	-10241
▁የእንስሳት	-10242
▁የተሽከርካሪ	-10243
▁ጠይቀዋል፡፡	-10244
▁አሳስበዋል፡፡	-10245
▁ያመላክታል፡፡	-10246
62	-10247
ax	-10248
ልካ	-10249
ሐፊ	-10250
ርዱ	-10251
ሯዊ	-10252
በኛ	-10253
ትራ	-10254
ዚራ	-10255
ጠጣ	-10256
ily	-10257
ለቱን	-10258
ላጆች	-10259
ኳታሩ	-10260
ወከል	-10261
▁61	-10262
▁ST	-10263
▁ለዕ	-10264
▁ሙድ	-10265
▁ሬድ	-10266
▁ሳር	-10267
▁ተሽ	-10268
▁አጉ	-10269
▁ያጡ	-10270
▁ይስ	-10271
ማኑኤል	-10272
ቨርትዝ	-10273
ከናውኑ	-10274
ወስደው	-10275
ዲግራት	-10276
ግለሰብ	-10277
▁FBC	-10278
▁ህልም	-10279
▁ማስቀ	-10280
▁ምጣኔ	-10281
▁ሰበብ	-10282
▁ሰበታ	-10283
▁ቅርስ	-10284
▁ቆጠራ	-10285
▁በማያ	-10286
▁በወል	-10287
▁ብልጫ	-10288
▁ችሎቱ	-10289
▁አህጉ	-10290
▁አመሰ	-10291
▁የመፈ	-10292
▁የወቅ	-10293
▁ደራር	-10294
▁ጥቅል	-10295
▁ጥናቱ	-10296
▁ፎቶ፦	-10297
▁ፎደን	-10298
ደረግነው	-10299
ፈልገውን	-10300
▁9:00	-10301
▁ለማዋል	-10302
▁ምህረት	-10303
▁ሥራውን	-10304
▁ሪፖርቱ	-10305
▁ሲመለሱ	-10306
▁በሽብር	-10307
▁በበላይ	-10308
▁በአርባ	-10309
▁በግጭቱ	-10310
▁ተሰልፎ	-10311
▁ተወዳጅ	-10312
▁ካደረገ	-10313
▁የሀሰት	-10314
▁የታሪክ	-10315
▁የከባድ	-10316
▁ግብርና	-10317
▁ጥሪውን	-10318
ebsite	-10319
▁መጠናቀቅ	-10320
▁ምዕመናን	-10321
▁በመመለስ	-10322
▁በመነሳት	-10323
▁አታላንታ	-10324
▁አደንዛዥ	-10325
▁አጠራጣሪ	-10326
▁የመብራት	-10327
▁የሚያስተ	-10328
▁የማዕድን	-10329
▁የካታላኑ	-10330
▁የጣሊያን	-10331
▁ተግባራትን	-10332
▁ዩንቨርስቲ	-10333
▁ጀርመናዊው	-10334
▁ቤተክርስቲያ	-10335
▁አስረድቷል።	-10336
▁እንደሚገኝም	-10337
▁የኮሚኒኬሽን	-10338
▁የሚያደርጉትን	-10339
ቃን	-10340
ቪን	-10341
ታና	-10342
ቸሞ	-10343
ወግ	-10344
ዋስ	-10345
ዳድ	-10346
ድማ	-10347
ጨነ	-10348
▁ኾ	-10349
ሕፍት	-10350
ሚሽኑ	-10351
ረቢያ	-10352
ራኒው	-10353
ርካቶ	-10354
ሮቢት	-10355
ሰራጨ	-10356
ስትሮ	-10357
ስቶን	-10358
ንፈተ	-10359
ደቡብ	-10360
▁77	-10361
▁ሃብ	-10362
▁ለዋ	-10363
▁ላላ	-10364
▁ሰአ	-10365
▁ተአ	-10366
▁እኚ	-10367
▁ከዓ	-10368
▁ግፍ	-10369
ital	-10370
ባችንን	-10371
ፕሎማሲ	-10372
▁---	-10373
▁via	-10374
▁ላቀው	-10375
▁ልጁን	-10376
▁ማለቱ	-10377
▁ማይክ	-10378
▁በርና	-10379
▁በደል	-10380
▁ተግዳ	-10381
▁ትኩረ	-10382
▁አላት	-10383
▁አማን	-10384
▁አንዲ	-10385
▁አጽድ	-10386
▁ከየት	-10387
▁የቡና	-10388
▁ጤናማ	-10389
▁ፈፅሞ	-10390
▁ፓሪስ	-10391
▁5000	-10392
▁ማለቱን	-10393
▁ማጣርያ	-10394
▁ተመልካ	-10395
▁አብዱላ	-10396
▁አንቀፅ	-10397
▁እየመራ	-10398
▁ከፍንጅ	-10399
▁ኳሶችን	-10400
▁ወቅትም	-10401
▁ወታደሮ	-10402
▁የብቃት	-10403
▁የቦርድ	-10404
▁የዓመቱ	-10405
▁የድህረ	-10406
▁ይቀላቀ	-10407
▁መቀላቀል	-10408
▁መቀጠሉን	-10409
▁መድረኮች	-10410
▁ሲነጻጸር	-10411
▁ሲነፃፀር	-10412
▁በጥቅምት	-10413
▁የስንፈተ	-10414
▁የአዕምሮ	-10415
▁መቆጣጠሪያ	-10416
▁በሁለተኛው	-10417
▁አሰልጣኞች	-10418
▁ዋሽንግተን	-10419
▁የተሰጣቸው	-10420
▁ማስተላለፊያ	-10421
▁ባስተላለፉት	-10422
▁የሚያቆየውን	-10423
57	-10424
OR	-10425
ላባ	-10426
ላታ	-10427
ማክ	-10428
ርጎ	-10429
ቅል	-10430
በሱ	-10431
ተኑ	-10432
የል	-10433
ዬም	-10434
ጋጭ	-10435
ary	-10436
ual	-10437
ሀገር	-10438
ሁለት	-10439
ለሁም	-10440
ልቦና	-10441
ባርቅ	-10442
ብስብ	-10443
ነቷን	-10444
ክሌር	-10445
ገመት	-10446
ገራዊ	-10447
ፈሩት	-10448
ፈቅድ	-10449
▁Ex	-10450
▁ሎስ	-10451
▁ቁም	-10452
▁ከሟ	-10453
▁ዘይ	-10454
▁ጨም	-10455
2021	-10456
8283	-10457
ብሏል።	-10458
ቪዬሽን	-10459
አግባብ	-10460
▁102	-10461
▁ሞዴል	-10462
▁በቀይ	-10463
▁አውሎ	-10464
▁አደም	-10465
▁ኢንዱ	-10466
▁ከተሰ	-10467
▁የገዛ	-10468
▁ድጎማ	-10469
▁ፍትሕ	-10470
▁2:30	-10471
▁ህዝቡን	-10472
▁ለከተማ	-10473
▁ለክልሉ	-10474
▁ሊካሄድ	-10475
▁ማካሄድ	-10476
▁በላከው	-10477
▁በመሬት	-10478
▁በመኪና	-10479
▁በመጓዝ	-10480
▁በሳዑዲ	-10481
▁በትንሹ	-10482
▁አመስግ	-10483
▁ኢትዮጲ	-10484
▁እንክብ	-10485
▁ዕለታዊ	-10486
▁የሚታይ	-10487
▁ይከናወ	-10488
138283	-10489
▁ለህክምና	-10490
▁ስምንተኛ	-10491
▁ቀጥሏል።	-10492
▁በመንገድ	-10493
▁ተናግረው	-10494
▁እንግልት	-10495
▁እየተሠራ	-10496
▁ከግንቦት	-10497
▁የማጣሪያ	-10498
▁የእምነት	-10499
▁የደመወዝ	-10500
▁TikTok	-10501
▁ለሀገራችን	-10502
▁ተገናኝተው	-10503
▁አልተቻለም	-10504
▁ወገኖቻችን	-10505
▁የሀይማኖት	-10506
▁ይችላል፡፡	-10507
,000,000	-10508
▁ሊዋንዶውስኪ	-10509
▁በዩኒቨርሲቲ	-10510
▁አስተዳደራዊ	-10511
▁መልዕክታቸውን	-10512
?!	-10513
?”	-10514
ለሌ	-10515
ላካ	-10516
ማኒ	-10517
ቄት	-10518
ነነ	-10519
ዳጃ	-10520
ገሌ	-10521
ind	-10522
ራችን	-10523
ርቻሮ	-10524
ሾችን	-10525
ቶችም	-10526
ቻችሁ	-10527
አትር	-10528
ጣጣኝ	-10529
▁63	-10530
▁87	-10531
▁ለሪ	-10532
▁ለቁ	-10533
▁መዛ	-10534
▁ተጭ	-10535
▁ኦር	-10536
▁ካፍ	-10537
▁የኅ	-10538
▁የጊ	-10539
▁የጨ	-10540
▁ጆሮ	-10541
▁ጥሬ	-10542
2019	-10543
form	-10544
ፖርተር	-10545
▁095	-10546
▁10.	-10547
▁ሚሳኤ	-10548
▁ማሳወ	-10549
▁ምትክ	-10550
▁ሰልፈ	-10551
▁ሳንቾ	-10552
▁ቅርብ	-10553
▁በጋዜ	-10554
▁ቤቶቹ	-10555
▁እዛው	-10556
▁ከቦሌ	-10557
▁ክፍተ	-10558
▁የመለ	-10559
▁ይመዝ	-10560
▁ግድቡ	-10561
ላንዳዊው	-10562
ደረጋችሁ	-10563
▁መቅረብ	-10564
▁መድረኩ	-10565
▁ሰውነት	-10566
▁ሲገደሉ	-10567
▁ስምሪት	-10568
▁በምክር	-10569
▁በተያዘ	-10570
▁በአቅራ	-10571
▁ብርሀኑ	-10572
▁ብጥብጥ	-10573
▁ተቀዳሚ	-10574
▁ትንኮሳ	-10575
▁አዋሳኝ	-10576
▁አይመስ	-10577
▁እያጣራ	-10578
▁ከፖሊስ	-10579
▁ወንድሙ	-10580
▁የልደት	-10581
▁የታሰሩ	-10582
▁ያሳያል	-10583
▁ፍፃሜው	-10584
▁Photo	-10585
▁ሀገሪቱን	-10586
▁መፈፀሙን	-10587
▁ተመጣጣኝ	-10588
▁አሳውቋል	-10589
▁አስገዳጅ	-10590
▁የመጣውን	-10591
▁የምክክር	-10592
▁የስልጠና	-10593
▁የተያዘው	-10594
▁የወንዶች	-10595
▁የዜጎችን	-10596
▁ለመመዝገብ	-10597
▁ለተከታታይ	-10598
▁ሰጥቷል፡፡	-10599
▁በታጣቂዎች	-10600
▁የተነገረው	-10601
▁ይጀምራል።	-10602
▁ባለሙያዎችን	-10603
▁ኮንስትራክሽን	-10604
1-	-10605
AL	-10606
pt	-10607
uc	-10608
ልጤ	-10609
ራህ	-10610
በማ	-10611
ቲስ	-10612
ቸግ	-10613
ኖተ	-10614
የሚ	-10615
ድፍ	-10616
ለምን	-10617
መንጃ	-10618
መዳን	-10619
ናነቅ	-10620
ወለድ	-10621
ወርቂ	-10622
ዎርክ	-10623
ጠባበ	-10624
ጥሮስ	-10625
▁62	-10626
▁Sp	-10627
▁ማማ	-10628
▁ሞራ	-10629
▁ሴሚ	-10630
▁ሴሪ	-10631
▁በዙ	-10632
▁ተማ	-10633
▁ከረ	-10634
▁ኩራ	-10635
▁ዘለ	-10636
ርቲንግ	-10637
ያውያን	-10638
▁ህዝበ	-10639
▁መጠኑ	-10640
▁ሙሌት	-10641
▁ምክረ	-10642
▁በብር	-10643
▁ኅዳር	-10644
▁ነኝ።	-10645
▁ናሙና	-10646
▁ኪራይ	-10647
▁ወስዶ	-10648
▁የታየ	-10649
▁የእር	-10650
▁የጋዛ	-10651
▁ይጀመ	-10652
▁ይገለ	-10653
▁ጀመሩ	-10654
ሬዚዳንት	-10655
▁ሐሰተኛ	-10656
▁መቋረጥ	-10657
▁ሰልፎች	-10658
▁ሰነዶች	-10659
▁ሲሞክሩ	-10660
▁ቀሪዎቹ	-10661
▁ቀጠናዊ	-10662
▁ተሞክሮ	-10663
▁ተገልፆ	-10664
▁ተግዳሮ	-10665
▁አሸባሪ	-10666
▁ከግማሽ	-10667
▁ከፀጥታ	-10668
▁የሚመስ	-10669
▁የባየር	-10670
▁የተሰሩ	-10671
▁የዋሉት	-10672
▁ያቀርባ	-10673
▁ጥሰቶች	-10674
▁ጥናቶች	-10675
▁መሠረታዊ	-10676
▁ማግኘቱን	-10677
▁ሲጠናቀቅ	-10678
▁ስብሰባው	-10679
▁ተነስተው	-10680
▁ኔታንያሁ	-10681
▁አይገባም	-10682
▁ከመስጠት	-10683
▁የህፃናት	-10684
▁የሰውነት	-10685
▁የነበረዉ	-10686
▁ገልጧል።	-10687
▁መልዕክቱን	-10688
▁ስብሰባውን	-10689
▁ተሰጥቷል።	-10690
▁ተወስኗል።	-10691
▁እንደሚኖር	-10692
▁የደረሰበት	-10693
▁እርምጃዎችን	-10694
▁ተሸከርካሪዎች	-10695
of	-10696
ሊሲ	-10697
ላኩ	-10698
ሾሙ	-10699
ናኮ	-10700
አፕ	-10701
ካር	-10702
ፊካ	-10703
ake	-10704
ሆኑም	-10705
ለቀቀ	-10706
መረቀ	-10707
መናዊ	-10708
ሪዎቹ	-10709
ሰጥም	-10710
ተንሀ	-10711
ወርድ	-10712
ጀንስ	-10713
ፈራው	-10714
▁ልጃ	-10715
▁መሃ	-10716
▁ሜጋ	-10717
▁ራፋ	-10718
▁በሥ	-10719
▁ኒኮ	-10720
▁ከጫ	-10721
▁ኪዳ	-10722
▁የዴ	-10723
▁ያም	-10724
▁ጣፋ	-10725
▁ፖቼ	-10726
thio	-10727
ቋረጡን	-10728
ነጋገሩ	-10729
▁ለየት	-10730
▁መለስ	-10731
▁ሰራዊ	-10732
▁በሚሊ	-10733
▁በማህ	-10734
▁በቤን	-10735
▁ተመን	-10736
▁ትችት	-10737
▁አባይ	-10738
▁እርሶ	-10739
▁እኛን	-10740
▁የመቁ	-10741
▁የማሳ	-10742
▁ጥዋት	-10743
▁ፎረም	-10744
ገልግሎቱ	-10745
▁ሀብታም	-10746
▁ሃሰተኛ	-10747
▁መቆየት	-10748
▁ሙሉጌታ	-10749
▁ማሳየት	-10750
▁ሲስተም	-10751
▁በሙስና	-10752
▁በኢራን	-10753
▁በኤደን	-10754
▁አካውን	-10755
▁እንድና	-10756
▁የደንብ	-10757
▁ጀምሯል	-10758
▁ጭንቀት	-10759
▁ፈተናን	-10760
▁ለመቆየት	-10761
▁ሊያደርግ	-10762
▁መሞታቸው	-10763
▁መተሳሰብ	-10764
▁መድሀኒት	-10765
▁መጨመሪያ	-10766
▁ማስፈረም	-10767
▁ስራቸውን	-10768
▁በሊባኖስ	-10769
▁በአሰቃቂ	-10770
▁ከባለፈው	-10771
▁ከብሔራዊ	-10772
▁ከተጀመረ	-10773
▁ኮንግረስ	-10774
▁የሚታወቅ	-10775
▁የሚኖረው	-10776
▁የተዘጋጁ	-10777
▁የክትባት	-10778
▁የጉምሩክ	-10779
▁ፕሬዚዳን	-10780
▁ፖርቹጋል	-10781
▁ሃይማኖታዊ	-10782
▁መልዕክተኛ	-10783
▁መስተዳደር	-10784
▁ሲያስቆጥር	-10785
▁በምትገኘው	-10786
▁እንዲቀርቡ	-10787
▁የመድፈኞቹ	-10788
▁የምትፈልጉ	-10789
▁መገኘታቸውን	-10790
▁አልነበረም።	-10791
ne	-10792
ሉና	-10793
ልኩ	-10794
ሮጳ	-10795
ሰዉ	-10796
ስ፣	-10797
ቀቡ	-10798
ተለ	-10799
ትዲ	-10800
ካሚ	-10801
ዓል	-10802
ጆታ	-10803
ጥፍ	-10804
ፌኮ	-10805
ime	-10806
ሪስት	-10807
ሰንት	-10808
ንስላ	-10809
ፈራል	-10810
▁03	-10811
▁06	-10812
▁72	-10813
▁Ar	-10814
▁me	-10815
▁ብቃ	-10816
▁አፄ	-10817
▁ክሮ	-10818
▁ዣቪ	-10819
መሰረተ	-10820
▁ሀውስ	-10821
▁ለማም	-10822
▁ለብዙ	-10823
▁ለእኛ	-10824
▁ለድም	-10825
▁መቻሉ	-10826
▁መዘጋ	-10827
▁ሙስና	-10828
▁ማነስ	-10829
▁ሻለቃ	-10830
▁በመጋ	-10831
▁በጽኑ	-10832
▁በፕሮ	-10833
▁ቢኖር	-10834
▁ቤተል	-10835
▁ተጎድ	-10836
▁ከግብ	-10837
▁የተሻ	-10838
▁ይጎብ	-10839
▁ገበታ	-10840
▁ጣልያ	-10841
ረጋገጠው	-10842
▁ለተጎዱ	-10843
▁መልእክ	-10844
▁መረጃን	-10845
▁መርጌታ	-10846
▁መሰጠት	-10847
▁መስማት	-10848
▁ማንሳት	-10849
▁ሰርቪስ	-10850
▁ስፍራው	-10851
▁ሽግግር	-10852
▁በሂደት	-10853
▁በሚገባ	-10854
▁በተባሉ	-10855
▁ተጋጣሚ	-10856
▁ተፈጻሚ	-10857
▁ቴድሮስ	-10858
▁ክህደት	-10859
▁የሆነች	-10860
▁የተሰበ	-10861
▁ደራርቱ	-10862
▁ጠበቆች	-10863
▁ለሚፈልጉ	-10864
▁ለአሜሪካ	-10865
▁በህወሓት	-10866
▁በመልካም	-10867
▁በመጠበቅ	-10868
▁በጣልያን	-10869
▁በጥንቃቄ	-10870
▁ቫይረስን	-10871
▁አንጋፋው	-10872
▁ከመኖሪያ	-10873
▁ዝግጅቶች	-10874
▁የሚቀርቡ	-10875
▁የሚያደር	-10876
▁ያስችላል	-10877
▁ለማስከበር	-10878
▁መልዕክቶች	-10879
▁በአንድነት	-10880
▁ተይዘዋል።	-10881
▁ተጫዋቾችን	-10882
▁አማካይነት	-10883
▁አብዛኛዎቹ	-10884
▁እራሳቸውን	-10885
▁እንደቀጠለ	-10886
▁እንዲለቀቁ	-10887
▁ፖለቲከኞች	-10888
▁ለሚመለከተው	-10889
▁እናመሰግናለን	-10890
▁0901138283	-10891
መታ	-10892
ራዩ	-10893
ቪዛ	-10894
ነቴ	-10895
ንሶ	-10896
ከነ	-10897
ዋለ	-10898
ውቅ	-10899
የቀ	-10900
ጀራ	-10901
ጎና	-10902
ጠም	-10903
ጽሙ	-10904
ፃፈ	-10905
ሁሉም	-10906
ሃንስ	-10907
ልውና	-10908
ሜትር	-10909
ሰራጭ	-10910
ቋንቋ	-10911
ነትም	-10912
ንካሬ	-10913
ኛለሁ	-10914
ከብሩ	-10915
ወትር	-10916
ድርግ	-10917
ጥበብ	-10918
ጫወቻ	-10919
ፈላለ	-10920
▁82	-10921
▁ሀም	-10922
▁ስፓ	-10923
▁ዶሮ	-10924
▁ግሪ	-10925
▁ጎማ	-10926
▁ፕላ	-10927
ክልሎች	-10928
ዳል፡፡	-10929
ገለፀው	-10930
▁ሆነን	-10931
▁ላፕቶ	-10932
▁ማርክ	-10933
▁ርምጃ	-10934
▁ሶፍት	-10935
▁ናትና	-10936
▁ናችሁ	-10937
▁አሉን	-10938
▁አባቴ	-10939
▁አየለ	-10940
▁አያት	-10941
▁ወደተ	-10942
▁ዘርፉ	-10943
▁የቡድ	-10944
▁የቻሉ	-10945
▁የጎን	-10946
▁ያነሳ	-10947
▁ይቆያ	-10948
▁ይኖራ	-10949
ቶቻቸውን	-10950
ንግስታዊ	-10951
▁ለመማር	-10952
▁ሊደርስ	-10953
▁ልዑካን	-10954
▁መምራት	-10955
▁ማመንጫ	-10956
▁ማስፈራ	-10957
▁ሰንደቅ	-10958
▁ሲጀምር	-10959
▁ስርአት	-10960
▁በመረጃ	-10961
▁በሦስት	-10962
▁በአስተ	-10963
▁በጥቂት	-10964
▁ተመላክ	-10965
▁አሠራር	-10966
▁አርብቶ	-10967
▁እሳቱን	-10968
▁የሙከራ	-10969
▁የሚፈታ	-10970
▁የምርት	-10971
▁የነዋሪ	-10972
▁የአይን	-10973
▁የአዳማ	-10974
▁የፕሮጀ	-10975
▁ጅግጅጋ	-10976
▁ገለፀ።	-10977
▁ፖቼቲኖ	-10978
▁ለማጣራት	-10979
▁በመደገፍ	-10980
▁ተቆጣጣሪ	-10981
▁ታካሚዎች	-10982
▁ኔትወርክ	-10983
▁አደጋውን	-10984
▁አጎራባች	-10985
▁ኢንዱስት	-10986
▁እንዲውል	-10987
▁የአንበጣ	-10988
▁የጨዋታው	-10989
▁ያልታወቀ	-10990
▁ማስተላለፍ	-10991
▁ፕሬዚዳንቱ	-10992
▁አስተያየቱን	-10993
▁እንጠይቃለን	-10994
ሃር	-10995
ሣሥ	-10996
ቀለ	-10997
ቃዲ	-10998
በሬ	-10999
ታዲ	-11000
ቺን	-11001
ነበ	-11002
ኔሊ	-11003
ካፈ	-11004
የማ	-11005
የታ	-11006
ደሙ	-11007
BBC	-11008
ire	-11009
ሀብት	-11010
መረቁ	-11011
ረተው	-11012
ሪደር	-11013
ው፡፡	-11014
ግበር	-11015
▁94	-11016
▁Am	-11017
▁Sc	-11018
▁le	-11019
▁vs	-11020
▁ሙሳ	-11021
▁በጆ	-11022
▁ከኦ	-11023
▁የሺ	-11024
▁የኖ	-11025
ላውያን	-11026
ቤታቸው	-11027
ጠናከረ	-11028
▁not	-11029
▁ለመመ	-11030
▁ሊሆኑ	-11031
▁መኖሩ	-11032
▁መዝና	-11033
▁ማነው	-11034
▁ሰርጥ	-11035
▁በርግ	-11036
▁ቤት፣	-11037
▁ታሪፍ	-11038
▁ነገሩ	-11039
▁አወዳ	-11040
▁አግቢ	-11041
▁ካሪም	-11042
▁የቀይ	-11043
▁የተዛ	-11044
▁የነፃ	-11045
▁ይመራ	-11046
▁ገዳይ	-11047
ነታችንን	-11048
▁ለመላክ	-11049
▁መኪኖች	-11050
▁በድብቅ	-11051
▁በግጭት	-11052
▁አበባው	-11053
▁አቻቸው	-11054
▁አዕምሮ	-11055
▁ከተባለ	-11056
▁ካለፉት	-11057
▁የሰነድ	-11058
▁የተላከ	-11059
▁የግማሽ	-11060
▁የግጭት	-11061
▁ይዘዙን	-11062
▁በምርጫው	-11063
▁ቡድናችን	-11064
▁ብሊንከን	-11065
▁አስተማሪ	-11066
▁እየተሰሩ	-11067
▁ከማድረግ	-11068
▁ወንድማማ	-11069
▁ዘገባዎች	-11070
▁የለም፡፡	-11071
▁የመመለስ	-11072
▁የሚስተዋ	-11073
▁የሚጫወቱ	-11074
▁የወደፊት	-11075
▁ዩናይትዱ	-11076
▁ገብቷል።	-11077
▁በበላይነት	-11078
▁በተማሪዎች	-11079
▁በተቃራኒው	-11080
▁በተጠቀሱት	-11081
▁እንክብካቤ	-11082
▁እንገኛለን	-11083
▁እየተሰራጨ	-11084
▁የሚጠበቀው	-11085
▁በመግለጫቸው	-11086
▁አረጋግጠዋል	-11087
▁እንደሚወስድ	-11088
▁አስጠንቅቀዋል።	-11089
ሀይ	-11090
ሐዱ	-11091
ሽም	-11092
ንሰ	-11093
አር	-11094
አያ	-11095
ጃን	-11096
▁ቨ	-11097
ics	-11098
ous	-11099
out	-11100
ሉንም	-11101
በተን	-11102
ብኛል	-11103
ነስቲ	-11104
ዘመን	-11105
ጀምሮ	-11106
ጥቃት	-11107
ጩነት	-11108
ፍቅር	-11109
▁ለሃ	-11110
▁ማል	-11111
▁ማሕ	-11112
▁ራያ	-11113
▁ባር	-11114
▁ኖት	-11115
▁ውኃ	-11116
▁ዘል	-11117
▁ጸሎ	-11118
▁ፅጌ	-11119
-19]	-11120
መሰረት	-11121
መስቀል	-11122
ውነተኛ	-11123
ጀንሲው	-11124
════	-11125
▁ለምር	-11126
▁ለሞት	-11127
▁መሸፈ	-11128
▁ማሳለ	-11129
▁ሜሰን	-11130
▁ሲኖር	-11131
▁ቀብር	-11132
▁በበጎ	-11133
▁በድረ	-11134
▁ቢያስ	-11135
▁ተጫው	-11136
▁ታቅዶ	-11137
▁አንገ	-11138
▁ወለል	-11139
▁ውሸት	-11140
▁የመነ	-11141
▁ግሪን	-11142
▁ፍራን	-11143
ግለሰቦች	-11144
▁1:30	-11145
▁ሀረርጌ	-11146
▁ሆነዋል	-11147
▁ለፍፃሜ	-11148
▁ላላችሁ	-11149
▁መማሪያ	-11150
▁መሻሻል	-11151
▁ሳይንቲ	-11152
▁ቀናቶች	-11153
▁ቀጣዩን	-11154
▁በክብር	-11155
▁በይፋዊ	-11156
▁አላገኘ	-11157
▁አሳልፎ	-11158
▁አስፋው	-11159
▁አዋጁን	-11160
▁አድናቂ	-11161
▁አግኝቶ	-11162
▁ከፈለጉ	-11163
▁ወታደር	-11164
▁የለኝም	-11165
▁የሚነሱ	-11166
▁የሰውን	-11167
▁የስኳር	-11168
▁የተዘረ	-11169
▁የጎዳና	-11170
▁ለመታደግ	-11171
▁መስመሮች	-11172
▁መቆራረጥ	-11173
▁ማስገባት	-11174
▁ቋንቋዎች	-11175
▁በመለየት	-11176
▁በመግዛት	-11177
▁በየአመቱ	-11178
▁በጣሊያን	-11179
▁ብልፅግና	-11180
▁ተከትሎም	-11181
▁አይነቶች	-11182
▁ዝግጅቱን	-11183
▁የመሳሰሉ	-11184
▁የሚጠቀሙ	-11185
▁የተገደሉ	-11186
▁የአንደኛ	-11187
▁በሀላፊነት	-11188
▁በማስመሰል	-11189
▁የቴክኒክና	-11190
▁ደብረፅዮን	-11191
▁በኤሌክትሪክ	-11192
▁አሳስቧል፡፡	-11193
▁አስተዳደሮች	-11194
▁ተሽከርካሪዎችን	-11195
58	-11196
ሚኒ	-11197
ማሬ	-11198
ረቁ	-11199
ረጫ	-11200
ሲካ	-11201
ሳም	-11202
ሺሺ	-11203
ሾም	-11204
ቀሩ	-11205
ቁብ	-11206
ኮራ	-11207
ወይ	-11208
የች	-11209
የዩ	-11210
ገሪ	-11211
ጓጓ	-11212
ፋሉ	-11213
ፏን	-11214
hel	-11215
ቃወሙ	-11216
ኳቸው	-11217
ዎትን	-11218
ያውቁ	-11219
ዳችን	-11220
ገራቱ	-11221
ገነዘ	-11222
▁ሌሊ	-11223
▁ተዳ	-11224
▁እብ	-11225
▁ከጣ	-11226
▁ዋን	-11227
▁ጎሳ	-11228
ርቲስት	-11229
ቻልበት	-11230
ችኋል።	-11231
ናቃዮች	-11232
ከሰተው	-11233
ጀመሩት	-11234
▁ለመለ	-11235
▁ለማዳ	-11236
▁መርከ	-11237
▁መወያ	-11238
▁መዘግ	-11239
▁ምሳሌ	-11240
▁ሲሰጡ	-11241
▁ሳጥን	-11242
▁ስኮት	-11243
▁እነሆ	-11244
▁ካናዳ	-11245
▁የሙሉ	-11246
▁የኳስ	-11247
▁ይጠቁ	-11248
▁ጀመር	-11249
▁ገልፃ	-11250
ስተዋወቅ	-11251
▁ለምንድ	-11252
▁መቆየቱ	-11253
▁መንሸራ	-11254
▁ሰራዊቱ	-11255
▁ቆይታው	-11256
▁በባሕር	-11257
▁ባለሃብ	-11258
▁እስራኤ	-11259
▁እንዳን	-11260
▁የመፍት	-11261
▁የስለላ	-11262
▁የቀጠለ	-11263
▁ገለጹ።	-11264
▁ጨምረዉ	-11265
▁ለብሔራዊ	-11266
▁ሚንስትሩ	-11267
▁ሰራተኞቹ	-11268
▁በማስረጃ	-11269
▁በሽታዎች	-11270
▁በክረምቱ	-11271
▁ተከሳሾቹ	-11272
▁አቅርበው	-11273
▁አፈወርቂ	-11274
▁እንደሚመ	-11275
▁እንዲነሳ	-11276
▁እየሰራን	-11277
▁ኮምቦልቻ	-11278
▁የለውም።	-11279
▁የመራጮች	-11280
▁የጥምቀት	-11281
▁ያሳለፈው	-11282
▁ጉባኤውን	-11283
▁ተመራቂዎች	-11284
▁የተገነባው	-11285
▁የፈረንሳዩ	-11286
▁ሰጥተዋል፡፡	-11287
▁የቀረበለትን	-11288
▁የኢንዱስትሪ	-11289
54	-11290
RO	-11291
ሊካ	-11292
ራዳ	-11293
ሸጠ	-11294
ድጉ	-11295
ጭን	-11296
ANA	-11297
VID	-11298
ens	-11299
ile	-11300
ሩንዲ	-11301
ቷል፤	-11302
ከፈለ	-11303
ፈታት	-11304
▁08	-11305
▁66	-11306
▁83	-11307
▁GB	-11308
▁ሚላ	-11309
▁ሞክ	-11310
▁ሲታ	-11311
▁ቀው	-11312
▁ቆሞ	-11313
▁ትሮ	-11314
▁ነሽ	-11315
▁ንክ	-11316
▁እዳ	-11317
▁የዛ	-11318
▁ይር	-11319
2020	-11320
ቡንደስ	-11321
ዟል፡፡	-11322
▁11.	-11323
▁3-1	-11324
▁ሀምሳ	-11325
▁ሀኪም	-11326
▁ሃማስ	-11327
▁ሉካኩ	-11328
▁ላለመ	-11329
▁መስኮ	-11330
▁ሙፍቲ	-11331
▁ነጋሽ	-11332
▁እጁን	-11333
▁እገታ	-11334
▁ኩራት	-11335
▁የትን	-11336
▁ገዳማ	-11337
ement	-11338
ንቅስቃሴ	-11339
▁more	-11340
▁ሁኔታን	-11341
▁ለትዳር	-11342
▁ለአደጋ	-11343
▁ለኢትዮ	-11344
▁መመረጥ	-11345
▁መኾኑን	-11346
▁ማድረስ	-11347
▁ማድሪዱ	-11348
▁ሳይቀር	-11349
▁ቀዳማዊ	-11350
▁በቁጥር	-11351
▁በቡድን	-11352
▁አሳወቀ	-11353
▁አደርጋ	-11354
▁እየወጡ	-11355
▁ከተማና	-11356
▁ኮሌጆች	-11357
▁የመሆን	-11358
▁የጃፓን	-11359
▁ያለዉን	-11360
▁ያደረሰ	-11361
▁ይሆናሉ	-11362
▁ግሽበት	-11363
▁ፍትሃዊ	-11364
▁ሀቨርትዝ	-11365
▁መገንባት	-11366
▁መጨናነቅ	-11367
▁ቀጣይነት	-11368
▁በኢኮኖሚ	-11369
▁በድምቀት	-11370
▁ባለመኖሩ	-11371
▁ባልታወቀ	-11372
▁ተመራማሪ	-11373
▁አላቸው።	-11374
▁አትሌቲክ	-11375
▁ከአውሮፓ	-11376
▁ከፌዴራል	-11377
▁የተቀናጀ	-11378
▁ያገኛሉ።	-11379
ational	-11380
▁ትክክለኛው	-11381
▁እንደሆነና	-11382
▁እንደሚሆኑ	-11383
▁እንዲካሄድ	-11384
▁የነበራቸው	-11385
▁ጀምረዋል።	-11386
▁ተመዝግቧል።	-11387
▁እንደሚጀመር	-11388
▁ዲሞክራሲያዊ	-11389
▁Channels	-11390
▁አስታውሰዋል።	-11391
▁ያመለክታል፡፡	-11392
3,	-11393
ረካ	-11394
ሮጌ	-11395
ቫን	-11396
ተስ	-11397
ኒሳ	-11398
ኖክ	-11399
ከሻ	-11400
ክም	-11401
ዋሽ	-11402
ጋዴ	-11403
▁ኸ	-11404
ame	-11405
ለትም	-11406
ሞቪች	-11407
ሪያድ	-11408
ራንስ	-11409
ሻለሁ	-11410
ቀትን	-11411
ከንድ	-11412
ኩት።	-11413
ዕለቱ	-11414
ድረው	-11415
ገለፁ	-11416
ፊኬት	-11417
▁by	-11418
▁ሲመ	-11419
▁ሲን	-11420
▁በጻ	-11421
▁ብክ	-11422
▁ተኩ	-11423
▁ታዛ	-11424
▁የቲ	-11425
▁ጉን	-11426
Play	-11427
ሪታንያ	-11428
▁Eng	-11429
▁ሕዝቡ	-11430
▁መገር	-11431
▁በተገ	-11432
▁ታይም	-11433
▁አልቫ	-11434
▁አርኖ	-11435
▁አዱኛ	-11436
▁እሱም	-11437
▁እየሰ	-11438
▁የትም	-11439
▁ያረፈ	-11440
▁ይኖሩ	-11441
▁ጠንክ	-11442
ology	-11443
▁ለሴቶች	-11444
▁ለእስር	-11445
▁ለዓይነ	-11446
▁ለግርማ	-11447
▁ላላቸው	-11448
▁መልቀቅ	-11449
▁መተላለ	-11450
▁በለይቶ	-11451
▁በልምድ	-11452
▁ባወጡት	-11453
▁ትላልቅ	-11454
▁አቀረበ	-11455
▁አንድሬ	-11456
▁አክሎም	-11457
▁ከድርጊ	-11458
▁ክምችት	-11459
▁ዘላለም	-11460
▁የለውጥ	-11461
▁የሚማሩ	-11462
▁የረጅም	-11463
▁የቀበሌ	-11464
▁የደንበ	-11465
▁የድኅረ	-11466
▁ደንበኛ	-11467
▁ገንዘቡ	-11468
▁ጣሊያን	-11469
▁ፍልሚያ	-11470
ላፊነታቸው	-11471
▁ስለዚህም	-11472
▁ሶስተኛው	-11473
▁በተመረጡ	-11474
▁አልታወቀ	-11475
▁የሚገልጽ	-11476
▁የተነሳው	-11477
▁ያደርጋሉ	-11478
▁ጥያቄውን	-11479
▁ለመመስረት	-11480
▁ለመሰብሰብ	-11481
▁ማንነታቸው	-11482
▁አምባሳደሩ	-11483
▁የማስከበር	-11484
▁የማዕከላዊ	-11485
▁የተሰጠውን	-11486
▁እንቅስቃሴን	-11487
▁............	-11488
bc	-11489
ሙ።	-11490
ረኝ	-11491
ቀጡ	-11492
ቶት	-11493
ነቃ	-11494
ዋና	-11495
ዝያ	-11496
150	-11497
ርስያ	-11498
ርቲው	-11499
ሲያን	-11500
ባብዌ	-11501
ተኮሰ	-11502
ኪዳን	-11503
ውያኑ	-11504
ዚያው	-11505
ደሪያ	-11506
ደኞች	-11507
ገኘዉ	-11508
▁<<	-11509
▁as	-11510
▁en	-11511
▁sh	-11512
▁ሀር	-11513
▁ለረ	-11514
▁ለኔ	-11515
▁ለፓ	-11516
▁ኤዲ	-11517
▁እፅ	-11518
▁ካቴ	-11519
▁ካይ	-11520
▁ገዱ	-11521
▁ጋዝ	-11522
ther	-11523
ለመደው	-11524
ቀበለው	-11525
ነበረው	-11526
ንድስና	-11527
ዘዋል።	-11528
ደረግን	-11529
ጎልበት	-11530
▁737	-11531
▁ማጣት	-11532
▁ሰናይ	-11533
▁በመድ	-11534
▁በውል	-11535
▁ባለን	-11536
▁አምጥ	-11537
▁እሳቱ	-11538
▁ኬቨን	-11539
▁የመታ	-11540
▁የፋኖ	-11541
▁ደራሽ	-11542
▁ጭነት	-11543
▁ሆቴሎች	-11544
▁መቀመጥ	-11545
▁ማክሮን	-11546
▁ማዕቀፍ	-11547
▁ሜዲካል	-11548
▁በምግብ	-11549
▁በጥቁር	-11550
▁በፈተና	-11551
▁ተሰናብ	-11552
▁ተወስዶ	-11553
▁ተዘርዝ	-11554
▁ናይሮቢ	-11555
▁እንገል	-11556
▁የሰዓት	-11557
▁የፈፀሙ	-11558
▁ይመስለ	-11559
▁ይዟል።	-11560
▁ጊዚያዊ	-11561
▁ግብዓት	-11562
▁ፋውንዴ	-11563
▁ለመርዳት	-11564
▁ለአብነት	-11565
▁መኮንኖች	-11566
▁ማለታቸው	-11567
▁ማርቲኔሊ	-11568
▁ምርመራው	-11569
▁ቀርቷል።	-11570
▁ቅሬታዎች	-11571
▁በመካሄድ	-11572
▁በተገናኘ	-11573
▁በእንዲህ	-11574
▁ተፎካካሪ	-11575
▁አለብን።	-11576
▁እንዲሰራ	-11577
▁ከመጋቢት	-11578
▁ከስድስት	-11579
▁የሚቀርብ	-11580
▁የጠቆሙት	-11581
▁ጥቃቶችን	-11582
▁ፍፃሜውን	-11583
▁Betika	-11584
▁ለጣቢያችን	-11585
▁ቅርንጫፎች	-11586
▁በሆስፒታሉ	-11587
▁በመነጋገር	-11588
▁በአደባባይ	-11589
▁በኢትዮጲያ	-11590
▁የሚሆነውን	-11591
▁እንደማይችሉ	-11592
▁የተመለከተው	-11593
ህያ	-11594
ልቁ	-11595
መጠ	-11596
ሱዙ	-11597
ሸሽ	-11598
ብዙ	-11599
ኬን	-11600
ዦር	-11601
ያኖ	-11602
ዷን	-11603
ፋቱ	-11604
▁◉	-11605
old	-11606
ስማን	-11607
ቀሰው	-11608
ቦታው	-11609
ኒቱን	-11610
ኖሩት	-11611
ወዳጁ	-11612
ደውን	-11613
ገኙም	-11614
ፋችሁ	-11615
▁69	-11616
▁73	-11617
▁ሌባ	-11618
▁ሞላ	-11619
▁ሲተ	-11620
▁ኦፊ	-11621
▁ድሬ	-11622
▁ገላ	-11623
▁ጠፍ	-11624
▁ጥቂ	-11625
መዘገብ	-11626
በራችሁ	-11627
ወዳደሩ	-11628
ጀርመኑ	-11629
ጠራቸው	-11630
ጣሚዎች	-11631
▁New	-11632
▁ሀይሌ	-11633
▁ለአም	-11634
▁ሲወጣ	-11635
▁ሺዎች	-11636
▁በኒው	-11637
▁ተቋር	-11638
▁ተያዙ	-11639
▁እየጣ	-11640
▁የማት	-11641
▁ጄሱስ	-11642
▁ጅማሮ	-11643
▁ጨረቃ	-11644
ience	-11645
▁2019	-11646
▁መቋቋም	-11647
▁መፅሐፍ	-11648
▁ምስሎች	-11649
▁ሪፈራል	-11650
▁ስማርት	-11651
▁በእለቱ	-11652
▁በዓላት	-11653
▁በድርቅ	-11654
▁ተቀላቀ	-11655
▁ተጀምሮ	-11656
▁ተፋላሚ	-11657
▁አገዛዝ	-11658
▁ዋነኛው	-11659
▁ዘጠነኛ	-11660
▁የሚጠጋ	-11661
▁የተሟላ	-11662
▁የትጥቅ	-11663
▁የግብረ	-11664
▁የፈለጉ	-11665
ፓርትመንት	-11666
▁ለጠቅላይ	-11667
▁መወሰዱን	-11668
▁መፅሀፍት	-11669
▁በማካሄድ	-11670
▁አዛውንት	-11671
▁የተቀመጡ	-11672
▁ገበታቸው	-11673
▁ማሰባሰቢያ	-11674
▁ተገኝቷል።	-11675
▁እንደተገኘ	-11676
▁እንግሊዛዊ	-11677
▁Website	-11678
▁ተመልሰዋል።	-11679
▁አስታውሷል።	-11680
▁አቅርቧል፡፡	-11681
▁ኢትዮጵያዊው	-11682
▁የአካባቢውን	-11683
72	-11684
ሃፊ	-11685
መሙ	-11686
በሽ	-11687
ኑር	-11688
ዘመ	-11689
ገሰ	-11690
ገጽ	-11691
ጌት	-11692
▁»	-11693
መልጥ	-11694
ምቢያ	-11695
ሷቸው	-11696
ቃይት	-11697
በሩን	-11698
ተንፈ	-11699
ኩርት	-11700
ይህን	-11701
ደረው	-11702
ደቀው	-11703
ጋለጥ	-11704
ጨዋቹ	-11705
▁ሄጄ	-11706
▁ለሶ	-11707
▁መከ	-11708
▁ቁጣ	-11709
▁ነብ	-11710
▁ኤን	-11711
▁ከቱ	-11712
▁ከዕ	-11713
▁ጭስ	-11714
▁፣የ	-11715
ount	-11716
ሆናችሁ	-11717
ላችሁም	-11718
መርመር	-11719
ምባብዌ	-11720
ስትራር	-11721
ዎችንና	-11722
ገኝነት	-11723
ግባቸው	-11724
▁ለገሰ	-11725
▁ሊዮን	-11726
▁ማሳደ	-11727
▁በትዕ	-11728
▁በደም	-11729
▁ባንዲ	-11730
▁ታምሩ	-11731
▁አልታ	-11732
▁አራቱ	-11733
▁ኤርት	-11734
▁ኦዲት	-11735
▁የልም	-11736
▁የቆዳ	-11737
▁የአማ	-11738
▁ፖግባ	-11739
ollow	-11740
መንግሥት	-11741
ብለዋል።	-11742
ፌደሬሽን	-11743
▁have	-11744
▁join	-11745
▁ለመኖር	-11746
▁መለያየ	-11747
▁መጠንን	-11748
▁ሼፍልድ	-11749
▁በወረዳ	-11750
▁በውስጥ	-11751
▁በደረጃ	-11752
▁በገበያ	-11753
▁ተናገረ	-11754
▁ታስረው	-11755
▁ንፁሃን	-11756
▁ከህዝብ	-11757
▁ከፍለው	-11758
▁የነፍስ	-11759
▁የጥራት	-11760
▁ይሰራል	-11761
▁ይኖራል	-11762
▁ደረሰኝ	-11763
▁ጀኔራል	-11764
▁ገበያው	-11765
▁ገዛኸኝ	-11766
ላቸዋል፡፡	-11767
▁ህፃናትን	-11768
▁ለወንዶች	-11769
▁መፈጸሙን	-11770
▁ምእመናን	-11771
▁በመቅረብ	-11772
▁በየዕለቱ	-11773
▁አልቻሉም	-11774
▁አመሰግና	-11775
▁አድርገን	-11776
▁የመስጠት	-11777
▁የሚያስች	-11778
▁የሰላምና	-11779
▁የአሸናፊ	-11780
▁የኢንተር	-11781
▁የጦርነት	-11782
▁ደረጃውን	-11783
▁ገብተዋል	-11784
▁መነጋገሪያ	-11785
▁መገደላቸው	-11786
▁ትገኛለች።	-11787
▁አለባቸው።	-11788
▁ወታደሮችን	-11789
▁የተገደሉት	-11790
▁ኮሚዩኒኬሽን	-11791
ረቅ	-11792
ራጅ	-11793
ቁ።	-11794
ዕድ	-11795
ዘገ	-11796
ደቁ	-11797
ጋሩ	-11798
ጌል	-11799
ጥስ	-11800
ፊቱ	-11801
ፕስ	-11802
▁ጮ	-11803
ach	-11804
ult	-11805
ለችም	-11806
ሎቹን	-11807
ሞከር	-11808
ንስኪ	-11809
ንዛቤ	-11810
ኚዎች	-11811
ከፈሉ	-11812
ካችሁ	-11813
ክልና	-11814
ወንድ	-11815
ጠለው	-11816
▁6,	-11817
▁Af	-11818
▁De	-11819
▁we	-11820
▁ሚን	-11821
▁ማኀ	-11822
▁ሞተ	-11823
▁ሟች	-11824
▁ርክ	-11825
▁ሮሜ	-11826
▁ሶል	-11827
▁ነባ	-11828
▁እሰ	-11829
▁እዉ	-11830
▁ከጋ	-11831
▁ውሻ	-11832
2010	-11833
ሎምቢያ	-11834
▁ሂሩት	-11835
▁መራዘ	-11836
▁መከል	-11837
▁ማክስ	-11838
▁ሳምን	-11839
▁በድል	-11840
▁ተባብ	-11841
▁እርሻ	-11842
▁እሮብ	-11843
▁የሌላ	-11844
▁የሟች	-11845
▁የችግ	-11846
▁የጫኑ	-11847
▁ያለች	-11848
▁ያነጣ	-11849
▁ይደር	-11850
▁ድጋፉ	-11851
ተለጀንስ	-11852
ደጋፊዎች	-11853
▁this	-11854
▁ለማዳን	-11855
▁መጥፋት	-11856
▁ስንተኛ	-11857
▁በጅቡቲ	-11858
▁ተለያይ	-11859
▁ተነጋግ	-11860
▁ታምራት	-11861
▁አብደላ	-11862
▁ከሩሲያ	-11863
▁ከሰሜን	-11864
▁ክርስት	-11865
▁የሳዑዲ	-11866
▁የወቅቱ	-11867
▁ጉምሩክ	-11868
▁ስልጠናው	-11869
▁ባቀረበው	-11870
▁ታዳጊዎች	-11871
▁ናትናኤል	-11872
▁አስተባብ	-11873
▁አቆጣጠር	-11874
▁እየቀረበ	-11875
▁የመልካም	-11876
▁የመሪዎች	-11877
▁የመሰረተ	-11878
▁ያልተገባ	-11879
▁ያስፈልገ	-11880
▁ደረጃቸው	-11881
▁መከላከልና	-11882
▁ማረጋገጡን	-11883
▁ተችሏል፡፡	-11884
▁አመራሮችና	-11885
▁አውጥቷል።	-11886
▁የሚከናወን	-11887
▁ዩንቨርሲቲ	-11888
▁መድረሳቸውን	-11889
▁መግለጻቸውን	-11890
▁የቤኒሻንጉል	-11891
ለደ	-11892
መቶ	-11893
ቢስ	-11894
ኝና	-11895
ዜና	-11896
ዳቱ	-11897
ጡ።	-11898
ጥራ	-11899
ጨር	-11900
ark	-11901
ger	-11902
ሳሉ።	-11903
ስካር	-11904
ሸንፉ	-11905
ቋርጥ	-11906
በት።	-11907
ንኮች	-11908
አለም	-11909
ካሂዱ	-11910
ድረሱ	-11911
ግራሙ	-11912
ጓጎል	-11913
ጧቸው	-11914
ፋለች	-11915
▁ሄደ	-11916
▁ለሊ	-11917
▁መሄ	-11918
▁መዉ	-11919
▁ሳም	-11920
▁በጂ	-11921
▁ቦት	-11922
▁ትሬ	-11923
▁ካራ	-11924
▁ወጭ	-11925
▁ዛፍ	-11926
▁የቃ	-11927
▁ያየ	-11928
▁ፈቅ	-11929
ሦስተኛ	-11930
ብሰባው	-11931
ከላቸው	-11932
ፈለጉት	-11933
▁ለእጅ	-11934
▁መስራ	-11935
▁ማስክ	-11936
▁ራሞስ	-11937
▁በስር	-11938
▁በቀር	-11939
▁ባወጣ	-11940
▁ተከስ	-11941
▁ቱሄል	-11942
▁አራዝ	-11943
▁አርኔ	-11944
▁እውነ	-11945
▁ወሰነ	-11946
▁ዐቀፍ	-11947
▁ዑመር	-11948
▁የልጅ	-11949
▁የሜዳ	-11950
▁የብራ	-11951
▁የኋላ	-11952
▁የገና	-11953
▁የጠፋ	-11954
▁የጥሎ	-11955
▁ይነሳ	-11956
▁ዲያዝ	-11957
▁ፈጽሞ	-11958
ምፒዮንስ	-11959
ረጋገጡን	-11960
ርሴሎናን	-11961
ግራቸውም	-11962
▁tran	-11963
▁will	-11964
▁ሁለቱን	-11965
▁ህወሃት	-11966
▁ለድምፅ	-11967
▁ሚስጥር	-11968
▁ማስፈን	-11969
▁ምልልስ	-11970
▁ሲቲዎች	-11971
▁በመሸጥ	-11972
▁በመኖሩ	-11973
▁ቤቶች፣	-11974
▁ተጣርቶ	-11975
▁አለፈ።	-11976
▁አሳሰበ	-11977
▁አዳጋች	-11978
▁አድርጌ	-11979
▁እናሳው	-11980
▁ከቡድኑ	-11981
▁ወልድያ	-11982
▁ዛሬውኑ	-11983
▁የሚወጡ	-11984
▁የሽያጭ	-11985
▁የቀጥታ	-11986
▁የቆዩት	-11987
▁የትርፍ	-11988
▁የዋለው	-11989
▁ይነገራ	-11990
▁ድልድል	-11991
▁ጉድጓድ	-11992
▁ለመፈጸም	-11993
▁ለማምለጥ	-11994
▁ለማራዘም	-11995
▁ማሸነፉን	-11996
▁በመስቀል	-11997
▁አፍሪካን	-11998
▁እንዲፈታ	-11999
▁ከቫይረሱ	-12000
▁የሚጠራው	-12001
▁የተሰማው	-12002
▁የተያያዙ	-12003
▁የተጠበቀ	-12004
▁የአካዳሚ	-12005
▁የግንዛቤ	-12006
▁የፀጥታው	-12007
▁ያገለገሉ	-12008
▁ይገባዋል	-12009
▁ልጆቻቸውን	-12010
▁ማስተናገድ	-12011
▁ማጭበርበር	-12012
▁በወታደራዊ	-12013
▁ብሔረሰቦች	-12014
▁ኖቲንግሀም	-12015
▁አንዳንዶቹ	-12016
▁አይደለሁም	-12017
▁አድራሻችን	-12018
▁እንዲቀርብ	-12019
▁እንዳይጎዳ	-12020
▁ከእስራኤል	-12021
▁ከየትኛውም	-12022
▁የፍልስፍና	-12023
iversity	-12024
▁የተመዘገበው	-12025
▁ማስፈረማቸውን	-12026
▁አስጠንቅቋል።	-12027
▁እንደደረሰባቸው	-12028
84	-12029
lo	-12030
ማጭ	-12031
ራቢ	-12032
ሽር	-12033
ነባ	-12034
ናፍ	-12035
ኳት	-12036
ዓን	-12037
ዴኦ	-12038
ገሳ	-12039
ጾች	-12040
ሙንድ	-12041
ሮቹን	-12042
ሽናል	-12043
ሾሙት	-12044
ቃዲሾ	-12045
ንከር	-12046
ንግል	-12047
ፈለጋ	-12048
ፍነው	-12049
▁ሄር	-12050
▁ለሜ	-12051
▁ለሳ	-12052
▁ሊል	-12053
▁ሥጋ	-12054
▁ቆቦ	-12055
▁በሉ	-12056
▁ባሌ	-12057
▁ተላ	-12058
▁ታኅ	-12059
▁ካማ	-12060
▁የሉ	-12061
▁ጃን	-12062
▁ፊን	-12063
ሪቶሪያ	-12064
ናውያን	-12065
ዘዋወሩ	-12066
ደረሱን	-12067
ደርግም	-12068
▁ENA	-12069
▁ለድር	-12070
▁ለግል	-12071
▁መታገ	-12072
▁መጠቀ	-12073
▁ስሎት	-12074
▁ቁጠባ	-12075
▁በቀረ	-12076
▁በበቂ	-12077
▁አወጣ	-12078
▁አይታ	-12079
▁አፅድ	-12080
▁እርሱ	-12081
▁እስቲ	-12082
▁ኪዳን	-12083
▁ክፍሉ	-12084
▁የመካ	-12085
▁የኢድ	-12086
▁ይልቁ	-12087
▁ገጾች	-12088
▁ግደይ	-12089
▁ፋርማ	-12090
ልተኝነት	-12091
ገጣጠሚያ	-12092
▁ለቀጣይ	-12093
▁መሥራት	-12094
▁መርከብ	-12095
▁ሙስሊም	-12096
▁ምልከታ	-12097
▁በስጦታ	-12098
▁በተነሳ	-12099
▁በቱርክ	-12100
▁በነዳጅ	-12101
▁በግብፅ	-12102
▁ቤቲካን	-12103
▁ተከልክ	-12104
▁ተጽእኖ	-12105
▁ነበረው	-12106
▁አበባ፣	-12107
▁ዕጣዎች	-12108
▁የህንድ	-12109
▁የሚውሉ	-12110
▁የሚያሰ	-12111
▁የሚገጥ	-12112
▁የውጤት	-12113
▁የገጠር	-12114
▁የጥፋት	-12115
▁ያስታወ	-12116
▁ፓልመር	-12117
▁ለመጠየቅ	-12118
▁መሰረትም	-12119
▁ማጠናከር	-12120
▁ሲመለከት	-12121
▁በማምጣት	-12122
▁በረራዎች	-12123
▁ተመልሷል	-12124
▁ተገለፀ።	-12125
▁እያደረሰ	-12126
▁የላሊጋው	-12127
▁የቢዝነስ	-12128
▁የተመለሱ	-12129
▁የኢፌዲሪ	-12130
▁የወጣቶች	-12131
▁10,000	-12132
▁ህይወታቸዉ	-12133
▁መረጋገጡን	-12134
▁ሲንቀሳቀስ	-12135
▁ቆይቷል፡፡	-12136
▁በማጠናቀቅ	-12137
▁ባለሥልጣኑ	-12138
▁ተጠያቂነት	-12139
▁እንዲጠቀሙ	-12140
▁የነበሩትን	-12141
▁ያሳያል፡፡	-12142
▁ፕሬዚደንት	-12143
▁ማቅረባቸውን	-12144
▁አንዳርጋቸው	-12145
▁ኢንተለጀንስ	-12146
▁እንደሚገባም	-12147
▁የተናገሩት።	-12148
83	-12149
EN	-12150
ሃድ	-12151
ምኑ	-12152
ራፊ	-12153
ሲም	-12154
ብብ	-12155
ኛ፣	-12156
ኾን	-12157
ጫሉ	-12158
ፍሬ	-12159
ፕሮ	-12160
-12	-12161
ory	-12162
ራተኛ	-12163
ሰራም	-12164
ታዎች	-12165
ናገደ	-12166
ዊነት	-12167
ደናቀ	-12168
ጋለጡ	-12169
ግዚቢ	-12170
ጠብቃ	-12171
ጫወተ	-12172
▁መጉ	-12173
▁ማግ	-12174
▁ሩቶ	-12175
▁ታጥ	-12176
▁ካሊ	-12177
▁ፈት	-12178
ለንደን	-12179
ገባችን	-12180
ገኝበት	-12181
▁ሂላል	-12182
▁ሊገባ	-12183
▁ልዑል	-12184
▁ሞስኮ	-12185
▁ሥፍራ	-12186
▁ሳይን	-12187
▁ስህተ	-12188
▁ቤልጅ	-12189
▁ቤቱም	-12190
▁ቦምብ	-12191
▁ተኮር	-12192
▁ነሀሴ	-12193
▁ንዋይ	-12194
▁ንፁህ	-12195
▁ኢዜማ	-12196
▁ውሉን	-12197
▁የበር	-12198
▁የጥር	-12199
▁ድምጻ	-12200
▁ጅፋር	-12201
▁ጎሉን	-12202
▁ጣሰው	-12203
COVID	-12204
ሚኒስትር	-12205
ደርጋቸው	-12206
▁3000	-12207
▁ሊባኖስ	-12208
▁ልማቶች	-12209
▁መቃብር	-12210
▁መንበር	-12211
▁መፈራረ	-12212
▁ሞሃመድ	-12213
▁ሥርዓተ	-12214
▁ስሜነህ	-12215
▁በሰሜኑ	-12216
▁በሰፊው	-12217
▁በጅምላ	-12218
▁በጥናት	-12219
▁ባህልና	-12220
▁ቤንዚን	-12221
▁ተስተው	-12222
▁ተወሰነ	-12223
▁ተፅእኖ	-12224
▁አስርት	-12225
▁አደጋዉ	-12226
▁ከሳዑዲ	-12227
▁የላሊጋ	-12228
▁የሚተዳ	-12229
▁የዋንጫ	-12230
▁ጥንታዊ	-12231
ለትምህርት	-12232
▁101.1	-12233
▁ለዘመናት	-12234
▁መኖራቸው	-12235
▁ምዝገባው	-12236
▁ሲከታተሉ	-12237
▁በስልጣን	-12238
▁በቀጣዮቹ	-12239
▁በደቡባዊ	-12240
▁ቲክቶክ፡	-12241
▁አርኖልድ	-12242
▁አዘጋጅቶ	-12243
▁ኤምሬትስ	-12244
▁እቃዎችን	-12245
▁ከነዚህም	-12246
▁ከኤርትራ	-12247
▁ኮርፖሬት	-12248
▁የተባለች	-12249
▁የተገነባ	-12250
▁ጉዳያቸው	-12251
▁ለማስቀረት	-12252
▁ተሰማርተው	-12253
▁አላስፈላጊ	-12254
▁አይደለም፤	-12255
▁እንደሚሰሩ	-12256
▁እንደሚገቡ	-12257
▁እንዲወስዱ	-12258
▁የመጀመርያ	-12259
▁ያለባቸውን	-12260
▁ገልጻለች።	-12261
▁እንደተደረገ	-12262
▁እንዲጠናቀቅ	-12263
▁ተመላክቷል፡፡	-12264
,6	-12265
59	-12266
ED	-12267
ie	-12268
ህጉ	-12269
ሙም	-12270
ማሉ	-12271
ረባ	-12272
ራሴ	-12273
ራዝ	-12274
በለ	-12275
በቀ	-12276
ዋሉ	-12277
ዮስ	-12278
ገፋ	-12279
ጠፈ	-12280
/60	-12281
175	-12282
aba	-12283
che	-12284
ሚያስ	-12285
ረከበ	-12286
ሪነት	-12287
ርሽኙ	-12288
ሰጠን	-12289
ቋቋሙ	-12290
በልጡ	-12291
ባባሰ	-12292
ባባስ	-12293
ትረፍ	-12294
ናል፤	-12295
ዋሬዝ	-12296
ውቀው	-12297
ጀዚራ	-12298
ጅተው	-12299
▁ማሬ	-12300
▁ማካ	-12301
▁ታም	-12302
▁ቴፒ	-12303
▁አቦ	-12304
▁አፀ	-12305
▁እች	-12306
▁እጃ	-12307
▁ከሶ	-12308
▁ጆታ	-12309
▁ጉም	-12310
▁ፈለ	-12311
ላቸዉን	-12312
ሚያቸው	-12313
ሰራጨው	-12314
ጀንቲና	-12315
▁ሕንፃ	-12316
▁መርጃ	-12317
▁ምኞት	-12318
▁ሰርቶ	-12319
▁ሰርጅ	-12320
▁ባለሙ	-12321
▁ናፍጣ	-12322
▁ንረት	-12323
▁አድሃ	-12324
▁አድና	-12325
▁አጋዥ	-12326
▁ከምት	-12327
▁ወያነ	-12328
▁የሠራ	-12329
▁የራቀ	-12330
▁የገዳ	-12331
▁ይለያ	-12332
▁ጥምር	-12333
ሊንግሀም	-12334
▁ሀኪሞች	-12335
▁ለቤተሰ	-12336
▁ለወራት	-12337
▁ማሳደግ	-12338
▁ሳይሆኑ	-12339
▁ቅዱሳን	-12340
▁በማዋል	-12341
▁በምንም	-12342
▁በአስር	-12343
▁በየመን	-12344
▁ቢሮዎች	-12345
▁ባለቤቱ	-12346
▁ተከናው	-12347
▁አለ፡፡	-12348
▁አስከሬ	-12349
▁አጋሮች	-12350
▁ከክልል	-12351
▁ወልዲያ	-12352
▁የሰባት	-12353
▁የአርባ	-12354
▁የአቋም	-12355
▁የዩሮፓ	-12356
▁የያዘው	-12357
▁ይበልጣ	-12358
▁ዳኝነት	-12359
▁ድጋፉን	-12360
▁ጌታነህ	-12361
▁ለበረከት	-12362
▁ማድረሱን	-12363
▁በመምጣት	-12364
▁በምሥራቅ	-12365
▁በቅድስት	-12366
▁በትራፊክ	-12367
▁ችላለች።	-12368
▁ችሏል፡፡	-12369
▁ንብረቶች	-12370
▁አሸናፊው	-12371
▁አጠናቀው	-12372
▁እንዲቻል	-12373
▁ከንቲባው	-12374
▁ክስተቶች	-12375
▁የሚመጣው	-12376
▁የሳምንቱ	-12377
▁ይመዝገቡ	-12378
▁ይባላል።	-12379
Station	-12380
▁መንሸራተት	-12381
▁ሳህለወርቅ	-12382
▁ቆይተዋል።	-12383
▁ተላልፏል።	-12384
▁አሳውቀዋል	-12385
▁አጀንዳዎች	-12386
▁እንዲቋረጥ	-12387
▁ያቀረበውን	-12388
▁ዲሞክራቲክ	-12389
********	-12390
▁እንደሚኖረው	-12391
▁እንዳጋጠመው	-12392
▁የኮሙኒኬሽን	-12393
▁ዩኒቨርሲቲ፣	-12394
▁ፕሮፌሰርነት	-12395
▁ተወያይተዋል።	-12396
EM	-12397
ህግ	-12398
ሪቃ	-12399
ሰሱ	-12400
ሲፕ	-12401
ሸር	-12402
ብቻ	-12403
ቫር	-12404
ኤት	-12405
እስ	-12406
ዛቱ	-12407
ጥና	-12408
ARD	-12409
ish	-12410
መጣው	-12411
ሜናዊ	-12412
ምበር	-12413
ሻየር	-12414
ቅተኛ	-12415
ቱንና	-12416
ታየሁ	-12417
ቻቸዉ	-12418
ቾቹን	-12419
ያለው	-12420
ጠየቀ	-12421
ፐርስ	-12422
▁99	-12423
▁ህጉ	-12424
▁ለጎ	-12425
▁ሊፈ	-12426
▁ምሰ	-12427
▁ሴኔ	-12428
▁ኤሊ	-12429
▁ዉድ	-12430
▁ዉጪ	-12431
▁ጉል	-12432
▁ፍጡ	-12433
ቀጥለው	-12434
ቸስተር	-12435
ዝቦላህ	-12436
ፋሪዎች	-12437
▁3-0	-12438
▁መርህ	-12439
▁መስማ	-12440
▁መክፈ	-12441
▁ስራይ	-12442
▁በአጋ	-12443
▁በድም	-12444
▁ቲያጎ	-12445
▁አሟል	-12446
▁ኢንዞ	-12447
▁ከሥራ	-12448
▁ከብዙ	-12449
▁የመፍ	-12450
▁የቀን	-12451
▁የቢሮ	-12452
▁የባል	-12453
▁የአብ	-12454
▁የከተ	-12455
▁የጋሞ	-12456
▁ዩክሬ	-12457
▁ይመር	-12458
▁ይዞት	-12459
▁ገመቹ	-12460
▁ግዙፉ	-12461
▁ጳጉሜ	-12462
▁ሊቨርፑ	-12463
▁ሊከሰት	-12464
▁መታሰራ	-12465
▁በቅድመ	-12466
▁በተሳካ	-12467
▁በአበረ	-12468
▁ቢደረግ	-12469
▁ቪክቶር	-12470
▁ተመራጭ	-12471
▁ተወላጅ	-12472
▁አስራት	-12473
▁አውጥቶ	-12474
▁ኡጋንዳ	-12475
▁እያሳየ	-12476
▁ከቀድሞ	-12477
▁ካሜሮን	-12478
▁ኬንያታ	-12479
▁የተነሱ	-12480
▁የታክስ	-12481
▁ጥይቶች	-12482
▁ለመክስት	-12483
▁መንገዱን	-12484
▁በማጣራት	-12485
▁በሳይንስ	-12486
▁ባቀረቡት	-12487
▁ተናግሯል	-12488
▁አስደሳች	-12489
▁ዓመታትን	-12490
▁የመስቀል	-12491
▁የመደበኛ	-12492
▁የሚያሳዩ	-12493
▁የሚጠይቅ	-12494
▁የችርቻሮ	-12495
▁የእውቅና	-12496
▁የጋምቤላ	-12497
▁ሰማያዊዎቹ	-12498
▁ትምህርቱን	-12499
▁አመራሮችን	-12500
▁እናውቃለን	-12501
▁እየተደረጉ	-12502
▁ከሊቨርፑል	-12503
▁የላቦራቶሪ	-12504
▁የባህርዳር	-12505
▁የተዘጋጀው	-12506
▁ሕይወታቸውን	-12507
▁ባለመቻላቸው	-12508
▁ዩኒቨርስቲው	-12509
▁ያስፈልጋል።	-12510
▁ኃላፊነታቸውን	-12511
-4	-12512
GI	-12513
af	-12514
ልዎ	-12515
መኝ	-12516
በዝ	-12517
ባክ	-12518
ቾት	-12519
ኒማ	-12520
ካኝ	-12521
ዉሉ	-12522
ያዩ	-12523
ዶክ	-12524
ጅና	-12525
ጭቶ	-12526
ፃን	-12527
ong	-12528
ool	-12529
und	-12530
ሎባል	-12531
መሩን	-12532
መደቡ	-12533
ምፒክ	-12534
ሰሩት	-12535
ሰቀሰ	-12536
በላሸ	-12537
ታሉ።	-12538
ንጀሉ	-12539
ወለዱ	-12540
ዋለን	-12541
ደራሉ	-12542
ገኘት	-12543
ጡንቻ	-12544
ጫለሁ	-12545
▁ለክ	-12546
▁ስሚ	-12547
▁ሸሽ	-12548
▁ንቅ	-12549
▁ከር	-12550
▁ከቻ	-12551
▁ኮል	-12552
▁ጥና	-12553
▁፣በ	-12554
ለኛል።	-12555
መልካም	-12556
መልጠው	-12557
ራሳችን	-12558
ታማዦር	-12559
ኡጋንዳ	-12560
ኤርትራ	-12561
ከበረው	-12562
ካሄዱት	-12563
ገባችሁ	-12564
ጣለች።	-12565
▁12.	-12566
▁all	-12567
▁man	-12568
▁ለመዋ	-12569
▁ሩበን	-12570
▁ራሴን	-12571
▁ሮማን	-12572
▁በመቆ	-12573
▁ብሩክ	-12574
▁ቦርሳ	-12575
▁ተንታ	-12576
▁ንክኪ	-12577
▁አዳም	-12578
▁አዳነ	-12579
▁አፍቃ	-12580
▁እሳቤ	-12581
▁እስረ	-12582
▁ከውጪ	-12583
▁ያሳየ	-12584
▁ዴብሮ	-12585
▁ጀግና	-12586
▁ጋርም	-12587
▁ጸሎተ	-12588
▁ጸሎት	-12589
▁ፋይዳ	-12590
ሬዝዳንቱ	-12591
ቴሌግራም	-12592
ጅስትራር	-12593
ገራችንን	-12594
ጋጠማቸው	-12595
▁3:00	-12596
▁ለጉዳዩ	-12597
▁ማትረፍ	-12598
▁ሠራተኛ	-12599
▁ራፋኤል	-12600
▁በመተው	-12601
▁በኳታር	-12602
▁በግምት	-12603
▁በግቢው	-12604
▁ተሰማ።	-12605
▁ታይምስ	-12606
▁ቴአትር	-12607
▁ትልልቅ	-12608
▁ንጹሃን	-12609
▁አለመስ	-12610
▁አሞሪም	-12611
▁አረጋዊ	-12612
▁አበባን	-12613
▁እሳቸው	-12614
▁እንሰጣ	-12615
▁እንያዝ	-12616
▁እየገቡ	-12617
▁ከተጫዋ	-12618
▁ካርቱም	-12619
▁የሰለጠ	-12620
▁የታገዘ	-12621
▁የግብር	-12622
▁ጭንቅላ	-12623
▁ሀይማኖት	-12624
▁ለመክፈል	-12625
▁ልጃቸውን	-12626
▁መተማመን	-12627
▁በመገኘቱ	-12628
▁ባለማግኘ	-12629
▁ባንኪንግ	-12630
▁ተጠቁሟል	-12631
▁አስባለሁ	-12632
▁ኢንጅነር	-12633
▁እስከዛሬ	-12634
▁ከሀገሪቱ	-12635
▁ውለዋል።	-12636
▁የሚታየው	-12637
▁የስድስት	-12638
▁የተወሰዱ	-12639
▁የእረፍት	-12640
▁የእንግሊ	-12641
▁የወጣውን	-12642
▁የጎንዮሽ	-12643
▁ጦርነቱን	-12644
▁ለመነጋገር	-12645
▁በፈረንጆቹ	-12646
▁ከመንግሥት	-12647
▁የሚያቀርብ	-12648
▁የሪሚዲያል	-12649
▁የነበረችው	-12650
▁ፋብሪካዎች	-12651
▁መመለሳቸውን	-12652
▁በተሽከርካሪ	-12653
▁አሰልጣኝነት	-12654
▁አካባቢዎችን	-12655
▁አድርጋለች።	-12656
▁ኢንተርፕራይ	-12657
▁እንደነበርም	-12658
▁የተገለፀው።	-12659
▁በንግግራቸውም	-12660
,0	-12661
41	-12662
ሃይ	-12663
ሪኩ	-12664
ሶን	-12665
ቢሮ	-12666
ንጣ	-12667
የኢ	-12668
ዮብ	-12669
ጽም	-12670
ፓር	-12671
ህቀት	-12672
ረበሽ	-12673
ራረብ	-12674
ኒያም	-12675
ጥራት	-12676
ጨመሩ	-12677
ፅህና	-12678
ፈተና	-12679
▁07	-12680
▁89	-12681
▁Wh	-12682
▁de	-12683
▁በኬ	-12684
▁ብና	-12685
▁ተዓ	-12686
▁ተጥ	-12687
▁ችላ	-12688
▁አፋ	-12689
▁እጁ	-12690
▁ከዲ	-12691
▁ዕፅ	-12692
▁ዳታ	-12693
▁ጀነ	-12694
▁ጩኸ	-12695
▁ፊፋ	-12696
5051	-12697
መቻቸት	-12698
ቀሰቀሰ	-12699
ቋቋመው	-12700
በዚህም	-12701
ከፈለው	-12702
ዛምቢክ	-12703
ጋዜጠኛ	-12704
▁ልደቱ	-12705
▁መጓዝ	-12706
▁መፅሃ	-12707
▁ሠናይ	-12708
▁ሲታይ	-12709
▁ሽንት	-12710
▁በአት	-12711
▁ብስክ	-12712
▁ቦንብ	-12713
▁ቫሌን	-12714
▁ተበር	-12715
▁ታውቃ	-12716
▁ችግኝ	-12717
▁አሳድ	-12718
▁አከፋ	-12719
▁እናቱ	-12720
▁እናቴ	-12721
▁እዚያ	-12722
▁ኦማር	-12723
▁ከህግ	-12724
▁የስፔ	-12725
▁ይመረ	-12726
▁ፍሬው	-12727
▁ፖርቶ	-12728
ering	-12729
ስተዳድር	-12730
▁ሀሳቦች	-12731
▁ለማቆም	-12732
▁ሕፃናት	-12733
▁መለየት	-12734
▁መኩሪያ	-12735
▁መገልገ	-12736
▁መግለጹ	-12737
▁ማክበር	-12738
▁ምኒልክ	-12739
▁ቀጣናዊ	-12740
▁በቪዲዮ	-12741
▁በተቻለ	-12742
▁በኦሮሞ	-12743
▁በጃፓን	-12744
▁ባልሆነ	-12745
▁ተሟጋች	-12746
▁አልቻሉ	-12747
▁አስመራ	-12748
▁አቀባዩ	-12749
▁አንድን	-12750
▁እስኪያ	-12751
▁ከሚያስ	-12752
▁ከአገር	-12753
▁ዓመቱን	-12754
▁ዘወትር	-12755
▁የባሎን	-12756
▁የእርሻ	-12757
▁የደስታ	-12758
▁የጅምላ	-12759
▁ይኖርባ	-12760
▁ይገልፃ	-12761
▁ጋርድዮ	-12762
ደረጋቸውን	-12763
▁ለመረዳት	-12764
▁መደፍረስ	-12765
▁ማኅበራት	-12766
▁ሴሚስተር	-12767
▁ስርዓቱን	-12768
▁ስርዓትን	-12769
▁በመከተል	-12770
▁በሚደረግ	-12771
▁በሜዳቸው	-12772
▁በተፈፀመ	-12773
▁ቴሌቭዥን	-12774
▁አልጄሪያ	-12775
▁አመራሮቹ	-12776
▁አመታትን	-12777
▁ኤርዶጋን	-12778
▁እንዲቆዩ	-12779
▁እንግዲህ	-12780
▁ክርስቶስ	-12781
▁የሚቆጠር	-12782
▁የሚፈጸሙ	-12783
▁የተቋቋመ	-12784
▁ፈላጊዎች	-12785
▁ለማስተማር	-12786
▁ለማስወገድ	-12787
▁ለተፈጠረው	-12788
▁መስተዳድሩ	-12789
▁መንግስትና	-12790
▁መዘጋጀቱን	-12791
▁በናይጄሪያ	-12792
▁ቤሊንግሀም	-12793
▁ተጠቃሚነት	-12794
▁ከመጀመሪያ	-12795
▁ከሳምንታት	-12796
▁ወንጀሎችን	-12797
▁የተባለው።	-12798
▁የከተማዋን	-12799
▁የደኅንነት	-12800
▁የፌዴሬሽን	-12801
▁ያለአግባብ	-12802
▁ጠይቋል፡፡	-12803
▁ተዘርዝረዋል	-12804
▁አድርጎታል።	-12805
▁ተገኝተዋል፡፡	-12806
▁እንቅስቃሴዎችን	-12807
ሆኗ	-12808
ለዩ	-12809
ሰሉ	-12810
ሳድ	-12811
ታቱ	-12812
ችና	-12813
ነፍ	-12814
ናቴ	-12815
ከአ	-12816
ይሄ	-12817
ገዘ	-12818
ጫት	-12819
250	-12820
ENA	-12821
ham	-12822
ህተት	-12823
ለንም	-12824
መድን	-12825
ምላክ	-12826
ርቱም	-12827
ስቲን	-12828
ቃሉ።	-12829
ዑካን	-12830
ዛርድ	-12831
ዝማች	-12832
ያውቅ	-12833
ገንዘ	-12834
ገገም	-12835
ፊሻል	-12836
▁71	-12837
▁DW	-12838
▁ab	-12839
▁ልኡ	-12840
▁መቸ	-12841
▁በና	-12842
▁ቨለ	-12843
▁ኦን	-12844
▁ዕዳ	-12845
::::	-12846
ግለሰቡ	-12847
▁ሀምሌ	-12848
▁ሀድያ	-12849
▁ለመጠ	-12850
▁ሊንኩ	-12851
▁ልደት	-12852
▁መቀበ	-12853
▁መቆም	-12854
▁ሩስያ	-12855
▁ስርአ	-12856
▁ቀልድ	-12857
▁በሰኔ	-12858
▁በእር	-12859
▁አንስ	-12860
▁አዋቂ	-12861
▁ከመጣ	-12862
▁ከሞት	-12863
▁የማታ	-12864
▁የዝግ	-12865
▁ይገኝ	-12866
▁ገነት	-12867
▁ገጽታ	-12868
▁ጉዳቱ	-12869
▁ጊዜም	-12870
▁ጋርና	-12871
▁ፌስቲ	-12872
▁ፍኖተ	-12873
▁2018	-12874
▁birr	-12875
▁ለሚያስ	-12876
▁ለማገዝ	-12877
▁ርክክብ	-12878
▁በቀረበ	-12879
▁ተመለሱ	-12880
▁ተዋናይ	-12881
▁ቼልሲን	-12882
▁አለብኝ	-12883
▁አመታዊ	-12884
▁አብመድ	-12885
▁አውቶቡ	-12886
▁የሸገር	-12887
▁ጠቀሜታ	-12888
▁ጥረቶች	-12889
▁ፖላንድ	-12890
▁ለመክፈት	-12891
▁መቋረጡን	-12892
▁ማጠቃለያ	-12893
▁ሰልጣኞች	-12894
▁በመተከል	-12895
▁በመክፈል	-12896
▁በሪፖርቱ	-12897
▁በቀጠናው	-12898
▁ባልደረባ	-12899
▁ተሳትፎን	-12900
▁ተቋማትና	-12901
▁ተጠልለው	-12902
▁አብዱላሂ	-12903
▁እየወሰደ	-12904
▁ከሳምንት	-12905
▁የሴርያው	-12906
▁ለማዘጋጀት	-12907
▁መሆናቸዉን	-12908
▁ስፖርቲንግ	-12909
▁በመተላለፍ	-12910
▁አልቻሉም።	-12911
▁አጠናቋል።	-12912
▁እንዲሳተፉ	-12913
▁የዲኤስቲቪ	-12914
▁ያስመዘገቡ	-12915
▁ተመራማሪዎች	-12916
▁ተወዳዳሪዎች	-12917
▁ትክክለኛውን	-12918
▁አክለዋል፡፡	-12919
▁ያነጋገራቸው	-12920
▁አመላክተዋል።	-12921
▁የኢንቨስትመንት	-12922
--------------	-12923
,7	-12924
:0	-12925
~~	-12926
ረደ	-12927
ብጥ	-12928
ተሽ	-12929
ኛዉ	-12930
ዎቿ	-12931
ይቼ	-12932
ፊን	-12933
ሬተር	-12934
ሮች፣	-12935
ሰራር	-12936
ቃጠል	-12937
በረከ	-12938
ኃኒት	-12939
ኒዚያ	-12940
ንኦት	-12941
ኖቹን	-12942
አቸው	-12943
ዘገበ	-12944
ዲያን	-12945
ገርም	-12946
ጣል።	-12947
▁ሚዛ	-12948
▁ረብ	-12949
▁ቡዳ	-12950
▁ዊል	-12951
▁ዋይ	-12952
▁ዞኑ	-12953
▁የኒ	-12954
▁ዶሎ	-12955
▁ግቡ	-12956
▁ጫላ	-12957
ound	-12958
ሰራበት	-12959
ተላለፍ	-12960
ኖሩበት	-12961
ጄኔራል	-12962
▁15.	-12963
▁ሃይሉ	-12964
▁ሄደው	-12965
▁ሕንጻ	-12966
▁መስሎ	-12967
▁መግዣ	-12968
▁መጠነ	-12969
▁ምሰሶ	-12970
▁ረሃብ	-12971
▁ራዕይ	-12972
▁ሴኔት	-12973
▁በሰጠ	-12974
▁በተቀ	-12975
▁በየት	-12976
▁በደሴ	-12977
▁ቢልባ	-12978
▁ባንድ	-12979
▁ንጉሱ	-12980
▁አንጀ	-12981
▁እነዲ	-12982
▁ከጫፍ	-12983
▁ውጥር	-12984
▁የኤም	-12985
▁የዋል	-12986
▁ጀልባ	-12987
▁ጠያቂ	-12988
▁ፒያሳ	-12989
amily	-12990
ሪያቸውን	-12991
▁ሀትሪክ	-12992
▁ለመሄድ	-12993
▁መሸፈኛ	-12994
▁መወጣት	-12995
▁መዝናኛ	-12996
▁መገርሳ	-12997
▁ማሳወቅ	-12998
▁ስምኦን	-12999
▁ቅርሶች	-13000
▁በተሰኘ	-13001
▁በአንዱ	-13002
▁በግማሽ	-13003
▁ተፈላጊ	-13004
▁ትንታኔ	-13005
▁አልተሰ	-13006
▁አመሻሽ	-13007
▁አስከት	-13008
▁አክብሮ	-13009
▁ኢምባሲ	-13010
▁እልባት	-13011
▁እንልካ	-13012
▁እንዲወ	-13013
▁ከህዳር	-13014
▁ክፍፍል	-13015
▁ወረዳው	-13016
▁ዓመትና	-13017
▁የሩስያ	-13018
▁ያለነው	-13019
▁ያለንን	-13020
▁ያልተሰ	-13021
▁ለመልቀቅ	-13022
▁ለመስማት	-13023
▁መተግበር	-13024
▁ማደያዎች	-13025
▁ሰልፈኞች	-13026
▁ሳተላይት	-13027
▁በሀሰተኛ	-13028
▁በመምራት	-13029
▁በመወከል	-13030
▁አባላትና	-13031
▁ኢማኑኤል	-13032
▁እንደሆን	-13033
▁እንደማት	-13034
▁ካቴድራል	-13035
▁የሚችሉት	-13036
▁የሚፈጥር	-13037
▁የምትገኙ	-13038
▁የአመራር	-13039
▁የአደጋው	-13040
▁የፓለቲካ	-13041
▁ለማስቀጠል	-13042
▁ሶማሊላንድ	-13043
▁በመስከረም	-13044
▁በማሰባሰብ	-13045
▁ተማሪዎችም	-13046
▁እንዲሰፍን	-13047
▁እንዲቀጥሉ	-13048
▁ወንጀለኞች	-13049
▁ውሳኔዎችን	-13050
▁የምትገኘው	-13051
▁የኢትዮጲያ	-13052
▁የኦሎምፒክ	-13053
▁የገለጹት።	-13054
▁ተደርገዋል።	-13055
▁እንደሌላቸው	-13056
▁እንድታደርጉ	-13057
▁የተደረገውን	-13058
▁ኢትዮጵያውያንን	-13059
56	-13060
69	-13061
Al	-13062
OA	-13063
ል፤	-13064
መዉ	-13065
መደ	-13066
ሯት	-13067
ንቺ	-13068
ኤች	-13069
ካዊ	-13070
ኮብ	-13071
ውሎ	-13072
ዘም	-13073
ዝቃ	-13074
የግ	-13075
ዳኑ	-13076
ዶሎ	-13077
ጓጎ	-13078
ife	-13079
መራቂ	-13080
ሙበት	-13081
ሪሁን	-13082
ርባል	-13083
ቀምት	-13084
ቀዱን	-13085
ነበሩ	-13086
ነዋል	-13087
ኩትን	-13088
ዝናኛ	-13089
ጉባኤ	-13090
ጠራት	-13091
ፃፈው	-13092
▁81	-13093
▁MA	-13094
▁On	-13095
▁my	-13096
▁ሃም	-13097
▁ህዋ	-13098
▁ልቤ	-13099
▁ሎዛ	-13100
▁ሻይ	-13101
▁በኔ	-13102
▁አሥ	-13103
▁አቃ	-13104
▁ኦፍ	-13105
▁ኮሜ	-13106
▁ዛቻ	-13107
▁ደጃ	-13108
▁ጉቦ	-13109
▁ግዥ	-13110
▁ጨዋ	-13111
ላለን።	-13112
ቀርባል	-13113
ናይሮቢ	-13114
ኞቻቸው	-13115
ከንቲባ	-13116
ጎብኘት	-13117
▁2-2	-13118
▁መመስ	-13119
▁ሚያሚ	-13120
▁ማዳን	-13121
▁ምንጩ	-13122
▁ስንዴ	-13123
▁ብር፣	-13124
▁ተዳር	-13125
▁ተፈት	-13126
▁ኑኔዝ	-13127
▁አቢሲ	-13128
▁አታው	-13129
▁አይሳ	-13130
▁እድሉ	-13131
▁የህገ	-13132
▁የሞተ	-13133
▁የከረ	-13134
▁ያለማ	-13135
▁ያውቁ	-13136
▁ጄምስ	-13137
▁ጉልህ	-13138
▁ጋሪዝ	-13139
▁ፀሐይ	-13140
▁ፋይል	-13141
ጀመርያው	-13142
▁ለቀረበ	-13143
▁ሕዝባዊ	-13144
▁መመልከ	-13145
▁መከበር	-13146
▁መፈናቀ	-13147
▁ርዝመት	-13148
▁ሰውየው	-13149
▁ቁርጠኛ	-13150
▁በምሽቱ	-13151
▁በንግግ	-13152
▁በፖስታ	-13153
▁ባንዲራ	-13154
▁ንግድና	-13155
▁አላማጣ	-13156
▁አስመጪ	-13157
▁አስክሬ	-13158
▁ከባህር	-13159
▁ካደረጉ	-13160
▁የሚሰማ	-13161
▁የሚወጣ	-13162
▁የተሳካ	-13163
▁የታክሲ	-13164
▁ጁሊያን	-13165
ikvahe	-13166
▁ለመጫወት	-13167
▁ለዩክሬን	-13168
▁መሰናክል	-13169
▁ምርጫውን	-13170
▁በሆነችው	-13171
▁በተገቢው	-13172
▁በጅግጅጋ	-13173
▁ተመልሰው	-13174
▁ኔትዎርክ	-13175
▁አምራቾች	-13176
▁ከሰዓታት	-13177
▁ከታህሳስ	-13178
▁ወገኖችን	-13179
▁የማግኘት	-13180
▁የቆየውን	-13181
▁የትዊተር	-13182
▁ያሸንፋል	-13183
▁ሊቨርፑሎች	-13184
▁ማስመዝገብ	-13185
▁ማስታወቁን	-13186
▁በነገራችን	-13187
▁ተመራቂዎቹ	-13188
▁አልቻለም።	-13189
▁አሸናፊነት	-13190
▁እንደመሆኑ	-13191
▁እንዲሰጠው	-13192
▁እንዲያልፍ	-13193
▁የሆስፒታሉ	-13194
▁የማመልከቻ	-13195
▁የእስልምና	-13196
▁ይመስለኛል	-13197
▁ድርጊቶችን	-13198
▁አስተዳዳሪው	-13199
▁እናቀርባለን	-13200
▁ከድርጊታቸው	-13201
▁ክርስቲያናት	-13202
▁የሚያስፈልጉ	-13203
92	-13204
IS	-13205
iy	-13206
na	-13207
ሐበ	-13208
ሪኮ	-13209
ራፍ	-13210
ሱና	-13211
ባላ	-13212
ዑስ	-13213
ዕም	-13214
ዝበ	-13215
ዶም	-13216
ፀን	-13217
ፈዉ	-13218
ለህ።	-13219
ለቀው	-13220
መዝን	-13221
መጣም	-13222
ምነው	-13223
ሰመጉ	-13224
ስጥር	-13225
ቀበለ	-13226
ቆጥሩ	-13227
ብሌት	-13228
ብረር	-13229
ችሁት	-13230
ችነት	-13231
ኪንስ	-13232
ዉጣት	-13233
ዚክስ	-13234
ዳሉ።	-13235
ጨረታ	-13236
ፊያው	-13237
ፓርድ	-13238
▁->	-13239
▁ad	-13240
▁ተኝ	-13241
▁ኤች	-13242
▁ኤፌ	-13243
▁ዕር	-13244
▁ያፈ	-13245
▁ዲላ	-13246
▁ጎፋ	-13247
ለንተና	-13248
ኒቶችን	-13249
ናቸውም	-13250
ናገረው	-13251
ንስቲት	-13252
ውያንን	-13253
ደንጋጭ	-13254
▁ሁንዴ	-13255
▁ለአል	-13256
▁መለዋ	-13257
▁መብራ	-13258
▁መገኛ	-13259
▁ማርኮ	-13260
▁ሬስቶ	-13261
▁ስኬል	-13262
▁በዋግ	-13263
▁በውጤ	-13264
▁አባቱ	-13265
▁አጥር	-13266
▁ኡመር	-13267
▁እስማ	-13268
▁እሸቴ	-13269
▁እያየ	-13270
▁ከፍቶ	-13271
▁የመሸ	-13272
▁የአገ	-13273
▁ይጠቅ	-13274
▁ጣፋጭ	-13275
ማንኛውም	-13276
ስተናገዱ	-13277
▁2025	-13278
▁ማሳለፍ	-13279
▁ማቋቋም	-13280
▁ምግብና	-13281
▁ሲሚንቶ	-13282
▁ሳይክል	-13283
▁በቡድኑ	-13284
▁በተገኘ	-13285
▁በንፋስ	-13286
▁በአሶሳ	-13287
▁ቢኖሩም	-13288
▁ቲኪቫህ	-13289
▁አልሰጠ	-13290
▁አያይዞ	-13291
▁እያለች	-13292
▁ከሆኑት	-13293
▁ከፋዮች	-13294
▁ኮፒው፣	-13295
▁ዘመቻው	-13296
▁የሦስት	-13297
▁የተጣለ	-13298
▁የድምጽ	-13299
▁የጉራጌ	-13300
▁የግድቡ	-13301
▁የፊልም	-13302
▁የፍፁም	-13303
▁ደርሰው	-13304
▁ድምፃዊ	-13305
▁ጀመረ።	-13306
▁ጆንሰን	-13307
▁ጋርናቾ	-13308
▁ፈጥነው	-13309
▁ፍርሃት	-13310
▁ለመፈፀም	-13311
▁ሊያደርጉ	-13312
▁ላብራቶሪ	-13313
▁በመግደል	-13314
▁በተወሰኑ	-13315
▁በተወዳጁ	-13316
▁በአማርኛ	-13317
▁በዝግጅት	-13318
▁በግንቦት	-13319
▁ተፈጥሯዊ	-13320
▁ነበራቸው	-13321
▁አከባበር	-13322
▁አያውቅም	-13323
▁አይሆንም	-13324
▁ኢንቨስት	-13325
▁እጃቸውን	-13326
▁ከዩክሬን	-13327
▁ውስብስብ	-13328
▁የሚሰራው	-13329
▁የሚቀጥል	-13330
▁የሚጀምር	-13331
▁የሚገልፅ	-13332
▁የሚጨምር	-13333
▁የተደገፈ	-13334
▁የእሳትና	-13335
▁ፐርሰንት	-13336
▁ሀገራችንን	-13337
▁ሉዓላዊነት	-13338
▁መስፈርቶች	-13339
▁መጀመራቸው	-13340
▁ማስተካከል	-13341
▁ማሽከርከር	-13342
▁ምናልባትም	-13343
▁ቀንቷቸዋል	-13344
▁በሊቨርፑል	-13345
▁በተጠቀሰው	-13346
▁አማራጮችን	-13347
▁ከተደረገው	-13348
▁ከነበረበት	-13349
▁የሚችሉበት	-13350
▁ይፈልጋል።	-13351
▁ግንኙነትና	-13352
▁ፋውንዴሽን	-13353
thiopian	-13354
▁ለተሽከርካሪ	-13355
▁መጀመራቸውን	-13356
▁አሸንፈዋል።	-13357
▁እንደሚወሰድ	-13358
▁የሚያስችለውን	-13359
cc	-13360
ሁ።	-13361
ልጅ	-13362
ማኝ	-13363
ታገ	-13364
ቶና	-13365
ኒቲ	-13366
አባ	-13367
ኤአ	-13368
ካው	-13369
ካዮ	-13370
ክፖ	-13371
ዘሩ	-13372
ጋባ	-13373
ጻሜ	-13374
The	-13375
ana	-13376
gra	-13377
ond	-13378
rat	-13379
መልሱ	-13380
መቻች	-13381
ማንን	-13382
ረፈው	-13383
ሰረዝ	-13384
ሰጡት	-13385
በጣም	-13386
ቢያን	-13387
ችው።	-13388
ኖራት	-13389
ወደው	-13390
ዐቃቤ	-13391
ዘሩት	-13392
ያቸዉ	-13393
ይናን	-13394
ገደብ	-13395
ጨርስ	-13396
ፈርም	-13397
▁00	-13398
▁84	-13399
▁ሎጂ	-13400
▁መሻ	-13401
▁መዓ	-13402
▁ማሪ	-13403
▁ምሩ	-13404
▁ምሳ	-13405
▁ቆዳ	-13406
▁ባያ	-13407
▁ቪያ	-13408
▁ታድ	-13409
▁ከኛ	-13410
▁ክሱ	-13411
▁ያኔ	-13412
▁ያደ	-13413
▁ይሉ	-13414
▁ፀጋ	-13415
▁ፅሁ	-13416
▁ፍስ	-13417
▁››	-13418
uman	-13419
ሰበሰብ	-13420
ሰናበቱ	-13421
ኖርበት	-13422
▁110	-13423
▁14.	-13424
▁ሀሰት	-13425
▁ሀይለ	-13426
▁ለከፋ	-13427
▁መሰን	-13428
▁መሳይ	-13429
▁መስጊ	-13430
▁መቃወ	-13431
▁ሠዓት	-13432
▁ሰራተ	-13433
▁ስራን	-13434
▁ቀያይ	-13435
▁በቆይ	-13436
▁በፋኖ	-13437
▁ቦረና	-13438
▁ታካሚ	-13439
▁አላስ	-13440
▁አቤል	-13441
▁አጣጥ	-13442
▁እግድ	-13443
▁ከገቡ	-13444
▁የወጪ	-13445
▁የፌዴ	-13446
▁ያለፉ	-13447
▁ዳይክ	-13448
▁ገበሬ	-13449
▁ገፅታ	-13450
ffect	-13451
▁100%	-13452
▁ላሊበላ	-13453
▁መስጠቱ	-13454
▁መገኘቱ	-13455
▁ምናምን	-13456
▁ሥርዓቱ	-13457
▁ሲቀጥል	-13458
▁በህጋዊ	-13459
▁በመቀሌ	-13460
▁በሳውዲ	-13461
▁በስኬት	-13462
▁በባንክ	-13463
▁በችግር	-13464
▁በአመት	-13465
▁በፊትም	-13466
▁ቦታውን	-13467
▁ተቀናቃ	-13468
▁ተነሳሽ	-13469
▁ተገቢው	-13470
▁ተጠቅሞ	-13471
▁አሌክስ	-13472
▁አመቱን	-13473
▁አርአያ	-13474
▁ከነሐሴ	-13475
▁ውድነት	-13476
▁የሚታዩ	-13477
▁የባጃጅ	-13478
▁የአረብ	-13479
▁የአስራ	-13480
▁የወሰደ	-13481
▁የዜጎች	-13482
▁ያረጋግ	-13483
▁ጊዜውን	-13484
▁102.1	-13485
▁ለመናገር	-13486
▁መብታቸው	-13487
▁መፈናቀል	-13488
▁ማመልከት	-13489
▁ማቅረቡን	-13490
▁ስለጉዳዩ	-13491
▁በተዘጋጀ	-13492
▁ቦታዎችን	-13493
▁ተወያይቶ	-13494
▁ተደምጧል	-13495
▁ተጎጂዎች	-13496
▁አቋርጠው	-13497
▁አፍሪካዊ	-13498
▁ኤምባሲው	-13499
▁እንዲመጣ	-13500
▁እየተሸጠ	-13501
▁ከተማዋን	-13502
▁የሚካሄዱ	-13503
▁የማይችሉ	-13504
▁የተቃዋሚ	-13505
▁የተያዙት	-13506
▁የነበረች	-13507
▁ድጋፎችን	-13508
▁ጋርድዮላ	-13509
▁መንግስትም	-13510
▁አምቡላንስ	-13511
▁አድርጎታል	-13512
▁እንዳይገባ	-13513
▁እያደረግን	-13514
▁ከፈረንሳይ	-13515
▁የሚመለከት	-13516
▁የአሰልጣኝ	-13517
▁መልዕክቶችን	-13518
▁መስዋዕትነት	-13519
▁እንዳይደርስ	-13520
▁የማስታወቂያ	-13521
▁የበላይነትን	-13522
▁አካባቢዎቻቸው	-13523
DW	-13524
In	-13525
mb	-13526
ሀት	-13527
ሚሮ	-13528
ሬሳ	-13529
ርም	-13530
ሰሰ	-13531
ሽታ	-13532
ቀባ	-13533
ቻቸ	-13534
ንዝ	-13535
ዋች	-13536
ዎል	-13537
ጠፍ	-13538
ፎን	-13539
ፕት	-13540
▁●	-13541
ich	-13542
መረጥ	-13543
መቻቸ	-13544
ሙስሊ	-13545
ምረጥ	-13546
ስራኤ	-13547
ባባቂ	-13548
ተንን	-13549
ናጠል	-13550
ያዎቹ	-13551
ገሩን	-13552
ገደል	-13553
▁(1	-13554
▁(3	-13555
▁AM	-13556
▁Bl	-13557
▁ለሞ	-13558
▁ሐሳ	-13559
▁ማሊ	-13560
▁ተግ	-13561
▁ኢኳ	-13562
▁ከቶ	-13563
▁ዝና	-13564
ሪስቶች	-13565
ሮፕላኑ	-13566
ቀበሉት	-13567
ቀጥልም	-13568
ባሳደር	-13569
ባንያው	-13570
ታወቅም	-13571
ችልበት	-13572
ካቸውን	-13573
ዋሮቢት	-13574
▁091	-13575
▁ለሴት	-13576
▁ለግን	-13577
▁ሐገር	-13578
▁መርኃ	-13579
▁መስጂ	-13580
▁መቀጮ	-13581
▁መዋሉ	-13582
▁ሙቀት	-13583
▁ሥጋት	-13584
▁ሰጥታ	-13585
▁ሲመጡ	-13586
▁በማታ	-13587
▁በበር	-13588
▁በንጹ	-13589
▁በአካ	-13590
▁ብሩን	-13591
▁ብርድ	-13592
▁አምቦ	-13593
▁አንሶ	-13594
▁አፈር	-13595
▁እየመ	-13596
▁ክላሲ	-13597
▁ወድቆ	-13598
▁ዋይት	-13599
▁ዘርፈ	-13600
▁የማር	-13601
▁የካፍ	-13602
▁የዋና	-13603
▁የውሀ	-13604
▁ዱባይ	-13605
▁ድራማ	-13606
▁ጋክፖ	-13607
▁ጠፍቶ	-13608
ሊኮፕተር	-13609
ቃለች፡፡	-13610
ባባሪዎች	-13611
▁cont	-13612
▁ለአለም	-13613
▁ለጠላት	-13614
▁ማሽኖች	-13615
▁ማውራት	-13616
▁ሰርጅዮ	-13617
▁ሰከንድ	-13618
▁በህይወ	-13619
▁ተለያዩ	-13620
▁ተሻጋሪ	-13621
▁ተቀምጦ	-13622
▁ቴክኒክ	-13623
▁ኅርባል	-13624
▁ኖርዊች	-13625
▁አበረታ	-13626
▁አባወራ	-13627
▁ከሌሊቱ	-13628
▁ከአደጋ	-13629
▁ወሬዎች	-13630
▁ወንድሜ	-13631
▁የሚከለ	-13632
▁የተጠቁ	-13633
▁የውሰት	-13634
▁የድሮን	-13635
▁የግብጽ	-13636
ጠርጣሪዎቹ	-13637
▁1,500	-13638
▁107.8	-13639
▁Afric	-13640
▁ስንታየሁ	-13641
▁በሌሎችም	-13642
▁በመምጣቱ	-13643
▁በእርግጥ	-13644
▁በዲጂታል	-13645
▁ባልደራስ	-13646
▁ባጠቃላይ	-13647
▁ተጠባባቂ	-13648
▁ነበሩ፡፡	-13649
▁ንግግሮች	-13650
▁አክሏል።	-13651
▁አውቶብስ	-13652
▁አይችሉም	-13653
▁አጋርነት	-13654
▁ካውንስል	-13655
▁ክፍሎችን	-13656
▁የተሰማራ	-13657
▁የተናገሩ	-13658
▁የካንሰር	-13659
▁ይሆናሉ።	-13660
እግዚአብሔር	-13661
▁ሊያስከትል	-13662
▁መፅናናትን	-13663
▁ምክንያታዊ	-13664
▁በአከባቢው	-13665
▁ትምህርትና	-13666
▁አይችልም።	-13667
▁አግባብነት	-13668
▁የሚናገሩት	-13669
▁ለደረሰባቸው	-13670
▁መቆየታቸውን	-13671
▁ማስረጃዎችን	-13672
▁አስመልክተው	-13673
▁እንዳደረገው	-13674
▁የሚያረጋግጥ	-13675
▁የኢሚግሬሽን	-13676
▁የኢንፎርሜሽን	-13677
▁Ethiopian	-13678
52	-13679
ሉ፣	-13680
ሉ፤	-13681
መተ	-13682
በዉ	-13683
ባዔ	-13684
ተቱ	-13685
ችኝ	-13686
ንጭ	-13687
ን።	-13688
ክ፣	-13689
ዳኝ	-13690
ፎቹ	-13691
▁ጢ	-13692
anc	-13693
ለታል	-13694
ራዘመ	-13695
ሰሜን	-13696
ሳሌም	-13697
ቀናህ	-13698
ከላከ	-13699
ወድቅ	-13700
ይዘው	-13701
ደበቅ	-13702
ግረኛ	-13703
ፈረው	-13704
▁Sl	-13705
▁he	-13706
▁ማተ	-13707
▁ማና	-13708
▁ሥም	-13709
▁ሳሉ	-13710
▁በያ	-13711
▁ንድ	-13712
▁ከኔ	-13713
▁ከን	-13714
▁ኪን	-13715
▁ይሞ	-13716
▁ይኽ	-13717
▁ዶቼ	-13718
▁ጁላ	-13719
▁ጫት	-13720
ents	-13721
ናዊውን	-13722
ከፋፈያ	-13723
ወሰነው	-13724
ጠብቀው	-13725
▁EBC	-13726
▁Now	-13727
▁ልገሳ	-13728
▁ሕዝበ	-13729
▁መስቀ	-13730
▁መገባ	-13731
▁መጥፋ	-13732
▁ራይስ	-13733
▁ቀኙን	-13734
▁ተነሳ	-13735
▁ተፈሪ	-13736
▁ትርጉ	-13737
▁አሪፍ	-13738
▁አክሊ	-13739
▁አውጪ	-13740
▁አፍሮ	-13741
▁ኢቢሲ	-13742
▁እራት	-13743
▁እየነ	-13744
▁ከመቼ	-13745
▁ከእኔ	-13746
▁ከግል	-13747
▁ዉጤት	-13748
▁ዘመዶ	-13749
▁የለሽ	-13750
▁የሰዉ	-13751
▁የሱፍ	-13752
▁የደሴ	-13753
▁የፊፋ	-13754
▁ያበቃ	-13755
▁ዱቄት	-13756
▁ጨርቅ	-13757
▁ጭካኔ	-13758
▁ጸጋዬ	-13759
▁ፖስቱ	-13760
ተናል፡፡	-13761
ቷቸዋል።	-13762
ጠቀምበት	-13763
▁8:00	-13764
▁ሀዛርድ	-13765
▁ሀገሮች	-13766
▁ለመሆኑ	-13767
▁ለምክር	-13768
▁ለወንድ	-13769
▁ሊኖረው	-13770
▁ሊጀመር	-13771
▁መራጮች	-13772
▁መፈፀም	-13773
▁ማንበብ	-13774
▁ማዘጋጀ	-13775
▁ምሥራቅ	-13776
▁ሲሞክር	-13777
▁ሲነገር	-13778
▁ቀሪውን	-13779
▁በምረቃ	-13780
▁በሰባት	-13781
▁በዋናው	-13782
▁አለችኝ	-13783
▁አለኝ።	-13784
▁አቀፋዊ	-13785
▁አያክስ	-13786
▁አይሱዙ	-13787
▁አደረሰ	-13788
▁እንደቆ	-13789
▁እንዳታ	-13790
▁እየገባ	-13791
▁እጅጉን	-13792
▁ኦሎምፒ	-13793
▁ከምንም	-13794
▁ከተገኘ	-13795
▁ውስጥና	-13796
▁ዝግጅቱ	-13797
▁የለንም	-13798
▁የማይወ	-13799
▁የቦምብ	-13800
▁የካቢኔ	-13801
▁የጉዳት	-13802
▁የፈጸሙ	-13803
▁ደቡባዊ	-13804
▁ጉልበት	-13805
▁ግጭቱን	-13806
▁ፓርኮች	-13807
መንግስታዊ	-13808
ሰልጣኝነት	-13809
▁ለዓመታት	-13810
▁መዋላቸው	-13811
▁መፍትሄው	-13812
▁ሶልሻየር	-13813
▁በለንደን	-13814
▁በማቅናት	-13815
▁በስምንት	-13816
▁በተሰኘው	-13817
▁በንግግር	-13818
▁በእጩነት	-13819
▁ትዕግስት	-13820
▁አለመኖር	-13821
▁አንስተው	-13822
▁እንደሚቀ	-13823
▁እንዳለፈ	-13824
▁የሚነግር	-13825
▁የብራዚል	-13826
▁የተሰራው	-13827
▁የተደራጀ	-13828
▁ደርሰዋል	-13829
▁ለማህበራዊ	-13830
▁መግባታቸው	-13831
▁በሚወስደው	-13832
▁በማጠናከር	-13833
▁በፕርሚየር	-13834
▁ተገድለዋል	-13835
▁አልፈልግም	-13836
▁እንልካለን	-13837
▁እንዳይሆን	-13838
▁ከእንግሊዝ	-13839
▁ወጥተዋል።	-13840
▁ዋንጫዎችን	-13841
▁የነዋሪነት	-13842
▁ይጠናቀቃል	-13843
▁ለማስተካከል	-13844
▁መጠየቃቸውን	-13845
▁ስዊዘርላንድ	-13846
▁አውስትራሊያ	-13847
▁እንዲያቀርቡ	-13848
▁የመጀመሪያዋ	-13849
▁አስተላልፏል፡፡	-13850
,5	-13851
ee	-13852
gh	-13853
pl	-13854
to	-13855
ሬሽ	-13856
ሽኝ	-13857
ቋን	-13858
ብጦ	-13859
ቦን	-13860
ታፊ	-13861
ቻው	-13862
ንፃ	-13863
ዌት	-13864
ገፍ	-13865
ang	-13866
ልኛል	-13867
መቱን	-13868
ሚናይ	-13869
ሚንግ	-13870
ሳስባ	-13871
ቀምቴ	-13872
ቋቸው	-13873
ብረታ	-13874
ትንም	-13875
ኛቸው	-13876
ኤታው	-13877
ኬቶች	-13878
ዷቸው	-13879
▁ማጽ	-13880
▁ሸኮ	-13881
▁ቀለ	-13882
▁ቢስ	-13883
▁ብሪ	-13884
▁አሪ	-13885
▁ከዚ	-13886
▁ከዶ	-13887
▁የዚ	-13888
▁ጉጂ	-13889
▁ጎራ	-13890
HOTO	-13891
tern	-13892
ሳምንቱ	-13893
ንቅላት	-13894
ካሂደው	-13895
ገጥመው	-13896
ፃቸውን	-13897
▁(2)	-13898
▁350	-13899
▁ለመው	-13900
▁ለምታ	-13901
▁መሳተ	-13902
▁መሸጥ	-13903
▁ማቋቋ	-13904
▁ሞናኮ	-13905
▁ሲወጡ	-13906
▁ሴንት	-13907
▁በመቅ	-13908
▁በተሳ	-13909
▁በደረ	-13910
▁ቢሊየ	-13911
▁ባለዉ	-13912
▁ቤቲስ	-13913
▁ብልት	-13914
▁ተጋር	-13915
▁ነን።	-13916
▁አማረ	-13917
▁አውደ	-13918
▁አይቶ	-13919
▁እላፊ	-13920
▁እወዳ	-13921
▁ክሱን	-13922
▁ወረቀ	-13923
▁የራያ	-13924
▁የተራ	-13925
▁የነጻ	-13926
▁የዱር	-13927
▁የድል	-13928
▁ያሳስ	-13929
▁ያሸነ	-13930
▁ድምር	-13931
▁ጆርጂ	-13932
▁ገዝቶ	-13933
▁ጠይቆ	-13934
▁ፓርቴ	-13935
orage	-13936
▁ሃሳቦች	-13937
▁ሕገወጥ	-13938
▁መምጣቱ	-13939
▁መዝገቡ	-13940
▁ማሟላት	-13941
▁ማግስት	-13942
▁በመቶው	-13943
▁በሜዳው	-13944
▁በርሊን	-13945
▁በዛሬዋ	-13946
▁በየወሩ	-13947
▁ቦታችን	-13948
▁ተባለ።	-13949
▁ተወስኖ	-13950
▁አሉ፡፡	-13951
▁አምስቱ	-13952
▁አቀረቡ	-13953
▁አዛውን	-13954
▁እጃቸው	-13955
▁ከሦስት	-13956
▁ኬሚካል	-13957
▁ወንጀለ	-13958
▁የሂሳብ	-13959
▁የልጆች	-13960
▁የመጡት	-13961
▁የሚመረ	-13962
▁የሚጠቀ	-13963
▁የተሻሻ	-13964
▁የፈፀመ	-13965
▁ያስመር	-13966
▁ግርግር	-13967
▁ፋርማሲ	-13968
በቴሌግራም	-13969
▁መመሪያው	-13970
▁ስልኮችን	-13971
▁ሽልማቱን	-13972
▁በስልጠና	-13973
▁ባለሙያው	-13974
▁ብርቱካን	-13975
▁ተመድበው	-13976
▁አልችልም	-13977
▁እስማኤል	-13978
▁ከእውነት	-13979
▁የሚያገኙ	-13980
▁የማንነት	-13981
▁የበኩሉን	-13982
▁የተሾሙት	-13983
▁የክትትል	-13984
ቡንደስሊጋው	-13985
▁ለተፈናቀሉ	-13986
▁መክረዋል።	-13987
▁ሰርተፊኬት	-13988
▁በማከናወን	-13989
▁በተቀመጠው	-13990
▁በደረሰበት	-13991
▁ባለቤታቸው	-13992
▁የኢኖቬሽን	-13993
▁የዲፕሎማሲ	-13994
▁ለማስተላለፍ	-13995
▁እንደሚገባው	-13996
▁እንዲያቀርብ	-13997
▁የፕሬዝዳንት	-13998
▁አይዘነጋም፡፡	-13999
73	-14000
IA	-14001
ላና	-14002
ሰተ	-14003
ቅዱ	-14004
ብሎ	-14005
ንሳ	-14006
እም	-14007
ካሔ	-14008
ዉሞ	-14009
ዘበ	-14010
ጄን	-14011
ጆር	-14012
ጓዘ	-14013
ጤን	-14014
MAX	-14015
rit	-14016
ማቸዉ	-14017
ማቾች	-14018
ራተን	-14019
ስቱም	-14020
ቀጦች	-14021
ቃለች	-14022
በቡተ	-14023
ባለች	-14024
ቪኦኤ	-14025
ወቁት	-14026
ዛጋቢ	-14027
ፋል።	-14028
ፍራት	-14029
▁Ed	-14030
▁He	-14031
▁ev	-14032
▁ማዞ	-14033
▁ሰፋ	-14034
▁ሲሲ	-14035
▁ቅጥ	-14036
▁ቋት	-14037
▁በፌ	-14038
▁ቢታ	-14039
▁ትው	-14040
▁ኤድ	-14041
▁ከሩ	-14042
▁ወለ	-14043
▁ወፍ	-14044
▁የጌ	-14045
▁ይይ	-14046
▁ጄኔ	-14047
▁ግኝ	-14048
▁ፍላ	-14049
ANAW	-14050
ower	-14051
ቻለሁ።	-14052
ንደኛው	-14053
ከርካሪ	-14054
ጦርነት	-14055
ፃሚዎች	-14056
ፋለች።	-14057
▁586	-14058
▁ሃምሌ	-14059
▁ሆነ።	-14060
▁ለቅሶ	-14061
▁ሊወጣ	-14062
▁ላጣች	-14063
▁ልጇን	-14064
▁መሆኗ	-14065
▁መባሉ	-14066
▁ሣህለ	-14067
▁ራሺያ	-14068
▁ሰማይ	-14069
▁ሲገኙ	-14070
▁ሲጋራ	-14071
▁ስለው	-14072
▁በምታ	-14073
▁በግፍ	-14074
▁ተኩል	-14075
▁ንዑስ	-14076
▁አቀር	-14077
▁አቅዶ	-14078
▁አደሩ	-14079
▁እቤት	-14080
▁ከተሳ	-14081
▁ዓርብ	-14082
▁ዓቃቤ	-14083
▁የሌለ	-14084
▁የተደ	-14085
▁ደረቅ	-14086
▁ደበበ	-14087
▁ድካም	-14088
▁ጉምዝ	-14089
▁ጉርድ	-14090
▁ጉንዶ	-14091
▁ጋላታ	-14092
▁ግጥም	-14093
▁ፀጉር	-14094
▁ፊደል	-14095
5,000	-14096
ister	-14097
ሳተላይት	-14098
ስተፋቅር	-14099
ነበረበት	-14100
▁0911	-14101
▁ለመጣል	-14102
▁ለምርጫ	-14103
▁ለምግብ	-14104
▁ለታሰረ	-14105
▁ለደንበ	-14106
▁ሊንኩን	-14107
▁መስኮቱ	-14108
▁ሙዚየም	-14109
▁ሚሳኤል	-14110
▁ማርሻል	-14111
▁ማስቆም	-14112
▁ሲጠበቅ	-14113
▁ስራቸው	-14114
▁በምድር	-14115
▁በረሃብ	-14116
▁በበዓሉ	-14117
▁በአንፃ	-14118
▁በደረሱ	-14119
▁ቢልባኦ	-14120
▁ባለፈም	-14121
▁ተገንዝ	-14122
▁ናቸዉ።	-14123
▁አስመስ	-14124
▁አንዳች	-14125
▁አጋጥሞ	-14126
▁አጠቃቀ	-14127
▁ኢብራሂ	-14128
▁እየሄደ	-14129
▁እየመጣ	-14130
▁ወረዳ፣	-14131
▁ወክለው	-14132
▁ዕለታት	-14133
▁የሀሳብ	-14134
▁የሆነዉ	-14135
▁የሚጎዳ	-14136
▁የማይታ	-14137
▁የምረቃ	-14138
▁የአፈር	-14139
▁የጀመሩ	-14140
▁ይሸለሙ	-14141
▁ድጋፎች	-14142
▁ግድያው	-14143
▁ጥያቄው	-14144
እንዲቀናህ	-14145
▁09539	-14146
▁5,000	-14147
▁PHOTO	-14148
▁WANAW	-14149
▁ለማንበብ	-14150
▁መርበቡተ	-14151
▁ማድረግያ	-14152
▁ቆይታቸው	-14153
▁በመረዳት	-14154
▁በብሄራዊ	-14155
▁በክረምት	-14156
▁በድርድር	-14157
▁በጥልቀት	-14158
▁በፈለጉት	-14159
▁ተመዝጋቢ	-14160
▁ነበረበት	-14161
▁አለመግባ	-14162
▁አምነስቲ	-14163
▁አስቆጥሮ	-14164
▁አሸንፏል	-14165
▁እነዲፈታ	-14166
▁እናሳስባ	-14167
▁ከሶማሊያ	-14168
▁ወዳጅነት	-14169
▁የሚከተሉ	-14170
▁የተቋረጠ	-14171
▁የአክሱም	-14172
▁የጀመሩት	-14173
▁የጥንቃቄ	-14174
▁ዲሞክራሲ	-14175
▁+25190	-14176
▁ሊቨርፑልን	-14177
▁ማቅረባቸው	-14178
▁በስምምነቱ	-14179
▁በተዘጋጀው	-14180
▁ተደምጠዋል	-14181
▁ታጣቂዎችን	-14182
▁ኔዘርላንድ	-14183
▁አስታወቀች	-14184
▁አብዛኛውን	-14185
▁እየተባባሰ	-14186
▁እየተዘጋጀ	-14187
▁ወስኗል፡፡	-14188
▁የሚያስከት	-14189
▁የአስገድዶ	-14190
▁የአንድነት	-14191
▁የአከባቢው	-14192
▁ጀምሯል፡፡	-14193
ineering	-14194
▁ተፈናቃዮችን	-14195
▁አስተዳደርና	-14196
▁እንደሚያሳየው	-14197
▁ያስቆጠራቸውን	-14198
▁---------	-14199
53	-14200
ho	-14201
ሁሩ	-14202
ራሜ	-14203
ርቱ	-14204
ቆቹ	-14205
በድ	-14206
ተዋ	-14207
ንኮ	-14208
አድ	-14209
ከሙ	-14210
ዉጥ	-14211
ዋጋ	-14212
ያዣ	-14213
:15	-14214
?››	-14215
NAL	-14216
ሀንስ	-14217
ሃንን	-14218
ላሎች	-14219
ራንን	-14220
ርጌሳ	-14221
ሰብን	-14222
ስተን	-14223
በረራ	-14224
ንፈኛ	-14225
ወያየ	-14226
ገባም	-14227
ገትና	-14228
▁96	-14229
▁im	-14230
▁ph	-14231
▁ሪቻ	-14232
▁ራማ	-14233
▁ሱዳ	-14234
▁ተስ	-14235
▁ንቁ	-14236
▁ካና	-14237
▁ኬሚ	-14238
▁የሎ	-14239
▁ያዋ	-14240
▁ጋሪ	-14241
▁ጨው	-14242
▁ፓስ	-14243
2018	-14244
ሌትሪክ	-14245
ሰናበት	-14246
ስካሁን	-14247
ሻቸውን	-14248
ሽንኮቭ	-14249
ቀበልም	-14250
ባይደን	-14251
ኒስትር	-14252
ንስትራ	-14253
ንግስታ	-14254
ኖረውም	-14255
ከተሞች	-14256
ያችሁን	-14257
ደርሰው	-14258
ጠናክር	-14259
▁app	-14260
▁can	-14261
▁ሀገሩ	-14262
▁መሐል	-14263
▁ማዋል	-14264
▁ሲሄዱ	-14265
▁ሲሞቱ	-14266
▁ስላሉ	-14267
▁ስሚዝ	-14268
▁በምና	-14269
▁በባህ	-14270
▁ቢባል	-14271
▁ቤትና	-14272
▁ተሟጋ	-14273
▁ትከሻ	-14274
▁አስጨ	-14275
▁አብን	-14276
▁እኤአ	-14277
▁እየዘ	-14278
▁ከማይ	-14279
▁ከአባ	-14280
▁ክንፍ	-14281
▁ኽምራ	-14282
▁የኤች	-14283
▁የዋሉ	-14284
▁የግን	-14285
▁ይሰጥ	-14286
▁ጆርጅ	-14287
▁ጎበና	-14288
▁ጨቅላ	-14289
▁ፈንጂ	-14290
▁ፈፃሚ	-14291
▁ፕሮፌ	-14292
64175	-14293
sport	-14294
ስተላልፍ	-14295
▁Tech	-14296
▁ሃይማኖ	-14297
▁ሕወሓት	-14298
▁መልበሻ	-14299
▁መግባቱ	-14300
▁መግደል	-14301
▁ሙስሊሙ	-14302
▁ማስጨበ	-14303
▁ሴክሬታ	-14304
▁ቀያዮቹ	-14305
▁በመቅረ	-14306
▁በነዚህ	-14307
▁ቢኒያም	-14308
▁ባደረጉ	-14309
▁ቦርስያ	-14310
▁ተሳፋሪ	-14311
▁ተደርሶ	-14312
▁አለባት	-14313
▁ኢየሱስ	-14314
▁ከሪያል	-14315
▁ከጸጥታ	-14316
▁ዕውቀት	-14317
▁ዘሪሁን	-14318
▁የቁጠባ	-14319
▁የተጠቃ	-14320
▁የነበር	-14321
▁የዝናብ	-14322
▁የደሞዝ	-14323
▁ያለችው	-14324
▁ይመስል	-14325
▁ይገባሉ	-14326
▁ድርድሩ	-14327
▁ግምታዊ	-14328
▁ጥንካሬ	-14329
በኢትዮጵያ	-14330
▁Ababa	-14331
▁ህይወቱን	-14332
▁ለማስፈን	-14333
▁ለሶስተኛ	-14334
▁መውሰዱን	-14335
▁መደረሱን	-14336
▁መጨመሩን	-14337
▁ማመልከቻ	-14338
▁ምስክሮች	-14339
▁በመጋቢት	-14340
▁በምህረት	-14341
▁በምክንያ	-14342
▁በእምነት	-14343
▁ባልታወቁ	-14344
▁ቴክኒካል	-14345
▁አስኪያጁ	-14346
▁አዲግራት	-14347
▁ከስምንት	-14348
▁ወረርሽኙ	-14349
▁ዓይነቶች	-14350
▁የልምምድ	-14351
▁የማህበሩ	-14352
▁የምስጋና	-14353
▁የተከፈተ	-14354
▁የጠቀሱት	-14355
▁ይመለሳል	-14356
▁ይከታተሉ	-14357
▁ጥገኝነት	-14358
▁ፈጣሪዎች	-14359
▁ፋብሪካው	-14360
tikvahe	-14361
▁ለምንድነው	-14362
▁መናገራቸው	-14363
▁ማስፈራሪያ	-14364
▁አለመቻሉን	-14365
▁አሳርፏል።	-14366
▁አስቀድመው	-14367
▁አቅራቢዎች	-14368
▁እንዲከፍሉ	-14369
▁እየተፈጸመ	-14370
▁የሚችለውን	-14371
▁የተሰኘውን	-14372
▁የተጫዋቹን	-14373
▁ጊዜያቸውን	-14374
▁ህብረተሰቡን	-14375
▁ለአገልግሎት	-14376
▁ከማህበረሰቡ	-14377
▁አስገንዝበዋል።	-14378
▁0953964175	-14379
▁University	-14380
ማቱ	-14381
ረዘ	-14382
ርዳ	-14383
ቅሶ	-14384
ቆብ	-14385
ቢል	-14386
እሱ	-14387
ዘና	-14388
ይሉ	-14389
ዲኒ	-14390
ግቡ	-14391
ጣሉ	-14392
ፈኑ	-14393
ፈጥ	-14394
ፋሮ	-14395
፣አ	-14396
ick	-14397
ሄደው	-14398
ላላው	-14399
ምራል	-14400
ምግል	-14401
ራቶን	-14402
ራኤል	-14403
ቧቸው	-14404
ቪድዮ	-14405
ትንና	-14406
አንተ	-14407
ካስል	-14408
ይዋን	-14409
ጋራው	-14410
▁??	-14411
▁We	-14412
▁መሮ	-14413
▁ሩዲ	-14414
▁ሽታ	-14415
▁በቲ	-14416
▁በጫ	-14417
▁ብቅ	-14418
▁ከዳ	-14419
▁ካፌ	-14420
▁የዞ	-14421
▁ዳሬ	-14422
▁ጥበ	-14423
-19)	-14424
ress	-14425
°°°°	-14426
ቀርበው	-14427
ብራቸው	-14428
ታወቀዉ	-14429
እነዚህ	-14430
ኬቲንግ	-14431
ወሰዱት	-14432
ዝባችን	-14433
ያለሁ።	-14434
ጠናቅቁ	-14435
ጠናቅቅ	-14436
ጻሚዎች	-14437
▁1.5	-14438
▁742	-14439
▁ለመም	-14440
▁ለዚሁ	-14441
▁ለደም	-14442
▁ማዘዣ	-14443
▁ሠራዊ	-14444
▁ስታር	-14445
▁በአር	-14446
▁በገለ	-14447
▁ባጃጅ	-14448
▁ተከብ	-14449
▁ተገም	-14450
▁ቶኪዮ	-14451
▁አሮጌ	-14452
▁አቅሙ	-14453
▁ኤምሬ	-14454
▁እባክ	-14455
▁ኦናና	-14456
▁ከምር	-14457
▁ወተት	-14458
▁ዋጋው	-14459
▁የመረ	-14460
▁የሚደ	-14461
▁የማነ	-14462
▁የሸኔ	-14463
▁የቫይ	-14464
▁የተተ	-14465
▁የዞን	-14466
▁የደን	-14467
▁የፍል	-14468
▁ያካሂ	-14469
▁ደረጀ	-14470
▁ፌዴራ	-14471
ocial	-14472
ካሄደውን	-14473
ጠቀሙበት	-14474
▁መንገሻ	-14475
▁መጋዘን	-14476
▁ማድረጓ	-14477
▁ምሽቱን	-14478
▁ሰሜናዊ	-14479
▁በሚዲያ	-14480
▁በሲቪል	-14481
▁በስለት	-14482
▁በብቃት	-14483
▁በንቃት	-14484
▁ተቋቁሞ	-14485
▁ትልቁን	-14486
▁ችግርን	-14487
▁አስፈር	-14488
▁አድርሶ	-14489
▁አጠናቆ	-14490
▁እነሱም	-14491
▁እንመኛ	-14492
▁ከአስር	-14493
▁ወደዚህ	-14494
▁የለም፤	-14495
▁የሙቀት	-14496
▁የተለዩ	-14497
▁የጥገና	-14498
▁የፈጠረ	-14499
▁ዩኒቨር	-14500
▁ያስገባ	-14501
▁ይለኛል	-14502
▁ዲቪዥን	-14503
▁ገለፁ።	-14504
▁ፊልሞች	-14505
ration	-14506
ፕሬዝዳንት	-14507
▁Apply	-14508
▁ለአምስት	-14509
▁ለፈተናው	-14510
▁መስፋፋት	-14511
▁መኪናውን	-14512
▁ማስጨበጫ	-14513
▁ማንነትን	-14514
▁ማድረጊያ	-14515
▁ሳይደርስ	-14516
▁ሽንኩርት	-14517
▁ሽንፈትን	-14518
▁ባዘጋጀው	-14519
▁ቤተልሄም	-14520
▁ተበርክቶ	-14521
▁ተይዘዋል	-14522
▁ተደረገ።	-14523
▁ተገኝቷል	-14524
▁ትችላለህ	-14525
▁ቼልሲዎች	-14526
▁ኃይሎችን	-14527
▁አለው፡፡	-14528
▁አልፏል፤	-14529
▁አቪዬሽን	-14530
▁አዘጋጆች	-14531
▁አይኖርም	-14532
▁እንደራሴ	-14533
▁እንደወጣ	-14534
▁ከፖለቲካ	-14535
▁ዓመታቸው	-14536
▁የሚያበቃ	-14537
▁የወልቂጤ	-14538
▁የጀርመኑ	-14539
▁ያዘጋጀው	-14540
▁ይጀመራል	-14541
▁ዳይሬክተ	-14542
▁ዶክተሮች	-14543
▁ግብዓቶች	-14544
▁ለሚካሄደው	-14545
▁በመመልከት	-14546
▁በትዕግስት	-14547
▁በንግግሩም	-14548
▁ባርሴሎናን	-14549
▁ተሹመዋል።	-14550
▁ተደርገዋል	-14551
▁አንዳንዶች	-14552
▁እስከአሁን	-14553
▁የምፈልገው	-14554
▁የሳፋሪኮም	-14555
▁የተሰማውን	-14556
▁የተጨዋቾች	-14557
▁ያስረዳል።	-14558
▁በትላንትናዉ	-14559
▁በፕሬዝዳንት	-14560
▁እንደማይቻል	-14561
▁እንዳይፈጠር	-14562
▁እየተከታተለ	-14563
▁የደረሰበትን	-14564
▁ዲፕሎማሲያዊ	-14565
▁አስታውቃለች።	-14566
▁የምታደርገውን	-14567
!»	-14568
ሀፍ	-14569
ሌስ	-14570
ሐት	-14571
ሲሲ	-14572
ትዝ	-14573
ይኽ	-14574
ጋለ	-14575
ፍኖ	-14576
▁ኘ	-14577
▁ዪ	-14578
▁ጇ	-14579
GAT	-14580
ሃል።	-14581
ሆኖች	-14582
ለቃሽ	-14583
ሉንድ	-14584
ሊያው	-14585
ላሩስ	-14586
ራችሁ	-14587
በሮች	-14588
ንግዳ	-14589
ከሰስ	-14590
ዘዋው	-14591
ጋጥሙ	-14592
▁93	-14593
▁Le	-14594
▁ሳኒ	-14595
▁በጨ	-14596
▁ቤኔ	-14597
▁ቦሎ	-14598
▁አጸ	-14599
▁ኢል	-14600
▁ከሥ	-14601
▁ፊር	-14602
evel	-14603
olut	-14604
መንቶች	-14605
ነስተኛ	-14606
ዘጋጁት	-14607
ደርሰን	-14608
ደናቀፍ	-14609
▁130	-14610
▁ለትራ	-14611
▁ላዚዮ	-14612
▁ሐኪም	-14613
▁መንጃ	-14614
▁መገን	-14615
▁ሲችል	-14616
▁ሳይወ	-14617
▁በሃላ	-14618
▁በምላ	-14619
▁በሰራ	-14620
▁ንጉሴ	-14621
▁አስታ	-14622
▁አውር	-14623
▁አዎን	-14624
▁አዝማ	-14625
▁ወልዴ	-14626
▁ዝናሽ	-14627
▁የሆድ	-14628
▁የኔት	-14629
▁የአጥ	-14630
▁የካሜ	-14631
▁የፈረ	-14632
▁ግርዶ	-14633
▁ጽሁፍ	-14634
iness	-14635
በረታታት	-14636
በተጨማሪ	-14637
▁1500	-14638
▁ሀሳቡን	-14639
▁ለሦስት	-14640
▁ላደረጉ	-14641
▁መጠይቅ	-14642
▁ማሬስካ	-14643
▁ማሻሻል	-14644
▁ስነስር	-14645
▁በምድብ	-14646
▁በረቂቅ	-14647
▁በኃላም	-14648
▁በጊዜው	-14649
▁ቡርሃን	-14650
▁ቶተንሀ	-14651
▁አልኩት	-14652
▁አልፈው	-14653
▁አጣርቶ	-14654
▁እስካል	-14655
▁ከቤተሰ	-14656
▁ካሉበት	-14657
▁የሀዘን	-14658
▁የሃገር	-14659
▁የሬዲዮ	-14660
▁የቀያይ	-14661
▁የኖቤል	-14662
▁ደብተር	-14663
▁ገብነት	-14664
▁ጉባዔው	-14665
▁ፍራንስ	-14666
▁Ethio	-14667
▁ሆናለች።	-14668
▁ሆይሉንድ	-14669
▁ለመወጣት	-14670
▁ለማሟላት	-14671
▁ለማንሳት	-14672
▁መሰጠቱን	-14673
▁ሚሊኒየም	-14674
▁ምክርቤት	-14675
▁ስፖንሰር	-14676
▁በመቀየር	-14677
▁በመጠየቅ	-14678
▁በሞባይል	-14679
▁በሰብዓዊ	-14680
▁ተዋጊዎች	-14681
▁ተጫዋቾቹ	-14682
▁ትላንትና	-14683
▁አባልነት	-14684
▁እባካችሁ	-14685
▁እንዲመሩ	-14686
▁እንዳላት	-14687
▁እንዳሳሰ	-14688
▁ወርቅነህ	-14689
▁ውጤቶችን	-14690
▁የህዝቡን	-14691
▁የመለየት	-14692
▁የሚያግዝ	-14693
▁የምግብና	-14694
▁የሰራተኛ	-14695
▁የሽልማት	-14696
▁የተረጋጋ	-14697
▁የተባለዉ	-14698
▁የተከሰሱ	-14699
▁የጎደለው	-14700
ንስትራክሽን	-14701
▁መዘገባችን	-14702
▁ቀርበዋል።	-14703
▁በየሳምንቱ	-14704
▁አመራሮች፣	-14705
▁እንዲጀመር	-14706
▁ዕድሜያቸው	-14707
▁የሚሰጥበት	-14708
▁የሚጀምረው	-14709
▁የኦንላይን	-14710
▁ይገልጻል።	-14711
▁ጣልያናዊው	-14712
▁መቁሰላቸውን	-14713
▁መግለፃቸውን	-14714
▁በሻምፒየንስ	-14715
▁እንደሚወስዱ	-14716
▁የተካሄደውን	-14717
▁ፕሬዝዳንታዊ	-14718
.........	-14719
▁የማስጠንቀቂያ	-14720
▁የደረሰባቸውን	-14721
,3	-14722
76	-14723
ህራ	-14724
ሐን	-14725
መዱ	-14726
ሣይ	-14727
ርፖ	-14728
ሸኔ	-14729
ቂኝ	-14730
ብያ	-14731
ቪላ	-14732
ቬኒ	-14733
ይብ	-14734
ገሬ	-14735
ጡም	-14736
ጻፈ	-14737
ፀመ	-14738
180	-14739
eta	-14740
fer	-14741
ለው።	-14742
ሊክስ	-14743
ላታን	-14744
ሠረት	-14745
ረብን	-14746
ሬደዋ	-14747
ሰቃዩ	-14748
ነሮች	-14749
ከብት	-14750
ክሪን	-14751
ዘገብ	-14752
ዳሴው	-14753
ድሪድ	-14754
ፈርስ	-14755
ፈተን	-14756
ፋለን	-14757
ፍርድ	-14758
▁pr	-14759
▁ለሙ	-14760
▁ምሕ	-14761
▁ሲሰ	-14762
▁ሶሴ	-14763
▁ቀበ	-14764
▁ቅጽ	-14765
▁በጃ	-14766
▁ትቶ	-14767
▁አተ	-14768
▁እደ	-14769
▁ኮፓ	-14770
▁የኑ	-14771
▁የጃ	-14772
▁ያዳ	-14773
ህወሓት	-14774
መስገን	-14775
ማርቆስ	-14776
ሥርዓት	-14777
ሮቻችን	-14778
ቃለን።	-14779
ቤትነት	-14780
ተዳደር	-14781
▁10%	-14782
▁13.	-14783
▁17.	-14784
▁Mar	-14785
▁ሀይቅ	-14786
▁ሄኖክ	-14787
▁ለማይ	-14788
▁መጪው	-14789
▁ማስፋ	-14790
▁ምስጢ	-14791
▁ራይት	-14792
▁ርዳታ	-14793
▁ስላሴ	-14794
▁ስልሳ	-14795
▁በመረ	-14796
▁በዛው	-14797
▁ባትሪ	-14798
▁ተሰና	-14799
▁ተቀይ	-14800
▁ተከራ	-14801
▁ነች።	-14802
▁አለህ	-14803
▁አሳዉ	-14804
▁ከሀያ	-14805
▁ከማዕ	-14806
▁ከአው	-14807
▁ከፊት	-14808
▁ኮንሰ	-14809
▁ዘመነ	-14810
▁የቀኝ	-14811
▁የቅድ	-14812
▁የአፈ	-14813
▁የውል	-14814
▁ያምና	-14815
▁ይሳተ	-14816
▁ድጋሚ	-14817
▁ገንዳ	-14818
▁ፀሎት	-14819
▁ፍልሰ	-14820
▁ፍጆታ	-14821
ችኋል፡፡	-14822
▁ሊሰጠው	-14823
▁ላሊጋው	-14824
▁መሞከር	-14825
▁መክፈቻ	-14826
▁መዳረጋ	-14827
▁መገለጹ	-14828
▁መጠሪያ	-14829
▁ሙኒክን	-14830
▁ሬድዋን	-14831
▁ቀያቸው	-14832
▁ቅፅበት	-14833
▁ቆይተው	-14834
▁በዚያው	-14835
▁ባጋጠመ	-14836
▁ብርሀን	-14837
▁ብቻውን	-14838
▁ተቀማጭ	-14839
▁አንባቢ	-14840
▁እንጀራ	-14841
▁ከአየር	-14842
▁ከእንቅ	-14843
▁ከኬንያ	-14844
▁ካለበት	-14845
▁ካራባኦ	-14846
▁ወጣቶቹ	-14847
▁የሀይል	-14848
▁የሚመሩ	-14849
▁የሞከሩ	-14850
▁የታሪፍ	-14851
▁የታጠቀ	-14852
▁የትኛው	-14853
▁የጅቡቲ	-14854
▁የገቡት	-14855
▁የፅሁፍ	-14856
▁ያስቀም	-14857
▁ይመጣል	-14858
▁ገብቷል	-14859
▁ሁለንተና	-14860
▁ለመግለፅ	-14861
▁ላምፓርድ	-14862
▁ልጆቻቸው	-14863
▁መካከልም	-14864
▁ማሳየቱን	-14865
▁ሰነዶችን	-14866
▁በላሊጋው	-14867
▁በመልቀቅ	-14868
▁በመክፈት	-14869
▁በቀድሞው	-14870
▁በተተኮሰ	-14871
▁በአክሱም	-14872
▁በድንበር	-14873
▁ባለሀብት	-14874
▁ተቋማት፣	-14875
▁አሜሪካን	-14876
▁አስጠነቀ	-14877
▁እንቁላል	-14878
▁እንደሚሸ	-14879
▁ውይይቶች	-14880
▁የሁለቱም	-14881
▁የራሳቸው	-14882
▁የሰዎችን	-14883
▁የዘገበው	-14884
▁የግብይት	-14885
▁የፈፀመው	-14886
▁ያነጣጠረ	-14887
▁ይኖረዋል	-14888
▁ፊርማውን	-14889
ያንዳንዳቸው	-14890
▁effect	-14891
▁ለተሰንበት	-14892
▁ሊቀመንበሩ	-14893
▁በመከናወን	-14894
▁በመገንዘብ	-14895
▁በማረጋገጥ	-14896
▁በባህርዳር	-14897
▁ተመዝግበው	-14898
▁እየተሳተፉ	-14899
▁እየተስፋፋ	-14900
▁የሚያስገኝ	-14901
▁የተጠየቁት	-14902
▁የአካዳሚክ	-14903
▁የኢህአዴግ	-14904
▁የዓለማችን	-14905
▁የፈለጉትን	-14906
▁የፕላስቲክ	-14907
▁ደርሶባቸው	-14908
▁ለማስተናገድ	-14909
▁መውጣታቸውን	-14910
▁በዋሽንግተን	-14911
▁በዩኒቨርስቲ	-14912
▁ጎብኝተዋል።	-14913
!”	-14914
,4	-14915
74	-14916
FP	-14917
ሊሶ	-14918
ሔት	-14919
ሙር	-14920
ረዉ	-14921
ሩና	-14922
ርሞ	-14923
ሻም	-14924
ሼል	-14925
ቢን	-14926
ቱና	-14927
ቱ፣	-14928
ታህ	-14929
ች፣	-14930
ንጮ	-14931
ድድ	-14932
ፋኖ	-14933
AND	-14934
ams	-14935
eop	-14936
ome	-14937
ልተን	-14938
ምናው	-14939
ረናል	-14940
ሬንቲ	-14941
ሰናበ	-14942
ሲያው	-14943
ስቴን	-14944
ኔዥያ	-14945
ያትር	-14946
ያንግ	-14947
ዳለች	-14948
ጡረታ	-14949
ጸዳጃ	-14950
ጽህና	-14951
ፍረው	-14952
ፍኬት	-14953
▁It	-14954
▁Or	-14955
▁no	-14956
▁ሂሳ	-14957
▁ህወ	-14958
▁ላኪ	-14959
▁መወ	-14960
▁ሲሪ	-14961
▁ስኮ	-14962
▁እሴ	-14963
▁ኬዝ	-14964
▁ዋሻ	-14965
▁ይቆ	-14966
▁ጠፋ	-14967
▁ፀጉ	-14968
▁ፓራ	-14969
2008	-14970
ener	-14971
ሚሊየን	-14972
ራል፡፡	-14973
ሶማሊያ	-14974
ቋረጠው	-14975
በረታታ	-14976
ቨርፑሉ	-14977
ተዋል፤	-14978
አፍሪካ	-14979
ከፈቱት	-14980
ገደኞች	-14981
ፈጠረው	-14982
▁new	-14983
▁ሀዲያ	-14984
▁ለመሰ	-14985
▁ለመን	-14986
▁ለማሰ	-14987
▁ለሥራ	-14988
▁ለወጣ	-14989
▁ሊቢያ	-14990
▁ሰብል	-14991
▁ሶሪያ	-14992
▁ሹፌር	-14993
▁በገዛ	-14994
▁ብላክ	-14995
▁ተራዝ	-14996
▁ታገኛ	-14997
▁አለ፤	-14998
▁አቻው	-14999
▁አከራ	-15000
▁አዳሪ	-15001
▁አጋሩ	-15002
▁አግል	-15003
▁ዞን፣	-15004
▁የሚዘ	-15005
▁የአት	-15006
▁የፎቶ	-15007
▁ዩሮፓ	-15008
▁ጎረቤ	-15009
▁ፈረሰ	-15010
▁•••	-15011
▁tele	-15012
▁ለሚመጡ	-15013
▁ለበላው	-15014
▁ሚዲያው	-15015
▁ማርሴይ	-15016
▁ማውንት	-15017
▁ሞሐመድ	-15018
▁ሴቶችና	-15019
▁ቀለበት	-15020
▁ቆንስላ	-15021
▁በርከት	-15022
▁በሸገር	-15023
▁በባንኩ	-15024
▁በተሞላ	-15025
▁በተሰጠ	-15026
▁በእኩል	-15027
▁በጨዋታ	-15028
▁ቡርኪና	-15029
▁አስጀም	-15030
▁አብርሃ	-15031
▁አንጋፋ	-15032
▁አከናው	-15033
▁አካታች	-15034
▁አጠናክ	-15035
▁ኢሰመጉ	-15036
▁እናምና	-15037
▁እያልን	-15038
▁ከብቶች	-15039
▁ከወሰዱ	-15040
▁ከዋናው	-15041
▁ክስተቱ	-15042
▁ክፍያን	-15043
▁ወንጀሉ	-15044
▁የመሩት	-15045
▁የሚጠይ	-15046
▁የዕለት	-15047
▁የገለፁ	-15048
▁የግዛት	-15049
▁ያለብን	-15050
▁ያዘጋጀ	-15051
▁ያገኛል	-15052
ንስቲትዩቱ	-15053
ፐርስፖርት	-15054
▁VIMAX	-15055
▁ሁለቱንም	-15056
▁ሁልጊዜም	-15057
▁ለማስፋት	-15058
▁መጻሕፍት	-15059
▁ማዘጋጀት	-15060
▁ምስራቃዊ	-15061
▁ሥራቸውን	-15062
▁ስለሚችል	-15063
▁ቀዳማዊት	-15064
▁ቀጥለዋል	-15065
▁በመፈጸም	-15066
▁በቀረበው	-15067
▁በድርጅቱ	-15068
▁ተለይተው	-15069
▁አንችልም	-15070
▁አደረጃጀ	-15071
▁አደረገ።	-15072
▁ኤርትራዊ	-15073
▁እችላለሁ	-15074
▁እንደውም	-15075
▁እንገልፃ	-15076
▁ከመቼውም	-15077
▁ከተከሰተ	-15078
▁ወደፊትም	-15079
▁የሁለቱን	-15080
▁የህጻናት	-15081
▁የሚሳኤል	-15082
▁የማይችል	-15083
▁የስርቆት	-15084
▁የተካተቱ	-15085
▁የትብብር	-15086
▁ይፈጥራል	-15087
▁ጠባቂዎች	-15088
▁ፌስቲቫል	-15089
▁ሬጅስትራር	-15090
▁ቀርተዋል።	-15091
▁በስብሰባው	-15092
▁ተመልሰዋል	-15093
▁ተማሪዎች፣	-15094
▁ተቀምጧል።	-15095
▁ትምህርቶች	-15096
▁አልቻልንም	-15097
▁አርሰናልን	-15098
▁አስታውሰው	-15099
▁ኢትዮጵያና	-15100
▁ከሆስፒታል	-15101
▁ከአርሰናል	-15102
▁የተከናወነ	-15103
▁ያስታወሱት	-15104
▁ያደርጋሉ።	-15105
▁ይችላሉ፡፡	-15106
▁ፓትርያርኩ	-15107
▁ለማንችስተር	-15108
▁ስልጣናቸውን	-15109
▁በቤንሻንጉል	-15110
▁ኢንስቲትዩቱ	-15111
▁እየተንቀሳቀ	-15112
▁የማጭበርበር	-15113
▁የተቀላቀለው	-15114
▁ያስተላለፉት	-15115
PlayStation	-15116
Ph	-15117
hi	-15118
ma	-15119
pd	-15120
ሌላ	-15121
ልዩ	-15122
ረገ	-15123
ራ፣	-15124
ሲዮ	-15125
ሽና	-15126
ቀሳ	-15127
ቅቦ	-15128
ቬስ	-15129
ቭል	-15130
ቻት	-15131
ኅን	-15132
ኒሆ	-15133
ናሉ	-15134
ኗኗ	-15135
ኛዋ	-15136
ኡዲ	-15137
ወነ	-15138
ወክ	-15139
ዖት	-15140
ያየ	-15141
ደጃ	-15142
ግሩ	-15143
ግሮ	-15144
ጨፈ	-15145
ጭሩ	-15146
ጽና	-15147
ፍሉ	-15148
‹‹	-15149
120	-15150
app	-15151
box	-15152
ema	-15153
enc	-15154
ild	-15155
mag	-15156
res	-15157
yst	-15158
ህዴን	-15159
ልን።	-15160
ርጉም	-15161
ሰቡት	-15162
ሳርድ	-15163
ቆይም	-15164
ብሮም	-15165
ንጀላ	-15166
ኝም።	-15167
ከርሰ	-15168
ውንና	-15169
ዳለሁ	-15170
ዳለን	-15171
ጃሚን	-15172
ገበር	-15173
ገደለ	-15174
ፈቀድ	-15175
▁(4	-15176
▁92	-15177
▁El	-15178
▁al	-15179
▁ሆድ	-15180
▁ልዕ	-15181
▁መፀ	-15182
▁ማገ	-15183
▁ሳታ	-15184
▁ሻም	-15185
▁በሄ	-15186
▁ቡሌ	-15187
▁ተሠ	-15188
▁ከላ	-15189
▁ከሴ	-15190
▁ከቁ	-15191
▁ካፒ	-15192
▁ዋስ	-15193
▁ይላ	-15194
▁ፀብ	-15195
▁ፍቺ	-15196
..."	-15197
ሙያዎች	-15198
ምያንግ	-15199
ሮቻቸው	-15200
ሰበውን	-15201
ታዊነት	-15202
ቶሪያል	-15203
ኖርዌይ	-15204
ኢሰመኮ	-15205
ክሪፕት	-15206
ክስጅን	-15207
ዘርጋት	-15208
ደኝነት	-15209
ፈራራት	-15210
▁!!!	-15211
▁240	-15212
▁Con	-15213
▁ላንድ	-15214
▁ላፖር	-15215
▁ሌሎቹ	-15216
▁ልጆቹ	-15217
▁መጠቃ	-15218
▁ሞድሪ	-15219
▁ሦስቱ	-15220
▁ራሂም	-15221
▁ሲጓዙ	-15222
▁ቀሪው	-15223
▁ቢልም	-15224
▁ባለአ	-15225
▁ተጋጣ	-15226
▁ትዕዛ	-15227
▁አልፋ	-15228
▁አነሳ	-15229
▁አድዋ	-15230
▁እራስ	-15231
▁እርቅ	-15232
▁እኩይ	-15233
▁ኮምፕ	-15234
▁ወዴት	-15235
▁የመዋ	-15236
▁የማል	-15237
▁የወር	-15238
▁የዋግ	-15239
▁የጎላ	-15240
▁የጥፋ	-15241
▁የፍት	-15242
▁ያንግ	-15243
▁ይወሰ	-15244
▁ይገመ	-15245
▁ዳኛው	-15246
▁ግቢው	-15247
▁ግብፃ	-15248
▁ጩኸት	-15249
erson	-15250
ላለች፡፡	-15251
▁2000	-15252
▁ሀገርን	-15253
▁ለሁለቱ	-15254
▁ለተጠቃ	-15255
▁ሌላውን	-15256
▁ልጆቹን	-15257
▁ማቀዱን	-15258
▁ማብቂያ	-15259
▁ማውሪስ	-15260
▁ምርቱን	-15261
▁ሰአታት	-15262
▁ሰጪዎች	-15263
▁ሲቀመጥ	-15264
▁ቁጥርም	-15265
▁ተከራይ	-15266
▁ተወያዩ	-15267
▁ተጓዦች	-15268
▁ነበር፣	-15269
▁አልሆነ	-15270
▁አስበው	-15271
▁ኤፍሬም	-15272
▁እሴቶች	-15273
▁እነሱን	-15274
▁እንዲል	-15275
▁እንዲመ	-15276
▁እያደገ	-15277
▁እድለኛ	-15278
▁ከመሬት	-15279
▁ከኢትዮ	-15280
▁ካምፓኒ	-15281
▁ካሴሚሮ	-15282
▁ዓለምን	-15283
▁የመልሶ	-15284
▁የውሸት	-15285
▁የዘመኑ	-15286
▁የገለጹ	-15287
▁ይጎብኙ	-15288
▁ጠባቂው	-15289
▁ህይወትን	-15290
▁ለመወሰን	-15291
▁ለሚገኘው	-15292
▁መዘግየት	-15293
▁መጠየቁን	-15294
▁ማከናወን	-15295
▁ሞተዋል።	-15296
▁ሽልማትን	-15297
▁በመጣራት	-15298
▁በማረሚያ	-15299
▁በሰብአዊ	-15300
▁በየቦታው	-15301
▁በግብርና	-15302
▁ተቀምጧል	-15303
▁ተጠይቀው	-15304
▁አልቫሬዝ	-15305
▁አሜሪካዊ	-15306
▁አጋጥሞት	-15307
▁አግኝተው	-15308
▁እንደርታ	-15309
▁እውነትን	-15310
▁ከከፍተኛ	-15311
▁የሃገሪቱ	-15312
▁የሚሸፍን	-15313
▁የሚያወጡ	-15314
▁የማይቻል	-15315
▁የምስረታ	-15316
▁የተቀሩት	-15317
▁የተከሰቱ	-15318
▁የገጠመው	-15319
▁ያሉበትን	-15320
▁ዴብሮይን	-15321
▁ለእውነተኛ	-15322
▁ምህንድስና	-15323
▁ሰምተናል።	-15324
▁ተነስቷል።	-15325
▁ተናገሩ፡፡	-15326
▁አቅጣጫዎች	-15327
▁አካሂዷል።	-15328
▁ኢትዮጵያ፣	-15329
▁እንደሚቆይ	-15330
▁እንዲጠብቅ	-15331
▁ከጋዜጠኞች	-15332
▁የብልጽግና	-15333
▁የኒውክሌር	-15334
▁ያደረግነው	-15335
▁ይገባል፡፡	-15336
▁በኢንተርኔት	-15337
▁አሳርፈዋል።	-15338
▁አትሌቶቻችን	-15339
▁እየተከናወኑ	-15340
▁የሚከተሉትን	-15341
▁የማኅበረሰብ	-15342
▁የባለስልጣኑ	-15343
▁ቤተክርስቲያኗ	-15344
▁ኢንዱስትሪዎች	-15345
▁እየተንቀሳቀሱ	-15346
▁transport	-15347
▁አመልክተዋል፡፡	-15348
▁አስተላልፈዋል፡፡	-15349
78	-15350
CH	-15351
PN	-15352
ልብ	-15353
ሪኖ	-15354
ቶቿ	-15355
ቶ፣	-15356
ኝ፣	-15357
ክላ	-15358
ዋሎ	-15359
የዉ	-15360
ግዙ	-15361
ጎላ	-15362
ፊኔ	-15363
’’	-15364
---	-15365
/24	-15366
mun	-15367
ock	-15368
rad	-15369
ለውጥ	-15370
ሒሳብ	-15371
መረቅ	-15372
መናል	-15373
ሽንስ	-15374
ቦርዱ	-15375
ከረው	-15376
ከሪያ	-15377
ከፍት	-15378
ካትት	-15379
ክልት	-15380
ክሎች	-15381
ክሳይ	-15382
ዕቆብ	-15383
ጋዴር	-15384
▁EU	-15385
▁OR	-15386
▁up	-15387
▁ሉክ	-15388
▁ላሳ	-15389
▁ልቦ	-15390
▁ሎጅ	-15391
▁መፋ	-15392
▁ሙሽ	-15393
▁ርቆ	-15394
▁ሴል	-15395
▁ሽያ	-15396
▁ቅጂ	-15397
▁በጌ	-15398
▁ባት	-15399
▁ቫር	-15400
▁ተዛ	-15401
▁ኑር	-15402
▁አሁ	-15403
▁ኦሲ	-15404
▁ፍሪ	-15405
▁ፕሌ	-15406
able	-15407
edia	-15408
osit	-15409
ምግልና	-15410
ሳተፉት	-15411
ስተኛው	-15412
በረታቻ	-15413
ኒስቴር	-15414
ናውቀው	-15415
ዳሚነት	-15416
▁MAX	-15417
▁etv	-15418
▁one	-15419
▁ህሊና	-15420
▁መለቀ	-15421
▁ሙያዊ	-15422
▁ምነው	-15423
▁ሲኒማ	-15424
▁ሲገጥ	-15425
▁ቀንን	-15426
▁በሩን	-15427
▁ባገኘ	-15428
▁ቤልጂ	-15429
▁ተሰጠ	-15430
▁ተቀጥ	-15431
▁ነውም	-15432
▁ንጥረ	-15433
▁አቅን	-15434
▁እሰከ	-15435
▁ኩነት	-15436
▁ካይሮ	-15437
▁ወቅቱ	-15438
▁ውበቱ	-15439
▁የስዊ	-15440
▁የንጹ	-15441
▁የጥሪ	-15442
▁ያለህ	-15443
▁ይከፍ	-15444
▁ጆንግ	-15445
▁ገደል	-15446
▁ግብአ	-15447
▁ጽሑፍ	-15448
▁ፀሀይ	-15449
▁ፍንጭ	-15450
▁ፍጡር	-15451
▁ፕሮፖ	-15452
ction	-15453
eople	-15454
ችልም፡፡	-15455
▁ለቀለም	-15456
▁ለብሰው	-15457
▁ለአማራ	-15458
▁መለኪያ	-15459
▁መኪናው	-15460
▁መካሄድ	-15461
▁መግለፁ	-15462
▁መጫወቻ	-15463
▁መፈጸም	-15464
▁ማንንም	-15465
▁ስታዲየ	-15466
▁ሻሸመኔ	-15467
▁ቋንቋን	-15468
▁በህዳር	-15469
▁በመግባ	-15470
▁በማስቀ	-15471
▁በሶስቱ	-15472
▁በበይነ	-15473
▁በችሎት	-15474
▁በጭራሽ	-15475
▁ብራንድ	-15476
▁ነባራዊ	-15477
▁አሉት።	-15478
▁አስፈሪ	-15479
▁አሸብር	-15480
▁አብደል	-15481
▁እስከተ	-15482
▁እንቀጥ	-15483
▁ከአስራ	-15484
▁ከኮቪድ	-15485
▁ከጨዋታ	-15486
▁ካሜሩን	-15487
▁ክላሲኮ	-15488
▁ዓረቢያ	-15489
▁የሞራል	-15490
▁የሞሮኮ	-15491
▁የዕድሜ	-15492
▁የጠየቁ	-15493
▁ያስታው	-15494
▁ያገኙት	-15495
▁ይታያል	-15496
▁ጠይቀው	-15497
▁ፎቶዎች	-15498
ዕራባውያን	-15499
ደረግባቸው	-15500
▁ለመቅጠር	-15501
▁ለመፍትሄ	-15502
▁ላደረጉት	-15503
▁ሌሎችንም	-15504
▁መለያየት	-15505
▁መቃወሚያ	-15506
▁መኪናዎች	-15507
▁መዳኒቶች	-15508
▁ሙከራዎች	-15509
▁ማውሪስዮ	-15510
▁በሌለበት	-15511
▁በመታገዝ	-15512
▁በሩዋንዳ	-15513
▁በተወሰነ	-15514
▁በጉባኤው	-15515
▁ቢሆንም፣	-15516
▁ተመልክቶ	-15517
▁ተደርገው	-15518
▁ችለናል።	-15519
▁አራተኛው	-15520
▁አውቃለሁ	-15521
▁ከውድድሩ	-15522
▁ወንጀለኛ	-15523
▁የሲሚንቶ	-15524
▁የተፈራረ	-15525
▁የትራምፕ	-15526
▁የአሰራር	-15527
▁የዩጋንዳ	-15528
▁የገደለው	-15529
▁የፌደራሉ	-15530
▁ያወጣውን	-15531
▁ጀምረዋል	-15532
▁ጋዜጠኛው	-15533
▁ፖለቲከኛ	-15534
▁ለመከላከያ	-15535
▁ለማስመለስ	-15536
▁መስተፋቅር	-15537
▁መስፈርቱን	-15538
▁ሚኒስቴር፣	-15539
▁ማጠናቀቂያ	-15540
▁በርካቶችን	-15541
▁ብሮድካስት	-15542
▁ተደራሽነት	-15543
▁ተገለጸ፡፡	-15544
▁ኖቲንግሃም	-15545
▁አሳይቷል።	-15546
▁አይመስለኝ	-15547
▁አጋጣሚዎች	-15548
▁እንዳልቻለ	-15549
▁ወረርሽኝን	-15550
▁ያቀረቡትን	-15551
▁ይሰጣል፡፡	-15552
▁ይነገራል።	-15553
▁ጠቁሟል፡፡	-15554
Ethiopia	-15555
▁comment	-15556
▁በስተመጨረሻ	-15557
▁አሰምተዋል።	-15558
▁እንዲከታተሉ	-15559
▁የምንሰጣቸው	-15560
▁የአገልግሎቱ	-15561
formation	-15562
▁telegram	-15563
▁እንደሚገኙበት	-15564
▁ከቤተሰቦቻቸው	-15565
▁ደርሶባቸዋል።	-15566
▁.........	-15567
-5	-15568
81	-15569
BN	-15570
ለ።	-15571
ሊል	-15572
ሳሳ	-15573
ስጋ	-15574
ሸሹ	-15575
ሸው	-15576
ሻን	-15577
በዙ	-15578
ቡና	-15579
ቫኒ	-15580
ናነ	-15581
ከበ	-15582
ዉስ	-15583
ዛር	-15584
ዢው	-15585
ጠኑ	-15586
ጥላ	-15587
ፆታ	-15588
ፋሽ	-15589
ፍሩ	-15590
.00	-15591
man	-15592
now	-15593
ሆኖም	-15594
ላማጣ	-15595
ልስፍ	-15596
ሲባዊ	-15597
ንዶቹ	-15598
እንዴ	-15599
ወርዱ	-15600
ወጣም	-15601
ያዊው	-15602
ድሮክ	-15603
ጀሪያ	-15604
ገራት	-15605
ግብሩ	-15606
ፃችን	-15607
ፒንግ	-15608
▁91	-15609
▁TV	-15610
▁ሕጉ	-15611
▁ሾው	-15612
▁በኅ	-15613
▁ቤቴ	-15614
▁ቤቷ	-15615
▁ቬን	-15616
▁ታክ	-15617
▁አጃ	-15618
▁ኢስ	-15619
▁ዩራ	-15620
▁ደራ	-15621
▁ፍሰ	-15622
ITAN	-15623
ሪሚየር	-15624
በረከቱ	-15625
ናላችን	-15626
ክለኛው	-15627
ዳለች።	-15628
ገደሉት	-15629
ጠባበቁ	-15630
▁who	-15631
▁ህግና	-15632
▁ለዛሬ	-15633
▁መሰራ	-15634
▁ማቅና	-15635
▁ምትኩ	-15636
▁ራሷን	-15637
▁ቀላቅ	-15638
▁በተራ	-15639
▁በቶሎ	-15640
▁በየእ	-15641
▁ቤትን	-15642
▁ተተኪ	-15643
▁ተጋድ	-15644
▁አቃቢ	-15645
▁አንብ	-15646
▁አክሎ	-15647
▁አውድ	-15648
▁ኢንደ	-15649
▁ከመን	-15650
▁ከቤተ	-15651
▁ከወል	-15652
▁ከፊል	-15653
▁ኮሌጁ	-15654
▁ኮትዲ	-15655
▁ዛሬን	-15656
▁የካሳ	-15657
▁የውኃ	-15658
▁ያልታ	-15659
▁ያማክ	-15660
▁ያሳው	-15661
▁ያነሰ	-15662
▁ይልማ	-15663
▁ይስጥ	-15664
▁ይበሉ	-15665
▁ጉዳፍ	-15666
▁ጓደኞ	-15667
▁ፌደራ	-15668
▁ፍሳሽ	-15669
ሚኒስትሩ	-15670
ታቸውንም	-15671
ትምህርት	-15672
ዚአብሄር	-15673
ጠቅላላው	-15674
▁0929	-15675
▁Play	-15676
▁ሀላፊው	-15677
▁ሀውልት	-15678
▁መሰለኝ	-15679
▁ማነስን	-15680
▁ማዞሪያ	-15681
▁ማይክል	-15682
▁ሜትሪክ	-15683
▁ስልኩን	-15684
▁ስመኘው	-15685
▁ሶሴዳድ	-15686
▁በሀገረ	-15687
▁በአቃቂ	-15688
▁በአንጻ	-15689
▁በኮንት	-15690
▁በወርሃ	-15691
▁በዘጠኝ	-15692
▁በድረገ	-15693
▁በፍጹም	-15694
▁ተራሮች	-15695
▁ተቋማዊ	-15696
▁ተዘግቶ	-15697
▁ታይዋን	-15698
▁ታግተው	-15699
▁ችለናል	-15700
▁አልኮል	-15701
▁አበባና	-15702
▁አክሊሉ	-15703
▁አዋጅን	-15704
▁ከሳውዲ	-15705
▁ከጅቡቲ	-15706
▁ክብርት	-15707
▁ወንድሞ	-15708
▁ወዳጆች	-15709
▁ዝውውሩ	-15710
▁የመኝታ	-15711
▁የሚሄዱ	-15712
▁የምድር	-15713
▁የሶሪያ	-15714
▁የተሰኙ	-15715
▁የተገለ	-15716
▁ዴኤታው	-15717
▁ግሎባል	-15718
▁ጥሩነህ	-15719
▁TITAN	-15720
▁ለእናንተ	-15721
▁ልጆቻችን	-15722
▁መጥቷል።	-15723
▁ማሳደጊያ	-15724
▁ሲዘዋወር	-15725
▁በመጠለያ	-15726
▁በተቃራኒ	-15727
▁በወረቀት	-15728
▁በግንባታ	-15729
▁ብራዚላዊ	-15730
▁ተረጋገጠ	-15731
▁አርበኞች	-15732
▁አወዳድሮ	-15733
▁እርምጃው	-15734
▁እንደሚታ	-15735
▁እንደምና	-15736
▁እንዲነሱ	-15737
▁ከስፍራው	-15738
▁ከተሞችን	-15739
▁ከተያዙት	-15740
▁ከጎንደር	-15741
▁ውስንነት	-15742
▁የሊባኖስ	-15743
▁የልዑካን	-15744
▁የመሰረት	-15745
▁የመግዛት	-15746
▁የማሸነፍ	-15747
▁የክለቡን	-15748
▁ያስረዱት	-15749
▁ይልቁንም	-15750
▁ዴንማርክ	-15751
▁ላላችሁትም	-15752
▁ሲያስቆጥሩ	-15753
▁በመከላከል	-15754
▁በስምምነት	-15755
▁በእራሳችን	-15756
▁ባለሙያዎቹ	-15757
▁ተሸንፏል።	-15758
▁አስደንጋጭ	-15759
▁እየተነገረ	-15760
▁ኦባምያንግ	-15761
▁ከተመሰረተ	-15762
▁ውጤታቸውን	-15763
▁የሊቨርፑሉ	-15764
▁የሚጠናቀቅ	-15765
▁የተቀመጠው	-15766
▁የተጠርጣሪ	-15767
▁የእግርኳስ	-15768
▁የወታደራዊ	-15769
▁ይኖርበታል	-15770
▁ዲፕሎማቶች	-15771
▁ህይወታቸዉን	-15772
▁ነግረውናል።	-15773
▁ኢንስታግራም	-15774
▁እንደሌለበት	-15775
▁እንዳያመልጥ	-15776
▁እንገኛለን።	-15777
▁የተደረገበት	-15778
▁የእንቅስቃሴ	-15779
▁ደንበኞቻችን	-15780
▁ተማሪዎቻቸውን	-15781
▁አውሮፕላኖችን	-15782
▁ከዩኒቨርሲቲው	-15783
▁የኤሌክትሮኒክስ	-15784
,9	-15785
09	-15786
IL	-15787
ms	-15788
ሔዱ	-15789
ሚስ	-15790
ሰዱ	-15791
ሸገ	-15792
ቃማ	-15793
ቬን	-15794
ቴት	-15795
ናቅ	-15796
እኮ	-15797
ጂብ	-15798
ጅራ	-15799
ጆቿ	-15800
ገሯ	-15801
ግሞ	-15802
ፃፉ	-15803
ፍረ	-15804
/80	-15805
der	-15806
per	-15807
wit	-15808
ላትም	-15809
ቆጠረ	-15810
ቡላን	-15811
ባረክ	-15812
ብረን	-15813
ቶሊክ	-15814
ኔስኮ	-15815
እራብ	-15816
ካፈል	-15817
የሁት	-15818
ዮኔል	-15819
ገልፅ	-15820
ገጥም	-15821
▁ሀኪ	-15822
▁ሁላ	-15823
▁ለሮ	-15824
▁ምሥ	-15825
▁ሞን	-15826
▁ሰጭ	-15827
▁ሽረ	-15828
▁ሾፌ	-15829
▁ቀድ	-15830
▁በጁ	-15831
▁ቢጫ	-15832
▁ተረ	-15833
▁ቶላ	-15834
▁ቶኒ	-15835
▁አዙ	-15836
▁እት	-15837
▁ኦሾ	-15838
▁ጁድ	-15839
▁ግጥ	-15840
▁ጎሜ	-15841
▁ጥን	-15842
▁ፈጣ	-15843
▁ፔር	-15844
////	-15845
rain	-15846
reat	-15847
ላፊዎች	-15848
መለሰው	-15849
ረንጆች	-15850
ረድኤት	-15851
ሪታኒያ	-15852
ሹራንስ	-15853
ቢያቸው	-15854
ባለች።	-15855
አሜሪካ	-15856
ከላከሉ	-15857
ደባቸው	-15858
ዶክተር	-15859
ጎንደር	-15860
ፈላለግ	-15861
▁ETB	-15862
▁Reg	-15863
▁ሃምሳ	-15864
▁ላቀዉ	-15865
▁መበራ	-15866
▁መጎዳ	-15867
▁ማሊያ	-15868
▁ማራኪ	-15869
▁ማዕቀ	-15870
▁ሥልጣ	-15871
▁ሪያድ	-15872
▁ሰርጂ	-15873
▁ሳድዮ	-15874
▁ስፔስ	-15875
▁ቃለመ	-15876
▁በማዳ	-15877
▁በቀኝ	-15878
▁በቃል	-15879
▁በተጨ	-15880
▁በእኔ	-15881
▁በዋስ	-15882
▁በዋነ	-15883
▁ትዝታ	-15884
▁ኒጀር	-15885
▁አምል	-15886
▁አስቤ	-15887
▁አቁሞ	-15888
▁አጥፊ	-15889
▁ኡሁሩ	-15890
▁እንሰ	-15891
▁እየደ	-15892
▁ከመቀ	-15893
▁ከአም	-15894
▁ወስጥ	-15895
▁ወደመ	-15896
▁የሄዱ	-15897
▁የላይ	-15898
▁የመፅ	-15899
▁የንጉ	-15900
▁ይወዳ	-15901
▁ደምሴ	-15902
▁ድሉን	-15903
▁ገጣሚ	-15904
▁ጸሐፊ	-15905
▁ፀግሽ	-15906
azine	-15907
መዝገቢያ	-15908
በራቸውን	-15909
ነዋል፡፡	-15910
ንግስታቱ	-15911
እስካሁን	-15912
▁what	-15913
▁ለልማት	-15914
▁ለአገር	-15915
▁ሊጀምር	-15916
▁መላኩን	-15917
▁መመለሱ	-15918
▁መመስረ	-15919
▁መመዘኛ	-15920
▁መሪዎቹ	-15921
▁መርካቶ	-15922
▁መጠየቁ	-15923
▁መጣሉን	-15924
▁ማሳወቁ	-15925
▁ማስገባ	-15926
▁ማቅረቡ	-15927
▁ምርቃት	-15928
▁ሩዲገር	-15929
▁ሱዋሬዝ	-15930
▁ሲመለስ	-15931
▁ሳይችል	-15932
▁በሪያል	-15933
▁በበለጠ	-15934
▁በኤክስ	-15935
▁በኮልፌ	-15936
▁በጥናቱ	-15937
▁ባወጣዉ	-15938
▁ተከፍቶ	-15939
▁ታኅሣሥ	-15940
▁ናቸው፤	-15941
▁አሸነፈ	-15942
▁አብራሪ	-15943
▁አውቶብ	-15944
▁አይሆን	-15945
▁አይኖር	-15946
▁አድማስ	-15947
▁እንደዛ	-15948
▁እጠይቃ	-15949
▁ከመጠን	-15950
▁ከምርጫ	-15951
▁ከሰላም	-15952
▁ከተቋሙ	-15953
▁ከአፋር	-15954
▁የሚነሳ	-15955
▁የሚያመ	-15956
▁የስንዴ	-15957
▁የተቀረ	-15958
▁የተወጣ	-15959
▁የተገመ	-15960
▁የነባር	-15961
▁የኢሬቻ	-15962
▁የኮከብ	-15963
▁ይደርሳ	-15964
▁ጠንከር	-15965
▁ለማምረት	-15966
▁ለማትረፍ	-15967
▁መቀላቀሉ	-15968
▁መንደሮች	-15969
▁መጨረሻው	-15970
▁ማስታወቁ	-15971
▁ሪፖርቶች	-15972
▁ሶፍትዌር	-15973
▁በመምታት	-15974
▁በመሳተፍ	-15975
▁በሚባለው	-15976
▁በሚጠራዉ	-15977
▁ባለባቸው	-15978
▁ተጠርጥሮ	-15979
▁ትሮሳርድ	-15980
▁አልተገኘ	-15981
▁አስበዋል	-15982
▁አስታውቆ	-15983
▁አወዛጋቢ	-15984
▁አጠባበቅ	-15985
▁አፈወርቅ	-15986
▁ኤርሚያስ	-15987
▁እስራትና	-15988
▁ኦሊምፒክ	-15989
▁ከምዕራብ	-15990
▁ከበርካታ	-15991
▁ከብሄራዊ	-15992
▁ዘረኝነት	-15993
▁ዜጎቻችን	-15994
▁የላቸውም	-15995
▁የሚወስድ	-15996
▁የምሥራቅ	-15997
▁የሩዋንዳ	-15998
▁የስምንት	-15999
▁ያማክሩን	-16000
▁ይደውሉ።	-16001
▁ደህንነቱ	-16002
▁ለማረጋጋት	-16003
▁ለሪፖርተር	-16004
▁መሰብሰቡን	-16005
▁መቀመጫውን	-16006
▁ማንቸስተር	-16007
▁በሚሊኒየም	-16008
▁በማደራጀት	-16009
▁ተነሳሽነት	-16010
▁ኃይለሥላሴ	-16011
▁አደርጋለሁ	-16012
▁አፍሪካዊቷ	-16013
▁እንዲራዘም	-16014
▁እንዲያቆሙ	-16015
▁እንዳደረገ	-16016
▁ኮምፒውተር	-16017
▁የቫይረሱን	-16018
▁የትኛውንም	-16019
▁የድንገተኛ	-16020
▁ድርጅቶችን	-16021
lication	-16022
▁telegra	-16023
▁መሆናቸውንም	-16024
▁በአውሮፕላን	-16025
▁ባርሴሎናዎች	-16026
▁ተጠቅሷል፡፡	-16027
▁አመሰግናለሁ	-16028
▁አምርተዋል።	-16029
▁እንደሚቀጥሉ	-16030
▁እንዳልተቻለ	-16031
▁ወደነበረበት	-16032
▁የተማሪዎችን	-16033
▁የኦርቶዶክስ	-16034
▁ጠቅሰዋል፡፡	-16035
▁ፍራንክፈርት	-16036
▁አመላክቷል፡፡	-16037
▁አስቆጥረዋል።	-16038
.9	-16039
79	-16040
ES	-16041
ለቆ	-16042
ሌጁ	-16043
ልቦ	-16044
ሎዲ	-16045
ራሱ	-16046
ሸጉ	-16047
ቄዶ	-16048
በጅ	-16049
ዛቀ	-16050
ይዙ	-16051
ጉጥ	-16052
ጊው	-16053
ጣፍ	-16054
ፎሳ	-16055
ፐን	-16056
▁ቾ	-16057
FBC	-16058
ina	-16059
min	-16060
nos	-16061
ላንካ	-16062
ማሉ።	-16063
ራኒዮ	-16064
ራንት	-16065
ሰማሩ	-16066
ሳሪያ	-16067
ሳቁስ	-16068
ስማሙ	-16069
ስቴት	-16070
ቋቋመ	-16071
ቦቹን	-16072
ችውም	-16073
ኗቸው	-16074
ክላን	-16075
ኸሪያ	-16076
ኹለት	-16077
ወደድ	-16078
ዕለት	-16079
ዛል።	-16080
ይንት	-16081
ዮቹን	-16082
ዮንግ	-16083
ጠልም	-16084
ጥለው	-16085
▁No	-16086
▁Ps	-16087
▁ለኤ	-16088
▁ልከ	-16089
▁ራይ	-16090
▁ሲደ	-16091
▁ሳቢ	-16092
▁ከሆ	-16093
▁ከቴ	-16094
ROPE	-16095
iver	-16096
ough	-16097
uter	-16098
መንጨት	-16099
መድህን	-16100
ማል፡፡	-16101
ሰጣቸዉ	-16102
ቀርብም	-16103
ታዲየም	-16104
ገናዘበ	-16105
▁170	-16106
▁900	-16107
▁any	-16108
▁dis	-16109
▁has	-16110
▁ሀያል	-16111
▁ሊሰራ	-16112
▁ማከማ	-16113
▁ስዓት	-16114
▁ቃሉን	-16115
▁በሀያ	-16116
▁በረዶ	-16117
▁በሰነ	-16118
▁በአባ	-16119
▁ብለዉ	-16120
▁ተፈቅ	-16121
▁ታዛቢ	-16122
▁አህሊ	-16123
▁አልኩ	-16124
▁አስቦ	-16125
▁አቋቁ	-16126
▁አክስ	-16127
▁አጥፍ	-16128
▁እርካ	-16129
▁እኚህ	-16130
▁ከሚል	-16131
▁ከሰራ	-16132
▁ከቆየ	-16133
▁ወዳድ	-16134
▁ዕሁድ	-16135
▁ዚዳን	-16136
▁የሎስ	-16137
▁ያመለ	-16138
▁ይቀን	-16139
▁ይከብ	-16140
▁ደሴት	-16141
▁ደውሎ	-16142
▁ፈራሚ	-16143
ምናልባት	-16144
ደረሰበት	-16145
▁Slim	-16146
▁ለተጫዋ	-16147
▁ሊፈጠር	-16148
▁መታየት	-16149
▁መፈተሻ	-16150
▁ማተሚያ	-16151
▁ማይክሮ	-16152
▁ምስረታ	-16153
▁ምግቦች	-16154
▁ሞድሪች	-16155
▁ሴጣኖች	-16156
▁በስልጤ	-16157
▁በአመራ	-16158
▁በእጥፍ	-16159
▁በውሃላ	-16160
▁በውይይ	-16161
▁በጉራጌ	-16162
▁ቢሾፍቱ	-16163
▁ባልሆኑ	-16164
▁ተከተል	-16165
▁ተካሄደ	-16166
▁ትፈልጋ	-16167
▁አመራሩ	-16168
▁አንስታ	-16169
▁አንበጣ	-16170
▁አጋሮቹ	-16171
▁እልቂት	-16172
▁እስከመ	-16173
▁እንጨት	-16174
▁እየመጡ	-16175
▁እየተቀ	-16176
▁ከመቐለ	-16177
▁ከምክር	-16178
▁ካምፖች	-16179
▁ወደኋላ	-16180
▁ውድቀት	-16181
▁የሚሄድ	-16182
▁የሚረዱ	-16183
▁የሚገድ	-16184
▁የሠላም	-16185
▁የአጭር	-16186
▁የካናዳ	-16187
▁የኮሌራ	-16188
▁የወሳኝ	-16189
▁የዚህን	-16190
▁የጥናት	-16191
▁ይቀርባ	-16192
▁ይደዉሉ	-16193
▁ይገለፃ	-16194
▁ደባርቅ	-16195
▁ዳግማዊ	-16196
▁ፖሊስም	-16197
ራረዱባቸው	-16198
▁11:30	-16199
▁ህዝባችን	-16200
▁ለመቀጠል	-16201
▁ለሰብዓዊ	-16202
▁መገልገያ	-16203
▁መግለጫ፤	-16204
▁ማስወገድ	-16205
▁ማስጠበቅ	-16206
▁ማከፋፈያ	-16207
▁ሲያሸንፍ	-16208
▁በመተካት	-16209
▁በሚደርስ	-16210
▁በሰሜናዊ	-16211
▁በስህተት	-16212
▁በክልሎች	-16213
▁በወንዶች	-16214
▁ቡድኖችን	-16215
▁ባይሆንም	-16216
▁ቤንጃሚን	-16217
▁ብስክሌት	-16218
▁አልተሳካ	-16219
▁አስለቃሽ	-16220
▁አስቆጣሪ	-16221
▁እንደመጣ	-16222
▁ከሚያዚያ	-16223
▁ከጦርነቱ	-16224
▁ካለባቸው	-16225
▁ካምፓሶች	-16226
▁ኮንሰርት	-16227
▁ዋትፎርድ	-16228
▁የመዝናኛ	-16229
▁የመፍትሄ	-16230
▁የምትችሉ	-16231
▁የባህልና	-16232
▁ያሉት፡፡	-16233
-------	-16234
▁ሌቨርኩሰን	-16235
▁መንቀጥቀጡ	-16236
▁ማስጀመሪያ	-16237
▁ምልክቶችን	-16238
▁በሚፈለገው	-16239
▁በነበሩበት	-16240
▁በአስቸጋሪ	-16241
▁በዋነኝነት	-16242
▁ባለሃብቶች	-16243
▁ትምህርትን	-16244
▁አንድነትን	-16245
▁እንዲኖረው	-16246
▁እየተገነባ	-16247
▁የብልፅግና	-16248
▁የተላለፈው	-16249
▁ያለመከሰስ	-16250
▁ይቀጥላል።	-16251
▁ባስተላለፈው	-16252
▁አግኝተዋል።	-16253
▁አፍሪካውያን	-16254
▁እንደሚመለስ	-16255
▁እንደሚደርስ	-16256
▁ከሚያደርገው	-16257
▁የመንግስትን	-16258
▁የሚደርሰውን	-16259
▁በአፍጋኒስታን	-16260
▁ተወራረዱባቸው	-16261
▁እንደተሰጣቸው	-16262
▁እየተንቀሳቀሰ	-16263
▁የተናገሩት፡፡	-16264
▁አረጋግጠዋል፡፡	-16265
▁አብራርተዋል፡፡	-16266
82	-16267
89	-16268
eh	-16269
ug	-16270
ሀር	-16271
ልጋ	-16272
ረጉ	-16273
ሳ፣	-16274
ቅሮ	-16275
ቡዌ	-16276
ቺስ	-16277
ንጂ	-16278
ውት	-16279
ዓለ	-16280
ዳጉ	-16281
ገዴ	-16282
ጠፌ	-16283
ጻፍ	-16284
ፈቅ	-16285
EBC	-16286
MAN	-16287
ank	-16288
har	-16289
ለጠፍ	-16290
ራለች	-16291
ሰዎች	-16292
ሳውቁ	-16293
ሸርት	-16294
በውን	-16295
ትከል	-16296
ንግዶ	-16297
ወስን	-16298
ይህም	-16299
ድሪስ	-16300
ጄርያ	-16301
ጠለሉ	-16302
ፈጽም	-16303
ፋኖስ	-16304
▁(5	-16305
▁An	-16306
▁sp	-16307
▁ሀዘ	-16308
▁ሙሁ	-16309
▁ማወ	-16310
▁ማዶ	-16311
▁ረድ	-16312
▁በዴ	-16313
▁በጄ	-16314
▁ቫል	-16315
▁ታደ	-16316
▁አሲ	-16317
▁ጂኦ	-16318
▁ፍጥ	-16319
reen	-16320
ward	-16321
መርጨት	-16322
ረናል።	-16323
ሪምየር	-16324
ሯቸውን	-16325
ስትሪያ	-16326
ነሳሳት	-16327
ወሓትን	-16328
ገምገም	-16329
ጋስካር	-16330
ፕስዊች	-16331
▁125	-16332
▁24/	-16333
▁ለገዳ	-16334
▁ላለማ	-16335
▁መስር	-16336
▁መካነ	-16337
▁ማንሳ	-16338
▁ሰወች	-16339
▁ሲመሩ	-16340
▁ሶከር	-16341
▁ቃሲም	-16342
▁በአቻ	-16343
▁በውጪ	-16344
▁ቤትም	-16345
▁ታራሚ	-16346
▁ትርፋ	-16347
▁ኖሯል	-16348
▁አሉኝ	-16349
▁አልማ	-16350
▁አስጊ	-16351
▁እኩለ	-16352
▁ኦባሳ	-16353
▁ከሰኞ	-16354
▁ኪዳነ	-16355
▁ወረደ	-16356
▁ወስኖ	-16357
▁ወደቀ	-16358
▁ዋልታ	-16359
▁ዓቃቢ	-16360
▁ዘጠና	-16361
▁የበለ	-16362
▁የተበ	-16363
▁የተቻ	-16364
▁ይህው	-16365
▁ይሰጠ	-16366
▁ይጫወ	-16367
▁ጀምስ	-16368
▁ገመድ	-16369
▁ጎሜዝ	-16370
▁ፈጥኖ	-16371
▁ፍቅሬ	-16372
▁ፒተር	-16373
GINAL	-16374
ሃይማኖት	-16375
ከተለውን	-16376
ደዋል፡፡	-16377
▁comp	-16378
▁like	-16379
▁ለአካል	-16380
▁ለእይታ	-16381
▁ሊለያይ	-16382
▁ሊጨምር	-16383
▁ሐረማያ	-16384
▁መረጃ፦	-16385
▁መሰራት	-16386
▁መስርቶ	-16387
▁መንበረ	-16388
▁መድህን	-16389
▁ሙሉቀን	-16390
▁ሙሴቬኒ	-16391
▁ሙስጠፌ	-16392
▁ሚኪያስ	-16393
▁ማለፊያ	-16394
▁ማኅበሩ	-16395
▁ሠራዊቱ	-16396
▁ሲቀርብ	-16397
▁ሲጀመር	-16398
▁ሳይሳካ	-16399
▁ቀራኒዮ	-16400
▁በቀበሌ	-16401
▁በቼልሲ	-16402
▁በዓመቱ	-16403
▁በዜጎች	-16404
▁በገጠር	-16405
▁በጉብኝ	-16406
▁በጻፈው	-16407
▁ቡልቡላ	-16408
▁ቢሆኑም	-16409
▁ተሰባስ	-16410
▁አልገባ	-16411
▁አስተው	-16412
▁አቋራጭ	-16413
▁አብዮት	-16414
▁አይችሉ	-16415
▁እያገለ	-16416
▁ከተማ፣	-16417
▁ከጉዳት	-16418
▁ክልሉን	-16419
▁ወርሃዊ	-16420
▁ዘዴዎች	-16421
▁የመሰረ	-16422
▁የሚገር	-16423
▁የሞተር	-16424
▁የበዓል	-16425
▁የበይነ	-16426
▁የእርቅ	-16427
▁የጥቁር	-16428
▁ይስተዋ	-16429
▁ይከበራ	-16430
▁ግቢውን	-16431
▁ጓደኞቹ	-16432
▁ጥቂቶቹ	-16433
▁ጥቃትን	-16434
▁ጥንዶች	-16435
10,000	-16436
noside	-16437
▁STAND	-16438
▁ሀገራትን	-16439
▁ለመምራት	-16440
▁ለማስቻል	-16441
▁ለቫይረሱ	-16442
▁መውጣቱን	-16443
▁መፈጠሩን	-16444
▁ሚስጥራዊ	-16445
▁ማስተናገ	-16446
▁ራሳችሁን	-16447
▁ራሳችንን	-16448
▁በመጫወት	-16449
▁በሬክተር	-16450
▁በብራዚል	-16451
▁በአሸናፊ	-16452
▁በዘመናዊ	-16453
▁ባይኖርም	-16454
▁ቪያሪያል	-16455
▁ተጀምሯል	-16456
▁ተፈናቃይ	-16457
▁ትሪሊዮን	-16458
▁አምባሳደ	-16459
▁አብርሀም	-16460
▁አድሃኖም	-16461
▁አገልጋይ	-16462
▁አጠናቋል	-16463
▁እንደቻለ	-16464
▁እየጠበቁ	-16465
▁ከሚገኙት	-16466
▁ከቲክቫህ	-16467
▁ከአመታት	-16468
▁የተደራጁ	-16469
▁የተጨማሪ	-16470
▁የእናቶች	-16471
▁የእንግዳ	-16472
▁የዝግጅት	-16473
▁የዩቲዩብ	-16474
▁የጠቆመው	-16475
▁የፈጸሙት	-16476
▁ያደረሰው	-16477
▁ያገኘውን	-16478
▁ድርጅቶቹ	-16479
▁ፈጥሯል።	-16480
▁EUROPE	-16481
▁ሁለንተናዊ	-16482
▁ሆነዋል፡፡	-16483
▁መመሪያዎች	-16484
▁ማጠናቀቁን	-16485
▁ሲያገለግሉ	-16486
▁ስልጠናውን	-16487
▁በመረጋገጡ	-16488
▁በታንዛኒያ	-16489
▁ታይተዋል።	-16490
▁አሳልፏል።	-16491
▁አቀርባለሁ	-16492
▁አድርገናል	-16493
▁እንዲኖረን	-16494
▁ከተሰጣቸው	-16495
▁ከእነዚህም	-16496
▁ከፍተኛውን	-16497
▁የሚኒስቴሩ	-16498
▁የሚያቀርቡ	-16499
▁የባልደራስ	-16500
▁የተቋረጠው	-16501
▁የተወሰኑት	-16502
▁የተገኘውን	-16503
▁የቶተንሀም	-16504
▁የአልሸባብ	-16505
▁የአትሌቲኮ	-16506
▁የክርስትና	-16507
▁ያቀርባል።	-16508
▁ይከናወናል	-16509
▁ጉዳያቸውን	-16510
▁በማስተላለፍ	-16511
▁ተቀምጠዋል።	-16512
▁ኢብራሂሞቪች	-16513
▁እንደገለጸው	-16514
▁ኮንዶሚኒየም	-16515
▁የሚደረግበት	-16516
▁የተመሰረተው	-16517
▁ደርሶባቸዋል	-16518
▁ገብተዋል፡፡	-16519
istration	-16520
▁ተመልክቷል፡፡	-16521
▁አስተባባሪዎች	-16522
▁እስራኤላውያን	-16523
▁እስከሚጠናቀቅ	-16524
▁እንዳስታወቀዉ	-16525
CC	-16526
ON	-16527
ህ፣	-16528
ላፍ	-16529
መፅ	-16530
ሚት	-16531
ረረ	-16532
ረዝ	-16533
ራኑ	-16534
በቁ	-16535
ተኝ	-16536
ነቡ	-16537
ዋዌ	-16538
ዝሩ	-16539
ደኑ	-16540
ዶላ	-16541
ጨስ	-16542
ias	-16543
oph	-16544
org	-16545
ove	-16546
ለን፣	-16547
ልማቱ	-16548
መለሳ	-16549
ራሉ።	-16550
ቄለም	-16551
በሌላ	-16552
ባረር	-16553
ተርፍ	-16554
ንጀሮ	-16555
ንግላ	-16556
ንፈስ	-16557
ዎቹም	-16558
ጋላዊ	-16559
ግሎት	-16560
ጣለች	-16561
ፈርሙ	-16562
ፈተኑ	-16563
▁pl	-16564
▁ለየ	-16565
▁ሊሰ	-16566
▁ላጡ	-16567
▁ሚስ	-16568
▁ሲም	-16569
▁ሲሞ	-16570
▁በፔ	-16571
▁ብስ	-16572
▁አሶ	-16573
▁ኦሳ	-16574
▁ከሮ	-16575
▁ያጋ	-16576
▁ዴሊ	-16577
▁ዶክ	-16578
▁ግማ	-16579
▁ጎጂ	-16580
▁ጡት	-16581
▁ጥግ	-16582
▁ጫኔ	-16583
▁ፈይ	-16584
▁ፋሶ	-16585
●••	-16586
8515	-16587
orld	-16588
ሪያቸው	-16589
ቀመጡት	-16590
በርከት	-16591
በትም።	-16592
ባቸውና	-16593
ባችሁን	-16594
ነጋገረ	-16595
ንደዚህ	-16596
ግንነት	-16597
ጫወተው	-16598
ፈራረም	-16599
▁50%	-16600
▁And	-16601
▁ለሕግ	-16602
▁ሐረር	-16603
▁መርሆ	-16604
▁መናገ	-16605
▁ሚሼል	-16606
▁ማሪያ	-16607
▁ምርቱ	-16608
▁ምታት	-16609
▁ምንጮ	-16610
▁ሞይስ	-16611
▁ርቀው	-16612
▁ሳዲዮ	-16613
▁ስርቆ	-16614
▁በመብ	-16615
▁በሰፊ	-16616
▁በሳይ	-16617
▁በክት	-16618
▁በጉዞ	-16619
▁በግራ	-16620
▁ተለዋ	-16621
▁ተቀጡ	-16622
▁ተጋብ	-16623
▁አብዮ	-16624
▁አውታ	-16625
▁ከልክ	-16626
▁ከቀን	-16627
▁ከኋላ	-16628
▁ኮተቤ	-16629
▁ወንዱ	-16630
▁ዜጎቿ	-16631
▁የማዳ	-16632
▁የሩብ	-16633
▁የቃል	-16634
▁የዕጣ	-16635
▁የደር	-16636
▁የዶሮ	-16637
▁ያስደ	-16638
▁ያካት	-16639
▁ይህች	-16640
▁ይከፈ	-16641
▁ዮሴፍ	-16642
▁ፍሰት	-16643
▁ፎርም	-16644
40/60	-16645
ደርሳቸው	-16646
ገጠማቸው	-16647
ፈልግም።	-16648
▁ሀይማኖ	-16649
▁ሀገራቱ	-16650
▁ህብረቱ	-16651
▁ለሰዎች	-16652
▁ለሸገር	-16653
▁ለችሎቱ	-16654
▁ለችግር	-16655
▁ለውጦች	-16656
▁ላፕቶፕ	-16657
▁ሌተናል	-16658
▁መልካሙ	-16659
▁መተከል	-16660
▁መፈተኛ	-16661
▁ሙስጠፋ	-16662
▁ራሳቸው	-16663
▁ቀነኒሳ	-16664
▁በማግኘ	-16665
▁በርግጥ	-16666
▁በታላቅ	-16667
▁በደማቅ	-16668
▁ብቃቱን	-16669
▁ተሰምቶ	-16670
▁ተሰራጭ	-16671
▁ተሸካሚ	-16672
▁ተወልደ	-16673
▁ተጠንቀ	-16674
▁ታፍነው	-16675
▁ናት፡፡	-16676
▁አለብህ	-16677
▁አዋርድ	-16678
▁እንደዚ	-16679
▁ኦሲሜን	-16680
▁ከመላው	-16681
▁ከሰባት	-16682
▁ከባንክ	-16683
▁ከደብረ	-16684
▁ካላችሁ	-16685
▁ውንጀላ	-16686
▁የሀብት	-16687
▁የሴካፋ	-16688
▁የብሔር	-16689
▁የታየው	-16690
▁የዩክሬ	-16691
▁የፈጸመ	-16692
▁የፖሊሲ	-16693
▁ይልቃል	-16694
▁ደጋግሞ	-16695
▁ድርቀት	-16696
▁ጃክሰን	-16697
▁ገበየሁ	-16698
▁ጥያቄን	-16699
▁ጥያቄዎ	-16700
evelop	-16701
▁12:30	-16702
▁ለመታደም	-16703
▁ሊጠናቀቅ	-16704
▁ልማቶችን	-16705
▁መመለሱን	-16706
▁መራዘሙን	-16707
▁በመርታት	-16708
▁በማክበር	-16709
▁በራሳችን	-16710
▁በቢሾፍቱ	-16711
▁በዝቅተኛ	-16712
▁በዝውውር	-16713
▁በፈፀመው	-16714
▁ብርጋዴር	-16715
▁ተሰማ፡፡	-16716
▁ተጨዋቾቹ	-16717
▁እነዚህም	-16718
▁እየወሰዱ	-16719
▁ከሜዳቸው	-16720
▁ከተማዎች	-16721
▁ከንቲባዋ	-16722
▁ኮከባቸው	-16723
▁የህዝብን	-16724
▁ይላል፡፡	-16725
▁ይመስላሉ	-16726
▁ፌዴሬሽኑ	-16727
▁Africa	-16728
▁ሁለተኛውን	-16729
▁ለማስወጣት	-16730
▁ሰምቷል፡፡	-16731
▁ሻምፒዮንስ	-16732
▁ቆስለዋል።	-16733
▁በመገንባት	-16734
▁በማሰራጨት	-16735
▁በቀዳሚነት	-16736
▁በአርሰናል	-16737
▁በእግርኳስ	-16738
▁በግንኙነት	-16739
▁ተማሪዎችና	-16740
▁ተቀላቅሏል	-16741
▁አይቀርም።	-16742
▁እስረኞችን	-16743
▁እንዲጀምሩ	-16744
▁እንዲጠብቁ	-16745
▁እንዳልቀረ	-16746
▁እንዳይወጡ	-16747
▁እየተወሰደ	-16748
▁እያደረገች	-16749
▁ዘኢትዮጵያ	-16750
▁የሚያሰራጩ	-16751
▁የተመሠረተ	-16752
▁የተናገረው	-16753
▁የአገሪቱን	-16754
▁የዘረኝነት	-16755
▁በንግግራቸው	-16756
▁አሜሪካውያን	-16757
▁አምባሳደሮች	-16758
▁ኢትዮጵያዊቷ	-16759
▁እንደሚጀምሩ	-16760
▁እየተከታተሉ	-16761
▁የሚያገኙበት	-16762
▁የሚፈልጉትን	-16763
▁የአስተዳደሩ	-16764
▁የኢኖቬሽንና	-16765
▁የዘንድሮውን	-16766
▁የጥፋተኝነት	-16767
▁ፕሬዝዳንቶች	-16768
▁STANDARD	-16769
▁እናደርጋለን።	-16770
▁እንዳያመልጥዎ	-16771
▁በዩኒቨርሲቲዎች	-16772
▁ተደርጎላቸዋል።	-16773
>>	-16774
LF	-16775
My	-16776
UC	-16777
ሂድ	-16778
ለአ	-16779
ሟሟ	-16780
ቪቭ	-16781
ቻን	-16782
ንሱ	-16783
ንጻ	-16784
ካራ	-16785
ዋኔ	-16786
ዕክ	-16787
ዘነ	-16788
ዘዘ	-16789
ዝቶ	-16790
ዝዝ	-16791
የቭ	-16792
የኝ	-16793
ጀን	-16794
ፋሶ	-16795
777	-16796
867	-16797
Stv	-16798
ung	-16799
ሃኒት	-16800
ለናል	-16801
ላላኪ	-16802
ላንቱ	-16803
ማከር	-16804
ምቤሌ	-16805
ምፒዩ	-16806
ሰራጫ	-16807
ሰቦች	-16808
ሳልፍ	-16809
ሳቸዉ	-16810
ሳኔው	-16811
ስበው	-16812
ሻሻያ	-16813
ቁረጥ	-16814
ቆመው	-16815
ቋማት	-16816
ባሲው	-16817
ታቱን	-16818
ነርሱ	-16819
ንጋሪ	-16820
ዞርት	-16821
ደንቱ	-16822
ዳደር	-16823
ገሩት	-16824
ገሪቷ	-16825
ገደዱ	-16826
ጋርት	-16827
ጋጠሙ	-16828
ጠቅም	-16829
ፐብሊ	-16830
▁3-	-16831
▁ለሲ	-16832
▁ለኛ	-16833
▁ለዲ	-16834
▁ላቀ	-16835
▁መጓ	-16836
▁ቢቂ	-16837
▁ታሳ	-16838
▁ቴዲ	-16839
▁ውህ	-16840
▁ውጫ	-16841
▁ዞር	-16842
▁ዲን	-16843
▁ዳዋ	-16844
▁ጃፓ	-16845
▁ጉዟ	-16846
▁ጠል	-16847
▁ጠጥ	-16848
▁ጦሩ	-16849
▁ፊዮ	-16850
▁ፌር	-16851
▁ፕራ	-16852
alth	-16853
ሕይወት	-16854
ሟቸውን	-16855
ራታቸው	-16856
ርሴናል	-16857
ስትያን	-16858
ሸጋገር	-16859
በአሁኑ	-16860
ቸዋለሁ	-16861
ወራረድ	-16862
ዎችን፣	-16863
ያውቀው	-16864
ጠንቀቅ	-16865
ፎካከር	-16866
▁1-3	-16867
▁180	-16868
▁19.	-16869
▁256	-16870
▁ለቀጣ	-16871
▁ለአን	-16872
▁ሊወጡ	-16873
▁ሊግን	-16874
▁ሐሰን	-16875
▁ሕመም	-16876
▁መተማ	-16877
▁መታወ	-16878
▁ሙላት	-16879
▁ምቾት	-16880
▁ሰሞን	-16881
▁ሲችሉ	-16882
▁ሲነሳ	-16883
▁ሲያዙ	-16884
▁ሳሙና	-16885
▁ስሙን	-16886
▁ሽኝት	-16887
▁ቃለም	-16888
▁ቅኝት	-16889
▁በሰብ	-16890
▁በሰዉ	-16891
▁በክሱ	-16892
▁በዓለ	-16893
▁በየካ	-16894
▁ተጠግ	-16895
▁ቴክኒ	-16896
▁አሚር	-16897
▁አራጌ	-16898
▁አሰጣ	-16899
▁አባባ	-16900
▁አዋጭ	-16901
▁አዘዋ	-16902
▁አፍር	-16903
▁እምቢ	-16904
▁እምብ	-16905
▁ከትን	-16906
▁ከአቅ	-16907
▁ካገኘ	-16908
▁ክርክ	-16909
▁ዋቸሞ	-16910
▁ዝነኛ	-16911
▁የቦሌ	-16912
▁የቪዛ	-16913
▁የኤል	-16914
▁የኮፓ	-16915
▁ደምቢ	-16916
▁ደበሌ	-16917
▁ዶክተ	-16918
▁ገርባ	-16919
▁ጭራሽ	-16920
▁ፈለቀ	-16921
esign	-16922
ላቸውም።	-16923
ማራቸውን	-16924
ቶቻችንን	-16925
ንደርሰን	-16926
▁life	-16927
▁ሁንዴሳ	-16928
▁ሁከትና	-16929
▁ሃገራዊ	-16930
▁ለረዥም	-16931
▁ለቀጣዩ	-16932
▁ሚልየን	-16933
▁ሚዛናዊ	-16934
▁ማቆሚያ	-16935
▁ምርጫን	-16936
▁ስለሆኑ	-16937
▁ቀጥሎም	-16938
▁ቂርቆስ	-16939
▁በሆኑት	-16940
▁በመጣስ	-16941
▁በበኩሏ	-16942
▁በዌስት	-16943
▁በጠበቀ	-16944
▁በፓሪስ	-16945
▁ተመረቀ	-16946
▁ተናጋሪ	-16947
▁ተጠቃሽ	-16948
▁ተጠቆመ	-16949
▁ታደርጋ	-16950
▁ቻናሎች	-16951
▁ኒኮላስ	-16952
▁አባገዳ	-16953
▁አድራጊ	-16954
▁አጥንት	-16955
▁እለትም	-16956
▁ከመግለ	-16957
▁ከሜዳው	-16958
▁ከዛሬው	-16959
▁ክልልን	-16960
▁የሚያዙ	-16961
▁የቢቢሲ	-16962
▁የተሰባ	-16963
▁የተዛባ	-16964
▁የታዳጊ	-16965
▁የአስተ	-16966
▁የአፍና	-16967
▁የኳታር	-16968
▁የዘመን	-16969
▁የፈለገ	-16970
▁ያልቻሉ	-16971
▁ግራናዳ	-16972
▁ፈገግታ	-16973
witter	-16974
በተጨማሪም	-16975
ንስታግራም	-16976
ክርስቲያኗ	-16977
▁ሀሳቦችን	-16978
▁ለሀገሪቱ	-16979
▁ለመለየት	-16980
▁ለመገናኛ	-16981
▁ለመግለጽ	-16982
▁መምህራኑ	-16983
▁መንገድን	-16984
▁ሳውዝጌት	-16985
▁ሳይንሳዊ	-16986
▁ሳይጨምር	-16987
▁በመገናኛ	-16988
▁በማሻሻል	-16989
▁በሸራተን	-16990
▁በተደረጉ	-16991
▁በቴሌብር	-16992
▁ተመልከቱ	-16993
▁አልደረሰ	-16994
▁አባላት፣	-16995
▁አባቶች፣	-16996
▁አይቀርም	-16997
▁ኤሪክሰን	-16998
▁እያሳለፈ	-16999
▁ኦባሳንጆ	-17000
▁ከቤተሰብ	-17001
▁የሕወሓት	-17002
▁የመቁረጫ	-17003
▁የሚፈፀም	-17004
▁የሰጠውን	-17005
▁የሰጡትን	-17006
▁የቱሪስት	-17007
▁ያስታወቀ	-17008
▁MAXMAN	-17009
▁ለመወያየት	-17010
▁ለምትፈልጉ	-17011
▁መምህራንና	-17012
▁ምክንያትም	-17013
▁በሚቻልበት	-17014
▁በማስተማር	-17015
▁ተገልጧል።	-17016
▁ተገኝተዋል	-17017
▁አስፈፃሚው	-17018
▁አድርሷል።	-17019
▁እንሰጣለን	-17020
▁እንደሚርቅ	-17021
▁እንደሚሰጡ	-17022
▁እንዲወሰድ	-17023
▁እንዳልቻሉ	-17024
▁እየተፈፀመ	-17025
▁የተጠናቀቀ	-17026
▁ያደርገዋል	-17027
▁ደንበኞችን	-17028
▁ዶርትሙንድ	-17029
▁ፍሬህይወት	-17030
▁ORGINAL	-17031
▁መስፈርቶችን	-17032
▁ምዕራባውያን	-17033
▁በማስመዝገብ	-17034
▁በማስተባበር	-17035
▁እንደተወሰደ	-17036
▁የሶማሊላንድ	-17037
▁የተሰማቸውን	-17038
▁ተመልክተናል።	-17039
▁ትራንስክሪፕት	-17040
▁እንጠይቃለን።	-17041
▁እየተደረገባቸው	-17042
▁የሚያስፈልጋቸው	-17043
71	-17044
UE	-17045
aa	-17046
we	-17047
ys	-17048
ሃራ	-17049
ሄት	-17050
ማሙ	-17051
ሪቲ	-17052
ሬራ	-17053
ር፣	-17054
ሮቭ	-17055
ሳነ	-17056
ቃው	-17057
ቆን	-17058
በህ	-17059
ብላ	-17060
ብቆ	-17061
ቬር	-17062
ቷት	-17063
እሺ	-17064
ዋላ	-17065
ውቁ	-17066
ዓያ	-17067
ገኑ	-17068
ጣም	-17069
ፉር	-17070
ፕል	-17071
219	-17072
erv	-17073
iat	-17074
mer	-17075
way	-17076
ሌሎች	-17077
ልክት	-17078
ሸልም	-17079
ቲክስ	-17080
ታደሙ	-17081
ኃይል	-17082
ኒንግ	-17083
ናችሁ	-17084
አላዊ	-17085
ይነት	-17086
ደሰት	-17087
ዳዲስ	-17088
ዳግም	-17089
ገረው	-17090
ጸድቅ	-17091
ፈጽሙ	-17092
▁UN	-17093
▁br	-17094
▁gr	-17095
▁ሎሚ	-17096
▁መቋ	-17097
▁ስሎ	-17098
▁ቀም	-17099
▁ነቅ	-17100
▁አጓ	-17101
▁ኤሚ	-17102
▁እፎ	-17103
▁ከጭ	-17104
▁ካግ	-17105
▁ዌል	-17106
▁ዓሊ	-17107
▁ያሻ	-17108
▁ዱላ	-17109
▁ዳጋ	-17110
inho	-17111
ላችኋል	-17112
መሳሳይ	-17113
ምክንያ	-17114
ሳቸዉን	-17115
ስተዋለ	-17116
ስቶትል	-17117
በማለት	-17118
ብሳይት	-17119
ተጨማሪ	-17120
ዛቸውን	-17121
ይዟቸው	-17122
ዳንታዊ	-17123
ገናል።	-17124
ጠረጠሩ	-17125
ጠይቅም	-17126
▁090	-17127
▁128	-17128
▁ሁንግ	-17129
▁ለተሳ	-17130
▁ለወደ	-17131
▁ሊውል	-17132
▁ላይክ	-17133
▁ሒደት	-17134
▁መደም	-17135
▁ሚስቱ	-17136
▁ማደያ	-17137
▁ሜትሮ	-17138
▁ረብሻ	-17139
▁ረዥም	-17140
▁ሰመራ	-17141
▁በመለ	-17142
▁በማጥ	-17143
▁በአክ	-17144
▁በከፋ	-17145
▁በግድ	-17146
▁ቡናን	-17147
▁ባልቻ	-17148
▁ተቸግ	-17149
▁ታመው	-17150
▁አህያ	-17151
▁አላም	-17152
▁አልሚ	-17153
▁አሳክ	-17154
▁አድረ	-17155
▁ኤድስ	-17156
▁እዚሁ	-17157
▁ከመው	-17158
▁ከማል	-17159
▁ከረፋ	-17160
▁ከራስ	-17161
▁ከቦታ	-17162
▁ከአን	-17163
▁ከወር	-17164
▁ካንቴ	-17165
▁ኮልፌ	-17166
▁ኮስታ	-17167
▁ኹኔታ	-17168
▁ዕሮብ	-17169
▁ዘይቤ	-17170
▁የሚጨ	-17171
▁የሰበ	-17172
▁የተፋ	-17173
▁የእነ	-17174
▁የእድ	-17175
▁የኪነ	-17176
▁የጋና	-17177
▁የጎል	-17178
▁ያማል	-17179
▁ያስቀ	-17180
▁ይችል	-17181
▁ደጀን	-17182
▁ዳውድ	-17183
▁ጥቅማ	-17184
▁ፀጋይ	-17185
▁ፈታህ	-17186
▁ፓወር	-17187
thmag	-17188
ስተላልፉ	-17189
በረከተው	-17190
▁4:45	-17191
▁part	-17192
▁ህዝብና	-17193
▁ለህማም	-17194
▁ለሚኖሩ	-17195
▁ለማንም	-17196
▁ለቪኦኤ	-17197
▁ለችግሩ	-17198
▁ሕይወቱ	-17199
▁መመገብ	-17200
▁መስጊድ	-17201
▁መነሳት	-17202
▁መጥቷል	-17203
▁ማቋረጥ	-17204
▁ማዕበል	-17205
▁ሪዞርት	-17206
▁ስላልተ	-17207
▁በሃማስ	-17208
▁በሃገር	-17209
▁በአዋሽ	-17210
▁በአዋጁ	-17211
▁በአዋጅ	-17212
▁በክፍለ	-17213
▁ባለፈዉ	-17214
▁ተላላኪ	-17215
▁ተልእኮ	-17216
▁ተመለሰ	-17217
▁ታሊባን	-17218
▁አሳውቆ	-17219
▁አሳፋሪ	-17220
▁አሳፍሮ	-17221
▁አዟል።	-17222
▁አድማሱ	-17223
▁ኤምሪክ	-17224
▁ከሀዋሳ	-17225
▁ከመሆን	-17226
▁ከንግድ	-17227
▁ከእግር	-17228
▁ዉይይት	-17229
▁የሃማስ	-17230
▁የቀረው	-17231
▁የተደበ	-17232
▁የኦዲት	-17233
▁የከርሰ	-17234
▁የወንጀ	-17235
▁የወደሙ	-17236
▁የዋናው	-17237
▁የዐይን	-17238
▁የዓድዋ	-17239
▁የዘርፉ	-17240
▁የድርጅ	-17241
▁የጀመር	-17242
▁የጠየቀ	-17243
▁የጣለው	-17244
▁ያውቃል	-17245
▁ደራሲ፦	-17246
▁ፈልገው	-17247
851535	-17248
▁ለመቋቋም	-17249
▁ለፌደራል	-17250
▁መስራቱን	-17251
▁መጠናቀቁ	-17252
▁ሚሳኤሎች	-17253
▁ማመንጨት	-17254
▁ሲከታተል	-17255
▁በመግለጫ	-17256
▁በማድረጉ	-17257
▁በነፃነት	-17258
▁በናይሮቢ	-17259
▁ባለንብረ	-17260
▁ተቀምጠው	-17261
▁ተወስኗል	-17262
▁ተፈጽሟል	-17263
▁አብሮነት	-17264
▁አነጋጋሪ	-17265
▁አካባቢን	-17266
▁ኤሌክትሮ	-17267
▁እርሳቸው	-17268
▁እየተመሩ	-17269
▁እያቀረበ	-17270
▁እያቀረቡ	-17271
▁ኦሎምፒያ	-17272
▁ከሰዋል።	-17273
▁ከቤታቸው	-17274
▁ክትባቱን	-17275
▁ዓለማየሁ	-17276
▁ዘመናቸው	-17277
▁ዝግጁነት	-17278
▁የህወሃት	-17279
▁የሚመዝን	-17280
▁የሚከሰት	-17281
▁የሚገመቱ	-17282
▁የተጣለው	-17283
▁የወልድያ	-17284
▁የይቅርታ	-17285
▁የግድቡን	-17286
▁ያለፈውን	-17287
▁ያልታወቁ	-17288
▁ያደረገች	-17289
▁ይበልጣል	-17290
▁ጎብኚዎች	-17291
▁ፍላጎቶች	-17292
▁ለመንግሥት	-17293
▁መንግሥትን	-17294
▁መካከለኛው	-17295
▁ሠራተኞችን	-17296
▁ስምምነቶች	-17297
▁ስፔሻሊስት	-17298
▁ቀርቧል፡፡	-17299
▁በመቀጠልም	-17300
▁በመጠባበቅ	-17301
▁በባርሴሎና	-17302
▁ኢንደስትሪ	-17303
▁እንደሆነች	-17304
▁እንደሚውል	-17305
▁እንዳይኖር	-17306
▁እንድትሆን	-17307
▁ከመከላከያ	-17308
▁ከማንኛውም	-17309
▁የመድኃኒት	-17310
▁የሚከተሉት	-17311
▁የቤትኪንግ	-17312
▁የኤርትራው	-17313
▁channel	-17314
▁ልምምዳቸውን	-17315
▁መታሰራቸውን	-17316
▁በመካከለኛው	-17317
▁በአርባምንጭ	-17318
▁በእያንዳንዱ	-17319
▁በየአካባቢው	-17320
▁አስታውቀዋል	-17321
▁ኢትዮጵያዊት	-17322
▁እንዲረጋገጥ	-17323
▁የበኩላቸውን	-17324
▁የአትሌቲክስ	-17325
▁ያስመርቃል።	-17326
▁መተግበሪያውን	-17327
▁ትምህርታችሁን	-17328
▁እንደሚያመለክ	-17329
▁የእግዚአብሔር	-17330
▁ይገኙበታል፡፡	-17331
thmagazine	-17332
▁Engineering	-17333
%)	-17334
,8	-17335
ሊሽ	-17336
ሚዮ	-17337
ማቹ	-17338
[...]
