<pad>	0
<unk>	0
<s>	0
</s>	0
▁የ	-0
▁በ	-1
▁አ	-2
▁እ	-3
▁መ	-4
▁ተ	-5
▁ከ	-6
▁እን	-7
▁ለ	-8
ል።	-9
ቸው	-10
▁ወ	-11
▁ነ	-12
▁ይ	-13
ዎች	-14
▁ማ	-15
ላይ	-16
▁ስ	-17
▁ያ	-18
▁የሚ	-19
▁እና	-20
▁ሰ	-21
▁ም	-22
▁ብ	-23
▁የተ	-24
▁ሲ	-25
▁ላይ	-26
▁እንደ	-27
፡፡	-28
▁ባ	-29
▁ው	-30
▁ግ	-31
▁አስ	-32
▁ክ	-33
ነት	-34
▁ነው	-35
ደረ	-36
▁በመ	-37
ዋል።	-38
ስት	-39
▁ገ	-40
ውን	-41
ችን	-42
▁ት	-43
▁እንዲ	-44
▁1	-45
▁ቀ	-46
▁ጥ	-47
▁የአ	-48
ደር	-49
▁በተ	-50
ንግ	-51
▁በአ	-52
▁"	-53
▁ቤ	-54
▁ሚ	-55
ኢት	-56
▁2	-57
▁ድ	-58
ኢትዮ	-59
ል፡፡	-60
ንድ	-61
▁የመ	-62
▁ጋ	-63
▁ዓ	-64
ሪያ	-65
ሆን	-66
ሆኑ	-67
ጵያ	-68
▁ህ	-69
ኢትዮጵያ	-70
በት	-71
..	-72
▁ደ	-73
ቸውን	-74
▁ወደ	-75
ለው	-76
▁ከተ	-77
ርት	-78
▁ሊ	-79
ራት	-80
ተኛ	-81
ቶች	-82
▁ሀ	-83
▁ሁ	-84
▁ለመ	-85
በር	-86
▁ጉ	-87
▁ል	-88
ሆነ	-89
▁እየ	-90
ለት	-91
▁ጋር	-92
ማሪ	-93
▁-	-94
ንት	-95
ገር	-96
ስጥ	-97
▁ታ	-98
▁ሳ	-99
▁በማ	-100
▁ለማ	-101
▁እንደሚ	-102
ስተ	-103
▁ኮ	-104
ዚህ	-105
00	-106
▁ዘ	-107
▁ካ	-108
ለም	-109
▁ውስጥ	-110
ድር	-111
ገል	-112
ጨዋ	-113
▁ቢ	-114
▁ጠ	-115
▁ባለ	-116
▁ፍ	-117
▁ዋ	-118
▁ዩ	-119
ቨር	-120
ራዊ	-121
ረት	-122
ምህ	-123
በረ	-124
ዲስ	-125
▁(	-126
▁እስ	-127
▁ፈ	-128
ድረ	-129
01	-130
▁የማ	-131
▁ጉዳ	-132
▁በሚ	-133
▁አካ	-134
▁ፕ	-135
▁ከተማ	-136
ቱን	-137
▁እንዳ	-138
ጊዜ	-139
▁አን	-140
መት	-141
▁ሰዎች	-142
▁ግን	-143
▁የም	-144
▁አይ	-145
ሁን	-146
▁ምክ	-147
▁የሚያ	-148
▁።	-149
ገባ	-150
▁ኢ	-151
ንስ	-152
▁መስ	-153
ሎች	-154
ትን	-155
ሪካ	-156
▁መሆኑ	-157
▁አል	-158
ታወ	-159
▁፣	-160
▁ገል	-161
ዛሬ	-162
▁3	-163
▁ሲሆን	-164
ሰብ	-165
ምህርት	-166
▁ቤት	-167
▁ክል	-168
ዋል	-169
▁ች	-170
▁አስተ	-171
ጀመ	-172
ጨዋታ	-173
ረጃ	-174
▁ሚኒ	-175
▁ጊዜ	-176
ኒቨር	-177
ጥር	-178
▁ምን	-179
▁ተከ	-180
መራ	-181
መለ	-182
▁አለ	-183
▁ነው።	-184
▁ይህ	-185
▁እየተ	-186
ቅር	-187
ናል	-188
ንያ	-189
▁ተና	-190
▁የነ	-191
▁ቡ	-192
--	-193
ልጣ	-194
ያን	-195
ላት	-196
ጠና	-197
▁ኤ	-198
▁ሆ	-199
ባቢ	-200
ታው	-201
ናት	-202
▁መንግ	-203
▁አበ	-204
▁ፖ	-205
▁ኢትዮጵያ	-206
ሲቲ	-207
ደረገ	-208
▁ተማሪ	-209
▁ብር	-210
▁መን	-211
▁ያለ	-212
ተር	-213
▁ጨዋታ	-214
▁ቁ	-215
ብር	-216
ከል	-217
ዋል፡፡	-218
▁ተናግ	-219
ገኙ	-220
▁ከፍ	-221
ኒቨርሲቲ	-222
▁ክፍ	-223
ገኘ	-224
ዎችን	-225
ግራ	-226
▁ምር	-227
ምሮ	-228
▁ክልል	-229
▁ሙ	-230
ለያ	-231
▁መረጃ	-232
▁መሆኑን	-233
ሽን	-234
▁ዳ	-235
ይት	-236
▁የት	-237
▁ዶ	-238
ርድ	-239
ታት	-240
ከተ	-241
▁በላይ	-242
▁ቅ	-243
ታቸው	-244
ላቸው	-245
▁አባ	-246
ረዳ	-247
▁መል	-248
ሮች	-249
▁ኃ	-250
▁አበባ	-251
ፊት	-252
▁ቦ	-253
ግባ	-254
ግር	-255
ድን	-256
▁አቶ	-257
▁ስለ	-258
▁ጀ	-259
▁ዝ	-260
ይወ	-261
▁የእ	-262
▁ስራ	-263
ሊስ	-264
▁እያ	-265
▁ቀን	-266
የር	-267
▁የሰ	-268
▁ሌ	-269
▁የኢትዮጵያ	-270
ሎት	-271
▁ድር	-272
▁ና	-273
▁አንድ	-274
ብረ	-275
ማት	-276
▁4	-277
ገለ	-278
ገድ	-279
▁ተናግረ	-280
▁5	-281
ለን	-282
▁ነበር	-283
▁ዕ	-284
ረስ	-285
▁የወ	-286
▁ደረ	-287
▁ከአ	-288
ባቸው	-289
ዓት	-290
▁0	-291
ደጋ	-292
▁ዩኒቨርሲቲ	-293
ረጋ	-294
ችሁ	-295
ዮን	-296
ገልግ	-297
ሰራ	-298
ቢያ	-299
▁ተጠ	-300
▁“	-301
▁ማን	-302
ኞች	-303
ድረግ	-304
ፈል	-305
▁አሳ	-306
ላፊ	-307
ርካ	-308
ላል	-309
መል	-310
ሁም	-311
201	-312
▁ከፍተኛ	-313
ተና	-314
በሩ	-315
ሚያ	-316
ለች	-317
ሏል።	-318
ግለ	-319
▁ዛሬ	-320
▁ሃ	-321
▁ፓ	-322
▁ሥ	-323
▁እስከ	-324
ላም	-325
ስራ	-326
ቦች	-327
▁ማስ	-328
▁!	-329
▁በቀ	-330
ዎቹ	-331
▁ስር	-332
▁አገልግ	-333
ረው	-334
ሉት	-335
▁አር	-336
ክል	-337
▁እንዲሁም	-338
ገኛ	-339
▁ነገር	-340
▁ብለ	-341
▁ከመ	-342
▁አሰ	-343
▁መሰ	-344
▁በዚህ	-345
▁ዓመት	-346
▁ተማሪዎች	-347
▁ምክንያ	-348
ተው	-349
▁አድር	-350
▁የው	-351
▁ተብ	-352
ጨማሪ	-353
▁ትምህርት	-354
ዳን	-355
▁በእ	-356
ዝብ	-357
▁ሺ	-358
ቋል።	-359
▁ላ	-360
ኋላ	-361
▁ሲሉ	-362
ታል	-363
▁ሕ	-364
ለያዩ	-365
መር	-366
ካሄ	-367
ጿል።	-368
▁በሰ	-369
ስቲ	-370
ኛው	-371
▁፤	-372
▁ተቋ	-373
▁አም	-374
▁ጎ	-375
መን	-376
▁.	-377
▁ሳይ	-378
ሪዎች	-379
▁ኦ	-380
ከላ	-381
▁አካባቢ	-382
▁የህ	-383
▁ብቻ	-384
▁ፕሬ	-385
▁ኮሚ	-386
▁ተገል	-387
ክት	-388
ጦር	-389
ይል	-390
▁ፖሊስ	-391
▁ዋና	-392
ራል	-393
ኔታ	-394
▁ሞ	-395
ምና	-396
ስቴ	-397
ስተር	-398
▁ሴ	-399
▁የቀ	-400
ገኝ	-401
▁ሜ	-402
in	-403
▁አዲስ	-404
▁በኋላ	-405
▁አስተዳ	-406
ቤት	-407
▁ሰው	-408
▁አሁን	-409
▁ቴ	-410
ምን	-411
ታቸውን	-412
▁ደግ	-413
▁አስታው	-414
▁ዜ	-415
ጣት	-416
▁ደረጃ	-417
▁ሚኒስት	-418
▁ሁኔታ	-419
ይም	-420
▁ን	-421
▁በት	-422
...	-423
ንን	-424
ሆና	-425
ጀመሪያ	-426
▁አቀ	-427
▁ጨ	-428
ሳይ	-429
ማራ	-430
▁ሚሊ	-431
ጥታ	-432
▁ቤተ	-433
▁ሁሉ	-434
▁ደግሞ	-435
▁ራ	-436
▁እር	-437
መድ	-438
ቷል።	-439
▁መካ	-440
ሳት	-441
▁ክለ	-442
▁መንግስት	-443
▁ሶ	-444
▁ዞ	-445
ደረጉ	-446
ሜሪካ	-447
▁6	-448
▁ምክንያት	-449
▁•	-450
ጠቀ	-451
ቫይ	-452
▁አገልግሎት	-453
ፍሪካ	-454
▁በስ	-455
▁ሚኒስቴ	-456
▁ሀገ	-457
ገን	-458
▁ህይወ	-459
▁ያለው	-460
ወሰ	-461
▁መር	-462
▁ተናግረዋል።	-463
er	-464
ዮች	-465
▁201	-466
ጠበ	-467
ዘጋ	-468
ኤል	-469
▁ዲ	-470
▁የነበረ	-471
ደው	-472
▁አብ	-473
ችል	-474
▁ሲል	-475
ባት	-476
ቅም	-477
ደረሰ	-478
ጤና	-479
▁:	-480
▁ሽ	-481
▁ውጤ	-482
▁ናቸው	-483
ሪክ	-484
ታዊ	-485
▁ቆ	-486
▁ለአ	-487
an	-488
▁መንገድ	-489
ፖርት	-490
ቸዉ	-491
የት	-492
ቃት	-493
ጠር	-494
▁ወቅ	-495
▁ስም	-496
▁ሰዓት	-497
ዳንት	-498
ነው	-499
▁መግለ	-500
▁7	-501
▁ጠቅ	-502
▁ወረዳ	-503
▁ይገኛ	-504
▁ወር	-505
ደም	-506
▁አደጋ	-507
ግብ	-508
▁መካከል	-509
ንጀ	-510
ተን	-511
ሩን	-512
▁ሆነ	-513
ባለ	-514
▁ያስ	-515
▁ሚኒስቴር	-516
ምር	-517
ያስ	-518
ቀው	-519
ችስተር	-520
ቶችን	-521
ጅት	-522
ትል	-523
▁ጀምሮ	-524
----	-525
▁በፊት	-526
on	-527
▁ጉዳይ	-528
▁ዞን	-529
ላለ	-530
▁ቡድን	-531
▁አው	-532
▁የስ	-533
▁ግብ	-534
ንክ	-535
ናይት	-536
ርቲ	-537
▁8	-538
ወጣ	-539
▁ብለዋል።	-540
መው	-541
ጥጥር	-542
▁ውድ	-543
ያቄ	-544
ሉ።	-545
ገና	-546
▁የሆነ	-547
▁ሺህ	-548
▁ተከት	-549
▁ቁጥር	-550
ዘብ	-551
ክር	-552
ሩት	-553
▁ግለ	-554
ጫዋ	-555
ክተር	-556
ፍት	-557
ተዋል።	-558
▁ፈተና	-559
▁ተፈ	-560
▁ፕሮ	-561
ንም	-562
ግራይ	-563
....	-564
▁ተከትሎ	-565
▁ከዚህ	-566
▁ሊግ	-567
▁ዙ	-568
▁ጉዳት	-569
▁ተወ	-570
ዲያ	-571
ለሁ	-572
▁ተቀ	-573
▁ይፋ	-574
▁ጥያቄ	-575
ብስ	-576
▁መግለጫ	-577
▁ገልጸ	-578
ፈው	-579
▁አሰልጣ	-580
▁አመ	-581
▁የኮ	-582
ክምና	-583
▁ቃ	-584
ቀር	-585
ገቡ	-586
▁የሀ	-587
▁ያል	-588
ማር	-589
▁ቦታ	-590
▁t	-591
▁ድጋ	-592
ጠናቀ	-593
ገኘው	-594
ሉን	-595
▁ኢን	-596
▁ለተ	-597
ሥት	-598
ም።	-599
ስር	-600
ክስ	-601
▁ሁለት	-602
ጠው	-603
▁ተጨዋ	-604
▁ፕሬዝ	-605
▁እንዲያ	-606
ንጫ	-607
ላን	-608
▁በነ	-609
▁ብዙ	-610
ረም	-611
▁በኢትዮጵያ	-612
▁የግ	-613
▁ሪ	-614
▁ሲያ	-615
▁ሚኒስትር	-616
▁ማህ	-617
▁ጣ	-618
ከተማ	-619
ኖች	-620
re	-621
▁'	-622
ናይትድ	-623
▁አስተዳደር	-624
▁መጠ	-625
▁ተሰ	-626
ኖር	-627
ሰቡ	-628
▁ዓመ	-629
ሸነ	-630
▁ክፍል	-631
ሔራዊ	-632
▁ችግር	-633
▁ወቅት	-634
▁ተጫዋ	-635
/201	-636
▁?	-637
▁በወ	-638
▁ልዩ	-639
▁ሥራ	-640
ከት	-641
ቧል።	-642
19	-643
▁ኪ	-644
▁ወይም	-645
▁አመት	-646
ፉት	-647
ላማ	-648
▁9	-649
▁በህ	-650
▁ኃላፊ	-651
▁በዓ	-652
ገደ	-653
ምነት	-654
ገራ	-655
ኩል	-656
▁ውጤት	-657
▁መሰረት	-658
በል	-659
▁በም	-660
▁አት	-661
▁ጦር	-662
ገው	-663
▁የኢ	-664
▁እንደሆነ	-665
▁የትምህርት	-666
ቡብ	-667
ረብ	-668
▁ያሉ	-669
ሯል።	-670
ህን	-671
▁ተነ	-672
ቀጥ	-673
▁ድረስ	-674
▁ሚሊዮን	-675
ia	-676
▁ተመ	-677
ጠቃ	-678
▁ቢሮ	-679
ምንት	-680
▁ይታወ	-681
ንዳ	-682
ጥብ	-683
ክልሉ	-684
▁10	-685
▁ከሚ	-686
ሱን	-687
ዲዮ	-688
▁ስል	-689
▁የተሰ	-690
000	-691
ድሞ	-692
ብረት	-693
በው	-694
ረን	-695
▁ር	-696
▁ነበር።	-697
ናው	-698
▁ለሚ	-699
▁ተገልጿል።	-700
ያዘ	-701
ሪቱ	-702
▁በቁ	-703
ሳኔ	-704
▁ሌሎች	-705
ከርካ	-706
ማን	-707
▁ፋ	-708
▁ድጋፍ	-709
▁በተጨማሪ	-710
▁ሂ	-711
ሰው	-712
ነሳ	-713
ክለ	-714
ደን	-715
▁የታ	-716
▁ነዋ	-717
ባይ	-718
▁አሰልጣኝ	-719
▁በሀ	-720
ሮና	-721
ጠት	-722
▁የሚያስ	-723
ንግስት	-724
▁20	-725
▁ጭ	-726
▁ጥቃት	-727
▁አስፈ	-728
▁ቫይ	-729
▁ሮ	-730
ዶች	-731
▁ዝግ	-732
▁ሙሉ	-733
▁በርካ	-734
▁የፈ	-735
▁ዩናይትድ	-736
▁ክለብ	-737
▁ማዕ	-738
ደረግ	-739
ባል	-740
ጋት	-741
▁ማንችስተር	-742
ራን	-743
en	-744
▁በአዲስ	-745
ለቱ	-746
ብት	-747
▁በው	-748
▁ጠቅላይ	-749
ከሰ	-750
▁ሬ	-751
▁ሀገር	-752
ጣይ	-753
▁መቀ	-754
ደረገው	-755
▁A	-756
ጡት	-757
መረ	-758
ጨረ	-759
ንጀል	-760
▁ለማስ	-761
ቀት	-762
መስ	-763
▁አይደ	-764
▁አባላት	-765
▁ምክር	-766
ተኞች	-767
▁አካላት	-768
▁የአዲስ	-769
▁ጨምሮ	-770
▁ተቋማት	-771
ቂያ	-772
▁ሲቲ	-773
ረጋገ	-774
ንግድ	-775
በራዊ	-776
▁የመጀመሪያ	-777
▁ነው፡፡	-778
▁ሆኖ	-779
at	-780
▁ምርመራ	-781
▁የባ	-782
▁የተፈ	-783
▁ተግባ	-784
▁አቀፍ	-785
al	-786
▁ቡድ	-787
ሰባ	-788
ግኘ	-789
▁ሱ	-790
▁ዜጎ	-791
▁ምንም	-792
ኦሮ	-793
ታደ	-794
▁ነገ	-795
ምፒ	-796
ድሪ	-797
▁በቁጥጥር	-798
ዊው	-799
ሉም	-800
▁ገን	-801
▁S	-802
▁ቀናት	-803
ለች።	-804
ብራ	-805
▁ፕሬዝዳንት	-806
▁ከእ	-807
ሽከርካ	-808
ታል።	-809
▁በየ	-810
ጠረ	-811
ጭት	-812
▁እድ	-813
▁የሚገኙ	-814
▁ቶ	-815
▁12	-816
ሬት	-817
ሰቦች	-818
ቲክ	-819
▁የነበሩ	-820
▁ብሔራዊ	-821
▁በደ	-822
▁ደር	-823
ጀት	-824
ስተኛ	-825
▁አመራ	-826
▁ሐ	-827
▁እንደተ	-828
ልቅ	-829
▁ገልጿል።	-830
it	-831
▁በኩል	-832
▁ሳምንት	-833
or	-834
ከፍ	-835
መጣ	-836
▁ቤቱ	-837
▁ቤቶች	-838
▁ገልፀ	-839
▁ተደር	-840
ከያ	-841
ፋት	-842
ፌዴ	-843
ታወቀ	-844
▁እንዳይ	-845
ህል	-846
▁በበ	-847
ገሪቱ	-848
▁ጽ	-849
ጠራ	-850
▁ማለ	-851
ይና	-852
▁ብሎ	-853
▁የተለያዩ	-854
ሙሉ	-855
ዳር	-856
ሰን	-857
▁በሁ	-858
ግራም	-859
▁የደ	-860
▁የሆኑ	-861
▁በርካታ	-862
▁በኮ	-863
▁ከነ	-864
ርያ	-865
ስፒ	-866
▁ዋንጫ	-867
▁ውሳኔ	-868
ሳተ	-869
ችንን	-870
▁ፓርቲ	-871
▁የበ	-872
▁ቻ	-873
ሊያ	-874
ኝነት	-875
ነቱ	-876
▁በግ	-877
ኑን	-878
ላው	-879
▁ነጥብ	-880
▁T	-881
ላንት	-882
▁አቅር	-883
ሞች	-884
▁ኩ	-885
▁በሚል	-886
ሜን	-887
ደራ	-888
▁እንደነ	-889
ደርጉ	-890
ልጣን	-891
ሰጥ	-892
ስታ	-893
ዳጅ	-894
▁አለመ	-895
▁ቫይረስ	-896
ቀረ	-897
▁ፍርድ	-898
▁እንደሚያ	-899
▁፦	-900
ለተኛ	-901
▁በመሆኑ	-902
▁ሸ	-903
▁ዕለት	-904
▁ጥሪ	-905
▁እነ	-906
መለከተ	-907
ንቲ	-908
▁ማሳ	-909
ከና	-910
▁ተጨዋች	-911
ጨረሻ	-912
▁አጋ	-913
he	-914
ቲካ	-915
ደት	-916
ደርግ	-917
▁በመቶ	-918
▁በታ	-919
▁ረ	-920
የን	-921
▁ሰላም	-922
ሳብ	-923
st	-924
ችው	-925
ዛት	-926
▁ፎ	-927
ጠቃላይ	-928
ሙያ	-929
▁አስታውቋል።	-930
▁አድ	-931
▁ህይወት	-932
ጋራ	-933
ፈት	-934
▁አሸ	-935
▁ባንክ	-936
▁ዴ	-937
▁አሳው	-938
ምጃ	-939
▁ፀ	-940
▁ምርጫ	-941
▁አዳ	-942
▁ምንጭ	-943
▁በጣ	-944
▁ዳይ	-945
▁C	-946
ላቀ	-947
ጣሪ	-948
▁በሌ	-949
▁ተብሎ	-950
ራቸው	-951
▁በተለ	-952
▁ገልጸዋል።	-953
▁ሠ	-954
▁መሆና	-955
ላክ	-956
ርክ	-957
ርፍ	-958
ከታ	-959
▁ድርጅት	-960
▁ይች	-961
▁መድረ	-962
▁ሻ	-963
ሮፓ	-964
ያዊ	-965
20	-966
▁ዉ	-967
መልክ	-968
▁የተባ	-969
▁በዛሬ	-970
ላቸውን	-971
ከላከያ	-972
ከር	-973
▁አቅ	-974
▁ያሉት	-975
▁ከባ	-976
ሀም	-977
,000	-978
ንቀ	-979
▁ሀገራት	-980
ላሽ	-981
▁በተለያዩ	-982
ሊዝ	-983
▁እንቅ	-984
▁ቆይ	-985
ውያን	-986
▁ሰራ	-987
▁ተጨማሪ	-988
ልም	-989
ልፍ	-990
▁ችግ	-991
▁በማድረግ	-992
!!	-993
▁ቴሌ	-994
▁ይህን	-995
▁በጥ	-996
▁ድም	-997
ካባቢ	-998
ደበ	-999
ያዙ	-1000
▁ቪ	-1001
▁09	-1002
▁አማ	-1003
ከናወ	-1004
▁ዋጋ	-1005
ጆች	-1006
▁11	-1007
▁አይደለም	-1008
ፈጸ	-1009
▁ከሰ	-1010
el	-1011
ትር	-1012
ረጋግ	-1013
▁ያሳ	-1014
▁ኃይ	-1015
ገብ	-1016
▁በዚህም	-1017
ar	-1018
▁ኬ	-1019
▁የዩ	-1020
▁ልጅ	-1021
ላር	-1022
ou	-1023
ስፋ	-1024
▁ዳይሬ	-1025
ላችሁ	-1026
▁ጉዳዮች	-1027
ብረተ	-1028
▁ቢሆን	-1029
▁የካ	-1030
▁ዓለም	-1031
▁ዘግ	-1032
ደባ	-1033
ግኘት	-1034
▁መንግሥት	-1035
ልድ	-1036
▁ጨዋታዎች	-1037
ስቃ	-1038
▁በድ	-1039
12	-1040
▁ድን	-1041
ያዝ	-1042
ቅድ	-1043
ረሱ	-1044
▁ቃል	-1045
▁የኤ	-1046
▁ፊ	-1047
▁ግንኙ	-1048
▁እርምጃ	-1049
ቆጣ	-1050
▁ሩ	-1051
▁የውጭ	-1052
ፊያ	-1053
▁ጋዜ	-1054
ማይ	-1055
▁ይታወሳ	-1056
ያይ	-1057
▁እጅ	-1058
▁ገንዘብ	-1059
ፍራ	-1060
ልን	-1061
ዕራ	-1062
▁ይህንን	-1063
ቻቸው	-1064
▁ጆ	-1065
▁ተብሏል።	-1066
ፈር	-1067
▁ሰጥ	-1068
▁ኮሚሽን	-1069
▁ግድ	-1070
▁በማለት	-1071
▁ኃይል	-1072
▁የምት	-1073
ልሲ	-1074
▁ሊያ	-1075
ለቲካ	-1076
▁መስመር	-1077
ይይት	-1078
▁በር	-1079
▁የስራ	-1080
▁ማድረግ	-1081
▁ምክትል	-1082
ቷል	-1083
▁እስካ	-1084
▁ሆስፒ	-1085
▁እው	-1086
50	-1087
▁ዘመ	-1088
▁የብ	-1089
ችሉ	-1090
▁ወረ	-1091
▁የጥ	-1092
▁ስታ	-1093
ሬን	-1094
ፈፀ	-1095
ዚያ	-1096
ሪያል	-1097
ስቃሴ	-1098
▁መም	-1099
▁ማድሪ	-1100
▁E	-1101
ላጊ	-1102
ቡን	-1103
▁ያለውን	-1104
▁ናቸው።	-1105
▁ጤና	-1106
▁መልዕ	-1107
▁ዜጎች	-1108
ኪና	-1109
▁ህዝብ	-1110
▁ክር	-1111
ሸነፍ	-1112
▁ግንባ	-1113
▁በሆነ	-1114
::	-1115
am	-1116
ቹን	-1117
▁አይነት	-1118
30	-1119
ነጋ	-1120
ታይ	-1121
ቼልሲ	-1122
▁አዋ	-1123
:00	-1124
▁በዛሬው	-1125
መለስ	-1126
ጠቀም	-1127
ፈልጋ	-1128
▁ለማድረግ	-1129
▁አክ	-1130
ወስ	-1131
▁የማይ	-1132
ኳስ	-1133
ዘር	-1134
▁እንግ	-1135
▁አፍሪካ	-1136
▁የፀ	-1137
ጠሩ	-1138
ቻችን	-1139
ውው	-1140
ሁኑ	-1141
▁የሚል	-1142
ርሴ	-1143
በትን	-1144
▁አትሌ	-1145
በያ	-1146
ic	-1147
▁የነበረው	-1148
ጠበቅ	-1149
▁ዶላር	-1150
ቀዋል።	-1151
ካም	-1152
▁ብሏል።	-1153
▁ባለሙያ	-1154
▁ምስ	-1155
ላንድ	-1156
▁ባለስ	-1157
▁ሶስት	-1158
▁ተገልጿ	-1159
ሚየር	-1160
ድድር	-1161
▁ወጣ	-1162
▁እንዳለ	-1163
▁የአሜሪካ	-1164
ነር	-1165
ይወት	-1166
▁የፖ	-1167
▁ግንኙነት	-1168
ምት	-1169
▁በጣም	-1170
▁ግብር	-1171
▁እንድ	-1172
is	-1173
▁የዓ	-1174
▁በአንድ	-1175
▁ዓመታት	-1176
▁መድ	-1177
ይን	-1178
▁እንጂ	-1179
ፈለ	-1180
ሥራ	-1181
▁በቅር	-1182
▁ህግ	-1183
▁በሙሉ	-1184
▁ሁሉም	-1185
ኳን	-1186
ኦሮሚያ	-1187
▁ወንጀል	-1188
▁ማለት	-1189
ናን	-1190
▁የለም	-1191
▁እንቅስቃሴ	-1192
▁ይገባ	-1193
▁ወራት	-1194
▁የጤና	-1195
ሎጂ	-1196
▁ጣቢያ	-1197
▁19	-1198
▁ዙሪያ	-1199
▁በፍ	-1200
▁እኔ	-1201
ቪድ	-1202
▁የቀድሞ	-1203
25	-1204
▁ይሆና	-1205
ናገ	-1206
▁መሳ	-1207
ካል	-1208
▁ወታደ	-1209
▁እለት	-1210
10	-1211
ሰሩ	-1212
ላዊ	-1213
▁ስብ	-1214
ፌደ	-1215
ቦት	-1216
▁የሕ	-1217
▁አህ	-1218
▁ባለፉት	-1219
ሻሻ	-1220
ኛውም	-1221
ሰናል	-1222
በቃ	-1223
▁አስታወቀ	-1224
▁አንዱ	-1225
ሏል	-1226
▁ትራ	-1227
ሌክት	-1228
ከለ	-1229
▁ምሽ	-1230
▁ጉባ	-1231
▁ገብ	-1232
▁24	-1233
▁ሊቨር	-1234
የም	-1235
▁ቀር	-1236
ቋል፡፡	-1237
▁ጫ	-1238
▁ምላሽ	-1239
ከራ	-1240
▁እስካሁን	-1241
▁ውጪ	-1242
▁ተጫዋች	-1243
ቅና	-1244
ንደ	-1245
ዝገባ	-1246
▁ከሆነ	-1247
▁በማስ	-1248
ሃን	-1249
▁ስት	-1250
▁ጌ	-1251
▁መው	-1252
▁ቀደም	-1253
በሌ	-1254
▁ስምምነት	-1255
ረድ	-1256
ቤተ	-1257
▁ማስተ	-1258
▁በቀጣይ	-1259
▁ተናግረዋል፡፡	-1260
ኖሩ	-1261
▁ለእ	-1262
▁ፅ	-1263
ስራት	-1264
▁ድርጅ	-1265
ቀመ	-1266
▁ሰር	-1267
ለጠ	-1268
ገንዘብ	-1269
▁ከወ	-1270
ካይ	-1271
▁አካባቢዎች	-1272
ሰቦ	-1273
▁የገ	-1274
መዘ	-1275
ስቶ	-1276
▁ከማ	-1277
ታችን	-1278
▁አካል	-1279
▁የሞ	-1280
▁አየር	-1281
▁ሄ	-1282
ካሄድ	-1283
ቫህ	-1284
et	-1285
▁ከባድ	-1286
▁መሪ	-1287
ቱም	-1288
ደርስ	-1289
▁አሜሪካ	-1290
▁ድርጊ	-1291
ዱስ	-1292
▁አራት	-1293
▁ቢሊ	-1294
▁ማድረ	-1295
ብስራት	-1296
የው	-1297
ላጎ	-1298
▁ውድድር	-1299
▁ማድሪድ	-1300
ባሳ	-1301
ስጠት	-1302
ድስት	-1303
▁ዘመን	-1304
▁15	-1305
ሰጣ	-1306
ጫወ	-1307
▁ነዋሪዎች	-1308
ከላከል	-1309
▁ተጠር	-1310
▁ጠይ	-1311
es	-1312
ቆም	-1313
ሰር	-1314
▁የል	-1315
ቲት	-1316
ከፍተኛ	-1317
▁አገ	-1318
--------	-1319
▁ሌላ	-1320
▁የመንግስት	-1321
om	-1322
▁እንደነበር	-1323
ፌደራል	-1324
▁በዘ	-1325
▁ዜና	-1326
▁ልማት	-1327
▁ጦርነት	-1328
ion	-1329
ጸጥታ	-1330
▁ምርጥ	-1331
▁አጥ	-1332
▁የደረሰ	-1333
▁አያ	-1334
ጣቂ	-1335
ልስ	-1336
ሳሳይ	-1337
▁ይሄ	-1338
▁የገለ	-1339
ደሩ	-1340
▁የፍ	-1341
ርሴሎ	-1342
ራዊት	-1343
▁ተነግ	-1344
▁ገለ	-1345
ዋን	-1346
▁መንገ	-1347
▁፡	-1348
▁ሆስፒታል	-1349
ጠየ	-1350
ካባቢው	-1351
▁በተጨማሪም	-1352
▁የምር	-1353
▁30	-1354
ወቅ	-1355
ሮችን	-1356
ዘው	-1357
ሞክ	-1358
▁:-	-1359
ቅረ	-1360
▁በሽ	-1361
ኞቹ	-1362
ህር	-1363
▁መብ	-1364
ሲያ	-1365
ወጥ	-1366
▁መኖ	-1367
▁ሜዳ	-1368
▁መመ	-1369
ማኖ	-1370
ሰማ	-1371
▁ግጭት	-1372
ላሉ	-1373
ውሮፓ	-1374
ንደር	-1375
▁የዋ	-1376
▁ባል	-1377
ቲክቫህ	-1378
ልክ	-1379
▁ቱ	-1380
▁ገልፀዋል።	-1381
▁ሚዲያ	-1382
ሄራዊ	-1383
▁ከቀ	-1384
▁የሁ	-1385
ህንነት	-1386
▁በጉ	-1387
▁የክልሉ	-1388
ዳማ	-1389
▁ሰብ	-1390
ሳቀ	-1391
ንግሊዝ	-1392
ጠብ	-1393
ክኖ	-1394
▁ተከሳ	-1395
ደበኛ	-1396
ቀላቀ	-1397
ናዊ	-1398
▁ፍላጎ	-1399
▁ውይይት	-1400
▁ዙር	-1401
ትና	-1402
ኬሽን	-1403
▁ኮሚቴ	-1404
ሙን	-1405
ሽከርካሪ	-1406
ጋሚ	-1407
▁አድርጓ	-1408
▁የከተማ	-1409
ቃል።	-1410
ዳታ	-1411
▁የቆ	-1412
ዘጋጀ	-1413
ዉን	-1414
ለዋል።	-1415
ስቲያን	-1416
▁ሆነው	-1417
ቴሌ	-1418
▁ወጥ	-1419
▁እንኳን	-1420
▁የሊ	-1421
ናፊ	-1422
ሌክትሪክ	-1423
▁ዶክተር	-1424
ይማኖ	-1425
▁ቼልሲ	-1426
▁ክት	-1427
▁የአፍሪካ	-1428
▁መሳሪያ	-1429
▁ግለሰቦች	-1430
ወር	-1431
ሮፕ	-1432
መቱ	-1433
ካሄደ	-1434
▁ህዝ	-1435
ባሪ	-1436
ጥሮ	-1437
ተዋል	-1438
ኦን	-1439
▁/	-1440
▁ጥቅም	-1441
▁እንዴ	-1442
▁ግለሰብ	-1443
▁14	-1444
-0	-1445
▁እኛ	-1446
ድዮ	-1447
ቃድ	-1448
▁እንዳል	-1449
ሶማ	-1450
ቻል	-1451
ስተዳ	-1452
▁አሁንም	-1453
▁ቢሆንም	-1454
▁ለው	-1455
ዝር	-1456
ሬሽን	-1457
▁ለብስራት	-1458
ጠቅ	-1459
▁አላ	-1460
ባቂ	-1461
ጠኛ	-1462
ኒክ	-1463
▁መሆን	-1464
ብኝ	-1465
ሏል፡፡	-1466
ከታተ	-1467
▁ተስፋ	-1468
▁ምሽት	-1469
ዱን	-1470
በዋል።	-1471
▁ዳይሬክተር	-1472
▁መተ	-1473
▁ወንድ	-1474
ንድሮ	-1475
ሰት	-1476
▁ዕድ	-1477
▁ጥሩ	-1478
▁የሌ	-1479
▁የዘ	-1480
▁ያልተ	-1481
ሚዎች	-1482
ሄድ	-1483
ሳቸው	-1484
ቷል፡፡	-1485
▁አስተያ	-1486
ጠይ	-1487
ክኖሎጂ	-1488
ዕራብ	-1489
▁ወይ	-1490
ing	-1491
▁አማራ	-1492
ኳይ	-1493
▁በኃ	-1494
ማቸው	-1495
▁አባል	-1496
ኒኬሽን	-1497
▁ገቢ	-1498
▁ጥረት	-1499
ለቀ	-1500
▁የሚሆኑ	-1501
ቸኳይ	-1502
መሰ	-1503
ጀር	-1504
▁ይገኛል።	-1505
በረሰብ	-1506
▁ሁለተኛ	-1507
▁ክፍለ	-1508
ed	-1509
▁አስፈላጊ	-1510
▁ጉባኤ	-1511
▁13	-1512
▁ንግ	-1513
▁የድ	-1514
▁ህክምና	-1515
▁ሴት	-1516
ቫይረሱ	-1517
▁መሠ	-1518
▁ክፍያ	-1519
▁ከስ	-1520
ብረተሰቡ	-1521
▁ጠቁ	-1522
ሰጡ	-1523
ሶች	-1524
ጀመረ	-1525
ገረ	-1526
▁አምስት	-1527
ርሴሎና	-1528
ሆናል	-1529
▁ትላንት	-1530
ደብ	-1531
ቋረ	-1532
▁c	-1533
▁መልኩ	-1534
ኒቨርስቲ	-1535
▁ይሆናል	-1536
▁የውድድር	-1537
ምህር	-1538
▁የቀረ	-1539
ህበራዊ	-1540
▁በጎ	-1541
ዋሳ	-1542
ናቸው	-1543
▁የፀጥታ	-1544
ac	-1545
▁አገልግሎ	-1546
▁የሰላም	-1547
ቋቋ	-1548
ዓዊ	-1549
ቀል	-1550
▁የቻ	-1551
▁ቋ	-1552
▁ቅር	-1553
ነሱ	-1554
ቂቃ	-1555
ስን	-1556
▁ባለው	-1557
▁የአማራ	-1558
▁መርሐ	-1559
▁የምን	-1560
▁የትራ	-1561
▁ሥር	-1562
ብን	-1563
ኮች	-1564
▁እንደማይ	-1565
ፉን	-1566
▁ወን	-1567
▁ኳስ	-1568
▁አህመድ	-1569
ፖር	-1570
▁ዳር	-1571
▁ደን	-1572
ምባ	-1573
▁በተመለከተ	-1574
ፈልግ	-1575
▁ተቃ	-1576
▁አመራሮች	-1577
▁ቀበሌ	-1578
ወጡ	-1579
ጀም	-1580
▁አርሰናል	-1581
ንግሥት	-1582
▁ሳይሆን	-1583
▁መንግስ	-1584
▁ይታወሳል።	-1585
ከረም	-1586
ያያዘ	-1587
በረው	-1588
▁ትኩ	-1589
▁ኒ	-1590
▁)	-1591
ሎችን	-1592
▁ዝግጅት	-1593
and	-1594
▁የትግራይ	-1595
▁ባይ	-1596
▁አለም	-1597
▁f	-1598
ላማዊ	-1599
▁በመሆን	-1600
ርቶ	-1601
ደኛ	-1602
▁በይ	-1603
▁ተገ	-1604
▁የጦር	-1605
▁ያላቸው	-1606
ወጣው	-1607
▁በዋ	-1608
ንቅ	-1609
ሱዳን	-1610
ከፈ	-1611
▁መግ	-1612
▁ልም	-1613
▁ሴቶች	-1614
ገናኛ	-1615
▁መፍት	-1616
▁አምባሳ	-1617
▁በቅርቡ	-1618
▁መሆናቸውን	-1619
▁ሪፖርት	-1620
▁ጅ	-1621
▁ነዉ	-1622
መለከ	-1623
▁ታሪክ	-1624
▁አሳውቋል።	-1625
ጋቢ	-1626
ክሬን	-1627
ከብ	-1628
ናንት	-1629
▁ቢያ	-1630
ዲሱ	-1631
▁በራ	-1632
ፃሜ	-1633
▁ንግድ	-1634
▁ጁ	-1635
መዋል።	-1636
▁አልተ	-1637
▁s	-1638
ውውር	-1639
ደርጋ	-1640
▁ፒ	-1641
▁እግር	-1642
▁በረ	-1643
▁b	-1644
ቅረብ	-1645
▁ትልቅ	-1646
ምፕ	-1647
▁ክስ	-1648
▁ዝር	-1649
▁የራ	-1650
▁የሰው	-1651
ታወቂያ	-1652
▁ባለፈው	-1653
▁ታጣቂ	-1654
▁ለህ	-1655
▁ዘግቧል።	-1656
ሙት	-1657
▁የህዝብ	-1658
▁ጊ	-1659
▁ኮን	-1660
▁የፊት	-1661
▁ይሆናል።	-1662
ጉን	-1663
▁ቀጥ	-1664
ለማ	-1665
▁ይሁን	-1666
ገነ	-1667
▁ውጭ	-1668
ተት	-1669
ኮኖ	-1670
▁18	-1671
▁ያህል	-1672
▁አፈ	-1673
▁ስጋት	-1674
▁አሸናፊ	-1675
ፈልጉ	-1676
▁ኮሚሽ	-1677
-1	-1678
▁የጎ	-1679
▁ተገልጿል	-1680
ርስ	-1681
ለን።	-1682
▁በትግራይ	-1683
▁ሉ	-1684
il	-1685
▁a	-1686
▁ስፍራ	-1687
▁አሳስ	-1688
ውስ	-1689
ቸዉን	-1690
▁16	-1691
▁አሉ	-1692
▁ደጋ	-1693
ንስፖርት	-1694
ካሄደው	-1695
▁ስብሰባ	-1696
▁አግ	-1697
▁the	-1698
▁ነፃ	-1699
▁በዓል	-1700
▁ነዋሪ	-1701
▁መጥ	-1702
ፋር	-1703
▁አድርጎ	-1704
▁መከላከያ	-1705
▁በስም	-1706
▁ሂደት	-1707
▁ጃ	-1708
ኒያ	-1709
▁መዋ	-1710
ንሲ	-1711
▁ሚሊየን	-1712
ርሚየር	-1713
▁ተከታ	-1714
ርትራ	-1715
▁መልካም	-1716
▁ስነ	-1717
ዩን	-1718
▁በሌላ	-1719
ላል።	-1720
▁የዓለም	-1721
ልማት	-1722
ጀመር	-1723
▁መልዕክት	-1724
ውል	-1725
▁ሪያል	-1726
▁ሻምፒ	-1727
▁o	-1728
ገሩ	-1729
ስቲያ	-1730
▁መጠን	-1731
▁ፕሮግራም	-1732
ሟል።	-1733
▁ተገኝ	-1734
▁አጠቃላይ	-1735
▁መታ	-1736
▁እጅግ	-1737
ዘጋጅ	-1738
ጠናቀቅ	-1739
ዘን	-1740
▁ብለው	-1741
ማሽ	-1742
▁ካለ	-1743
▁ለሁ	-1744
▁ግንባታ	-1745
▁መፈ	-1746
ከፋ	-1747
▁ምዝገባ	-1748
ረተ	-1749
▁p	-1750
ሰጠ	-1751
ጥረት	-1752
▁ሳይንስ	-1753
ነስ	-1754
ደረጉት	-1755
▁በበኩ	-1756
ኤስ	-1757
▁የክ	-1758
▁በአማራ	-1759
ግባት	-1760
▁በብ	-1761
በብ	-1762
ዳት	-1763
ጋጠ	-1764
በሩት	-1765
▁መኪና	-1766
ችሁን	-1767
ቃል	-1768
ግና	-1769
ራሲ	-1770
ለፍ	-1771
▁ካል	-1772
መም	-1773
▁አድርገ	-1774
▁ሚኒስትሩ	-1775
▁17	-1776
▁ባን	-1777
ገባው	-1778
ቢሲ	-1779
▁ይዞ	-1780
ስራኤል	-1781
▁ታው	-1782
▁ዩኒቨርሲቲው	-1783
▁ከም	-1784
መጡ	-1785
▁25	-1786
-19	-1787
24	-1788
▁ስን	-1789
▁ስልጠና	-1790
መለሱ	-1791
ያቸው	-1792
▁በኮሮና	-1793
ቸዋል።	-1794
▁ፍላጎት	-1795
ላቅ	-1796
ለውን	-1797
▁ተጠቃ	-1798
▁ዘርፍ	-1799
ደባባይ	-1800
▁m	-1801
▁ማር	-1802
▁መብት	-1803
▁ፎቶ	-1804
ሯል	-1805
▁የማን	-1806
▁አንዳ	-1807
▁::	-1808
▁ችሏል።	-1809
▁የፕ	-1810
ነትን	-1811
ቤቱ	-1812
ዳሚ	-1813
▁ሰራተኞች	-1814
▁ከተሞች	-1815
▁ብሄራዊ	-1816
ራር	-1817
ገለጸ	-1818
ኔት	-1819
▁እንዴት	-1820
ኛል	-1821
▁በክልሉ	-1822
▁በባ	-1823
▁ደብ	-1824
ንቀሳቀ	-1825
▁እንደሚገኝ	-1826
ከበር	-1827
15	-1828
▁እነዚህ	-1829
ሳስ	-1830
▁የንግድ	-1831
▁የሚገኘው	-1832
▁ተደርጓ	-1833
▁ይህም	-1834
▁የሆኑት	-1835
ደግ	-1836
▁በተያያዘ	-1837
ናል።	-1838
ሳው	-1839
ንቲባ	-1840
ተዋል፡፡	-1841
ፌዴራል	-1842
▁በኢ	-1843
▁ሬዲዮ	-1844
▁መዝ	-1845
th	-1846
ራይ	-1847
▁ማረ	-1848
▁ተግባር	-1849
ስራቅ	-1850
▁ምንጭ፦	-1851
▁ሃላፊ	-1852
▁የሰብ	-1853
ዘግ	-1854
▁በከተማ	-1855
▁ኃይሎች	-1856
▁የለ	-1857
▁ሜትር	-1858
▁ወጣቶች	-1859
▁ማዕከል	-1860
▁ኢንተር	-1861
ጠረው	-1862
▁ወስ	-1863
ረጋገጥ	-1864
▁ደህንነት	-1865
▁በተለይ	-1866
▁በኃላ	-1867
ቁት	-1868
▁የገንዘብ	-1869
ደረጋ	-1870
▁ቢሊዮን	-1871
ባቸውን	-1872
▁የተነሳ	-1873
▁ከት	-1874
gr	-1875
ፊዎች	-1876
▁ርዕ	-1877
▁የላ	-1878
▁የግል	-1879
▁የህክምና	-1880
▁በዩ	-1881
ጠል	-1882
ነግ	-1883
▁መለ	-1884
▁የሚቆ	-1885
ነቱን	-1886
▁መደበኛ	-1887
▁ቴሌቪ	-1888
▁ኢንስ	-1889
▁ሀላፊ	-1890
ንቃ	-1891
ቆጣጠር	-1892
▁የሆነው	-1893
▁ተሸ	-1894
▁ቅሬ	-1895
▁ቁጥጥር	-1896
ግሪ	-1897
▁መረጃዎች	-1898
ቃቤ	-1899
ሽከርካሪዎች	-1900
▁፡፡	-1901
▁ባርሴሎና	-1902
▁በል	-1903
▁ቅድ	-1904
▁ሀይ	-1905
ኒት	-1906
ዚሁ	-1907
ቸዋል	-1908
መዝ	-1909
ሪስ	-1910
▁ሎ	-1911
▁ህፃ	-1912
▁አራ	-1913
▁መነ	-1914
▁አረጋግ	-1915
ስቡ	-1916
ዳሜ	-1917
▁ፕሬዚ	-1918
ሞት	-1919
ኞችን	-1920
▁ፕሮጀ	-1921
ድሩ	-1922
ፎች	-1923
▁ተነግሯል።	-1924
▁የሥራ	-1925
▁አምባሳደር	-1926
▁የምግብ	-1927
ሰበ	-1928
▁ዉስጥ	-1929
ረንሳይ	-1930
▁ባለስልጣ	-1931
ቢይ	-1932
▁ይጠበ	-1933
▁እየተደረገ	-1934
ገት	-1935
ምሌ	-1936
ወዳ	-1937
▁ቡድኑ	-1938
▁የኮሮና	-1939
▁ከታ	-1940
▁በቫይረሱ	-1941
▁ባለመ	-1942
▁ሁለቱ	-1943
▁ብለዋል፡፡	-1944
ጋዊ	-1945
▁ፌ	-1946
▁ህገ	-1947
▁አውሮፕ	-1948
▁አረ	-1949
ሙስ	-1950
▁በጀት	-1951
ይማኖት	-1952
▁ቴክኖሎጂ	-1953
ቁን	-1954
አት	-1955
ድብ	-1956
▁ንብረት	-1957
▁የጸጥታ	-1958
▁ይመስ	-1959
ol	-1960
ጭር	-1961
ካዮች	-1962
▁በሕ	-1963
▁በጋራ	-1964
▁ዘር	-1965
ሰጠው	-1966
▁በይፋ	-1967
▁ከሌ	-1968
▁በሚያ	-1969
በራ	-1970
▁ዩኒቨርስቲ	-1971
ገራችን	-1972
ናይ	-1973
▁ትኩረት	-1974
ውም	-1975
▁የተወሰ	-1976
ላለፍ	-1977
▁ተሳ	-1978
▁ያደረገ	-1979
▁ተጋ	-1980
ሻለ	-1981
ጅም	-1982
▁ሊቀ	-1983
ያዛ	-1984
▁አመታት	-1985
▁ማሸነፍ	-1986
▁በመተ	-1987
ሶስት	-1988
▁የሴ	-1989
▁አማካ	-1990
ንካ	-1991
ፊክ	-1992
ጀንሲ	-1993
▁በደቡብ	-1994
▁1.	-1995
ርሽ	-1996
▁የተባለ	-1997
ዳቤ	-1998
ላችን	-1999
▁ከበ	-2000
▁መሠረት	-2001
ባንያ	-2002
13	-2003
ሁድ	-2004
ኩት	-2005
▁በአሁኑ	-2006
▁ኢትዮጵያዊ	-2007
▁አድራ	-2008
▁ትን	-2009
ቋል	-2010
ልያ	-2011
ስቱ	-2012
▁በሰጡት	-2013
▁ድል	-2014
ዋት	-2015
ለውም	-2016
▁እንደሚችል	-2017
▁በስምኦን	-2018
ግል	-2019
▁ሰዎችን	-2020
ርማ	-2021
▁ቲ	-2022
▁መቶ	-2023
▁ምግብ	-2024
▁ሱዳን	-2025
▁በመግለ	-2026
ኬት	-2027
▁ተማሪዎችን	-2028
ክሲ	-2029
▁ተቋም	-2030
▁የእንግሊዝ	-2031
ዳሪ	-2032
ዳቸው	-2033
▁ተያይ	-2034
▁ስድስት	-2035
▁የቡ	-2036
ገለፀ	-2037
ቷን	-2038
▁አደባባይ	-2039
ቀርብ	-2040
ቀበል	-2041
ጥነት	-2042
▁በጋ	-2043
22	-2044
▁የፖለቲካ	-2045
ሳቸውን	-2046
ኮም	-2047
▁of	-2048
▁ለማግኘት	-2049
▁ደቂቃ	-2050
ሳቢ	-2051
ቶቹ	-2052
ቆጥ	-2053
▁ከሀ	-2054
▁ቤተሰብ	-2055
▁የሽ	-2056
▁ቆይታ	-2057
▁ባለሙያዎች	-2058
▁አስራ	-2059
▁አቅም	-2060
ማስ	-2061
▁የአውሮፓ	-2062
▁በተመ	-2063
▁and	-2064
▁ማስረጃ	-2065
▁በሊ	-2066
▁የጉ	-2067
▁አስረድ	-2068
ቴል	-2069
ክሮ	-2070
▁ነጋ	-2071
▁ቅዱስ	-2072
▁መቆ	-2073
▁ህብረት	-2074
ማማ	-2075
ቦችን	-2076
▁ነኝ	-2077
▁በደረሰ	-2078
ግን	-2079
▁ፕሪ	-2080
ፈራ	-2081
▁በሽታ	-2082
ጠዋል።	-2083
▁ስልክ	-2084
ent	-2085
ምረ	-2086
ደጋጋሚ	-2087
▁ጥቃ	-2088
አዊ	-2089
▁ይገኛል	-2090
▁ወጪ	-2091
ቶን	-2092
ክለቡ	-2093
▁ጥር	-2094
ኮኖሚ	-2095
ታል፡፡	-2096
ሰድ	-2097
▁መስጠት	-2098
▁አቋ	-2099
▁ትክ	-2100
▁ንግግር	-2101
▁ተናግሯል።	-2102
▁ፍቅር	-2103
ዩት	-2104
▁ዮ	-2105
▁ከንቲባ	-2106
ሬዳ	-2107
▁22	-2108
▁ክልሎች	-2109
ፖሊስ	-2110
ኩስ	-2111
▁ለመፍ	-2112
▁ጸ	-2113
▁የፓ	-2114
▁ተደም	-2115
ደገ	-2116
ሊጋ	-2117
ማሪዎች	-2118
ቻቸውን	-2119
ምሩ	-2120
ቂት	-2121
▁23	-2122
▁ከሁ	-2123
ላስ	-2124
▁ዓይ	-2125
ለጋ	-2126
ሊያን	-2127
ጠኝ	-2128
ሱት	-2129
ጠፋ	-2130
▁ኖ	-2131
▁21	-2132
ንቃቄ	-2133
▁መስከረም	-2134
▁ስሜ	-2135
ለመ	-2136
ዛዝ	-2137
▁መምሪያ	-2138
▁ለም	-2139
የንስ	-2140
▁ተዋ	-2141
▁ተወካዮች	-2142
▁d	-2143
▁ድርጅቶች	-2144
ቱት	-2145
በሪያ	-2146
as	-2147
ፈን	-2148
▁...	-2149
▁ከላይ	-2150
▁የሃ	-2151
ስቡክ	-2152
ባበር	-2153
ባብ	-2154
ደረጃ	-2155
ዝም	-2156
ግም	-2157
▁መፍትሄ	-2158
ጫው	-2159
▁ፊት	-2160
ረፍ	-2161
▁ለመስጠት	-2162
ሳካ	-2163
▁ወገ	-2164
▁ደቡብ	-2165
▁መምህ	-2166
▁የፌደራል	-2167
▁አስተያየት	-2168
▁ድምፅ	-2169
▁አመራር	-2170
ኔል	-2171
ቆማ	-2172
▁እንድት	-2173
▁አስቀ	-2174
▁በአጠቃላይ	-2175
መንት	-2176
ሬዳዋ	-2177
ሰተኛ	-2178
▁ተደርጎ	-2179
ሱም	-2180
ንቋ	-2181
ay	-2182
▁ወታደራዊ	-2183
ለዋል	-2184
▁ቡና	-2185
▁ተዘግ	-2186
ልት	-2187
▁ኑ	-2188
11	-2189
ስስር	-2190
▁ዝርዝር	-2191
▁ዘንድ	-2192
ውጣት	-2193
▁የአለም	-2194
op	-2195
▁በኤ	-2196
▁ትናንት	-2197
▁50	-2198
▁ገበያ	-2199
▁በቂ	-2200
ሔር	-2201
▁ተመል	-2202
ሬዝ	-2203
▁አንዳንድ	-2204
▁ቅሬታ	-2205
▁የሚያስችል	-2206
ከባቢ	-2207
ተንሀም	-2208
▁ወል	-2209
▁ቅዳሜ	-2210
ለኝ	-2211
▁....	-2212
▁በታች	-2213
ታማ	-2214
ሊት	-2215
ርቅ	-2216
▁በተለይም	-2217
▁እንዲህ	-2218
▁ይችላል	-2219
▁ለምን	-2220
ናቃ	-2221
▁የማስ	-2222
ኪያ	-2223
▁27	-2224
ሳተፉ	-2225
▁መያዛ	-2226
▁እርዳታ	-2227
▁ተጠርጣሪ	-2228
▁እድል	-2229
ዲህ	-2230
▁ክትትል	-2231
▁2016	-2232
▁ኢትዮ	-2233
ዱት	-2234
▁in	-2235
▁የአንድ	-2236
▁በኦሮሚያ	-2237
▁እንደተና	-2238
▁የመጨረሻ	-2239
▁ለዚህ	-2240
▁ወጣት	-2241
▁በሰላም	-2242
ir	-2243
▁መጀመ	-2244
ህፈት	-2245
▁ቦርድ	-2246
▁ፕርሚየር	-2247
▁አለበት	-2248
ሩሲያ	-2249
▁ፍፃሜ	-2250
▁መመሪያ	-2251
ot	-2252
ጣል	-2253
ገሩት	-2254
▁የጋራ	-2255
▁ከህ	-2256
▁ለወ	-2257
▁በፈ	-2258
▁የአየር	-2259
▁የእሳት	-2260
▁አዋጅ	-2261
▁ኩባንያ	-2262
ባዊ	-2263
▁ከጥ	-2264
▁የሲ	-2265
▁ተይ	-2266
▁ተጠና	-2267
▁ወንጀ	-2268
▁ማግኘት	-2269
▁ቤተሰቦ	-2270
▁ትምህር	-2271
▁የሀገር	-2272
▁መሸ	-2273
ጋቢት	-2274
▁ተመራ	-2275
le	-2276
ም፣	-2277
ጫወት	-2278
▁መኖሪያ	-2279
us	-2280
ሉ፡፡	-2281
▁ኪሎ	-2282
▁የደቡብ	-2283
23	-2284
▁ያገኘ	-2285
▁ዲግሪ	-2286
▁እጥረት	-2287
መሩ	-2288
▁እስራ	-2289
▁ጓ	-2290
▁መደረጉ	-2291
▁ነጻ	-2292
▁ማህበር	-2293
▁ልክ	-2294
ቀጥል	-2295
ጠቅላይ	-2296
▁ስለሚ	-2297
▁ካር	-2298
▁ጉዞ	-2299
ድያ	-2300
▁ትስስር	-2301
ረዳት	-2302
▁ኮሌ	-2303
▁28	-2304
▁ከኢትዮጵያ	-2305
▁ኢትዮጵያውያን	-2306
ሰዋል።	-2307
▁በከፍተኛ	-2308
▁ዩኒቨርሲቲዎች	-2309
18	-2310
▁አጠና	-2311
ጓዝ	-2312
ጠቀሙ	-2313
▁የዩኒቨርሲቲ	-2314
በላ	-2315
▁ቦታዎች	-2316
▁በተመሳሳይ	-2317
gram	-2318
ነታቸው	-2319
▁ያላ	-2320
▁ክለቦች	-2321
ላቂ	-2322
▁ሰኔ	-2323
▁y	-2324
▁ኤጀንሲ	-2325
▁ተሽከርካሪ	-2326
▁ከአንድ	-2327
ስትሪ	-2328
▁ውሃ	-2329
▁ይገባል	-2330
ክተ	-2331
▁አስታውቋል፡፡	-2332
ጋሪ	-2333
▁ተገቢ	-2334
ስቸኳይ	-2335
ረፍት	-2336
▁መና	-2337
▁ተግባራዊ	-2338
ation	-2339
▁ደብዳቤ	-2340
▁ባወጣው	-2341
▁ሬድዮ	-2342
▁ፍት	-2343
ዎቹን	-2344
መልከት	-2345
▁ጥቅምት	-2346
▁ማህበረሰብ	-2347
▁ወረርሽ	-2348
▁የኢን	-2349
▁አዲሱ	-2350
ካሂ	-2351
▁መሀ	-2352
▁አገር	-2353
▁ግል	-2354
▁መወሰ	-2355
▁26	-2356
▁ሰነ	-2357
▁ጀር	-2358
ha	-2359
▁የዝ	-2360
▁አፍ	-2361
▁ሚላን	-2362
▁ትዕ	-2363
▁ተሰም	-2364
▁የሚፈ	-2365
ዳጊ	-2366
▁ችሎት	-2367
ራሽ	-2368
▁ዋናው	-2369
▁አመልክ	-2370
oin	-2371
▁ደም	-2372
▁ፈቃድ	-2373
ቡር	-2374
▁ልጆች	-2375
▁አስተዳደሩ	-2376
▁በወቅ	-2377
ታር	-2378
▁የማንችስተር	-2379
ዲየም	-2380
▁ባለቤት	-2381
▁የተቀ	-2382
▁ብዬ	-2383
ላላ	-2384
▁ከው	-2385
▁ሰላማዊ	-2386
:-	-2387
ደርገው	-2388
ፃሚ	-2389
የሁ	-2390
▁ባሉ	-2391
ዘዋ	-2392
▁ስለሆነ	-2393
▁አስከ	-2394
ስል	-2395
▁ከደ	-2396
▁የቅ	-2397
▁መጨረሻ	-2398
▁የካቲት	-2399
▁አዛ	-2400
▁ጥናት	-2401
ላይታ	-2402
▁አብይ	-2403
ም፡፡	-2404
▁2.	-2405
ኤስጂ	-2406
▁በሳ	-2407
ሠራ	-2408
ስትና	-2409
ur	-2410
▁ወላ	-2411
▁ባለስልጣን	-2412
▁በተፈ	-2413
▁እየሰራ	-2414
▁ምርት	-2415
▁ተጠቃሚ	-2416
▁ቫ	-2417
▁በመጠቀም	-2418
ጠቁ	-2419
▁የዲ	-2420
▁የተከሰ	-2421
▁ሰራዊት	-2422
ናብ	-2423
▁ግራ	-2424
▁ውል	-2425
ከናወን	-2426
▁እሁድ	-2427
▁ስቴ	-2428
▁ሽልማት	-2429
▁ህጻ	-2430
▁ናት	-2431
▁በሁሉም	-2432
▁ታጣቂዎች	-2433
▁ተሳት	-2434
14	-2435
ቡት	-2436
ገዛ	-2437
▁ቀጣይ	-2438
ደሰ	-2439
▁ጋዜጣ	-2440
▁የሀገሪቱ	-2441
▁ለበ	-2442
▁ያሳያ	-2443
▁እንደተናገሩት	-2444
▁እንዲሆን	-2445
▁100	-2446
▁ችግሮች	-2447
▁ያቀረ	-2448
ዎን	-2449
ንቱ	-2450
▁መሆናቸው	-2451
▁የተያዙ	-2452
▁አስመልክ	-2453
ዜማ	-2454
▁ለውጥ	-2455
▁29	-2456
ፎርድ	-2457
ጊያ	-2458
ለሁ።	-2459
▁ማክ	-2460
▁ላለ	-2461
ሞን	-2462
▁ማጣ	-2463
ክልል	-2464
ሸን	-2465
▁ዓመቱ	-2466
▁መፍ	-2467
ፈረም	-2468
2519	-2469
▁መስተዳ	-2470
▁to	-2471
▁አደ	-2472
ጋና	-2473
▁ስራዎች	-2474
ቆጠር	-2475
ናቀ	-2476
ረቃ	-2477
ልማ	-2478
▁የወጣ	-2479
ዞኑ	-2480
ክርስቲያን	-2481
▁ሰለ	-2482
▁ገልጸዋል፡፡	-2483
▁መፅ	-2484
▁አድርጓል።	-2485
▁ህይወታቸው	-2486
▁ባለስልጣናት	-2487
▁2015	-2488
ሰል	-2489
▁ብራ	-2490
▁ግቢ	-2491
▁አስታወቀ።	-2492
ኬንያ	-2493
▁የኦ	-2494
▁ለመከላከል	-2495
▁ሰን	-2496
▁እራ	-2497
ብብር	-2498
ሊን	-2499
▁ተለ	-2500
▁አቡ	-2501
ነኛ	-2502
ያት	-2503
ምረው	-2504
▁የቴሌ	-2505
▁ስርዓት	-2506
ሳኝ	-2507
ዳሴ	-2508
ራቸውን	-2509
▁በዓለም	-2510
▁ሙከራ	-2511
▁ሮናል	-2512
16	-2513
ረር	-2514
▁ድርጊት	-2515
ሜዳ	-2516
ንፈ	-2517
▁ቋንቋ	-2518
ራዘ	-2519
▁የቤት	-2520
ከረ	-2521
▁ግድያ	-2522
▁በመቀ	-2523
▁ኮንት	-2524
▁ተከሳሽ	-2525
▁ጋዜጠኛ	-2526
ምባሲ	-2527
▁ኤፍ	-2528
ባሉ	-2529
ያንዳን	-2530
ንስት	-2531
▁መስሪያ	-2532
ውሞ	-2533
▁ክፍሎች	-2534
▁ይገኛሉ።	-2535
▁የቀረበ	-2536
▁ቁጥ	-2537
▁ትግራይ	-2538
▁የተባለው	-2539
▁እግ	-2540
▁ሆቴል	-2541
▁ጠባቂ	-2542
▁ሕዝብ	-2543
ይይ	-2544
ገበ	-2545
▁እንደሌ	-2546
▁ፕሬዚዳንት	-2547
ለህ	-2548
ብሪካ	-2549
▁ተች	-2550
ሞክራሲ	-2551
▁ዝግጁ	-2552
ንጉ	-2553
▁ኤም	-2554
▁ዘገባ	-2555
ባር	-2556
ለያየ	-2557
▁ደሞ	-2558
▁ተጠቁ	-2559
▁የተደረገ	-2560
ፈረ	-2561
▁በቅ	-2562
▁መኮ	-2563
▁በቦ	-2564
▁ጥቆማ	-2565
▁እናት	-2566
▁መሬት	-2567
ልኝ	-2568
em	-2569
▁ቀጠ	-2570
/2016	-2571
▁ሰባት	-2572
▁ቅጣት	-2573
▁መገደ	-2574
ጡን	-2575
▁ባህር	-2576
▁መግባ	-2577
▁በሀገሪቱ	-2578
አብ	-2579
ናሽ	-2580
▁የፋ	-2581
ኛውን	-2582
▁ቻና	-2583
▁ግቦች	-2584
▁እስራኤል	-2585
ሽታው	-2586
▁ማሻሻ	-2587
▁በትላንት	-2588
▁እየተሰራ	-2589
▁ትክክለ	-2590
▁ምል	-2591
▁ህመም	-2592
▁አልባ	-2593
▁ዱ	-2594
▁በሚገኙ	-2595
ናግ	-2596
▁ጥላ	-2597
▁ሃይል	-2598
▁ህን	-2599
▁ልጆ	-2600
▁መገናኛ	-2601
ራረ	-2602
ማቸውን	-2603
▁ወረዳዎች	-2604
▁ሳምን	-2605
▁ስለመ	-2606
▁በማህበራዊ	-2607
ይቶ	-2608
ናና	-2609
ele	-2610
▁በመጀመሪያ	-2611
ቻሉ	-2612
▁ነበር፡፡	-2613
▁ለብ	-2614
ዳዩ	-2615
ጨዋታው	-2616
▁እንደሚገኙ	-2617
ምድ	-2618
▁እየተካሄደ	-2619
▁በሚገኘው	-2620
ክቶ	-2621
ቅርታ	-2622
በታል።	-2623
▁ብል	-2624
▁ትር	-2625
▁ቶተንሀም	-2626
▁ያደርጋ	-2627
ደል	-2628
ሌት	-2629
▁የመንግሥት	-2630
▁የተናገ	-2631
▁ተራ	-2632
ቧል፡፡	-2633
▁ዘመቻ	-2634
▁ቤተሰቦች	-2635
▁በአካባቢው	-2636
▁የምታ	-2637
▁መጽ	-2638
▁የነበረውን	-2639
▁መጨ	-2640
▁የኦሮሚያ	-2641
▁እስራት	-2642
▁ሀሳብ	-2643
▁የዛሬ	-2644
27	-2645
ሽኑ	-2646
ችላ	-2647
▁አስተላል	-2648
▁የቤተ	-2649
ro	-2650
▁እንዲፈ	-2651
ቀርቡ	-2652
ታወቀው	-2653
▁you	-2654
▁ግዛት	-2655
ድሮ	-2656
▁ሰልፍ	-2657
▁በሌሎች	-2658
ለች፡፡	-2659
▁አቅራ	-2660
▁ጥበቃ	-2661
▁በተደጋጋሚ	-2662
ገገ	-2663
▁የኤሌክትሪክ	-2664
ያቂ	-2665
ምቤ	-2666
ኦሮሞ	-2667
▁ከአዲስ	-2668
ንታ	-2669
ከላዊ	-2670
▁ሜሲ	-2671
▁አትሌት	-2672
ሰቢያ	-2673
▁መክ	-2674
▁የቦ	-2675
▁መንግስታት	-2676
▁ህብረተሰቡ	-2677
▁ሃይ	-2678
▁ቀላል	-2679
ኖረው	-2680
▁ሀይል	-2681
▁በማን	-2682
▁የሶማ	-2683
ገዳ	-2684
ቶሪ	-2685
▁ደስ	-2686
▁መድረክ	-2687
▁ክርስቲያን	-2688
ነዚህ	-2689
▁በክ	-2690
▁አስተዋ	-2691
▁በአሜሪካ	-2692
▁ለሀ	-2693
▁ተረጋግ	-2694
▁የፊ	-2695
▁ራዲዮ	-2696
▁ደንበ	-2697
▁የመጣ	-2698
▁አረቢያ	-2699
▁ባየር	-2700
▁ይሰጣ	-2701
▁ይደው	-2702
▁ክርስቲያ	-2703
ደርሱ	-2704
:30	-2705
▁ሠራ	-2706
▁ኤር	-2707
▁ገልጿ	-2708
▁ሰም	-2709
▁አለው	-2710
▁ስታዲየም	-2711
ነህ	-2712
▁ሕይወት	-2713
▁መልዕክ	-2714
▁ብላ	-2715
▁ይዘ	-2716
▁አግኝ	-2717
▁ነገሮች	-2718
▁አስመልክቶ	-2719
▁የመጀመሪያው	-2720
▁ብስራት	-2721
▁ስላ	-2722
▁የሚለው	-2723
▁3.	-2724
▁ሆኖም	-2725
40	-2726
▁እንዳስ	-2727
▁ፈር	-2728
▁የመከላከያ	-2729
ናዊው	-2730
▁በአፍሪካ	-2731
▁ለመጀመሪያ	-2732
ፍና	-2733
▁አለማ	-2734
id	-2735
▁ተመሳሳይ	-2736
▁ፖሊ	-2737
▁ሙኒክ	-2738
ub	-2739
▁ለማሳ	-2740
ገስ	-2741
ad	-2742
▁ኔ	-2743
▁የጋ	-2744
▁ዕድል	-2745
▁ግድብ	-2746
▁ማብራ	-2747
▁ከዚያ	-2748
▁ወረርሽኝ	-2749
ገራቸው	-2750
ረዳው	-2751
ምስት	-2752
ዝግ	-2753
▁ህወ	-2754
ማሩ	-2755
▁የተመ	-2756
▁እንደሚገባ	-2757
ጥቅ	-2758
ዲት	-2759
ጣኝ	-2760
ጨት	-2761
oo	-2762
ግባብ	-2763
▁2014	-2764
▁ሲሆኑ	-2765
▁ዝውውር	-2766
▁ማንኛውም	-2767
▁ግንቦት	-2768
ጻሚ	-2769
▁ደብረ	-2770
▁ለቀ	-2771
▁ዳግም	-2772
ሟል	-2773
ጀምር	-2774
ንተ	-2775
ጣሪዎች	-2776
▁ሊጉ	-2777
▁እቃ	-2778
ሐል	-2779
▁ሮናልዶ	-2780
▁ነጥ	-2781
▁ጥንቃቄ	-2782
▁ጂ	-2783
60	-2784
▁የወንጀል	-2785
▁ሞት	-2786
45	-2787
ካን	-2788
ስተዋ	-2789
▁ስፖርት	-2790
ላቁ	-2791
ገነባ	-2792
ec	-2793
ቅድመ	-2794
ከሉ	-2795
▁በዚሁ	-2796
▁40	-2797
▁እድሜ	-2798
ካት	-2799
▁መምህራን	-2800
ንባ	-2801
ቀበ	-2802
▁ዛ	-2803
ፍን	-2804
▁የመሬት	-2805
▁በተደረገ	-2806
ብረተሰብ	-2807
▁የነበሩት	-2808
▁መነሻ	-2809
▁እያደረገ	-2810
▁ከሚያ	-2811
▁ባህ	-2812
▁ተብሏል፡፡	-2813
ሚን	-2814
ሰስ	-2815
▁ሸዋ	-2816
▁ሂደ	-2817
ታን	-2818
ቁም	-2819
ባለው	-2820
▁የምርጫ	-2821
▁ለኢትዮጵያ	-2822
ጠን	-2823
ወያ	-2824
▁ደመ	-2825
▁ጭማሪ	-2826
▁ኬንያ	-2827
▁ማም	-2828
ጋይ	-2829
ጀርመን	-2830
▁ቡድኖች	-2831
ላትን	-2832
▁ኦሮ	-2833
ንብ	-2834
▁መገኘ	-2835
▁ያደረጉ	-2836
▁እንደገለ	-2837
ህሳስ	-2838
▁የፌዴራል	-2839
ያም	-2840
መለከተው	-2841
ድረስ	-2842
▁አስታውቀዋል።	-2843
ቧል	-2844
▁መስራት	-2845
▁የዕ	-2846
ሪን	-2847
ሊክ	-2848
ጠበቀ	-2849
▁ሻምፒየንስ	-2850
▁ጆር	-2851
▁መንገዶች	-2852
ጠናቀቀ	-2853
▁ተከላ	-2854
▁የቴ	-2855
▁ተሳታ	-2856
▁በግል	-2857
ያጭ	-2858
ንካራ	-2859
▁ይታወቃል።	-2860
ቻለ	-2861
▁ካሳ	-2862
▁ደስታ	-2863
ዮር	-2864
ጠኞች	-2865
▁እንደሚያስ	-2866
ናገር	-2867
▁ማህበራዊ	-2868
▁ቅድመ	-2869
▁በሁለት	-2870
የአ	-2871
▁ቢያንስ	-2872
ኖሪያ	-2873
መለከት	-2874
ሰጣቸው	-2875
▁ተጠቅ	-2876
▁ዓይነት	-2877
▁የሰሜን	-2878
▁ቀጠሮ	-2879
▁ተቀብ	-2880
17	-2881
▁ክለቡ	-2882
ማው	-2883
ቁር	-2884
ቪል	-2885
35	-2886
▁ችለዋል።	-2887
▁ለት	-2888
▁አሰራ	-2889
/2015	-2890
▁ጎንደር	-2891
▁ማብራሪያ	-2892
ጣሚ	-2893
▁ጉዳዩን	-2894
ዊት	-2895
▁መጋቢት	-2896
▁ስምንት	-2897
▁እስኪ	-2898
▁ሰዓ	-2899
▁ባለሥ	-2900
▁ጌታቸው	-2901
ወለ	-2902
▁ግጭ	-2903
▁ገብረ	-2904
▁ጭምር	-2905
ትስ	-2906
ደረሱ	-2907
ካተ	-2908
ቋቋም	-2909
▁ሚል	-2910
▁አብዛ	-2911
▁ጨዋታውን	-2912
ጣጫ	-2913
ያው	-2914
▁የመግ	-2915
ጣራ	-2916
ሳተፍ	-2917
▁የተሻለ	-2918
ዱስትሪ	-2919
▁200	-2920
▁አድርገው	-2921
▁ተከታታይ	-2922
▁የእስራኤል	-2923
▁ተሰጥ	-2924
▁የሚገ	-2925
▁የለም።	-2926
▁ከብ	-2927
▁ያላቸውን	-2928
ፈጸም	-2929
▁የግብ	-2930
▁ጠቁመዋል።	-2931
ig	-2932
ቂቅ	-2933
ንና	-2934
▁እምነት	-2935
▁የሚቆጠሩ	-2936
▁የተሰኘ	-2937
ሻል	-2938
▁ታዳጊ	-2939
▁አውሮፕላን	-2940
▁የሚያደርጉ	-2941
▁ቤን	-2942
▁ፌዴ	-2943
▁የተለ	-2944
▁የሰብዓዊ	-2945
ዳንቱ	-2946
▁በምር	-2947
▁ይዘው	-2948
▁የተገኘ	-2949
▁ተናግረዋል	-2950
200	-2951
▁የጣ	-2952
ፕሎ	-2953
▁ሽን	-2954
▁አስፈፃሚ	-2955
ላህ	-2956
ውና	-2957
ሄዱ	-2958
ገባት	-2959
▁ሰፊ	-2960
▁ተወስ	-2961
▁ኮር	-2962
/2014	-2963
▁እንደማ	-2964
ባባሪ	-2965
▁አባት	-2966
▁ሰኞ	-2967
ንድሮው	-2968
▁መንግሥ	-2969
▁ወታደሮች	-2970
▁ሕግ	-2971
▁ማረፊያ	-2972
▁የነዳጅ	-2973
▁ዝቅ	-2974
▁መርሃ	-2975
▁የአር	-2976
▁አቅጣጫ	-2977
▁ቀሪ	-2978
▁ስለዚህ	-2979
39	-2980
eb	-2981
▁ማስታወቂያ	-2982
▁በሃ	-2983
▁የምና	-2984
ታዉ	-2985
▁ለመፍታት	-2986
ጠባ	-2987
ዓለም	-2988
ጊዜው	-2989
▁አድራሻ	-2990
▁ኤሌክትሪክ	-2991
ከባ	-2992
▁ከመረብ	-2993
ካታ	-2994
▁የትራፊክ	-2995
▁የተባበሩት	-2996
▁ርዕሰ	-2997
ሲል	-2998
ጎች	-2999
▁2013	-3000
▁መያዛቸው	-3001
▁ተገልጿል፡፡	-3002
ራች	-3003
▁የመስ	-3004
▁ደጋፊዎች	-3005
▁ካም	-3006
▁ተመልክ	-3007
▁ስደ	-3008
ሳቁ	-3009
28	-3010
▁ኒው	-3011
▁ሚንስት	-3012
▁ይደውሉ	-3013
ፌሰር	-3014
▁ባደረገው	-3015
ግብር	-3016
▁በቀጣ	-3017
▁አዘጋጅ	-3018
▁በበኩላቸው	-3019
ጋል	-3020
▁በትላንትናው	-3021
▁ስርዓ	-3022
▁ውድድ	-3023
.....	-3024
ሰልጣ	-3025
▁ሀብ	-3026
▁በህገ	-3027
▁ፋብሪካ	-3028
▁በን	-3029
▁እያለ	-3030
▁አከባቢ	-3031
▁ሶስተኛ	-3032
ወደ	-3033
ሯል፡፡	-3034
▁በመሆኑም	-3035
44	-3036
ሰለ	-3037
ካኤል	-3038
un	-3039
▁ጎን	-3040
ሎምፒ	-3041
▁ለገ	-3042
▁ኮማን	-3043
ሪት	-3044
▁እንደምት	-3045
▁ጀም	-3046
ረጋጋት	-3047
መዘገቡ	-3048
ነበረ	-3049
▁ህጋዊ	-3050
▁ኮሌጅ	-3051
ሽቱ	-3052
▁የሚመ	-3053
ጪው	-3054
ቡቲ	-3055
ታወቁ	-3056
▁ሁሉንም	-3057
▁አማራጭ	-3058
▁ፒኤስጂ	-3059
ዮርጊ	-3060
▁ያስተ	-3061
▁የሱዳን	-3062
▁መልስ	-3063
▁ተሽከርካሪዎች	-3064
ጣን	-3065
ነትና	-3066
ያዘው	-3067
▁ጊዜያዊ	-3068
▁አገራት	-3069
▁የፖሊስ	-3070
ሮን	-3071
▁እዚህ	-3072
▁ትዕዛዝ	-3073
▁የዜ	-3074
ይናንስ	-3075
▁”	-3076
ፈፀም	-3077
▁መሪዎች	-3078
ማል	-3079
ጂታል	-3080
▁ገደ	-3081
▁ጥራት	-3082
▁ሀብት	-3083
▁ተደራ	-3084
ቴን	-3085
ች።	-3086
ነራል	-3087
▁ካርድ	-3088
▁ተደርጓል።	-3089
ቆስ	-3090
ቀፍ	-3091
▁n	-3092
በአ	-3093
መልከ	-3094
▁በትምህርት	-3095
▁በፕ	-3096
▁የጠ	-3097
ቀም	-3098
▁ደርሶ	-3099
▁አድርገዋል።	-3100
ጀመረው	-3101
ሕር	-3102
መራው	-3103
▁ነው፤	-3104
ረክ	-3105
ag	-3106
▁ይልቅ	-3107
ሸጥ	-3108
▁በነበረው	-3109
▁ፍሬ	-3110
▁አስቆጥ	-3111
▁ስምም	-3112
▁የሚጠ	-3113
▁ድምጽ	-3114
▁ሶማ	-3115
▁ማሻሻያ	-3116
ግባር	-3117
▁ትል	-3118
▁ወገኖች	-3119
▁ቻይና	-3120
▁የሚያደርግ	-3121
▁የድር	-3122
▁መግቢያ	-3123
▁ጨምረው	-3124
▁መሆኑንም	-3125
▁ወቅታዊ	-3126
im	-3127
ሰረ	-3128
ቃወ	-3129
ዎች፣	-3130
ሳዊ	-3131
ዳረ	-3132
▁ዊ	-3133
▁አትሌቲ	-3134
▁1,	-3135
▁አቅርቦት	-3136
ዶችን	-3137
▁ባደረጉት	-3138
▁ልብ	-3139
▁ተፈናቃ	-3140
▁መላ	-3141
▁ምዕራብ	-3142
▁በመንግስት	-3143
ሃት	-3144
ቀደ	-3145
ጠራው	-3146
ሴን	-3147
ስማ	-3148
▁ነን	-3149
ቀላቀል	-3150
▁ሊሆን	-3151
ባይል	-3152
▁አጥቂ	-3153
▁ኤምባሲ	-3154
▁አንስተ	-3155
▁ቤተክርስቲያን	-3156
በታል	-3157
▁የኮቪድ	-3158
ቃቸው	-3159
▁ተጠያቂ	-3160
▁በካ	-3161
▁አመቱ	-3162
▁ሙስ	-3163
▁ሚና	-3164
▁ይደረጋ	-3165
▁የህግ	-3166
▁እረፍት	-3167
▁በወቅቱ	-3168
ፎር	-3169
ደርገ	-3170
▁ምት	-3171
ታሉ	-3172
ቀላቀሉ	-3173
▁ተሳትፎ	-3174
▁l	-3175
መልስ	-3176
በራቸው	-3177
▁የቱ	-3178
▁ፕሪሚየር	-3179
▁በጦር	-3180
ኩን	-3181
ጋንዳ	-3182
በተ	-3183
ers	-3184
ዮርጊስ	-3185
▁በቀለ	-3186
▁ሰል	-3187
▁የሟ	-3188
ዚቃ	-3189
▁እንዲቀ	-3190
▁ትራንስፖርት	-3191
ጎዳ	-3192
▁የሙ	-3193
▁ጫና	-3194
ነቶች	-3195
ከታተል	-3196
21	-3197
▁በፍጥነት	-3198
ፕሎማ	-3199
▁በቤ	-3200
ጥም	-3201
▁አስቸኳይ	-3202
▁የን	-3203
2016	-3204
▁ሰሜን	-3205
▁ቅርንጫ	-3206
ገደሉ	-3207
▁በቀጥታ	-3208
ንቀሳቀሱ	-3209
▁ፍቃድ	-3210
▁ይጠበቃል።	-3211
▁የውሃ	-3212
▁የሚወስ	-3213
▁ስትል	-3214
▁ታውቋል።	-3215
▁ወርቅ	-3216
▁መጀመሪያ	-3217
▁እሱ	-3218
ዲና	-3219
ችኋ	-3220
▁የሳ	-3221
ዲን	-3222
▁ከዛሬ	-3223
▁የትራንስፖርት	-3224
▁ስሜት	-3225
በታ	-3226
▁መተግ	-3227
ለል	-3228
ኖስ	-3229
ፋን	-3230
▁ያው	-3231
▁ብዛት	-3232
▁ወዲህ	-3233
▁በሰሜን	-3234
▁የሚሆን	-3235
ጅቱ	-3236
ገኙት	-3237
▁መስቀል	-3238
ከናወነ	-3239
▁ተሰማ	-3240
▁ሳምንታት	-3241
▁ኢትዮጵያን	-3242
ላሉ።	-3243
▁ይፈ	-3244
ብሮ	-3245
ሞኑን	-3246
▁የምርመራ	-3247
▁የቢ	-3248
▁ጉብኝ	-3249
▁ትራምፕ	-3250
▁የጨዋታ	-3251
▁ይችላሉ	-3252
▁ታደሰ	-3253
▁አዳዲስ	-3254
▁ተቋሙ	-3255
▁ተገለጸ	-3256
ገኙበት	-3257
ኒው	-3258
▁ያመ	-3259
▁ሊዮ	-3260
▁የመን	-3261
▁ሳው	-3262
▁ተመር	-3263
▁የአካል	-3264
▁ነበሩ	-3265
▁ከዛ	-3266
▁ጠንካራ	-3267
80	-3268
ረግ	-3269
▁ትብብር	-3270
ተናል	-3271
▁አቻ	-3272
▁የሚሰራ	-3273
elegram	-3274
▁ወሳኝ	-3275
▁ነዳጅ	-3276
▁ወደፊት	-3277
-2	-3278
▁ተባለ	-3279
▁ለፍ	-3280
▁የመሐል	-3281
▁ገዳ	-3282
▁ዘጠኝ	-3283
በረሰቡ	-3284
▁አብረ	-3285
----------------	-3286
ቆያ	-3287
▁አስረድተዋል።	-3288
ሳል	-3289
ነገ	-3290
ብራቶሪ	-3291
ንነት	-3292
ስተካ	-3293
▁ሰአት	-3294
▁መረጃዎችን	-3295
ሐመድ	-3296
ጥፋት	-3297
▁በሀገር	-3298
▁መብቶች	-3299
▁አርብ	-3300
▁የሚገኝ	-3301
ወራ	-3302
▁ወዳ	-3303
▁ተቀባይ	-3304
ቆይ	-3305
▁ይቅርታ	-3306
ላሴ	-3307
ረጋገጠ	-3308
▁ስብስ	-3309
ባባ	-3310
▁ፈጣሪ	-3311
ጠለ	-3312
ore	-3313
▁ያገኘነው	-3314
▁የአደጋ	-3315
▁ኮሚሽነር	-3316
ዝና	-3317
▁ሕዝ	-3318
▁በቀን	-3319
በሳ	-3320
▁ሀያ	-3321
▁በመገኘ	-3322
ዬን	-3323
▁የሚችል	-3324
▁ኮንትራት	-3325
▁ፕሮጀክ	-3326
▁ለመቀ	-3327
▁ለሰ	-3328
▁ተያይዞ	-3329
▁በመስጠት	-3330
▁ሩሲያ	-3331
▁በረራ	-3332
▁መከላከል	-3333
▁እስር	-3334
ዎችና	-3335
▁ቀይ	-3336
▁ተፈታ	-3337
በርካታ	-3338
▁እቅድ	-3339
▁ህፃናት	-3340
▁ፉ	-3341
▁ሐምሌ	-3342
ሴቶች	-3343
▁ጉዳዩ	-3344
▁ፖለቲካ	-3345
▁ይመስላል	-3346
ከው	-3347
▁ክብር	-3348
▁ቲክቫህ	-3349
▁አቀባ	-3350
▁አይደለም።	-3351
▁ጥቅ	-3352
▁ረቂቅ	-3353
▁መጣ	-3354
▁ታስ	-3355
ተሻ	-3356
ግስት	-3357
ኒስት	-3358
ድድሩ	-3359
ዮቹ	-3360
ቀን	-3361
መለከታቸው	-3362
ለኛ	-3363
ላሳ	-3364
▁እንዳለው	-3365
ሁፍ	-3366
▁በገ	-3367
መለክ	-3368
ቋረጥ	-3369
▁ለሌ	-3370
▁ይፈልጋ	-3371
▁ከግ	-3372
▁ለማስፈረም	-3373
የተ	-3374
ሐሴ	-3375
ድኑ	-3376
▁አማካኝነት	-3377
70	-3378
▁ግብረ	-3379
▁ህዳር	-3380
ውሰድ	-3381
▁ሠራዊት	-3382
▁ቦር	-3383
▁መሰል	-3384
ኮት	-3385
▁የወሰ	-3386
▁ዕጣ	-3387
▁4.	-3388
▁ከቀኑ	-3389
▁ብለዋል	-3390
ሻንጉ	-3391
ዘነጋ	-3392
ረዋል።	-3393
▁አልፎ	-3394
▁ድርሻ	-3395
▁ድርድር	-3396
ፌስቡክ	-3397
▁ቁሳቁ	-3398
ደንት	-3399
ማርኛ	-3400
▁ትክክለኛ	-3401
ቀመጥ	-3402
ዊተር	-3403
▁ሲኖ	-3404
▁ምድብ	-3405
ምቤላ	-3406
▁በላ	-3407
▁ናቸው፡፡	-3408
ce	-3409
ም፤	-3410
▁አላማ	-3411
▁h	-3412
▁ብቸ	-3413
ረታ	-3414
▁ንጉ	-3415
▁አለን	-3416
ጁን	-3417
ሪዝም	-3418
ሶችን	-3419
▁በሞ	-3420
▁የዝውውር	-3421
▁ፕሮጀክት	-3422
▁ገና	-3423
▁መድረሱን	-3424
▁አስፈጻሚ	-3425
▁መደረጉን	-3426
▁ኮሚሽኑ	-3427
ሺህ	-3428
▁ብርሃ	-3429
▁በመተባበር	-3430
▁በቴሌ	-3431
▁ፕሮግራ	-3432
▁ህይወቱ	-3433
▁ፕሮፌሰር	-3434
▁እንዳለበት	-3435
ንቱስ	-3436
▁ካሉ	-3437
▁ተቀም	-3438
▁e	-3439
▁አብዱ	-3440
▁በተከሰ	-3441
▁በመግባት	-3442
▁የሕዝብ	-3443
ኖችን	-3444
▁በመስ	-3445
▁ቀጣ	-3446
▁አስተዳዳሪ	-3447
▁ድረ	-3448
!"	-3449
▁ጥያቄዎች	-3450
▁አስኪያ	-3451
▁ይገኛሉ	-3452
ረምት	-3453
ጠናከር	-3454
ወል	-3455
ድም	-3456
ዚአብ	-3457
▁የሚታወ	-3458
ፈታ	-3459
▁ከሁለት	-3460
▁ድንበር	-3461
▁ሲሆን፤	-3462
▁መሞ	-3463
ረበ	-3464
ቻይና	-3465
▁አንተ	-3466
ዓመቱ	-3467
ነጋገር	-3468
▁አጋር	-3469
ቋሙ	-3470
ከታተሉ	-3471
▁የአካባቢው	-3472
▁እውነ	-3473
▁በሁለቱ	-3474
▁የበለጠ	-3475
ጋጠመው	-3476
▁መኮንን	-3477
▁ከሳ	-3478
ሻሻል	-3479
▁ጽህፈት	-3480
ቨስት	-3481
▁ነበረ	-3482
▁ታማ	-3483
▁የሚሰጥ	-3484
▁የኦሮሞ	-3485
▁የህወ	-3486
▁th	-3487
▁ለማወቅ	-3488
▁ልምምድ	-3489
▁የተናገሩት	-3490
ሴት	-3491
99	-3492
ንዛ	-3493
ጦታ	-3494
500	-3495
ቀረበ	-3496
▁ከሌሎች	-3497
▁ይቻ	-3498
thi	-3499
ጨመረ	-3500
▁ጠዋት	-3501
ሮቹ	-3502
▁ሰጥተዋል።	-3503
▁መብራት	-3504
▁በከተማዋ	-3505
▁ተሰምቷል።	-3506
100	-3507
▁ሀገራ	-3508
ድሜ	-3509
ናትን	-3510
▁የማህበራዊ	-3511
▁ይገኛል፡፡	-3512
▁ማለፉን	-3513
▁ስርጭት	-3514
▁ተቃውሞ	-3515
▁ከተለያዩ	-3516
▁ማስቆጠር	-3517
▁የዳ	-3518
ገንባት	-3519
▁የሚታ	-3520
▁አሕ	-3521
ቲን	-3522
▁ሚልዮን	-3523
ጉም	-3524
ሻገር	-3525
ርቶዶ	-3526
▁ህል	-3527
▁ብሩ	-3528
ቆች	-3529
▁ይታወሳል፡፡	-3530
ፋሪ	-3531
▁ክስተ	-3532
▁ስልጣን	-3533
ch	-3534
▁ዘመናዊ	-3535
ጠናቀቁ	-3536
▁ይቀጥ	-3537
▁ምስጋና	-3538
ጀመሩ	-3539
▁አታ	-3540
▁ይኖ	-3541
▁ብለን	-3542
▁የተኩስ	-3543
▁አክለ	-3544
ሰኞ	-3545
▁የዋጋ	-3546
ፈጸመ	-3547
77	-3548
▁ግም	-3549
ኝም	-3550
ን፣	-3551
▁ባሳ	-3552
ጀንቲ	-3553
▁መልቀ	-3554
ዳና	-3555
▁ኤል	-3556
ፖሊ	-3557
ልስጤ	-3558
▁የኮሚ	-3559
▁በድጋሚ	-3560
▁ብራዚ	-3561
▁አንደኛ	-3562
▁ሳያ	-3563
▁የእር	-3564
ሳሰብ	-3565
ሎምፒክ	-3566
▁ልምድ	-3567
▁ያገኛ	-3568
▁አቅርበዋል።	-3569
ሳሌ	-3570
▁ቪላ	-3571
የቱን	-3572
▁ማይ	-3573
▁አቀባይ	-3574
ሊንግ	-3575
▁ግዜ	-3576
ለበት	-3577
ኔራል	-3578
▁ሀዋሳ	-3579
ist	-3580
ገናኘ	-3581
▁ንብረ	-3582
ህና	-3583
ለቅ	-3584
▁የሚደረግ	-3585
▁ኮማንደር	-3586
ክሬ	-3587
በራት	-3588
▁ገልጿል፡፡	-3589
ንጋ	-3590
▁መልሶ	-3591
▁ተማሪዎቹ	-3592
?"	-3593
pp	-3594
ዮችን	-3595
ቃል፡፡	-3596
▁ተቋማ	-3597
▁እያንዳን	-3598
ፍቶ	-3599
ተኛው	-3600
▁0-0	-3601
▁ሀሰተኛ	-3602
▁ሊዮኔል	-3603
ሰና	-3604
ላዊው	-3605
▁ካምፓ	-3606
▁ልብስ	-3607
▁ባለፈ	-3608
▁በሰጠው	-3609
ጠንቀ	-3610
▁በዕ	-3611
ኖራቸው	-3612
ጣጥ	-3613
▁የከፍተኛ	-3614
▁ማረጋገ	-3615
ab	-3616
▁እንግሊዝ	-3617
ው።	-3618
▁ሪፖር	-3619
▁ለበለጠ	-3620
▁አስታዉ	-3621
ሃብ	-3622
ቀዋል፡፡	-3623
▁አንስቶ	-3624
▁የሚለውን	-3625
▁ተጠባቂ	-3626
▁የተባሉ	-3627
ገበው	-3628
ገተኛ	-3629
▁ጠይቀዋል።	-3630
▁ተቀባይነት	-3631
▁አደጋው	-3632
ተኮ	-3633
▁ለመግ	-3634
ጣቸው	-3635
▁አርባ	-3636
▁ለአንድ	-3637
▁መንፈ	-3638
▁በነገው	-3639
ፈዋል።	-3640
▁ሰብዓዊ	-3641
▁70	-3642
ሻንጉል	-3643
ቃቂ	-3644
▁መሀመድ	-3645
▁ዩሮ	-3646
▁የስፖርት	-3647
▁ለመቆጣጠር	-3648
▁ተግባራት	-3649
ሆስፒ	-3650
▁ችሎ	-3651
com	-3652
በረታ	-3653
ታቸዉ	-3654
▁ገፅ	-3655
▁አነ	-3656
▁ሃሳብ	-3657
▁መረጃው	-3658
▁እንዳያ	-3659
▁የሚችሉ	-3660
▁ዩናይት	-3661
▁የቀድሞው	-3662
▁60	-3663
▁ዓላማ	-3664
▁የቅድመ	-3665
ሀን	-3666
ርሲ	-3667
ይታ	-3668
▁ይታ	-3669
▁በአሁን	-3670
▁ባስ	-3671
▁ለቲክቫህ	-3672
ረዋል	-3673
ረጅም	-3674
▁ልት	-3675
▁ራሱን	-3676
▁500	-3677
▁እንደሚችሉ	-3678
▁ምንድ	-3679
▁ይኖር	-3680
2014	-3681
▁ተጠርጣሪዎች	-3682
ፈለጉ	-3683
▁ለሚያ	-3684
▁እንግሊ	-3685
▁ፓርቲዎች	-3686
ሳይንስ	-3687
▁ልዩነት	-3688
ቤቶች	-3689
▁ሊቀመን	-3690
ቅርብ	-3691
▁ማው	-3692
ሁት	-3693
▁ጎል	-3694
ዳቸውን	-3695
ሩም	-3696
ተኞችን	-3697
▁መጠቀም	-3698
ኝታ	-3699
2015	-3700
▁እንዲያደርጉ	-3701
▁አርቴ	-3702
▁ግንባር	-3703
▁አሰልጣኙ	-3704
ረፋ	-3705
▁በሊጉ	-3706
ቶኒ	-3707
▁መሰረ	-3708
▁በአን	-3709
▁ተል	-3710
▁የተመረ	-3711
ንዶች	-3712
▁አሳስቧል።	-3713
ረኛ	-3714
ጻጸ	-3715
▁መያዙ	-3716
▁በሰው	-3717
▁መስተዳድር	-3718
▁ከጠ	-3719
▁መጠየ	-3720
▁አሰራር	-3721
ናቱ	-3722
▁ወለጋ	-3723
▁ርቀት	-3724
▁ታህሳስ	-3725
▁በተደረገው	-3726
▁በምን	-3727
▁ኢንስቲት	-3728
▁አለብን	-3729
▁ካፕ	-3730
ዜአ	-3731
▁ውድቅ	-3732
▁አሕመድ	-3733
▁ለማን	-3734
▁እውቅና	-3735
ሲብ	-3736
ኖቹ	-3737
ter	-3738
▁በቡ	-3739
▁2012	-3740
▁ተመራቂ	-3741
▁አግባብ	-3742
ቸጋሪ	-3743
▁ወሎ	-3744
ስኮ	-3745
ጣቱ	-3746
▁በበኩሉ	-3747
ዘጋጁ	-3748
▁መኖር	-3749
▁ክፍት	-3750
▁በመም	-3751
▁ባህል	-3752
በስ	-3753
▁መደ	-3754
ገልግሎት	-3755
ረከ	-3756
os	-3757
ኬል	-3758
▁ጅማ	-3759
▁እውነት	-3760
ይህ	-3761
▁ስጋ	-3762
ዘጋጀው	-3763
▁ያሳያል።	-3764
▁ችሏል	-3765
▁የሚተ	-3766
ካሄዱ	-3767
▁አይዘነጋ	-3768
▁ያለፈ	-3769
ወሰነ	-3770
▁በህግ	-3771
ሳችሁ	-3772
▁ከል	-3773
▁ሰዓታት	-3774
▁አስፈላጊውን	-3775
▁መቼ	-3776
መቻ	-3777
▁ብዙሃን	-3778
ል፤	-3779
▁ተናገሩ	-3780
▁የኤርትራ	-3781
▁ጠብ	-3782
▁ዝናብ	-3783
▁ቢሊየን	-3784
ዛው	-3785
▁ክህ	-3786
▁ሲያስ	-3787
▁ኮከብ	-3788
ስትራ	-3789
▁በሶማ	-3790
▁ጥቂት	-3791
▁አባቶች	-3792
▁ቻናል	-3793
▁ምክንያቱም	-3794
ፈኞቹ	-3795
▁ለስ	-3796
▁ይጀም	-3797
▁መታወቂያ	-3798
ምቦ	-3799
ዚአብሔር	-3800
▁ተጠቁሟል።	-3801
▁ላይም	-3802
ግባቡ	-3803
▁መተግበሪያ	-3804
▁መሃ	-3805
▁መቀመ	-3806
▁ኤሪክ	-3807
▁መቻ	-3808
ፈፀመ	-3809
ሊዮን	-3810
▁እንስ	-3811
▁35	-3812
ለጥ	-3813
ሐፍ	-3814
ኝ።	-3815
ፈልገው	-3816
▁የሁለት	-3817
ለዉ	-3818
▁አና	-3819
▁መድኃ	-3820
▁ይሆን	-3821
▁ያስፈልጋ	-3822
▁ያደረገው	-3823
▁ለኢ	-3824
▁ሞገስ	-3825
▁በኮቪድ	-3826
▁ለመስራት	-3827
ሎን	-3828
▁ወረቀት	-3829
ክኒክ	-3830
▁ወድ	-3831
ity	-3832
▁ኮሪያ	-3833
ውልድ	-3834
▁ለንደ	-3835
ኒቨርሲቲው	-3836
▁ለመመለስ	-3837
▁የማህ	-3838
▁በአለም	-3839
እምሮ	-3840
▁ኢኮኖሚ	-3841
▁is	-3842
ርጦ	-3843
▁ህንፃ	-3844
▁ሲሉም	-3845
▁የሊጉ	-3846
ርላማ	-3847
▁ብት	-3848
▁የኔ	-3849
▁ተዘግቧል።	-3850
▁የሸ	-3851
▁ፍራ	-3852
▁እያስ	-3853
ri	-3854
ሚር	-3855
▁ሊንክ	-3856
▁ኮርፖ	-3857
▁ቋሚ	-3858
▁የባለ	-3859
ሪቱን	-3860
▁መንገዱ	-3861
▁የሚባል	-3862
29	-3863
ናቸውን	-3864
▁ገደብ	-3865
▁ሲሆን፣	-3866
▁ጥፋ	-3867
▁ጣል	-3868
▁በፓ	-3869
▁ሰነድ	-3870
▁ጊዮርጊስ	-3871
ጥን	-3872
ረንሳ	-3873
▁ሲነ	-3874
ቂጤ	-3875
ችለው	-3876
ሰብሰብ	-3877
ርቶዶክስ	-3878
▁ተጎ	-3879
ቀስ	-3880
ታችሁ	-3881
ጠነ	-3882
▁አቤ	-3883
▁ከኮ	-3884
▁መልክ	-3885
ሸት	-3886
ሆናቸው	-3887
▁የአል	-3888
▁መጀመሩን	-3889
▁ሠራተኞች	-3890
▁ላለፉት	-3891
ገለፅ	-3892
▁በጉዳዩ	-3893
ሸነፊያ	-3894
▁ምዕራ	-3895
ነታቸውን	-3896
ዳል	-3897
▁ሀሳ	-3898
ሆነው	-3899
▁ህጻናት	-3900
▁የሚሆኑት	-3901
▁አስቀድሞ	-3902
▁እንድታ	-3903
▁ስለተ	-3904
▁ኢንዱስትሪ	-3905
ችልም	-3906
▁ታይ	-3907
▁ቀዳሚ	-3908
በዋል፡፡	-3909
▁ማድረጉን	-3910
▁ሚዲያዎች	-3911
▁እንደሚሰጥ	-3912
▁ኳ	-3913
ቢዎች	-3914
▁መስጠ	-3915
▁ጋርዲዮ	-3916
▁ማድረጋ	-3917
▁የላብራቶሪ	-3918
ቨርተን	-3919
▁ክልላዊ	-3920
▁ይህንንም	-3921
▁ያስቆ	-3922
▁ስቴትስ	-3923
▁የሚገኙት	-3924
ፀጥታ	-3925
▁በመያዝ	-3926
▁ሰለሞን	-3927
▁በዋና	-3928
▁ወንዶች	-3929
▁አንድነት	-3930
▁ኮሙ	-3931
▁ፈቃ	-3932
▁እኮ	-3933
▁ጉድ	-3934
▁የማሸነፊያ	-3935
ገራቸውን	-3936
▁Telegram	-3937
ጦች	-3938
ዋቂ	-3939
ወሰዱ	-3940
ውንት	-3941
▁የኃ	-3942
▁አለባቸው	-3943
በልጥ	-3944
▁ለጥ	-3945
▁የሚሉ	-3946
▁2017	-3947
ጋዬ	-3948
ፈተ	-3949
▁ሚያ	-3950
▁ለአዲስ	-3951
ጓዙ	-3952
▁በነፃ	-3953
▁g	-3954
መዝገብ	-3955
ምምነት	-3956
▁በአግባቡ	-3957
▁በስተ	-3958
ላይን	-3959
ወሰደ	-3960
ያዎች	-3961
▁የሰብአዊ	-3962
ቃቱ	-3963
▁ዎ	-3964
▁እንዳሉ	-3965
▁ጉብኝት	-3966
▁ጣቢያዎች	-3967
86	-3968
በን	-3969
ገዝ	-3970
ቻለም	-3971
▁ኒውካ	-3972
▁ዋስትና	-3973
▁ዜጎችን	-3974
▁የሴቶች	-3975
▁የክልል	-3976
ፌዴሪ	-3977
ለን፡፡	-3978
▁re	-3979
▁አርቲ	-3980
▁ራስ	-3981
▁በድር	-3982
▁አሊ	-3983
ቀኑ	-3984
ነብ	-3985
ቲንግ	-3986
▁ከጎ	-3987
▁ማለዳ	-3988
▁የኢትዮ	-3989
▁ድርጅቱ	-3990
▁ጠይቋል።	-3991
ቆት	-3992
ችውን	-3993
▁ቦሌ	-3994
▁ሰጥቷል።	-3995
▁አቡነ	-3996
▁ያለመ	-3997
ዋር	-3998
ዩብ	-3999
▁90	-4000
▁ሳን	-4001
▁ከእስር	-4002
▁ሚንስትር	-4003
ገናኝ	-4004
▁የወደ	-4005
▁በነበረ	-4006
▁በምት	-4007
ወዝ	-4008
ናቀሉ	-4009
▁አቀፉ	-4010
▁ለንደኑ	-4011
▁እንዲደረግ	-4012
▁እናም	-4013
▁የመው	-4014
▁አስቶን	-4015
▁ዝግጅ	-4016
▁ከምሽቱ	-4017
ሃም	-4018
▁ናይ	-4019
▁ድልድ	-4020
▁ኃላፊነት	-4021
ሱስ	-4022
▁አዳማ	-4023
▁እያደረጉ	-4024
▁በአውሮፓ	-4025
ፃፀ	-4026
ተኝነት	-4027
ገመ	-4028
▁ብርሃን	-4029
▁ክብ	-4030
▁መንስ	-4031
ላክቷል።	-4032
▁አንቶኒ	-4033
ስታን	-4034
▁ማራ	-4035
▁ከኢ	-4036
▁መሐመድ	-4037
ዕኖ	-4038
▁ዳን	-4039
▁እንደሚሆን	-4040
ላለፈ	-4041
▁የመረጃ	-4042
▁ፌዴሬሽን	-4043
ከን	-4044
2013	-4045
▁ታግ	-4046
ቀሰ	-4047
▁us	-4048
▁መዘ	-4049
▁ህዝቦች	-4050
▁ኢትዮጵያዊያን	-4051
▁ጋርዲዮላ	-4052
ምስ	-4053
ly	-4054
▁አቋም	-4055
▁ፍቃ	-4056
ET	-4057
ጋዜ	-4058
▁ሥርዓት	-4059
▁ባይደን	-4060
▁የተቃ	-4061
▁አሰላለፍ	-4062
ክተሩ	-4063
▁ማክሰኞ	-4064
▁ችግሩን	-4065
▁ደስተኛ	-4066
አይ	-4067
▁ፍትህ	-4068
ልጠና	-4069
▁ቴን	-4070
▁አድርጓል	-4071
ንዴ	-4072
ህተት	-4073
▁ሲባል	-4074
▁ችግሩ	-4075
ፍስ	-4076
▁ዝም	-4077
▁አውሮፕላ	-4078
▁ታሪካ	-4079
▁አጋማሽ	-4080
ቨስትመንት	-4081
ዩም	-4082
ቃሉ	-4083
ዛን	-4084
▁እያሳ	-4085
▁ሲኖዶ	-4086
▁አርቴታ	-4087
▁የተለየ	-4088
ው፣	-4089
ጠየቅ	-4090
▁በስፋት	-4091
▁አብሮ	-4092
▁በእንግሊዝ	-4093
ድስ	-4094
▁01	-4095
▁አዲ	-4096
▁ዞኖች	-4097
▁የተሰጠ	-4098
▁የቲክቫህ	-4099
64	-4100
▁በሱዳን	-4101
▁የሩሲያ	-4102
ሞላ	-4103
▁በእር	-4104
▁ይቀላቀሉ	-4105
▁በተገኙበት	-4106
ኤታ	-4107
▁ለሁለት	-4108
▁ትምህርታቸውን	-4109
ደገፍ	-4110
▁ሳቢያ	-4111
▁ገንዘ	-4112
▁ጥገና	-4113
ዩኒኬሽን	-4114
▁የዚህ	-4115
▁ማቅረ	-4116
▁ቫይረሱ	-4117
▁አስተባባሪ	-4118
ላቱ	-4119
▁በዲ	-4120
▁ምርቶች	-4121
▁አሌ	-4122
▁የበላይ	-4123
▁የፈተና	-4124
▁ያለበት	-4125
ጣራት	-4126
▁የልማት	-4127
ወቀ	-4128
▁እንደም	-4129
▁አለፈ	-4130
▁በጅ	-4131
▁የሚኖሩ	-4132
▁እየጨመረ	-4133
▁ቀድሞ	-4134
▁እንዳሉት	-4135
ስትሀም	-4136
▁ትችላ	-4137
▁በፖሊስ	-4138
▁ሥነ	-4139
.5	-4140
ጋን	-4141
ine	-4142
▁ፌስቡክ	-4143
▁መጋ	-4144
▁የተሳ	-4145
▁ቴሌኮም	-4146
▁ሽመልስ	-4147
ess	-4148
▁የተፈጸ	-4149
▁ሀገሪቱ	-4150
▁ተሳታፊ	-4151
▁አስኪያጅ	-4152
▁በውጭ	-4153
ሰመ	-4154
▁ታላቅ	-4155
መኑ	-4156
▁ካሜ	-4157
▁የባህር	-4158
▁ቁር	-4159
▁ተደምጠዋል።	-4160
ሌይ	-4161
▁የመድ	-4162
▁በምዕራብ	-4163
▁ወይዘ	-4164
▁1-0	-4165
▁ሚኒስቴሩ	-4166
▁በመጨረሻ	-4167
ጆቹ	-4168
▁የብሔራዊ	-4169
ረፈ	-4170
▁ዘላቂ	-4171
▁ስታንዳ	-4172
▁አጀ	-4173
▁ትንሽ	-4174
▁ደጋፊ	-4175
37	-4176
ርቹ	-4177
▁ለነ	-4178
▁ሕገ	-4179
▁ምስራቅ	-4180
▁ቀውስ	-4181
▁ገደማ	-4182
ቀና	-4183
▁መድሃ	-4184
ul	-4185
▁አቀባበል	-4186
▁የቤ	-4187
ቸዋል፡፡	-4188
▁ኤርትራ	-4189
▁ሊቀመንበር	-4190
ደቡ	-4191
▁ዘው	-4192
ሪም	-4193
ዘጋጀት	-4194
▁ሰብሳቢ	-4195
▁እንደሆኑ	-4196
▁የሆነውን	-4197
▁በሚቀጥ	-4198
▁for	-4199
▁የእግር	-4200
▁ሳላህ	-4201
ንዳንድ	-4202
▁የሩ	-4203
▁ማለፍ	-4204
▁ተፅ	-4205
▁ሽልማ	-4206
▁አንደ	-4207
▁ሀገራዊ	-4208
▁ማስተማር	-4209
▁አደጋዎች	-4210
▁ለመሆን	-4211
▁አክለውም	-4212
ጭነት	-4213
▁ሆና	-4214
▁በድን	-4215
▁ተገድ	-4216
▁የተከ	-4217
thiop	-4218
▁on	-4219
▁ማርቲ	-4220
▁ተብለው	-4221
▁የተሰራ	-4222
▁እንግሊዛ	-4223
ራል።	-4224
▁80	-4225
▁ይሄን	-4226
▁ሰጪ	-4227
▁ግርማ	-4228
ጨው	-4229
ጠይቅ	-4230
ነች	-4231
▁ቢቢሲ	-4232
▁ከሀገር	-4233
▁ከቀናት	-4234
▁እንዲወጡ	-4235
ሎስ	-4236
ገባቸው	-4237
▁የባህል	-4238
▁ፈጥ	-4239
ወድ	-4240
▁አሻ	-4241
▁በለ	-4242
▁በሲ	-4243
▁የአን	-4244
▁ብርሃኑ	-4245
▁ፈተናው	-4246
ስያ	-4247
ደስ	-4248
▁ሁሌ	-4249
/2013	-4250
▁የለውም	-4251
ሳሽ	-4252
▁ምባ	-4253
▁32	-4254
▁ለሚገኙ	-4255
▁ኃላፊዎች	-4256
▁ሙያ	-4257
ለማችን	-4258
▁ትጥቅ	-4259
ባቸዋል።	-4260
ልበት	-4261
▁እህ	-4262
ሰልጣኝ	-4263
▁ሕይወ	-4264
ut	-4265
ርባ	-4266
▁እየታ	-4267
▁አሽከርካሪዎች	-4268
ታችንን	-4269
▁በርን	-4270
▁ብቃት	-4271
▁ምዘ	-4272
▁ረዳ	-4273
ስክ	-4274
▁ተወዳ	-4275
▁ኢንጂ	-4276
የታቸውን	-4277
▁ደሞዝ	-4278
▁አገልግሎቶች	-4279
▁ምረቃ	-4280
በርግ	-4281
▁አስር	-4282
ንሰር	-4283
▁ዛሬም	-4284
ሙዝ	-4285
ዮሽ	-4286
ይይቱ	-4287
ራሉ	-4288
▁አሳል	-4289
our	-4290
ማግ	-4291
▁ወኪ	-4292
ጨምር	-4293
ህረ	-4294
▁መርሀ	-4295
▁ሰራተኛ	-4296
90	-4297
▁በመል	-4298
▁ግለሰቡ	-4299
▁የወሩ	-4300
▁ማንም	-4301
▁ፊልም	-4302
ፈጸሙ	-4303
▁ማግኘ	-4304
▁በራሱ	-4305
▁ለህዝብ	-4306
▁የዩኒቨርሲቲው	-4307
ቆሙ	-4308
▁የሚያሳይ	-4309
▁ስታንዳርድ	-4310
▁ዘገባው	-4311
ዋቱ	-4312
ገናኙ	-4313
▁ይባ	-4314
▁የተገኘው	-4315
ንኩ	-4316
▁ነሐሴ	-4317
▁ይፋዊ	-4318
መዋል፡፡	-4319
ደታ	-4320
▁ፓት	-4321
▁የሚያሳ	-4322
ብሊክ	-4323
▁45	-4324
▁ሀይሎች	-4325
if	-4326
ከባድ	-4327
ደርሳ	-4328
▁ያመለክ	-4329
▁የሻ	-4330
▁ቦታው	-4331
▁ፓርክ	-4332
▁የተማሪዎች	-4333
▁ከዋ	-4334
▁ተፈጥሮ	-4335
▁ፈረንሳይ	-4336
ይነ	-4337
▁ወሬ	-4338
ራባ	-4339
▁የዞኑ	-4340
ጠንቀቂያ	-4341
▁ድብ	-4342
ል፣	-4343
ተሪ	-4344
ቻችንን	-4345
▁የባንክ	-4346
........	-4347
▁ከባለ	-4348
▁የሽብር	-4349
▁በአስቸኳይ	-4350
ቻለው	-4351
▁ቀጠና	-4352
▁ፕሬዜ	-4353
▁አቅርቧል።	-4354
▁ፈተናውን	-4355
ሮኮ	-4356
የውን	-4357
ያቸውን	-4358
▁ደረሰ	-4359
-3	-4360
ቅምት	-4361
ጣቱን	-4362
▁ማኔ	-4363
▁አስታወቀ፡፡	-4364
▁አረጋ	-4365
▁ከሜዳ	-4366
▁በመገኘት	-4367
ሟል፡፡	-4368
▁የገቡ	-4369
▁ይገኙ	-4370
ድዋ	-4371
መለከቱ	-4372
▁ነጋዴ	-4373
▁ተከላካይ	-4374
▁ውስ	-4375
መዘገበ	-4376
ንዶ	-4377
ምንቱ	-4378
▁አለኝ	-4379
▁የደረሰው	-4380
ናዳ	-4381
ጭበር	-4382
▁መሥ	-4383
▁ግዴ	-4384
▁ለማም	-4385
ጎዱ	-4386
▁ማየት	-4387
26	-4388
▁ጌታ	-4389
ልስፍና	-4390
▁ባለሞ	-4391
▁በዘንድሮው	-4392
▁ኢንስቲትዩት	-4393
▁በሞት	-4394
▁ባሉት	-4395
ባቸዉ	-4396
▁ሽያጭ	-4397
ቃቸውን	-4398
በረከት	-4399
▁ልማ	-4400
▁የሐ	-4401
▁ገጽ	-4402
▁ሀላንድ	-4403
ሮው	-4404
ከም	-4405
▁አንቀ	-4406
▁የተገለፀ	-4407
ሪፍ	-4408
▁ማለትም	-4409
▁ሰላምና	-4410
ጠየቁ	-4411
▁የቁ	-4412
▁ሕክምና	-4413
▁የሌለው	-4414
▁የመኪና	-4415
▁የጊዜ	-4416
ሳሰ	-4417
▁''	-4418
▁በስራ	-4419
▁ተስፋዬ	-4420
ብዛ	-4421
▁ብሄ	-4422
▁አዳራሽ	-4423
መልካ	-4424
▁እንደሚደረግ	-4425
▁ወዲያ	-4426
▁ሰሞኑን	-4427
▁የተፈፀ	-4428
ገም	-4429
መዋል	-4430
▁በቀላሉ	-4431
▁በሶ	-4432
▁ስጦታ	-4433
▁ጠየ	-4434
▁ተጨዋቹ	-4435
▁አማርኛ	-4436
▁ዴሞክራሲ	-4437
ወጣት	-4438
ከናወኑ	-4439
▁አማካይ	-4440
▁እንዳልተ	-4441
▁ብድር	-4442
▁ኃላፊው	-4443
▁አውጥ	-4444
▁በጊዜ	-4445
▁አሁኑ	-4446
▁አበበ	-4447
ሪው	-4448
ላለፉ	-4449
▁ለታ	-4450
▁ኪንግ	-4451
▁በአካል	-4452
ጠዋል	-4453
▁ብሏል	-4454
ሙስና	-4455
ከታታይ	-4456
የትኛውም	-4457
ውንድ	-4458
▁ለዚህም	-4459
▁ቤቶችን	-4460
ቢው	-4461
▁ግብፅ	-4462
▁በሁለተኛ	-4463
▁እንዲሰጥ	-4464
▁ኦርቶዶክስ	-4465
ኳር	-4466
ann	-4467
▁ኮሚኒኬሽን	-4468
ናቅ	-4469
▁የሱ	-4470
ሰባሰብ	-4471
▁አንዳን	-4472
▁ክርስቲያኖ	-4473
▁ደረጃን	-4474
ማግሌ	-4475
ችበት	-4476
▁ነግ	-4477
▁መፍትሔ	-4478
▁ማሳረፍ	-4479
▁ስብስብ	-4480
ድርሻ	-4481
▁መዝገብ	-4482
በጣ	-4483
▁የመል	-4484
ደረሰው	-4485
▁አብር	-4486
▁ባንኩ	-4487
▁ባለሥልጣ	-4488
▁የኢኮኖሚ	-4489
ፋጣኝ	-4490
▁5.	-4491
51	-4492
▁ተር	-4493
▁2011	-4494
▁ማረጋገጫ	-4495
▁በሀገራችን	-4496
ሌን	-4497
▁ጋብ	-4498
▁ሲኖዶስ	-4499
▁የሚገኘ	-4500
ትነት	-4501
▁ክትባት	-4502
▁የክለቡ	-4503
▁ላል	-4504
ከሰት	-4505
ድሮስ	-4506
▁ተበ	-4507
▁አጀንዳ	-4508
ቅናቄ	-4509
ታወቅ	-4510
▁አመልክቷል።	-4511
ደንብ	-4512
▁መቃ	-4513
▁ድሬዳዋ	-4514
ማሪያ	-4515
▁መልእ	-4516
▁ድንቅ	-4517
▁ላሊጋ	-4518
▁በማሸነፍ	-4519
▁አካባቢው	-4520
▁የሶ	-4521
▁ቅርንጫፍ	-4522
▁ለሕ	-4523
▁ሃይሎች	-4524
▁በአፋር	-4525
▁ጆርናል	-4526
▁ሀብታ	-4527
▁ወላጆች	-4528
ሀል	-4529
▁ለተጨማሪ	-4530
ቱንም	-4531
▁የአው	-4532
ቶክ	-4533
▁ደራሲ	-4534
▁መንስኤ	-4535
▁ግለሰቦ	-4536
▁አርጀንቲ	-4537
▁በኦ	-4538
▁እሳ	-4539
▁33	-4540
▁ሳል	-4541
▁ዳኛ	-4542
▁እያሉ	-4543
▁ወገን	-4544
▁ፀጥታ	-4545
▁አውሮፓ	-4546
um	-4547
▁የተፈጠረ	-4548
▁ለሙሉ	-4549
▁አብዲ	-4550
▁የደህንነት	-4551
መውን	-4552
▁ሌሎችም	-4553
▁በህይወት	-4554
ከሩ	-4555
ጉት	-4556
ቶቻችን	-4557
ወርቅ	-4558
ጃቸው	-4559
ፋቸውን	-4560
▁ፍተሻ	-4561
▁የኬንያ	-4562
ላል፡፡	-4563
▁መመለስ	-4564
ቢቢሲ	-4565
▁የር	-4566
▁በአስ	-4567
▁ፖሊሲ	-4568
▁ኦሎምፒክ	-4569
▁የአስቸኳይ	-4570
ላጭ	-4571
all	-4572
ወስድ	-4573
▁ጥይት	-4574
▁ሰንጠረ	-4575
▁ተኩስ	-4576
▁ተመዝግ	-4577
▁ተነገረ	-4578
ያሜ	-4579
▁በልዩ	-4580
▁ካለው	-4581
▁አላቸው	-4582
▁ተገኝተው	-4583
ናችን	-4584
▁ቢሮው	-4585
▁አንፃ	-4586
ንቀሳቀስ	-4587
▁ማእ	-4588
▁በውድድር	-4589
ሊቲ	-4590
ሎም	-4591
ፓን	-4592
ube	-4593
▁ምድር	-4594
▁የተመሰ	-4595
▁የተጠረ	-4596
▁አሳውቀዋል።	-4597
ቦር	-4598
▁ከሚገኙ	-4599
▁ተፈናቃዮች	-4600
▁ይችላል።	-4601
07	-4602
▁300	-4603
▁የማያ	-4604
ፍያ	-4605
red	-4606
▁ህዝቡ	-4607
▁በመጪው	-4608
▁አሳስበዋል።	-4609
▁ይመ	-4610
▁ቃለ	-4611
▁ካልተ	-4612
▁ኦሮሚያ	-4613
▁ብሏል፡፡	-4614
ዳይ	-4615
▁የማዕ	-4616
ናቂ	-4617
▁እሳት	-4618
▁በአደጋ	-4619
▁በማሳ	-4620
▁ነፃነት	-4621
▁ጠቅላላ	-4622
▁ግማሽ	-4623
▁የመውጫ	-4624
▁የአመቱ	-4625
▁በተካሄደው	-4626
ዎቻቸው	-4627
▁ረዳት	-4628
▁አይዘነጋም።	-4629
▁ጊዜያት	-4630
ፃናት	-4631
▁ዘይት	-4632
▁ገልፀዋል፡፡	-4633
ስና	-4634
ላቸዉ	-4635
ጠኝነት	-4636
▁የቡድን	-4637
▁ኤቨርተን	-4638
ንዲ	-4639
ባችን	-4640
ነገር	-4641
▁በከ	-4642
ሳውዲ	-4643
▁ቀርቦ	-4644
▁ብራይ	-4645
▁ማረሚያ	-4646
▁ቤታቸው	-4647
ምራ	-4648
ቀርባ	-4649
▁መቅ	-4650
▁በንግ	-4651
▁ግምት	-4652
ወሰን	-4653
▁ከፋ	-4654
ናል፡፡	-4655
▁ተላል	-4656
ort	-4657
▁የመግቢያ	-4658
ሳን	-4659
ገገሙ	-4660
▁በጋዛ	-4661
▁አስቸጋሪ	-4662
ረጥ	-4663
ናቶች	-4664
▁የኢፌዴሪ	-4665
▁ገበ	-4666
▁ተዘጋጅ	-4667
▁ስራዎችን	-4668
ብርና	-4669
▁ገለጸ	-4670
/2012	-4671
ፋል	-4672
ከናው	-4673
▁እርግ	-4674
▁ማቅረብ	-4675
▁ባንኮች	-4676
▁ወይዘሮ	-4677
▁ሰማ	-4678
▁በቃ	-4679
▁አማካሪ	-4680
▁በሚገኝ	-4681
ክክር	-4682
▁አሁኑኑ	-4683
▁በትናንት	-4684
ሀብ	-4685
ተዉ	-4686
ቸር	-4687
▁አሸን	-4688
ith	-4689
ኑኤል	-4690
ኒየም	-4691
▁ተካ	-4692
▁የዶ	-4693
▁አስደ	-4694
▁የከፋ	-4695
▁የፈረንሳይ	-4696
ቀመጡ	-4697
ቀሳቀ	-4698
ዕምሮ	-4699
ላሚ	-4700
ስርዓት	-4701
ያል	-4702
▁ግር	-4703
▁ጫማ	-4704
▁በእስር	-4705
▁የቻይና	-4706
▁የፓርቲ	-4707
▁የጀርመን	-4708
▁ትችላላችሁ	-4709
▁ይቀ	-4710
▁ሊያስ	-4711
▁በመላው	-4712
▁በስልክ	-4713
▁የሶማሊያ	-4714
▁በመግለጫው	-4715
▁ከዩ	-4716
▁ሳንቲ	-4717
▁የደም	-4718
▁በምስራቅ	-4719
ቃይ	-4720
ለፍነው	-4721
▁ምልክት	-4722
▁ነጥቦች	-4723
ከስ	-4724
▁Ch	-4725
▁ከነማ	-4726
▁ስደተኞች	-4727
lo	-4728
ሌዳ	-4729
▁የተደረገው	-4730
▁ተገለፀ	-4731
ላችንን	-4732
▁አደረገ	-4733
▁ያሉትን	-4734
ሟላ	-4735
▁ግዛ	-4736
▁በመባል	-4737
▁አነስተኛ	-4738
ላፊነት	-4739
▁የሊግ	-4740
▁የኢንተር	-4741
ለድ	-4742
▁ጉሙዝ	-4743
▁ያደረገውን	-4744
ማረ	-4745
▁ከበደ	-4746
▁ቅድሚያ	-4747
▁በዘላቂ	-4748
▁ተደራሽ	-4749
▁አክለዋል።	-4750
ችግ	-4751
ሞክራ	-4752
▁ሳሙ	-4753
▁በሐ	-4754
▁ተደርጓል	-4755
▁ለዘ	-4756
▁አደረ	-4757
▁የተገኙ	-4758
ባሪው	-4759
ፓርት	-4760
▁ሽማግሌ	-4761
ግሉ	-4762
▁ምክንያቶች	-4763
ፋው	-4764
ባቸዋል	-4765
▁የያዘ	-4766
▁ድንገተኛ	-4767
▁የኢትዮጵያን	-4768
በትም	-4769
ናልባት	-4770
▁ዜና፡	-4771
/2017	-4772
▁አቅራቢያ	-4773
▁የከተማዋ	-4774
▁የከተማው	-4775
ዋሪ	-4776
▁አርሴ	-4777
ልህ	-4778
ንጅ	-4779
▁የተገለጸ	-4780
ባኖስ	-4781
ጠብቅ	-4782
▁አገግ	-4783
▁የሚገቡ	-4784
▁36	-4785
ረዱ	-4786
▁ተወላ	-4787
የቱ	-4788
በዋል	-4789
▁መሆ	-4790
▁ህገወጥ	-4791
▁ከነዚህ	-4792
ሎፕ	-4793
od	-4794
▁አጣ	-4795
ቸውም	-4796
▁ሚኬል	-4797
▁ዲፕሎማ	-4798
▁ወንዝ	-4799
▁ዲያ	-4800
▁የሚሰሩ	-4801
▁ስሙ	-4802
▁መንቀጥ	-4803
ቋሚ	-4804
▁ታሪካዊ	-4805
▁በቴ	-4806
▁የፈፀ	-4807
▁ቴሌግራም	-4808
▁አረጋግጠዋል።	-4809
.1	-4810
▁በማይ	-4811
ቀዋል	-4812
▁እንድን	-4813
▁ግቦችን	-4814
▁ተችሏል።	-4815
ነሰ	-4816
▁መለያ	-4817
▁መምህር	-4818
በባ	-4819
ጌታ	-4820
ግግር	-4821
▁አራተኛ	-4822
▁የሚመራው	-4823
ሮባ	-4824
▁ከበሽታው	-4825
ፋስ	-4826
▁ብሔ	-4827
75	-4828
▁ከፈ	-4829
▁የኩ	-4830
▁••	-4831
▁ልውው	-4832
▁የሚገል	-4833
▁ያደረጉት	-4834
መንድ	-4835
▁ፖርቹ	-4836
▁ቡድናቸው	-4837
እኔ	-4838
▁ቶሎ	-4839
▁ያለም	-4840
▁የስልክ	-4841
ልባ	-4842
▁የሕግ	-4843
▁ጨዋታዎችን	-4844
▁አንጻ	-4845
▁አልነበረ	-4846
▁እንደሚያደርግ	-4847
ወሩ	-4848
ገጥ	-4849
▁ከማን	-4850
▁የተነ	-4851
ራዘም	-4852
▁ተወያይ	-4853
▁እንዳለባቸው	-4854
ማርያም	-4855
▁አበራ	-4856
▁ዝቅተኛ	-4857
▁ፈተናዎች	-4858
▁መቆጣጠር	-4859
▁34	-4860
▁ሚካኤል	-4861
ቻለሁ	-4862
ከበረ	-4863
▁ዴኤታ	-4864
▁ዶርት	-4865
ንተር	-4866
▁ማታ	-4867
▁ተመስ	-4868
ዘረ	-4869
▁አያይ	-4870
''	-4871
▁መጠለያ	-4872
ውጣ	-4873
ዴዝ	-4874
▁ምስል	-4875
▁አቃቤ	-4876
▁አድማ	-4877
ክርስቲያ	-4878
▁ሻምፒዮ	-4879
▁ትርጉም	-4880
▁ያመላክ	-4881
▁እንዲያስ	-4882
▁የሰራ	-4883
▁ሥራዎች	-4884
ዎት	-4885
ራዊቱ	-4886
▁ማሽ	-4887
▁አስጠ	-4888
▁እንኳ	-4889
▁የሀገ	-4890
▁አጋጣሚ	-4891
▁የሊቨር	-4892
▁ገልጸው	-4893
ድቡ	-4894
34	-4895
ኑሮ	-4896
▁ሰፈር	-4897
ርሀ	-4898
ጎብ	-4899
▁ዩክሬን	-4900
▁ድርጊቱን	-4901
ዘርላንድ	-4902
▁እንደነበረ	-4903
▁ይል	-4904
▁ጋዜጣዊ	-4905
▁ጨዋታው	-4906
▁ለማረጋገጥ	-4907
▁የፋይናንስ	-4908
act	-4909
est	-4910
ንባታ	-4911
▁ከውጭ	-4912
▁ይካሄ	-4913
▁አስተዋጽ	-4914
▁ጨዋታቸውን	-4915
ጠሎ	-4916
መታት	-4917
▁አሰፋ	-4918
▁አድርጋ	-4919
ፈለግ	-4920
▁አርሶ	-4921
▁በቅርብ	-4922
ለቀቁ	-4923
▁አቤቱ	-4924
▁መቻሉን	-4925
▁ዳንኤል	-4926
ካካ	-4927
ውቅና	-4928
▁ያሉበት	-4929
ደረሰባቸው	-4930
2012	-4931
▁መመረ	-4932
▁ቅናሽ	-4933
▁ጎሎች	-4934
▁ደንበኞች	-4935
ዘርፉ	-4936
ቢኔ	-4937
▁በእጅ	-4938
▁እንዳላቸው	-4939
▁የአሜሪካን	-4940
▁መቀመጫ	-4941
▁ስህተት	-4942
▁ሸኔ	-4943
▁ፓውንድ	-4944
ወስዱ	-4945
ደሮች	-4946
▁ትልቁ	-4947
▁ግዙ	-4948
▁መገለ	-4949
መነ	-4950
ቀቅ	-4951
ኤም	-4952
ረጋጋ	-4953
ታዎች	-4954
▁እም	-4955
▁የተወሰኑ	-4956
▁ሲፈ	-4957
▁ማለፉ	-4958
▁ደንብ	-4959
▁መግለጫው	-4960
▁ይገባል።	-4961
ብቅ	-4962
ነቅ	-4963
▁የሁለተኛ	-4964
▁እንዳልሆነ	-4965
▁መገደላቸውን	-4966
ኝት	-4967
ጃም	-4968
ገዙ	-4969
ርያው	-4970
▁ምህ	-4971
▁በባለ	-4972
▁ያገገሙ	-4973
▁በተለያየ	-4974
▁ይቀጥላል	-4975
▁የብር	-4976
ዳጅነት	-4977
▁ለማቅረብ	-4978
ቆጠ	-4979
ont	-4980
85	-4981
ዝቡ	-4982
ረቤት	-4983
▁ስኬ	-4984
ደርጉት	-4985
▁ይችላሉ።	-4986
ሎቹ	-4987
ፍራው	-4988
▁ነገሮችን	-4989
▁የመኖሪያ	-4990
▁ፕሬዝደንት	-4991
ቀድ	-4992
ቴር	-4993
ንብቡ	-4994
hare	-4995
▁በትናንትናው	-4996
▁መግባት	-4997
የመ	-4998
▁አምራች	-4999
▁የሚሰጡ	-5000
▁St	-5001
▁የገባ	-5002
ወቁ	-5003
ስተዳደር	-5004
▁ንቅናቄ	-5005
▁የሳይንስ	-5006
ጥረ	-5007
▁አጠ	-5008
ቂቃዎች	-5009
ደርገውን	-5010
▁ለጊዜው	-5011
▁ሽንፈት	-5012
▁ከትምህርት	-5013
▁ሰባ	-5014
▁ሶዶ	-5015
ምሳ	-5016
ስካ	-5017
ይድ	-5018
ናንዴዝ	-5019
▁ማቆያ	-5020
▁አለመሆኑ	-5021
ሪያው	-5022
ቲዩብ	-5023
ባበሩት	-5024
▁ውድመት	-5025
▁ዘርፎች	-5026
▁ማረጋገጥ	-5027
▁እንዲያደርግ	-5028
▁እድገት	-5029
irr	-5030
▁ፈፅ	-5031
▁እንዲሆኑ	-5032
ቤተሰቦ	-5033
▁ፀጋዬ	-5034
▁ተፈታኞች	-5035
ክሩ	-5036
ክሽን	-5037
ፖለቲካ	-5038
▁እማ	-5039
▁መሰረተ	-5040
▁ባሻገር	-5041
ሥር	-5042
▁ብቸኛ	-5043
▁የሰጡት	-5044
▁ፓርቲው	-5045
ሮፕላን	-5046
▁በአጭር	-5047
▁ያልሆነ	-5048
▁ለመፍጠር	-5049
▁የተፈጥሮ	-5050
ሳችን	-5051
▁ከጉ	-5052
ጠቀሱት	-5053
▁ማዕከ	-5054
▁መጫወት	-5055
▁የሚታወስ	-5056
ሞኑ	-5057
▁ፋሲል	-5058
▁የምዕራብ	-5059
▁አንፃር	-5060
▁ብሬ	-5061
ታቸዉን	-5062
▁ማስታወ	-5063
▁የቴሌግራም	-5064
ስተው	-5065
▁በጤና	-5066
▁አሳሳቢ	-5067
▁በሰላማዊ	-5068
▁ያደረጉትን	-5069
▁ሃገ	-5070
▁አጫ	-5071
▁ርዕስ	-5072
▁,	-5073
▁አወ	-5074
▁መስተ	-5075
▁እኩል	-5076
▁ጥቁር	-5077
▁በሸ	-5078
▁ታዋቂ	-5079
▁ተጽ	-5080
aceb	-5081
ላችንም	-5082
▁በተባለ	-5083
▁አንድም	-5084
▁የሚጠጉ	-5085
ቆዩ	-5086
ጫኑ	-5087
▁ማት	-5088
▁በሪ	-5089
▁ስዩም	-5090
ዙን	-5091
ጠይቃ	-5092
▁ሺሕ	-5093
▁የሆ	-5094
▁አውቶ	-5095
▁በርካቶች	-5096
ስቀ	-5097
▁የተማሪ	-5098
▁የጠቅላይ	-5099
▁መመዝ	-5100
▁የምዝገባ	-5101
ሯቸው	-5102
▁ማንነት	-5103
ዓቱ	-5104
ግባባት	-5105
▁አንዲት	-5106
▁ብራይተን	-5107
▁የምስ	-5108
ማዊ	-5109
▁ለፖሊስ	-5110
▁ቱሪዝም	-5111
aceboo	-5112
▁ሁኔታዎች	-5113
ርኩ	-5114
ስፈ	-5115
▁ያንብቡ	-5116
ቀብ	-5117
▁መፅሀ	-5118
▁እገዳ	-5119
በበ	-5120
▁ለዓ	-5121
▁ቁልፍ	-5122
▁የሞት	-5123
▁የስነ	-5124
▁የዜና	-5125
ገዱ	-5126
ኮል	-5127
▁ለቀው	-5128
▁ሲደረግ	-5129
▁በእስራኤል	-5130
ሻው	-5131
ስተናግ	-5132
▁ህይወታቸውን	-5133
ቀመጠ	-5134
ፒታል	-5135
ኒሻንጉል	-5136
▁ካሬ	-5137
ነሱት	-5138
▁ማደ	-5139
▁ገዝ	-5140
▁ሌስተር	-5141
▁ነጻነት	-5142
▁ይሆናል፡፡	-5143
ill	-5144
ሞችን	-5145
ጠባበ	-5146
▁ተካሂ	-5147
▁ቻናላችን	-5148
ፋቸው	-5149
▁ሁለ	-5150
▁ደሳ	-5151
▁ለሁሉም	-5152
▁መስኮች	-5153
▁አቅርቦ	-5154
▁እፈልጋ	-5155
me	-5156
ዕና	-5157
▁ለመክ	-5158
▁ከመስ	-5159
ኦንላይን	-5160
▁ጀርመን	-5161
▁አርሴናል	-5162
▁አትሌቲኮ	-5163
ኔዝ	-5164
ጅን	-5165
ክታር	-5166
▁ወላይታ	-5167
▁የገለፀ	-5168
oc	-5169
▁ጓደ	-5170
ሬዝዳንት	-5171
ገሉ	-5172
ኛውንም	-5173
▁ምክክር	-5174
▁ጥበብ	-5175
ልቻ	-5176
ሙማን	-5177
▁ውጊያ	-5178
ሮቢ	-5179
▁ሳውዝ	-5180
▁ጓደኛ	-5181
▁ከስምምነት	-5182
ላኑ	-5183
ሮባንድ	-5184
▁ስምምነቱ	-5185
▁ዳይሬክተሩ	-5186
ፈፀሙ	-5187
▁የሪ	-5188
ቲክቶክ	-5189
▁ጀመረ	-5190
ለር	-5191
▁በመን	-5192
▁አስነብ	-5193
▁የቆየው	-5194
▁በጨዋታው	-5195
!!!	-5196
▁መረ	-5197
36	-5198
▁ዕቃ	-5199
2017	-5200
▁መስጫ	-5201
▁ተቆጣ	-5202
▁በቻይና	-5203
▁የምክር	-5204
▁በበሽታው	-5205
▁ሲያልፍ	-5206
▁ስድ	-5207
▁ኩን	-5208
▁መቅረ	-5209
▁ወረራ	-5210
▁ቡድኑን	-5211
▁ተከታት	-5212
▁የሚሉት	-5213
▁ስያሜ	-5214
▁ቪዲዮ	-5215
▁አሳይ	-5216
▁የኃይል	-5217
ፍረስ	-5218
▁ምቹ	-5219
▁ሁለተኛው	-5220
▁ይደረጋል	-5221
ለመደ	-5222
ኛል።	-5223
▁0-1	-5224
ሮድ	-5225
ዋሚ	-5226
ጥፍ	-5227
▁ፈጽ	-5228
▁የሞባይል	-5229
ረቡ	-5230
▁ማሞ	-5231
▁ኤሲ	-5232
▁ባልተ	-5233
▁ናስር	-5234
▁ማጣሪያ	-5235
▁ከጠዋቱ	-5236
▁የሚገባ	-5237
ራስ	-5238
ሰነ	-5239
▁ማዳ	-5240
▁መንደር	-5241
▁የተዘጋጀ	-5242
ስብ	-5243
ክሲኮ	-5244
ጫወቱ	-5245
ላለች።	-5246
▁ዚ	-5247
▁ባለቤ	-5248
ለትን	-5249
ሞቱ	-5250
ዋንዳ	-5251
▁አለ።	-5252
▁ማርቆስ	-5253
ፈርት	-5254
▁መቁ	-5255
▁አስጠንቅ	-5256
ረና	-5257
▁ከእነዚህ	-5258
ምብ	-5259
ደድ	-5260
▁ፓላስ	-5261
▁ሁለቱም	-5262
▁አርቲስት	-5263
▁እንዲያገኙ	-5264
▁1-1	-5265
▁ዶር	-5266
▁የተጣ	-5267
ሬድ	-5268
አሁን	-5269
▁ችለዋል	-5270
ኪንግ	-5271
▁ወራ	-5272
▁ፕሬዝዳንቱ	-5273
ial	-5274
▁መዳ	-5275
▁የአካባቢ	-5276
eg	-5277
ሯን	-5278
▁ፍል	-5279
▁ሰብአዊ	-5280
አን	-5281
▁ጤ	-5282
ተርስ	-5283
ip	-5284
▁31	-5285
▁ጠበቃ	-5286
▁ባለበት	-5287
ይስ	-5288
ረሰብ	-5289
▁ያን	-5290
▁ለተፈ	-5291
▁እንዲመለሱ	-5292
ሰዋል	-5293
▁ሂደቱ	-5294
▁የሚፈልጉ	-5295
▁ይለ	-5296
▁ማመን	-5297
▁በማዕ	-5298
▁4:00	-5299
▁መራ	-5300
▁መመለ	-5301
▁ባሉበት	-5302
ኪም	-5303
▁ትች	-5304
▁እነዚህን	-5305
▁መናገራቸውን	-5306
ቻች	-5307
ምራት	-5308
▁ዳጉ	-5309
▁ገብተው	-5310
ውሉ	-5311
▁የጅ	-5312
▁አሉ።	-5313
▁እርስ	-5314
▁ወይስ	-5315
▁አትሌቶች	-5316
ዴን	-5317
▁በዞኑ	-5318
▁ፈጠራ	-5319
▁ገልፀው	-5320
▁ፕሬዜዳንት	-5321
ጎት	-5322
▁ያገለ	-5323
▁ካምፓስ	-5324
48	-5325
ምንጭ	-5326
▁ካለፈው	-5327
ቀረቡ	-5328
▁ቤል	-5329
▁ሁሌም	-5330
▁ማወቅ	-5331
▁በመፍ	-5332
▁መውሰድ	-5333
▁መውጣት	-5334
▁በሶስት	-5335
▁ውጤታማ	-5336
ሸንፍ	-5337
▁ትውልድ	-5338
▁አፈጻጸ	-5339
SA	-5340
ለቲ	-5341
▁ሚስት	-5342
▁ይገል	-5343
▁ባሳለፍነው	-5344
ጠናቀቁን	-5345
......	-5346
▁በከተማው	-5347
ዊያን	-5348
▁በፅ	-5349
▁ክሪስ	-5350
▁በደብረ	-5351
▁አድርገዋል	-5352
ልታ	-5353
▁ፈል	-5354
▁ጸጥታ	-5355
▁ለረጅም	-5356
ወረ	-5357
ጅጋ	-5358
ምረት	-5359
▁6.	-5360
▁ፈጣን	-5361
ለስ	-5362
art	-5363
▁ከኤ	-5364
▁መኖሩን	-5365
▁የተከለ	-5366
ኖረ	-5367
ውኑ	-5368
ናልድ	-5369
▁ሌሊት	-5370
▁በትክ	-5371
▁ክሎፕ	-5372
▁ፖስት	-5373
▁የመንገድ	-5374
▁Ethiop	-5375
ጎን	-5376
ፍትህ	-5377
▁የሚገመት	-5378
ለሙ	-5379
ላላቅ	-5380
▁ለፈ	-5381
▁ሌላው	-5382
▁ዘንድሮ	-5383
ጣው	-5384
▁ለል	-5385
▁የተላ	-5386
ምሩክ	-5387
▁እንደገና	-5388
ጥረው	-5389
▁በምስ	-5390
ደረጋቸው	-5391
▁ሶማሊያ	-5392
▁በጽ	-5393
▁ከነገ	-5394
▁ከደቂቃዎች	-5395
ፈለገ	-5396
▁ኢሳ	-5397
▁ማስተካ	-5398
▁ማሳሰቢያ	-5399
ቦና	-5400
▁Ad	-5401
▁ኮድ	-5402
ገንዝ	-5403
▁ፊል	-5404
▁ጥፋተኛ	-5405
▁ጋዜጠኞች	-5406
ያኑ	-5407
ፊል	-5408
▁ክስተት	-5409
▁የመማር	-5410
ግነት	-5411
▁በዝ	-5412
ላቸዋል።	-5413
▁በክለቡ	-5414
▁በሚጠራው	-5415
ኮኖሚያ	-5416
▁ሀገራችን	-5417
▁የሚገኘውን	-5418
▁ካስ	-5419
▁መደብ	-5420
▁ገብቶ	-5421
▁ደሳለኝ	-5422
▁ማስከበር	-5423
ት።	-5424
ሻውን	-5425
▁ወንጀሎች	-5426
▁ለማስተ	-5427
▁አቁም	-5428
▁ማስጠንቀቂያ	-5429
ቪያ	-5430
▁የሪያል	-5431
▁በመንግሥት	-5432
▁ክፉ	-5433
ሰመኮ	-5434
▁ሉካ	-5435
▁በቆ	-5436
ሸነፈ	-5437
▁በቢ	-5438
▁የበረ	-5439
ዲሁ	-5440
ሊጋው	-5441
ቶችና	-5442
▁አዳነች	-5443
annel	-5444
▁መያዙን	-5445
▁ተከታዮች	-5446
ሸነፉ	-5447
ንቀሳ	-5448
▁st	-5449
▁ዎል	-5450
▁ታከለ	-5451
▁መርሐግብር	-5452
ጋጥ	-5453
▁ረገድ	-5454
▁በቤተ	-5455
▁አስተዋጽኦ	-5456
ግዳ	-5457
ኘው	-5458
▁75	-5459
▁በአዲሱ	-5460
▁በደረሰው	-5461
▁በአንዳንድ	-5462
ቃሽ	-5463
▁ከድር	-5464
98	-5465
ጉር	-5466
ነበር	-5467
▁በአል	-5468
▁ከቤት	-5469
▁እንደሌለ	-5470
▁የዩክሬን	-5471
66	-5472
ኃን	-5473
መላለ	-5474
መና	-5475
ባኤ	-5476
▁ከሊ	-5477
tube	-5478
▁አጭር	-5479
ለቲከ	-5480
ናገራ	-5481
ጨመር	-5482
▁37	-5483
▁አደራ	-5484
▁ያለምንም	-5485
▁ጥሰት	-5486
ርታ	-5487
ፈጠረ	-5488
▁ጀርባ	-5489
??	-5490
▁መወሰኑን	-5491
▁የፊታችን	-5492
▁በቴሌግራም	-5493
▁ኃይሉ	-5494
መጥ	-5495
ደንበ	-5496
▁የዩናይትድ	-5497
ጫን	-5498
▁ከታች	-5499
▁ተገቢውን	-5500
▁የሚሆነው	-5501
ኒስቴ	-5502
ዝነስ	-5503
▁በዳ	-5504
▁ተፈናቅ	-5505
▁አንጻር	-5506
ርጂ	-5507
ናገሩ	-5508
▁ሀሪ	-5509
▁እሸ	-5510
▁በህዝብ	-5511
▁ምናልባት	-5512
▁ተመስገን	-5513
▁ኮርፖሬሽን	-5514
ልና	-5515
ክብ	-5516
▁ምሁ	-5517
▁ስላል	-5518
95	-5519
▁ዋት	-5520
redit	-5521
▁ከወዲሁ	-5522
▁ራሳቸውን	-5523
▁የሚሰጠው	-5524
38	-5525
▁ስራው	-5526
▁ግዴታ	-5527
ጋፍ	-5528
በርት	-5529
ተናል።	-5530
▁ችግሮችን	-5531
ሬሽኑ	-5532
▁ህፃን	-5533
▁የወረዳው	-5534
ate	-5535
▁ቶማስ	-5536
▁ልን	-5537
▁ተደረገ	-5538
▁ይጠበቃል	-5539
ት፣	-5540
▁አብራር	-5541
▁ውድድሮች	-5542
▁ይላል	-5543
ትም	-5544
ዳል።	-5545
▁ሀሰን	-5546
▁አረብ	-5547
ሰሙ	-5548
ሶሳ	-5549
ዛም	-5550
▁ተስማ	-5551
▁ይሰማ	-5552
▁የገለጸ	-5553
nd	-5554
ምየር	-5555
▁አዝ	-5556
▁የጉዞ	-5557
▁ምርምር	-5558
▁የሚደረገው	-5559
ሆንም	-5560
ቅረኛ	-5561
ተኞቹ	-5562
ዓተ	-5563
ሕፈት	-5564
▁መቀላቀ	-5565
▁የተወሰነ	-5566
ሰበው	-5567
▁አየ	-5568
ዋለሁ	-5569
▁እመ	-5570
▁የመሰ	-5571
▁የመጡ	-5572
ጻናት	-5573
▁ሃሳ	-5574
▁ሰዉ	-5575
▁ይበ	-5576
▁መንግስታዊ	-5577
በመ	-5578
ጭቱ	-5579
▁በሆኑ	-5580
▁የምድብ	-5581
ra	-5582
▁የወርቅ	-5583
ናሽናል	-5584
ፋሪኮም	-5585
▁መያዝ	-5586
▁ከሆኑ	-5587
▁ከምን	-5588
▁በድምሩ	-5589
▁በህገወጥ	-5590
▁ኮሎ	-5591
▁የፍቅር	-5592
▁መልቀቂያ	-5593
▁ሙስሊ	-5594
▁ማድረጉ	-5595
▁ሳንቲም	-5596
▁የሁለቱ	-5597
ሃል	-5598
ክሳ	-5599
▁ማልያ	-5600
▁ቱርክ	-5601
▁የድን	-5602
▁ይሰራ	-5603
▁ተጠናቀቀ	-5604
ሏቸው	-5605
▁አጋጥ	-5606
▁የለው	-5607
▁ተቋርጦ	-5608
▁ተጋላጭ	-5609
▁የሶስት	-5610
▁ጀነራል	-5611
▁በህክምና	-5612
33	-5613
ገጽ	-5614
ብርብ	-5615
ንቨር	-5616
ንግተን	-5617
▁ሎተሪ	-5618
▁ዕድሜ	-5619
▁እንዳት	-5620
▁መመልከት	-5621
▁አገልግሎቱ	-5622
▁ቼ	-5623
ምቀት	-5624
ክበር	-5625
ምፒየንስ	-5626
▁የቅዱስ	-5627
▁ይበልጥ	-5628
ስፖርት	-5629
ኮኖሚያዊ	-5630
▁ሲገለፅ	-5631
▁በመግ	-5632
ቅራ	-5633
▁የፌስቡክ	-5634
▁ባለሥልጣን	-5635
ኪያስ	-5636
▁ታዲያ	-5637
▁ጎሎችን	-5638
▁ፅህፈት	-5639
▁አንስተዋል።	-5640
ከቱ	-5641
▁ታራ	-5642
▁ገባ	-5643
▁ፈታ	-5644
ላቻ	-5645
▁የሠ	-5646
▁ብሎም	-5647
▁አዋጁ	-5648
ሂም	-5649
ard	-5650
▁አሰጣጥ	-5651
▁አስቀም	-5652
ቃወም	-5653
ፈጠር	-5654
▁ይሸ	-5655
▁ስራውን	-5656
65	-5657
ጋቱ	-5658
▁እንዲታ	-5659
▁ቀበሌዎች	-5660
▁ከቦ	-5661
▁መሰረታዊ	-5662
▁የህብረተሰብ	-5663
ሄደ	-5664
ዕኮ	-5665
▁ኢብራ	-5666
▁ጥቃቶች	-5667
ለየት	-5668
ፈቻ	-5669
ስቲክ	-5670
▁ቶን	-5671
▁የይ	-5672
▁በተቃ	-5673
▁ተሸከርካ	-5674
▁አልባሳት	-5675
▁ፕሪምየር	-5676
▁እንደሆነም	-5677
ጋች	-5678
▁ኑሮ	-5679
▁በአማ	-5680
▁ጥቃቱ	-5681
ርሶ	-5682
ጤት	-5683
▁ስፖ	-5684
▁የድም	-5685
▁ጎጃም	-5686
42	-5687
▁በራስ	-5688
▁እናንተ	-5689
▁ይቻላል	-5690
ለፈ	-5691
▁ምዕራፍ	-5692
▁እየሰሩ	-5693
▁ሙዚቃ	-5694
▁በኬንያ	-5695
▁ኩንታል	-5696
ፍል	-5697
ሟላት	-5698
ታችሁን	-5699
ጣቸውን	-5700
▁ያልሆኑ	-5701
ራው	-5702
ትሌ	-5703
ወገድ	-5704
▁ኮሚቴው	-5705
▁ፓትርያ	-5706
▁እንዲሰጡ	-5707
ኔን	-5708
▁ኔት	-5709
ሚካኤል	-5710
▁የፈጸ	-5711
▁Credit	-5712
ወሰድ	-5713
ልስጤም	-5714
ደዋል።	-5715
▁መሄድ	-5716
ፃቸው	-5717
▁ለቢቢሲ	-5718
▁በገንዘብ	-5719
▁2,	-5720
▁ብሔር	-5721
▁ነባር	-5722
▁የቆየ	-5723
▁በማስተ	-5724
▁ከትግራይ	-5725
▁መከሰ	-5726
▁መስኮት	-5727
▁በማሰብ	-5728
▁በዘላቂነት	-5729
ካተተ	-5730
▁መባ	-5731
ክቶሬት	-5732
▁አመልካ	-5733
▁የቴክኒክ	-5734
ገጠ	-5735
▁38	-5736
▁ዕር	-5737
▁ህንጻ	-5738
▁ኮሮና	-5739
▁የእን	-5740
ብራዚ	-5741
በታል፡፡	-5742
▁ምንዛሬ	-5743
▁መንቀጥቀጥ	-5744
▁አሽከርካሪ	-5745
▁ከሰዓት	-5746
ገድዶ	-5747
▁በየአ	-5748
▁ትግል	-5749
▁ናፖሊ	-5750
▁ግብሮች	-5751
▁አትሌቲክስ	-5752
sta	-5753
▁ፀሀ	-5754
▁አልጋ	-5755
▁ወኪል	-5756
▁ለመቅረ	-5757
▁የገበያ	-5758
▁ቻናላችንን	-5759
▁55	-5760
▁ሚንስ	-5761
▁ሰላሳ	-5762
▁ቤቱን	-5763
▁መድኃኒት	-5764
▁የሚደርስ	-5765
▁አደረሳችሁ	-5766
▁ቤተሰቦቻችን	-5767
▁ሮማ	-5768
ርሲሳይ	-5769
▁ቦርዱ	-5770
▁ገለፀ	-5771
▁አደረጃ	-5772
▁የሲዳማ	-5773
▁የምስራቅ	-5774
▁ለመገንባት	-5775
ሥራቅ	-5776
▁ሲቪል	-5777
▁አጫጭር	-5778
▁ልውውጥ	-5779
▁መሳሪያዎች	-5780
▁በጭ	-5781
▁መኝታ	-5782
ልፉ	-5783
ጠቀሰው	-5784
▁መዳረ	-5785
▁ሌላኛው	-5786
▁ተወካይ	-5787
▁ከዚህም	-5788
▁የሚደረጉ	-5789
▁እንፈልጋ	-5790
▁ተጀም	-5791
▁በማቅረብ	-5792
ff	-5793
ጠብቁ	-5794
▁መኪ	-5795
▁ደካ	-5796
▁በመጥ	-5797
▁ይጠቀሙ	-5798
▁ለመቀነስ	-5799
▁የሃይማኖት	-5800
▁በመጀመሪያው	-5801
▁ሚያዚያ	-5802
▁አቅራቢ	-5803
▁በዩኒቨርሲቲው	-5804
ግጅጋ	-5805
▁!!	-5806
ቃለች።	-5807
▁ያለዉ	-5808
▁የፍፃሜ	-5809
ማያ	-5810
ቆመ	-5811
▁400	-5812
▁እንዲገቡ	-5813
ጋዜጠኞች	-5814
▁የተከሰተው	-5815
▁የአገልግሎት	-5816
ረጋገጡ	-5817
ንዛኒያ	-5818
▁ባለድርሻ	-5819
▁እግርኳስ	-5820
ፈልግም	-5821
▁በመጠ	-5822
▁ከሰሞኑ	-5823
▁በሂ	-5824
▁አልቻለም	-5825
ቡዕ	-5826
▁ተደ	-5827
ላውቅም	-5828
▁እስክ	-5829
▁የሚሸ	-5830
▁ድብደባ	-5831
▁ፍጥነት	-5832
▁The	-5833
▁ሮድሪ	-5834
▁በጦርነቱ	-5835
▁ተጠናክሮ	-5836
.8	-5837
ራቱ	-5838
ice	-5839
ቋረጠ	-5840
▁ከሐ	-5841
▁የሚዲያ	-5842
▁ኮሙኒኬሽን	-5843
ሮድካ	-5844
ታለች።	-5845
▁የፕሮ	-5846
▁ዘግቧል፡፡	-5847
ቀሳቀስ	-5848
ረመ	-5849
ኩ።	-5850
▁ጣልቃ	-5851
▁መጨመር	-5852
ክሱም	-5853
▁ልታ	-5854
▁ኦሊ	-5855
▁ምልክ	-5856
▁ይጠበቅ	-5857
ሀመድ	-5858
ቀጥሉ	-5859
▁በፌደራል	-5860
ሎቱ	-5861
▁አጎ	-5862
▁ያግ	-5863
▁የኮንት	-5864
▁በተፈጠረ	-5865
ዛቤ	-5866
▁ሐሙስ	-5867
▁ሰበር	-5868
▁መጽሐፍ	-5869
▁አስመር	-5870
▁ምንድነው	-5871
፣የ	-5872
አንድ	-5873
ment	-5874
▁በመሄድ	-5875
▁እንዳስታወቀው	-5876
ደቀ	-5877
ፋይ	-5878
▁በጠ	-5879
ቪስ	-5880
▁ራሱ	-5881
▁ቴንሀ	-5882
▁የጠየ	-5883
ለዋል፡፡	-5884
▁በውሰት	-5885
▁የመገናኛ	-5886
ሻሽ	-5887
▁ናቸዉ	-5888
▁አዉ	-5889
▁እንደመ	-5890
▁ወልቂጤ	-5891
ቨን	-5892
ጠበቁ	-5893
▁የሮ	-5894
▁እገዛ	-5895
ቀጣ	-5896
ቆየት	-5897
▁ኢንቨስትመንት	-5898
▁ማርያ	-5899
▁ፕሬስ	-5900
ባን	-5901
▁ውጤቶች	-5902
▁ኮፒ	-5903
▁ተጎጂ	-5904
▁ውሎ	-5905
▁ህዳሴ	-5906
▁ነው፣	-5907
ሺያ	-5908
▁ጎዳና	-5909
▁ማህበራት	-5910
▁አቤቱታ	-5911
▁ጥላሁን	-5912
ኘት	-5913
ጥሩ	-5914
▁መቀጠ	-5915
▁ሳሙኤል	-5916
▁በአሰልጣኝ	-5917
▁ቃጠሎ	-5918
▁ማዕከላዊ	-5919
▁መረብ	-5920
▁ሀገራቸው	-5921
▁የግንባታ	-5922
▁የተፈጠረው	-5923
ሠሩ	-5924
▁ታሪ	-5925
▁ደጀ	-5926
ዎቻችን	-5927
▁ሲዳማ	-5928
▁መኖራቸውን	-5929
▁ቄ	-5930
▁መውደ	-5931
▁የሚመጡ	-5932
▁አምስተኛ	-5933
▁የተደረጉ	-5934
በቱ	-5935
▁በሩ	-5936
▁ነፍ	-5937
▁መስክ	-5938
▁ዋነኛ	-5939
▁ፍለጋ	-5940
ሆስፒታሉ	-5941
▁ከተማዋ	-5942
▁ተጨ	-5943
▁ለመውሰድ	-5944
ፎቶ	-5945
ፈልገ	-5946
ፎችን	-5947
▁በመክ	-5948
▁ለማሳደግ	-5949
ማንድ	-5950
▁የአፋር	-5951
ቶቹን	-5952
▁የሚመጣ	-5953
▁የሕክምና	-5954
▁በሆ	-5955
▁ፅኑ	-5956
ቪች	-5957
▁የከ	-5958
▁ፓሊስ	-5959
▁መንግስቱ	-5960
መለሰ	-5961
▁በነበሩ	-5962
ለያይ	-5963
▁ማዋ	-5964
▁በውስ	-5965
▁ተቀላቅ	-5966
ለሽ	-5967
ዘዋወር	-5968
▁መዲና	-5969
▁ተልዕኮ	-5970
ደላ	-5971
▁ሴጣ	-5972
▁ኃይለ	-5973
▁የሚወስደው	-5974
ሞክር	-5975
▁በተፈጠረው	-5976
ah	-5977
ሪታ	-5978
▁በሜ	-5979
ደተኞች	-5980
▁12:00	-5981
▁በማስገባት	-5982
ሽት	-5983
▁ለጉ	-5984
▁መስፈር	-5985
▁ቀርበው	-5986
▁በቀጣዩ	-5987
▁ድርጊቱ	-5988
▁ዳይሬክቶሬት	-5989
ካቲት	-5990
ያዝያ	-5991
▁ደሴ	-5992
▁በዓሉ	-5993
▁ክብረ	-5994
▁የለን	-5995
▁ጀምረ	-5996
▁ግጭቶች	-5997
88	-5998
ትሮ	-5999
▁እቃዎች	-6000
▁በዩክሬን	-6001
▁ኒውካስል	-6002
▁እንስሳት	-6003
▁......	-6004
ናንተ	-6005
▁ጆን	-6006
ዎድሮስ	-6007
▁ስለመሆኑ	-6008
▁አካላትን	-6009
ላለሁ	-6010
ጠሪያ	-6011
▁አጽ	-6012
▁ወጥቶ	-6013
▁የተጋ	-6014
▁በአደጋው	-6015
ሙና	-6016
ራጌ	-6017
ብህ	-6018
ጥሎ	-6019
በዚህ	-6020
ጽግና	-6021
▁Ti	-6022
▁በድሬዳዋ	-6023
ገቡን	-6024
▁ተፋ	-6025
▁ዕለ	-6026
▁በመር	-6027
▁ታላቁ	-6028
▁ርብርብ	-6029
▁ሲደርስ	-6030
▁በአራት	-6031
▁በኢትዮ	-6032
▁ያቀረበ	-6033
▁አድርጓል፡፡	-6034
ሃዊ	-6035
ጋሜ	-6036
ረኞች	-6037
▁የሚደርሱ	-6038
▁የተከሰተ	-6039
▁ፈርናንዴዝ	-6040
49	-6041
ጋራት	-6042
ct	-6043
ዶቹ	-6044
ሐንስ	-6045
▁ብን	-6046
▁ፍር	-6047
/2011	-6048
▁መድረሱ	-6049
▁ኢንጂነር	-6050
▁ዕቅድ	-6051
▁ግልጽ	-6052
መንግስት	-6053
▁ለመቀበል	-6054
ማማኝ	-6055
ሺዎች	-6056
ደራጀት	-6057
▁ታክስ	-6058
▁ተደጋጋሚ	-6059
▁እግዚአብሔር	-6060
ርጋ	-6061
▁ቴንሀግ	-6062
▁አንበሳ	-6063
ኩም	-6064
ጃጅ	-6065
ፅግና	-6066
▁በዶ	-6067
▁ነዉ።	-6068
▁በሀዋሳ	-6069
▁አመልክተዋል።	-6070
ባስ	-6071
ባችሁ	-6072
▁ይናገራ	-6073
▁ፖለቲካዊ	-6074
▁ዶርትመንድ	-6075
AT	-6076
▁ሩጫ	-6077
▁ኢዜአ	-6078
▁የሚሰ	-6079
▁አልያም	-6080
ቃቢ	-6081
▁ራሽ	-6082
▁ዲጂታል	-6083
▁እንደዚህ	-6084
ብይ	-6085
ገግ	-6086
▁ትርፍ	-6087
▁ገብተዋል።	-6088
▁እንግሊዛዊው	-6089
ቋረጡ	-6090
▁የፕርሚየር	-6091
ልል	-6092
ገማ	-6093
ንትፎርድ	-6094
ኙን	-6095
▁Al	-6096
▁በግብ	-6097
▁ክልሉ	-6098
▁በመግለጽ	-6099
▁ጠቁሟል።	-6100
1,	-6101
ደለ	-6102
▁የአሸ	-6103
▁በጉዳት	-6104
▁እናደርሳ	-6105
ዊስ	-6106
▁በዝግ	-6107
ላድ	-6108
▁ክልከላ	-6109
▁ኢኮኖሚያዊ	-6110
ep	-6111
ማች	-6112
▁ለቅ	-6113
▁ኦፕ	-6114
▁የበጎ	-6115
▁ይህንኑ	-6116
መኔ	-6117
▁ሚሳ	-6118
▁የውጪ	-6119
▁ጥልቅ	-6120
▁ኪሊያን	-6121
▁አባላትን	-6122
መናን	-6123
▁በዛ	-6124
▁በየቀኑ	-6125
▁ተሳታፊዎች	-6126
▁65	-6127
▁በመደ	-6128
▁ማዕረግ	-6129
ሕዶ	-6130
ችዉ	-6131
ናገድ	-6132
▁ሂሳብ	-6133
▁የአስ	-6134
▁ደመቀ	-6135
▁ለሌሎች	-6136
▁ተጠቃሚዎች	-6137
▁ኢንተርናሽናል	-6138
og	-6139
ማቅ	-6140
ለምዶ	-6141
ሰላም	-6142
▁እንዲተ	-6143
▁በሆነው	-6144
▁አብዱል	-6145
▁ከነበረው	-6146
ey	-6147
ኔጋል	-6148
▁..	-6149
▁39	-6150
▁ተይዞ	-6151
▁ለመቅረፍ	-6152
▁በጎንደር	-6153
ሊድ	-6154
ዛሪ	-6155
▁ግሩ	-6156
▁በባህር	-6157
▁አመቻች	-6158
አዴ	-6159
▁ከሃ	-6160
▁ለፍርድ	-6161
▁ብዙኃን	-6162
▁ሳይንስና	-6163
ቀመጠው	-6164
▁ቆይቷል።	-6165
ርሱ	-6166
ዛኝ	-6167
ጀምሩ	-6168
▁ለግ	-6169
▁በፀጥታ	-6170
▁አደገኛ	-6171
▁ለማጠናከር	-6172
▁ካምፕ	-6173
▁አገልግሎቱን	-6174
▁የዉ	-6175
▁ያድር	-6176
▁በስተቀር	-6177
ኤፍ	-6178
▁ከዘ	-6179
▁ፈላጊ	-6180
▁በተሰ	-6181
▁የሚከተ	-6182
▁ነገርግን	-6183
ber	-6184
በትና	-6185
▁ተጠቂ	-6186
▁የኑሮ	-6187
ኒየር	-6188
ኖርም	-6189
ድመው	-6190
▁ሃገር	-6191
▁ከስራ	-6192
▁ለማሸነፍ	-6193
▁እንደሚሰራ	-6194
ap	-6195
ረቀ	-6196
ከርድ	-6197
ግራት	-6198
▁ጥፋት	-6199
▁የመርሲሳይ	-6200
ላንታ	-6201
▁አበር	-6202
▁መርማሪ	-6203
▁የመስመር	-6204
በኙ	-6205
ያችን	-6206
▁በብዙ	-6207
▁የክል	-6208
▁ትዊተር	-6209
▁የሲቪል	-6210
▁የቻለው	-6211
▁ገልፀዋል	-6212
▁በሻ	-6213
▁እባ	-6214
▁የጸ	-6215
▁ግራም	-6216
▁መንገደ	-6217
▁ክለቡን	-6218
▁የሌላቸው	-6219
እኖ	-6220
ፊው	-6221
ማውዝ	-6222
ዲያል	-6223
▁ቨር	-6224
▁ኬን	-6225
▁ይወ	-6226
▁ባለማ	-6227
መልከቱ	-6228
ሴፍ	-6229
▁የፈለ	-6230
▁መዘጋጀ	-6231
▁ደመወዝ	-6232
▁የተጫዋ	-6233
▁የህይወት	-6234
ነሪ	-6235
▁ሟ	-6236
▁ሚስጥ	-6237
▁ሲያደርጉ	-6238
▁ጀምሯል።	-6239
ታደግ	-6240
▁አቁ	-6241
ሰባችን	-6242
▁የአገር	-6243
▁የምርምር	-6244
▁ጉዳዮችን	-6245
ጎል	-6246
ሳዕና	-6247
▁ግቡን	-6248
▁የሚውል	-6249
55	-6250
ላለፈው	-6251
▁በቦሌ	-6252
ስተካከል	-6253
▁ኢሳያስ	-6254
▁የርገን	-6255
ውነት	-6256
▁በሱ	-6257
▁አጠቃ	-6258
▁ሜዳሊያ	-6259
▁ድንጋይ	-6260
▁ሲያደርግ	-6261
▁እየተባለ	-6262
ገታ	-6263
ችለውን	-6264
▁መድሀ	-6265
▁አቤቤ	-6266
▁በመሆናቸው	-6267
▁ዴሞክራሲያዊ	-6268
ፈሩ	-6269
▁ከየ	-6270
▁መምጣት	-6271
rom	-6272
▁ሊትር	-6273
▁የወጡ	-6274
▁የክብር	-6275
▁ጦ	-6276
▁ሰጥቶ	-6277
▁የሰጠ	-6278
▁መንፈስ	-6279
▁ተመላክቷል።	-6280
ፅኦ	-6281
▁ጥሰ	-6282
▁በብዛት	-6283
▁ጽሕፈት	-6284
▁አስታውቀዋል፡፡	-6285
▁ገድ	-6286
▁የኢንተርኔት	-6287
ፍቱ	-6288
ደንዛ	-6289
▁ውብ	-6290
▁ስማቸው	-6291
▁በምስሉ	-6292
▁የሀዋሳ	-6293
▁ክላ	-6294
▁ያነ	-6295
▁ወደሚ	-6296
▁ፖለቲከ	-6297
▁ማዕከላት	-6298
ብረቱ	-6299
ነት፣	-6300
▁ሕጋዊ	-6301
▁ዶናልድ	-6302
ure	-6303
▁ክቡር	-6304
▁ሆን	-6305
▁ቢል	-6306
▁ተፅዕኖ	-6307
▁ክሪስታል	-6308
▁ፕሮግራሞች	-6309
ምነቱ	-6310
▁አክሲ	-6311
▁ስብከት	-6312
▁ዩቲዩብ	-6313
▁.....	-6314
▁አላውቅም	-6315
▁እየተከናወነ	-6316
▁በቱ	-6317
የስ	-6318
▁44	-6319
▁7.	-6320
▁አመለ	-6321
▁ያጋጠ	-6322
▁ፈረንሳ	-6323
ርዶ	-6324
ለቀቅ	-6325
ታትን	-6326
▁ለኮ	-6327
▁ሳት	-6328
▁ግልፅ	-6329
▁ጠቅሶ	-6330
ሽንግተን	-6331
▁በጋምቤላ	-6332
ከፈተ	-6333
▁የሥ	-6334
▁ቲክቶክ	-6335
▁እናቶች	-6336
▁ይሁንና	-6337
ውድ	-6338
▁48	-6339
▁ሁል	-6340
▁ቀዶ	-6341
▁የገጠ	-6342
▁ህሙማን	-6343
▁የተቋቋ	-6344
▁እንደሚቀጥል	-6345
▁የአይ	-6346
▁ያደርጋል	-6347
ንግስ	-6348
▁ሰለባ	-6349
▁ተይዘ	-6350
▁ድንጋ	-6351
ጓዴ	-6352
▁ከሕ	-6353
ይተርስ	-6354
▁ተክለ	-6355
ጭበርበር	-6356
▁ብሮድካ	-6357
▁ለመግባት	-6358
▁ተነግሯል	-6359
ወግ	-6360
▁ስለም	-6361
▁በትክክል	-6362
ልሀም	-6363
▁ያህ	-6364
▁በእን	-6365
▁ከተፈ	-6366
▁ወሲብ	-6367
▁የፍርድ	-6368
▁ጠቅሰው	-6369
251907	-6370
▁በእስራት	-6371
▁ይፈልጋሉ	-6372
▁መያዛቸውን	-6373
▁የተጠረጠሩ	-6374
▁ፕሮጀክቶች	-6375
ትሪክ	-6376
ከፈል	-6377
▁ዋዜማ	-6378
▁መስፍን	-6379
▁ተቀብሎ	-6380
▁ተዋሕዶ	-6381
▁ተጫዋቹ	-6382
▁ይሰጣል	-6383
▁አስታወቁ	-6384
▁ጠቁመዋል፡፡	-6385
▁ለደ	-6386
ጣልያን	-6387
▁ነበሩ።	-6388
▁ብራዚላዊው	-6389
▁ተገኝተዋል።	-6390
ዓላዊ	-6391
▁ሱቆች	-6392
▁አድን	-6393
▁ፍራንክ	-6394
ለብ	-6395
••	-6396
▁be	-6397
▁ያለፉ	-6398
▁ሪከርድ	-6399
▁አካዳሚ	-6400
▁በኋ	-6401
▁com	-6402
▁መቀበል	-6403
ሬዚ	-6404
▁ካን	-6405
▁ይነ	-6406
▁ሁሴን	-6407
▁ንጋቱ	-6408
▁በሚያስ	-6409
▁በመግለፅ	-6410
ian	-6411
▁በቅድ	-6412
▁እንዲሰ	-6413
▁የተሰጠው	-6414
ሉበት	-6415
▁ረጅም	-6416
▁ሲካሄድ	-6417
▁አለመግባባት	-6418
ራረዱ	-6419
▁ከቤ	-6420
▁የገቢ	-6421
▁መጠበቅ	-6422
▁ጠቅሰዋል።	-6423
ራቅ	-6424
አል	-6425
▁በፋ	-6426
▁ካላ	-6427
▁ውር	-6428
▁ከጨዋታው	-6429
▁በሚቀጥለው	-6430
ኔታው	-6431
▁ቪን	-6432
▁መፈጸ	-6433
▁ተጠይ	-6434
▁የክስ	-6435
▁የዘር	-6436
▁የደረጃ	-6437
▁የተሰኘው	-6438
ጦት	-6439
ከተል	-6440
የሱስ	-6441
▁ዘዴ	-6442
▁ረቡዕ	-6443
▁ዩንቨር	-6444
ረሪ	-6445
ኤን	-6446
▁ኛ	-6447
end	-6448
▁ኤስ	-6449
▁በዝር	-6450
▁ህዝባዊ	-6451
▁መዋቅር	-6452
▁ማስተላለ	-6453
▁ስለሆነም	-6454
▁ደቂቃዎች	-6455
▁ሩብ	-6456
▁ሳካ	-6457
▁ሀዘን	-6458
▁ራሽፎርድ	-6459
▁በመውሰድ	-6460
በጥ	-6461
▁በጀ	-6462
▁አሞ	-6463
▁ውይይ	-6464
▁በሩሲያ	-6465
▁አለማየሁ	-6466
ረንጓዴ	-6467
▁ቅጥር	-6468
ጠናቀቀው	-6469
▁በመድረ	-6470
▁መድሃኒት	-6471
▁በዚያ	-6472
▁አፈፃፀ	-6473
▁ከተማን	-6474
▁ከክልሉ	-6475
▁ከጥቂት	-6476
▁ነጋዴዎች	-6477
ሪቶ	-6478
▁በጥሩ	-6479
▁ሚንስቴር	-6480
▁እንዲቀጣ	-6481
▁ለመቀላቀል	-6482
ሀምፕ	-6483
ኮችን	-6484
▁ምደባ	-6485
▁ከአሜሪካ	-6486
▁ተን	-6487
▁ትግ	-6488
▁ልደታ	-6489
▁ለመግዛት	-6490
▁በጊዜያዊ	-6491
▁የሚደረገ	-6492
▁ፍልስፍና	-6493
▁ባሕር	-6494
ያለሁ	-6495
▁ተቀጣ	-6496
▁2024	-6497
▁ከቅርብ	-6498
▁የተከላ	-6499
▁እንደምን	-6500
▁የጽ	-6501
▁ስልጣ	-6502
▁እየቀ	-6503
▁አድራጎት	-6504
▁መንግሥታት	-6505
▁ከመንግስት	-6506
ካተቱ	-6507
▁ርእ	-6508
▁ላልተ	-6509
▁አገኘ	-6510
▁ክረምት	-6511
ሏን	-6512
ሰራው	-6513
▁የታገ	-6514
▁ባካሄደው	-6515
▁እንዲወጣ	-6516
▁ከአፍሪካ	-6517
▁ማብ	-6518
▁ፎቅ	-6519
ነታችን	-6520
▁ዘውዴ	-6521
▁በመደበኛ	-6522
▁በአገሪቱ	-6523
ይሮ	-6524
ኞቹን	-6525
ወሰኑ	-6526
▁መሸጫ	-6527
▁ቀንድ	-6528
▁ዘመኑ	-6529
▁የተገደ	-6530
▁መልእክት	-6531
▁በዋናነት	-6532
▁የድርጅቱ	-6533
▁የተፈናቀሉ	-6534
ተዳ	-6535
ቴጂ	-6536
ነውን	-6537
▁ቆስ	-6538
▁ሃብት	-6539
▁ለገበያ	-6540
▁ውጥረት	-6541
▁የሚመራ	-6542
▁እንዲቆም	-6543
▁የተጀመረው	-6544
▁ብርቱ	-6545
▁የቻለ	-6546
▁የሙዚቃ	-6547
▁የቼልሲ	-6548
▁ፌደራል	-6549
▁መጠጥ	-6550
▁ተሰጥቶ	-6551
▁ካልሆነ	-6552
▁የሚያው	-6553
▁ይሄንን	-6554
▁በመስራት	-6555
▁የሚካሄድ	-6556
ችም	-6557
ect	-6558
መስል	-6559
ጥታው	-6560
▁ኖር	-6561
▁አነጋ	-6562
▁እንደዘ	-6563
▁ግንዛቤ	-6564
▁ማህበረሰቡ	-6565
▁እንደሚያሳ	-6566
ሬስ	-6567
▁ፎር	-6568
▁ወላጅ	-6569
▁አብረው	-6570
▁የተወለ	-6571
▁ጉባኤው	-6572
ጋቸው	-6573
▁እኔም	-6574
▁ሄክታር	-6575
▁የድጋፍ	-6576
▁ጁኒየር	-6577
▁በተለምዶ	-6578
▁አንደኛው	-6579
▁ቴክ	-6580
ሌክትሮ	-6581
▁የሚቀ	-6582
▁0910	-6583
▁የአገሪቱ	-6584
▁በመጨረሻም	-6585
dis	-6586
▁በፍቅር	-6587
▁እንዳሳ	-6588
▁የቀረቡ	-6589
▁የደረሱ	-6590
▁ባስተ	-6591
▁ያለን	-6592
▁2023	-6593
▁ሁላችንም	-6594
▁ቴዎድሮስ	-6595
▁የማድረግ	-6596
▁አለመሆኑን	-6597
▁እንዲቀጥል	-6598
ውቀት	-6599
▁ማሰ	-6600
ዳሪዎች	-6601
▁ታላላቅ	-6602
▁ወይንም	-6603
▁ያመለክታል።	-6604
96	-6605
▁እውቀት	-6606
በረከተ	-6607
▁መሆኑም	-6608
▁ተቋማትን	-6609
ችሉም	-6610
▁በደንብ	-6611
ላለች	-6612
▁ሆይ	-6613
▁ሊቃ	-6614
ላለፉት	-6615
▁150	-6616
▁ማሸነ	-6617
▁የበኩ	-6618
▁ከከተማ	-6619
▁ፕሬዝዳን	-6620
sc	-6621
ሉትን	-6622
ንስሳት	-6623
ገነባው	-6624
ጋላዊው	-6625
ሞክራቲክ	-6626
▁ክህሎት	-6627
▁ውስጥም	-6628
▁ሰምቷል።	-6629
▁እየተጣራ	-6630
ho	-6631
▁ለዩ	-6632
▁በሴ	-6633
ዞን	-6634
ስፋፋ	-6635
ፈዋል	-6636
▁ታካ	-6637
▁ይዛ	-6638
ታደራዊ	-6639
▁አመላክ	-6640
▁ከደቡብ	-6641
▁የግብርና	-6642
▁እያንዳንዳቸው	-6643
ናስ	-6644
▁ቂ	-6645
eti	-6646
ንደኛ	-6647
▁ha	-6648
▁ከሞ	-6649
▁ታክሲ	-6650
▁ትክክል	-6651
▁አጠናክሮ	-6652
▁በተከሰተው	-6653
47	-6654
ቻልም	-6655
አዲስ	-6656
▁ለን	-6657
▁መላው	-6658
lay	-6659
▁በቋሚ	-6660
▁አይገባ	-6661
▁የዲጂታል	-6662
▁የመርሲሳይዱ	-6663
▁ምላ	-6664
ላቸውም	-6665
▁አደር	-6666
▁መዋሉን	-6667
▁የተመሰረተ	-6668
▁እናደርሳለን	-6669
97	-6670
▁በአው	-6671
▁ገለጻ	-6672
▁በአዳማ	-6673
▁የፈጠራ	-6674
▁የብሄራዊ	-6675
ዝን	-6676
ያያ	-6677
ካከለ	-6678
▁47	-6679
▁ዲዛ	-6680
▁አንጋ	-6681
▁ኮንጎ	-6682
ዎቻቸውን	-6683
▁የተከለከለ	-6684
ud	-6685
ቧን	-6686
▁ከድ	-6687
▁ሀብታሙ	-6688
▁አለው።	-6689
▁አጠናቀ	-6690
ዚያዊ	-6691
▁የደረ	-6692
▁እንሰራ	-6693
▁የውስጥ	-6694
▁የተውጣ	-6695
▁ማንኛውንም	-6696
ሟሉ	-6697
ደመ	-6698
▁በሬ	-6699
▁ተቆ	-6700
▁ፍንዳ	-6701
ሊና	-6702
ዳው	-6703
ቀጠል	-6704
ነርጂ	-6705
▁ስትራ	-6706
ፈልጋቸው	-6707
▁መግዛት	-6708
▁ያለባቸው	-6709
▁ይመልከቱ	-6710
ant	-6711
ሰቡን	-6712
▁ሰይ	-6713
▁መስመ	-6714
▁ባልደረ	-6715
ሬል	-6716
ብል	-6717
ታወቁት	-6718
▁ተመድ	-6719
▁ለምሳሌ	-6720
▁ይታወሳል	-6721
▁የደረሰባቸው	-6722
ንቅለ	-6723
▁ተለዋ	-6724
▁ድርቅ	-6725
▁ተዘግቧል	-6726
▁ተነግሯል፡፡	-6727
ሳራ	-6728
▁ቫን	-6729
▁በጥይት	-6730
▁ከተማው	-6731
ss	-6732
ልተኛ	-6733
ስተላል	-6734
▁ዳዊት	-6735
▁ሚያዝያ	-6736
▁ግብይት	-6737
▁በወቅታዊ	-6738
▁ከመስከረም	-6739
ረጠ	-6740
▁ኢራን	-6741
▁ዴቪድ	-6742
▁ማህበሩ	-6743
▁በታጣቂ	-6744
▁የሚያደርገውን	-6745
ነን	-6746
300	-6747
ኩረት	-6748
ርሰናል	-6749
▁ሃገራት	-6750
▁ለመላው	-6751
▁በእጅጉ	-6752
▁ዜግነት	-6753
▁የሰዎች	-6754
▁የኪ	-6755
▁ዩኒ	-6756
▁መፍጠር	-6757
▁የክፍያ	-6758
▁ድልድይ	-6759
▁በፈረንሳይ	-6760
ጻቸው	-6761
▁ማዘ	-6762
ሰብዓዊ	-6763
▁የሚነ	-6764
▁ስኬታማ	-6765
▁በሴቶች	-6766
▁በፍርድ	-6767
▁የተሰማ	-6768
▁በውድድሩ	-6769
▁እውነተኛ	-6770
እንደ	-6771
▁የሬ	-6772
▁አለች	-6773
▁ሻምፒዮን	-6774
ሊቱ	-6775
▁በአገር	-6776
▁እንዲፈቱ	-6777
St	-6778
ነሳት	-6779
ገበያ	-6780
▁ይደ	-6781
▁ባህርዳር	-6782
▁የኮሚሽኑ	-6783
igh	-6784
▁አፋር	-6785
▁ሆስፒታ	-6786
▁የቡድኑ	-6787
▁ጦርነቱ	-6788
▁አስተናግ	-6789
▁ለማየት	-6790
▁የቴክኖሎጂ	-6791
▁ሰላ	-6792
ማውያን	-6793
ትናንት	-6794
▁ይመለ	-6795
▁የጭነት	-6796
▁እል	-6797
▁ይመጣ	-6798
▁2020	-6799
▁ለማድረስ	-6800
▁ይገኙበታል።	-6801
ለይ	-6802
ሪዝ	-6803
▁ለራ	-6804
▁ማቆም	-6805
▁አያው	-6806
▁ለሀገር	-6807
▁ዮሐንስ	-6808
በሻ	-6809
ናጋ	-6810
▁እቅ	-6811
▁ቀጣዩ	-6812
▁ጥብቅ	-6813
▁ተናግራ	-6814
▁በቀጣይም	-6815
ኖም	-6816
▁ጃክ	-6817
▁በሺዎች	-6818
ረቱ	-6819
▁ነህ	-6820
▁ከለ	-6821
▁ዜጋ	-6822
ምህራን	-6823
▁ቀርቧል።	-6824
▁በሶማሊያ	-6825
▁በፌስቡክ	-6826
▁አፈጻጸም	-6827
▁የተከላካይ	-6828
ጥል	-6829
▁ቅን	-6830
▁ከቡ	-6831
▁ይተ	-6832
▁ቀጥሎ	-6833
▁ግሩፕ	-6834
▁ዩናይትድን	-6835
▁እኛም	-6836
▁እንደሚጀምር	-6837
▁የተፈጠረውን	-6838
one	-6839
▁የየ	-6840
▁መረጋጋት	-6841
ዝድ	-6842
ass	-6843
ከሰቱ	-6844
ደራጀ	-6845
ጠናቅ	-6846
▁በትራ	-6847
▁ተለይ	-6848
▁ዋልያ	-6849
▁ድምፃ	-6850
▁የሚቆይ	-6851
▁የሶማሌ	-6852
▁የሚመሩት	-6853
ሰውን	-6854
▁ዋለ	-6855
▁ስንት	-6856
▁በትን	-6857
▁አስተሳሰብ	-6858
▁የሚያደርጉት	-6859
ቡላ	-6860
ite	-6861
ሆኑም	-6862
ረርጌ	-6863
▁የና	-6864
▁በመመ	-6865
▁የመክ	-6866
▁የተረጋገጠ	-6867
ላሊት	-6868
▁43	-6869
▁ፓር	-6870
ከባቢው	-6871
▁መጥፎ	-6872
▁ማሰብ	-6873
▁እነሱ	-6874
▁ያገኙ	-6875
▁አደሮች	-6876
▁ከዓለም	-6877
▁አስተማማኝ	-6878
ለችው	-6879
▁መንጋ	-6880
▁ተንቀሳ	-6881
▁የደብረ	-6882
▁የድሬዳዋ	-6883
▁ይታወቃል፡፡	-6884
▁ተይዘው	-6885
▁አስታውቋል	-6886
ለቁ	-6887
ረፉ	-6888
▁ላሉ	-6889
▁ማቀ	-6890
▁ማራቶን	-6891
▁እስከሚ	-6892
▁መጠናቀቁን	-6893
ደቅ	-6894
ድና	-6895
ጅምላ	-6896
▁ማጥ	-6897
▁ለፊት	-6898
▁ቀለም	-6899
▁በሕገ	-6900
ere	-6901
ሚንቶ	-6902
▁ሳለ	-6903
ረሙ	-6904
▁ሽጉ	-6905
▁እጣ	-6906
▁አብራ	-6907
▁ወልደ	-6908
▁በእግር	-6909
▁አእምሮ	-6910
▁ያገኛሉ	-6911
ግዚአብሔር	-6912
▁እየተደረገላቸው	-6913
ማሊያ	-6914
▁ስፖር	-6915
▁በመላ	-6916
▁ክትባ	-6917
▁ጊዜው	-6918
ይማኖታዊ	-6919
▁5:00	-6920
▁ስዊ	-6921
▁ናት።	-6922
▁ተስማም	-6923
▁የሰጠው	-6924
▁መንቀሳቀስ	-6925
ጠይቁ	-6926
▁ተጫዋቹን	-6927
▁ከፕ	-6928
▁ሸገር	-6929
▁የክት	-6930
▁ማመላለ	-6931
▁በየዓመቱ	-6932
▁ማድረጋቸውን	-6933
ክትል	-6934
ምግባር	-6935
▁2-0	-6936
▁በተመጣ	-6937
▁ኮሎኔል	-6938
▁Share	-6939
▁አስነብቧል።	-6940
▁ታቅ	-6941
▁መስማማ	-6942
▁ማጥፋት	-6943
▁በኋላም	-6944
▁እናደርጋ	-6945
ራኒ	-6946
ዴል	-6947
ዎችም	-6948
▁ማርያም	-6949
67	-6950
ኝን	-6951
▁ኖሮ	-6952
▁ሲሰራ	-6953
▁በወረ	-6954
▁የህዝ	-6955
▁ባለሥልጣናት	-6956
▁ተጓ	-6957
▁ጠበ	-6958
ence	-6959
▁በቤት	-6960
▁አያስ	-6961
▁ምስክር	-6962
▁አሳዛኝ	-6963
▁አገግመዋል።	-6964
ህለ	-6965
ማሌ	-6966
▁ምኞ	-6967
▁በች	-6968
▁ተቆጥ	-6969
▁ግዙፍ	-6970
▁ፈቃደኛ	-6971
▁መገኘቱን	-6972
▁እንደሚያደርጉ	-6973
be	-6974
ነሽ	-6975
ክሌ	-6976
ልድያ	-6977
ቡባዊ	-6978
አበባ	-6979
ኪሞች	-6980
▁ቀኑ	-6981
ሊላንድ	-6982
▁አያይዘው	-6983
ወን	-6984
ዋሽ	-6985
▁it	-6986
▁ብሬንትፎርድ	-6987
መረጡ	-6988
▁አካሂ	-6989
ሰዋል፡፡	-6990
▁ማዕቀብ	-6991
▁የተቋሙ	-6992
▁የግድያ	-6993
▁እንደማያ	-6994
▁የሚጠበቅ	-6995
▁ማስተካከያ	-6996
ታች	-6997
ልጣኑ	-6998
ቃችሁ	-6999
ፈጥር	-7000
▁ተጣ	-7001
ገለግሉ	-7002
▁የሰጡ	-7003
▁ውድድሩ	-7004
▁የታላቁ	-7005
▁እንደደረሰ	-7006
▁እንፈልጋለን	-7007
ብላ	-7008
ብነት	-7009
▁04	-7010
▁ስና	-7011
▁ሊጉን	-7012
▁በሕግ	-7013
▁ከሶስት	-7014
▁መዋላቸውን	-7015
ric	-7016
▁ሆቴ	-7017
▁ለሆኑ	-7018
▁እሱን	-7019
▁የተሳተፉ	-7020
ረስት	-7021
ሬትስ	-7022
ከፍሉ	-7023
▁ሀገረ	-7024
▁ሽፋን	-7025
▁አያሌ	-7026
▁እናው	-7027
▁ፊርማ	-7028
▁መድፈኞቹ	-7029
▁እንደሚፈልግ	-7030
ስተም	-7031
ዓመት	-7032
ገራሚ	-7033
▁ሙሴ	-7034
▁መረጃና	-7035
▁እየሆነ	-7036
የኢትዮጵያ	-7037
▁በየትኛውም	-7038
ፕቶ	-7039
ቃለን	-7040
▁85	-7041
2700	-7042
መዘገበው	-7043
▁ለሁለተኛ	-7044
▁ከትላንት	-7045
ሐይ	-7046
ክን	-7047
▁ሁከት	-7048
▁በግን	-7049
▁አስቆ	-7050
በከር	-7051
ባቢያ	-7052
▁ትገኛ	-7053
▁አለመረጋጋት	-7054
nt	-7055
ሲሉ	-7056
ፅሙ	-7057
ጓጓዝ	-7058
▁ምዕ	-7059
▁ጠየቀ	-7060
▁እየሰጠ	-7061
▁ለመጠበቅ	-7062
stagram	-7063
ረጡ	-7064
ቋም	-7065
ድራ	-7066
ድቅ	-7067
ይማር	-7068
ጥብቅ	-7069
▁ግፊት	-7070
▁Cont	-7071
▁ምንጭ፡	-7072
ህነት	-7073
▁በእሳት	-7074
▁ተነስቶ	-7075
▁የተወሰደ	-7076
▁የፓርቲው	-7077
ለኞች	-7078
▁ለይ	-7079
▁መረጃውን	-7080
▁ተወላጆች	-7081
ዋይ	-7082
ፒኤስጂ	-7083
▁ሞሮኮ	-7084
▁አልበ	-7085
▁ይዘን	-7086
▁ፕሬዘ	-7087
▁በተያዘው	-7088
▁ውድድሩን	-7089
▁የዘንድሮው	-7090
▁ለሽ	-7091
▁ሲቲን	-7092
▁በሜዳ	-7093
▁ችሎታ	-7094
▁መስራች	-7095
▁ስርዓቱ	-7096
▁እንደሚካሄድ	-7097
▁የሚመለከታቸው	-7098
ለፊት	-7099
▁መካሄ	-7100
▁ሲሰጥ	-7101
▁ተሰል	-7102
▁ተመልክቷል።	-7103
ረማያ	-7104
▁ለምት	-7105
270050	-7106
▁በሚኪያስ	-7107
93	-7108
▁ሕን	-7109
▁ታዬ	-7110
▁የሜ	-7111
▁ዲና	-7112
▁ለይቶ	-7113
▁መፈፀ	-7114
▁መግባባት	-7115
▁ፖል	-7116
▁በአየር	-7117
▁እንችላ	-7118
▁ባጋጠመው	-7119
▁የጀመረው	-7120
▁በሚመለከት	-7121
▁የማህበረሰብ	-7122
ሊያም	-7123
▁ከፊ	-7124
ከተለው	-7125
▁ኮቪድ	-7126
▁የሚወ	-7127
▁ያመጣ	-7128
▁ባለሀብ	-7129
▁በበረከት	-7130
▁የስደተኞች	-7131
▁ያቀ	-7132
ጠበቀው	-7133
▁የማለ	-7134
▁ያላት	-7135
▁your	-7136
▁የተሰማሩ	-7137
በሉ	-7138
▁ጨር	-7139
የታቸው	-7140
▁ተሰብ	-7141
▁ተገደ	-7142
▁በዛሬዉ	-7143
▁የጎርፍ	-7144
▁እንግዶች	-7145
▁እንደነበሩ	-7146
▁እፈልጋለሁ	-7147
▁ፓትርያርክ	-7148
መላ	-7149
▁ወሰን	-7150
▁የሰነ	-7151
መለከቱት	-7152
▁ምንዛሪ	-7153
▁ማለታቸውን	-7154
ሽያ	-7155
ምቦልቻ	-7156
▁ወስደው	-7157
▁ከጥቅምት	-7158
▁ደርሰዋል።	-7159
nstagram	-7160
▁አስረድተዋል፡፡	-7161
se	-7162
ባጭ	-7163
ዓሉ	-7164
ቆጠቡ	-7165
አዴግ	-7166
▁ተሟ	-7167
▁ተተ	-7168
▁መሰና	-7169
▁የልብ	-7170
ብረው	-7171
▁ጥሎ	-7172
▁ያሰለ	-7173
▁ከአራት	-7174
▁ማመላለሻ	-7175
ሰቃ	-7176
ሞክሩ	-7177
ቀበሉ	-7178
▁ምእ	-7179
▁የቶ	-7180
▁የክረምት	-7181
▁በሚደረገው	-7182
ክቱ	-7183
ፍሮ	-7184
ሸመኔ	-7185
▁መውሰ	-7186
▁0913	-7187
▁ተጠርጣሪው	-7188
▁የሳይንስና	-7189
ረሳ	-7190
ንጆ	-7191
የእ	-7192
ደቱ	-7193
ርን	-7194
ቶች፣	-7195
ስቲክስ	-7196
▁መማር	-7197
▁ተዋጊ	-7198
▁ተናገሩ።	-7199
▁ህብረተሰብ	-7200
▁የሚያደርገው	-7201
ሃሴ	-7202
ባራ	-7203
ንዱ	-7204
ስትል	-7205
▁እርግጠኛ	-7206
▁ካቢኔ	-7207
▁ስድስተኛ	-7208
▁በተከታታይ	-7209
ክራ	-7210
ርነት	-7211
ፎካካ	-7212
ጃቸውን	-7213
▁ተዘር	-7214
▁2022	-7215
▁በቦታው	-7216
▁አስከፊ	-7217
▁ዋንጫው	-7218
▁ከማንችስተር	-7219
▁02	-7220
▁ኮም	-7221
ሀምፕተን	-7222
▁የጀመረ	-7223
▁ከእኛ	-7224
▁ሉዓላዊ	-7225
▁ታውቋል	-7226
▁ከሁሉም	-7227
▁የጎንደር	-7228
▁ፊትለፊት	-7229
ገጣ	-7230
▁8.	-7231
▁ተፈጥ	-7232
▁የናይ	-7233
▁የጠቆ	-7234
▁በነበራቸው	-7235
ይዝ	-7236
▁ነክ	-7237
▁ስኬት	-7238
▁ትውል	-7239
▁የስር	-7240
▁ማጣራት	-7241
▁ተገናኝ	-7242
▁አመለካ	-7243
▁ኩባንያዎች	-7244
▁አገልግሎቶችን	-7245
▁መልካ	-7246
▁በድጋሜ	-7247
ኮስ	-7248
▁በፊ	-7249
▁አፅ	-7250
▁በነጻ	-7251
▁ትራንስ	-7252
▁ያገኘው	-7253
▁ፍቅረኛ	-7254
▁አለበት።	-7255
ልምና	-7256
ይንግ	-7257
▁or	-7258
▁ለመስ	-7259
▁ለግብ	-7260
▁ኦሮሞ	-7261
▁የተያዘ	-7262
▁የግብፅ	-7263
▁አስተዳደ	-7264
▁የወላይታ	-7265
ዉም	-7266
ጠላት	-7267
▁42	-7268
▁በከባድ	-7269
▁የፍትህ	-7270
▁ተገለጸ።	-7271
▁ከስልጣን	-7272
▁የሚችለው	-7273
በዛ	-7274
ጋኒ	-7275
መናዊ	-7276
▁በቶ	-7277
▁ጽኑ	-7278
መልከቻ	-7279
▁መላክ	-7280
▁የእጅ	-7281
▁ለሰላም	-7282
▁በንብረት	-7283
▁በጠቅላይ	-7284
▁የሚደረገውን	-7285
ረሚያ	-7286
▁የፅ	-7287
▁እናስ	-7288
▁በምርጫ	-7289
▁ተደርገ	-7290
▁ከጀመረ	-7291
ዘጉ	-7292
▁ይጨ	-7293
▁የያዙ	-7294
▁ቁሳቁስ	-7295
▁ገፃቸው	-7296
▁ሪፖርተር	-7297
▁እንጠይቃ	-7298
:45	-7299
ብናል	-7300
▁ተፈራ	-7301
▁ራዲዮና	-7302
ግራቸው	-7303
▁ንግግ	-7304
▁ኮንግ	-7305
▁መዳረሻ	-7306
▁ስላለው	-7307
▁ቁጥራቸው	-7308
▁ፈረንሳዊው	-7309
ጅመንት	-7310
▁ብለህ	-7311
ፌዴሬሽን	-7312
▁ሊደረግ	-7313
ሎቲ	-7314
ላይት	-7315
ክረው	-7316
▁ስማ	-7317
▁ባህሪ	-7318
▁በእርግ	-7319
▁አንቀጽ	-7320
▁በስፍራው	-7321
▁youtube	-7322
▁ቤተሰቦቻቸው	-7323
ፍጨ	-7324
2011	-7325
▁የሙያ	-7326
▁የኒው	-7327
▁ጃዋር	-7328
▁መመዝገብ	-7329
መስረት	-7330
▁ቀዳማ	-7331
▁አስመዝ	-7332
▁ዓመታዊ	-7333
▁የባንኩ	-7334
▁ያላችሁ	-7335
▁ጣቢያው	-7336
▁የተሳሳተ	-7337
43	-7338
ለዋ	-7339
ern	-7340
▁በኪ	-7341
ሚኒስት	-7342
▁ሽብር	-7343
▁የቆዩ	-7344
▁በክልል	-7345
▁ባለሞያዎች	-7346
ሳቱ	-7347
፣በ	-7348
ain	-7349
▁አዘ	-7350
ቫይረስ	-7351
▁ጠላት	-7352
▁ማስተባ	-7353
▁በሚባል	-7354
▁የህዳሴ	-7355
▁ተጠርጣሪዎቹ	-7356
CS	-7357
ዚን	-7358
▁ቸ	-7359
ስማማ	-7360
ቆጥር	-7361
▁ቡር	-7362
▁ሆሳዕና	-7363
▁የወርሀ	-7364
▁የዛሬው	-7365
▁ፖሊሶች	-7366
▁አብዛኞቹ	-7367
▁እንደምታ	-7368
▁ይሰጣል።	-7369
▁አከባቢዎች	-7370
▁ግለሰቦችን	-7371
ጎችን	-7372
▁ፋይ	-7373
▁ያተኮ	-7374
▁ያወጣ	-7375
▁በጥብቅ	-7376
▁በኦንላይን	-7377
ተህ	-7378
▁ሲልቫ	-7379
▁ስላለ	-7380
ስትራሊያ	-7381
▁ኮማንድ	-7382
▁ያሉት።	-7383
ጠርጣሪ	-7384
ምረቻ	-7385
▁ET	-7386
▁ማሰል	-7387
▁በመታ	-7388
▁ትራፊክ	-7389
▁እንደቀ	-7390
▁ለማጠናቀቅ	-7391
▁ከሚመለከታቸው	-7392
▁ትእ	-7393
▁ለመፍት	-7394
▁አመቻችቶ	-7395
▁አንቶኒዮ	-7396
▁ያስፈልጋል	-7397
ሜሽን	-7398
ንደስ	-7399
▁አሳር	-7400
▁ይወስ	-7401
▁በአምስት	-7402
▁እስልምና	-7403
▁የሀገሪቱን	-7404
▁አስቆጥሯል።	-7405
▁የቅርብ	-7406
▁ለመጀመር	-7407
▁ለማሻሻል	-7408
ሮስ	-7409
ሮብ	-7410
ከብር	-7411
ክተሮች	-7412
▁ኦነግ	-7413
▁ውሳኔው	-7414
▁የማያስ	-7415
▁ሮበርት	-7416
▁በአብዛ	-7417
ኒቶች	-7418
▁በወር	-7419
▁እኔን	-7420
▁ተሻ	-7421
▁ጥረ	-7422
▁ሁሉን	-7423
▁በየነ	-7424
▁ታሳቢ	-7425
▁ያስች	-7426
▁አስከሬን	-7427
▁አብዛኛው	-7428
ለፉ	-7429
ኤስቲ	-7430
▁ዳቦ	-7431
ወያየት	-7432
▁እሸቱ	-7433
▁ወዳጅ	-7434
▁ስለሚያ	-7435
▁የሚሰጠ	-7436
▁በወረዳው	-7437
▁ኤርሊንግ	-7438
▁የእርዳታ	-7439
▁በማንኛውም	-7440
▁በተመጣጣኝ	-7441
▁አመላክቷል።	-7442
▁ከጥር	-7443
▁ካሜራ	-7444
▁ባላቸው	-7445
▁ግምገማ	-7446
ማም	-7447
ዊች	-7448
ዞች	-7449
መሪያ	-7450
ምርጫ	-7451
ጠሩት	-7452
ፊልድ	-7453
▁ሮቤ	-7454
ብራዚል	-7455
▁ተጀመረ	-7456
ran	-7457
▁3,	-7458
ከፋፈል	-7459
▁ልምም	-7460
▁ተከፍ	-7461
▁የባሕር	-7462
▁አቡበከር	-7463
▁የመጀመሪያውን	-7464
ርና	-7465
ቸት	-7466
▁ማዕከሉ	-7467
▁የቀረበው	-7468
▁Ethiopia	-7469
ጽሙ	-7470
ኤስቲቪ	-7471
▁አምባ	-7472
▁ማምሻውን	-7473
ንግሊ	-7474
ወርክ	-7475
▁9.	-7476
ፈነ	-7477
ሳካት	-7478
▁ክን	-7479
▁ጎበ	-7480
▁መቆጣ	-7481
▁ምሁራን	-7482
▁የሙስና	-7483
▁የበረራ	-7484
▁የሀገራችን	-7485
ide	-7486
▁ሥልጠና	-7487
▁ኤልያስ	-7488
▁ጥቃቱን	-7489
ታም	-7490
ጋለ	-7491
▁ቁጥሩ	-7492
▁በውሃ	-7493
▁ወርቁ	-7494
▁አዲሱን	-7495
▁በትዊተር	-7496
▁የአስተዳደር	-7497
ሳች	-7498
ቼን	-7499
ራባች	-7500
ኳታር	-7501
▁ባደረገ	-7502
▁ኖቲንግ	-7503
▁የብድር	-7504
▁ለመደገፍ	-7505
▁ምርቶችን	-7506
ፍረት	-7507
▁መጽሐ	-7508
▁ሰብስ	-7509
▁ሆነዋል።	-7510
ጠሉ	-7511
ስቶች	-7512
ታውን	-7513
ለታል።	-7514
ምራዊት	-7515
▁2-1	-7516
▁በጥር	-7517
▁ተያያ	-7518
▁እውን	-7519
▁መሃመድ	-7520
▁በከፊል	-7521
▁ከአማራ	-7522
▁ታራሚዎች	-7523
▁አካውንት	-7524
ደዋል	-7525
▁በፀ	-7526
▁አስገንዝ	-7527
▁የአም	-7528
▁የተለያየ	-7529
ኒክስ	-7530
ክሳንደር	-7531
▁የሁሉም	-7532
▁በርንማውዝ	-7533
68	-7534
ነሩ	-7535
▁የዱ	-7536
ፈፀመው	-7537
▁ለባለ	-7538
▁የተወ	-7539
▁ማሳካት	-7540
▁ስትሆን	-7541
▁ባህላዊ	-7542
▁ክፍተት	-7543
ህም	-7544
▁ይጠብ	-7545
ge	-7546
በለ	-7547
ነዉ	-7548
ከሰተ	-7549
▁አለሙ	-7550
▁እንገኛ	-7551
▁የቀብር	-7552
▁አስደናቂ	-7553
▁የሚካሄደው	-7554
▁የሚመለከተው	-7555
▁አስታዉቋል፡፡	-7556
age	-7557
ሻላይ	-7558
▁በመላክ	-7559
▁በእርስ	-7560
▁ነዋሪዎቹ	-7561
ከትል	-7562
ክንያ	-7563
▁ኢት	-7564
▁ወገኖ	-7565
▁ዳርቻ	-7566
▁ጅቡቲ	-7567
▁ካፒታል	-7568
▁ፉልሀም	-7569
▁ይጠበቃል፡፡	-7570
ቀደው	-7571
▁ጠር	-7572
▁ሲልም	-7573
▁ደካማ	-7574
▁ምዘናና	-7575
▁አጠገብ	-7576
▁አስተላልፈዋል።	-7577
▁ማቲ	-7578
▁ባቀረ	-7579
▁የተሸ	-7580
▁ይላሉ	-7581
▁የቱርክ	-7582
ቤን	-7583
ብርኤል	-7584
ነገረው	-7585
▁600	-7586
▁ምዘና	-7587
▁ይሁኑ	-7588
▁ሞሀመድ	-7589
▁ቡንደስ	-7590
▁ከነበረ	-7591
▁የተጠየ	-7592
▁መታሰቢያ	-7593
▁ብቁ	-7594
ዋሪዎች	-7595
▁ተፈጽ	-7596
▁የወንድ	-7597
▁ተወዳዳሪ	-7598
▁አስገራሚ	-7599
TA	-7600
ላልቅ	-7601
ገነቡ	-7602
ረንጆቹ	-7603
▁ሳውዲ	-7604
▁ግልጋ	-7605
▁ቀጥተኛ	-7606
▁በረከት	-7607
▁በወንጀል	-7608
▁የጣልያን	-7609
ፈቱ	-7610
ቨርት	-7611
▁ለቡ	-7612
▁የሂ	-7613
▁ሊድስ	-7614
▁መላኩ	-7615
▁ዕርዳታ	-7616
▁ለስራ	-7617
▁ተሞክ	-7618
▁ከግን	-7619
▁ገልጿል	-7620
▁እንዲኖር	-7621
▁የኮንትሮባንድ	-7622
▁አስተያየታቸውን	-7623
/0	-7624
ራጭ	-7625
ርግ	-7626
ጣኔ	-7627
▁በአሸ	-7628
ሆስፒታል	-7629
▁መርምሮ	-7630
▁በዕለቱ	-7631
▁የቴሌቪ	-7632
▁የወረዳ	-7633
▁ከትናንት	-7634
▁የሆነችው	-7635
▁የገለፀው	-7636
ራክ	-7637
▁አልቻል	-7638
▁የጥላቻ	-7639
▁በኤርትራ	-7640
▁ውሳኔውን	-7641
▁አስቆጥሯል	-7642
ኪዮ	-7643
ies	-7644
▁ገመ	-7645
ነዋል።	-7646
▁ተሸላሚ	-7647
▁ኔይማር	-7648
▁የውሳኔ	-7649
▁ለማውጣት	-7650
ዊቷ	-7651
▁ጡ	-7652
ነሳው	-7653
ጃፓን	-7654
▁ሲቲው	-7655
▁መካከለ	-7656
▁በበጀት	-7657
▁የተለመደ	-7658
ጋግ	-7659
ራቱን	-7660
▁ሰጠ	-7661
▁አሠ	-7662
▁በቀድሞ	-7663
▁ከክለቡ	-7664
▁የብልት	-7665
▁ኤጀንሲው	-7666
▁የዩኒቨርስቲ	-7667
400	-7668
ree	-7669
ግባኝ	-7670
▁ch	-7671
▁መክፈል	-7672
▁ሞባይል	-7673
▁መቆየቱን	-7674
▁ምክንያቱ	-7675
▁በእነዚህ	-7676
▁በሰሜ	-7677
▁ነውና	-7678
▁ውለው	-7679
▁ያስረዳ	-7680
▁ከሚገኘው	-7681
በቡ	-7682
ባለሁ	-7683
▁ሞል	-7684
▁ደው	-7685
መሰግና	-7686
▁ቅስቀ	-7687
▁ከሶማ	-7688
▁የክለ	-7689
▁ፅሁፍ	-7690
▁በሶማሌ	-7691
▁በዋለው	-7692
▁በተከሰተ	-7693
▁ያሰለጠና	-7694
ልፌ	-7695
ሸራ	-7696
ast	-7697
▁Ab	-7698
▁ለማለት	-7699
▁ምክኒያ	-7700
▁በዝርዝር	-7701
ብሩ	-7702
ተሮች	-7703
▁ከራ	-7704
▁መነሳ	-7705
▁አርሲ	-7706
ኒስትሮች	-7707
▁አደረጃጀት	-7708
▁እንቅስቃሴዎች	-7709
▁41	-7710
ስቷል።	-7711
ነቶችን	-7712
ኞቻችን	-7713
▁የብል	-7714
▁በዓሉን	-7715
▁አምላክ	-7716
▁በውይይቱ	-7717
ግዚ	-7718
ብራት	-7719
▁በግለ	-7720
▁ኢነርጂ	-7721
▁እንዲሁ	-7722
▁ዋንጫን	-7723
ኑት	-7724
▁ለፈተና	-7725
▁እያስተ	-7726
▁ለጋዜጠኞች	-7727
ንታዊ	-7728
▁ኪሳራ	-7729
▁የበጀት	-7730
▁ያውቃሉ	-7731
▁ስትራቴጂ	-7732
▁በጦርነት	-7733
ሪያን	-7734
2023	-7735
▁በትግስት	-7736
▁ኢብራሂም	-7737
▁የሚባለው	-7738
ፕዚ	-7739
ዲናዋ	-7740
▁አፕ	-7741
▁ታማሚ	-7742
▁ዙርያ	-7743
▁መጠየቅ	-7744
▁ማውጣት	-7745
መኛ	-7746
▁የረ	-7747
ታቸውም	-7748
▁ደጀኔ	-7749
▁በዘርፉ	-7750
▁አካሄድ	-7751
▁መሞታቸውን	-7752
ይቱ	-7753
▁ቱሉ	-7754
ረሰቦች	-7755
▁ከዚያም	-7756
▁11:00	-7757
▁የሽግግር	-7758
251907270050	-7759
ንጂ	-7760
ገልገ	-7761
▁ድሮ	-7762
▁በአም	-7763
▁የገደ	-7764
▁ተፈራር	-7765
▁የሳውዲ	-7766
▁የወጣው	-7767
▁ሁኔታውን	-7768
▁የወዳጅነት	-7769
▁ተደርጓል፡፡	-7770
ደይ	-7771
ስቶስ	-7772
ትሌቲ	-7773
▁ከካ	-7774
ሰራጨት	-7775
▁are	-7776
▁መሀል	-7777
▁የሞቱ	-7778
▁ግብጽ	-7779
▁አላችሁ	-7780
▁ፓርላማ	-7781
▁ሃይማኖት	-7782
ኮር	-7783
ጀው	-7784
ፍለ	-7785
600	-7786
▁ተጽዕኖ	-7787
▁የማስተ	-7788
▁በአፋጣኝ	-7789
▁ፋይናንስ	-7790
ሀሴ	-7791
ካቸው	-7792
▁05	-7793
▁ዓመቷ	-7794
▁ገርጂ	-7795
▁ጭንቅ	-7796
▁በማዕከላዊ	-7797
ከፋፈ	-7798
ዓታት	-7799
ግራፍ	-7800
▁የፀረ	-7801
▁የራሱን	-7802
ደረገባቸው	-7803
▁መስፈርት	-7804
▁ከአምስት	-7805
▁የአርሰናል	-7806
▁አስመርቋል።	-7807
ከፍል	-7808
ዋንዶ	-7809
ፖርቱ	-7810
▁ድቻ	-7811
▁አፋጣኝ	-7812
▁ያካተተ	-7813
▁በዘንድሮ	-7814
▁እንግዲያ	-7815
▁የንብረት	-7816
▁መንገዶችን	-7817
▁ከአካባቢው	-7818
ፋዊ	-7819
ብሰባ	-7820
ችኋል	-7821
▁an	-7822
ከናወነው	-7823
▁ቪንሰስ	-7824
▁ክርክር	-7825
▁የመሳሰ	-7826
▁እያካሄደ	-7827
▁ቻር	-7828
▁ቤቲካ	-7829
▁አሉት	-7830
▁የተጠ	-7831
▁ይረዳ	-7832
ስተናግድ	-7833
▁ተብሏል	-7834
▁እንዲገባ	-7835
▁የሚሳተፉ	-7836
ክሪ	-7837
ገቢያ	-7838
ሚዲያል	-7839
▁ከቤተ	-7840
▁ከጊዜ	-7841
▁እራሱን	-7842
▁ፍልስጤ	-7843
▁በየጊዜው	-7844
▁ይቻላል።	-7845
ክሉ	-7846
ምፒው	-7847
በት፣	-7848
▁ቲቪ	-7849
▁ተፈፅ	-7850
▁ነዉ፡፡	-7851
▁ተጠናቋል	-7852
▁እንደሚጠበቅ	-7853
ዮኖች	-7854
▁ማሳያ	-7855
▁ቆይቶ	-7856
▁የልዩ	-7857
▁ደርቢ	-7858
▁ሲደርሱ	-7859
▁ቤንዜማ	-7860
▁አባላቱ	-7861
▁ለትምህርት	-7862
▁ማድረጋቸው	-7863
▁እያንዳንዱ	-7864
▁ዩኒቨርስቲዎች	-7865
የሩ	-7866
ላንዳ	-7867
▁አለቃ	-7868
▁ከሰኔ	-7869
▁በተቋሙ	-7870
▁መምጣቱን	-7871
▁አይችልም	-7872
▁የቤተሰብ	-7873
ሠረተ	-7874
▁ለዶ	-7875
▁በዚ	-7876
▁ጥላቻ	-7877
▁that	-7878
▁ሰጥቷል	-7879
▁በመቀጠል	-7880
▁ያቀረቡት	-7881
▁አሳውቋል፡፡	-7882
ሜት	-7883
ካሬ	-7884
ያስፖ	-7885
ደባችሁ	-7886
ገልገል	-7887
▁በፅኑ	-7888
▁መቀጠል	-7889
▁የእርስ	-7890
▁እርምጃዎች	-7891
ጠሩን	-7892
▁እኩ	-7893
▁መውጫ	-7894
▁ቪድዮ	-7895
▁የአፍ	-7896
▁መድረስ	-7897
▁አቅርበዋል፡፡	-7898
.6	-7899
ለቃ	-7900
ውስኪ	-7901
ደራስ	-7902
▁ኦሪ	-7903
▁ጊኒ	-7904
▁መከራ	-7905
▁ሂደቱን	-7906
▁አስረክ	-7907
▁በጀርመን	-7908
▁አብርሃም	-7909
▁የተጀመረ	-7910
ታና	-7911
የህ	-7912
ery	-7913
ንቀት	-7914
▁57	-7915
▁መፅሀፍ	-7916
▁ቁሳቁሶች	-7917
▁በራሳቸው	-7918
▁የተመዘገበ	-7919
ሞስ	-7920
ዋዕ	-7921
▁በኩ	-7922
▁ከቆ	-7923
▁ሰራሽ	-7924
▁በደስታ	-7925
▁ይላል።	-7926
▁ሆስፒታሉ	-7927
▁ሻምፒዮና	-7928
▁የአምስት	-7929
ነካ	-7930
ጀርባ	-7931
▁ለባ	-7932
▁ቅዱ	-7933
▁ሜክሲኮ	-7934
▁የታጠቁ	-7935
▁ያለፈው	-7936
▁አክሲዮን	-7937
▁አስተዋፅኦ	-7938
▁የሚንቀሳቀሱ	-7939
ቃሚ	-7940
ዝቦ	-7941
ፋቅር	-7942
▁ውዝ	-7943
▁ጀማል	-7944
▁በመደወል	-7945
▁በተባለው	-7946
.7	-7947
ኒካል	-7948
▁800	-7949
▁ያህሉ	-7950
▁መንፈሳዊ	-7951
▁ለማስገባት	-7952
▁የመግባቢያ	-7953
2,	-7954
ውሎስ	-7955
▁በመጣ	-7956
▁ተራራ	-7957
▁ዓለማ	-7958
▁ለሶስት	-7959
▁ዲሞክራሲ	-7960
ላ፣	-7961
ዴት	-7962
▁ስርጭ	-7963
▁ስርቆት	-7964
▁ከሐምሌ	-7965
▁10:00	-7966
▁ዲፕሎማሲ	-7967
▁አውሮፕላኖች	-7968
ኮቪድ	-7969
▁በሙ	-7970
▁አኳ	-7971
ምንታት	-7972
▁የሰማ	-7973
▁በጥቃቱ	-7974
▁ተከስቶ	-7975
▁የተገኙት	-7976
46	-7977
ዳም	-7978
▁ባደረ	-7979
▁ተሰማር	-7980
▁ግዛቶች	-7981
▁ተፈናቅለው	-7982
ry	-7983
ሄር	-7984
ድል	-7985
ግዝ	-7986
ጣዊ	-7987
ችልም።	-7988
▁ሚድያ	-7989
▁በመው	-7990
▁የወባ	-7991
▁ምርጫው	-7992
▁ክብደት	-7993
▁ዋልያዎቹ	-7994
▁ባለስልጣኑ	-7995
▁ነች	-7996
ions	-7997
▁የዘንድሮ	-7998
▁ጥያቄዎችን	-7999
ብሳ	-8000
▁56	-8001
▁ውሀ	-8002
▁ሉዊስ	-8003
▁የክልሉን	-8004
sp	-8005
ወች	-8006
ደዋ	-8007
▁46	-8008
▁67	-8009
▁የቪ	-8010
▁የኛ	-8011
▁ይው	-8012
ስቲንግ	-8013
ነሪንግ	-8014
▁ሀይሉ	-8015
▁ምሽቱ	-8016
▁አቋር	-8017
▁ደህን	-8018
ሻላይዝድ	-8019
ገላ	-8020
▁የፌ	-8021
▁ሲሳይ	-8022
▁የግራ	-8023
▁ጎብኝ	-8024
▁ማጋራት	-8025
▁እየታየ	-8026
▁የተመረጡ	-8027
ጣጣ	-8028
ቸገሩ	-8029
ጠቀስ	-8030
▁ፋና	-8031
▁ሞተር	-8032
▁ድረገጽ	-8033
▁የተባሉት	-8034
▁Contact	-8035
iss	-8036
▁መት	-8037
▁ሰርተ	-8038
▁የተፈረ	-8039
▁ለመሳተፍ	-8040
▁የሚያስገኘው	-8041
ፍር	-8042
ስቱን	-8043
▁ሲቀ	-8044
▁ጠቃሚ	-8045
▁በተባበሩት	-8046
▁ታውቋል፡፡	-8047
ታላኑ	-8048
ከተለ	-8049
ወጡት	-8050
▁ዳግ	-8051
▁በወጣ	-8052
▁የአባ	-8053
▁ይጫኑ	-8054
▁ሁልጊዜ	-8055
▁መጥተው	-8056
ኒስቴሩ	-8057
▁ስቃይ	-8058
▁ክፉኛ	-8059
▁መምህራ	-8060
▁በተለየ	-8061
▁ተለዋጭ	-8062
▁ክልል፣	-8063
▁Channel	-8064
ቲቪ	-8065
ዘኛ	-8066
ሰባቸው	-8067
▁ሐሳብ	-8068
▁ሲገባ	-8069
▁ለመያዝ	-8070
▁ውርርድ	-8071
▁ያቀረቡ	-8072
▁ፓስፖርት	-8073
32	-8074
ርብ	-8075
ear	-8076
ካተት	-8077
▁pro	-8078
▁የወል	-8079
▁አሸንፈ	-8080
▁አብረን	-8081
▁የዛሬውን	-8082
▁ስነስርዓት	-8083
ራም	-8084
ፍጣ	-8085
ላንኮ	-8086
▁የጋዜ	-8087
▁በጸጥታ	-8088
▁የኦነግ	-8089
▁ከኦሮሚያ	-8090
▁የሚገናኙ	-8091
▁ያሰለጠናቸውን	-8092
ኩኝ	-8093
ላለም	-8094
▁ሽንፈ	-8095
ጣታቸውን	-8096
▁ሰላምን	-8097
▁የተውጣጡ	-8098
▁ምና	-8099
▁ዋቢ	-8100
▁ኢላማ	-8101
▁ጣልያን	-8102
ሲስ	-8103
እና	-8104
ኩሰን	-8105
▁መጻ	-8106
ምንተኛ	-8107
▁ሲጓዝ	-8108
▁ተረድ	-8109
▁ፈንታ	-8110
▁ፈንድ	-8111
ማችሁ	-8112
ቆጠሩ	-8113
ረንሳዩ	-8114
▁1000	-8115
▁የመጣው	-8116
▁በመቃወም	-8117
▁እንግዲያውስ	-8118
ቪዬ	-8119
ጣሬ	-8120
ያዮቹ	-8121
ጋርድ	-8122
ፎርም	-8123
▁ሰሌዳ	-8124
▁ከመቶ	-8125
ህበረሰቡ	-8126
▁ይገልጻ	-8127
▁ለማስቆም	-8128
▁ለተለያዩ	-8129
▁በመግለጫ	-8130
▁እየደረሰ	-8131
ዋና	-8132
▁የሚደር	-8133
To	-8134
ቴክ	-8135
ሪያት	-8136
ንበት	-8137
▁64	-8138
▁ወያ	-8139
▁ዋሉ	-8140
▁ገጥ	-8141
▁ታይቶ	-8142
ፎርሜሽን	-8143
▁ለማጥፋት	-8144
▁ሚኒስትሯ	-8145
▁ግልጋሎት	-8146
▁ሆስፒታሎች	-8147
ቡል	-8148
ጋድ	-8149
ርቆስ	-8150
▁78	-8151
▁Th	-8152
▁ለመል	-8153
▁በሥራ	-8154
▁የመራ	-8155
▁ወንድም	-8156
▁ለመውጣት	-8157
▁ለከፍተኛ	-8158
▁በማንሳት	-8159
▁ሽማግሌዎች	-8160
▁እንደሚፈልጉ	-8161
ስለ	-8162
▁ሔ	-8163
▁ልጁ	-8164
▁ጀግ	-8165
ህአዴግ	-8166
ረጋግጥ	-8167
▁ኤክስ	-8168
▁ግጭቱ	-8169
ቤል	-8170
ወት	-8171
▁--	-8172
▁ሴራ	-8173
▁ወክ	-8174
▁ያሰ	-8175
▁እጦት	-8176
▁የመሀል	-8177
▁ለማስጀመር	-8178
▁ኢንተርኔት	-8179
▁የተባለውን	-8180
ባሪዎች	-8181
▁ርእሰ	-8182
▁ከሰው	-8183
▁በግልፅ	-8184
▁አገራዊ	-8185
ie	-8186
ሳችንን	-8187
ገናኘት	-8188
▁ብረት	-8189
▁የመተ	-8190
▁በህንድ	-8191
▁አሌክሳንደር	-8192
▁ፖርቹጋላዊው	-8193
ቃን	-8194
ጋው	-8195
ጽም	-8196
▁ቀስ	-8197
ግሬሽን	-8198
▁ላለው	-8199
▁ቅድስት	-8200
▁ዕድገት	-8201
ዋንዶውስኪ	-8202
▁በመኖሪያ	-8203
▁አሸናፊዎች	-8204
ድግ	-8205
▁58	-8206
▁ሠላም	-8207
▁ተሰር	-8208
▁የላቀ	-8209
▁የግድ	-8210
▁መባሉን	-8211
▁ስለማይ	-8212
▁ያላትን	-8213
▁የተቃውሞ	-8214
▁በሚቀጥሉት	-8215
ብሪ	-8216
ደዱ	-8217
▁መሰጠ	-8218
▁መሥሪያ	-8219
▁ሀላፊነት	-8220
▁የውድድሩ	-8221
▁ይጀምራል	-8222
▁ሳውዝሀምፕተን	-8223
ንድር	-8224
▁ውስን	-8225
▁ሲናገር	-8226
▁ሴጣኖቹ	-8227
▁ጋብሬል	-8228
▁በፌዴራል	-8229
ታሩ	-8230
ጓጉ	-8231
▁ቀና	-8232
▁መመር	-8233
▁ዳኞች	-8234
▁ውጤቱን	-8235
▁እንደሚቻል	-8236
ግሽ	-8237
ord	-8238
▁ቪዛ	-8239
▁ፀረ	-8240
▁አዘጋ	-8241
▁አለመኖ	-8242
▁በትኩረት	-8243
ሊስት	-8244
▁at	-8245
▁ቀነ	-8246
▁ኋላ	-8247
▁ነፍስ	-8248
▁እንጅ	-8249
▁ኪራይ	-8250
▁በምርመራ	-8251
▁አማኑኤል	-8252
▁አገራቸው	-8253
▁የደረሰውን	-8254
ካቤ	-8255
ረምቱ	-8256
▁አጥብ	-8257
▁ገዳም	-8258
▁አያሌው	-8259
▁ለማካሄድ	-8260
▁አፈፃፀም	-8261
▁የስልጣን	-8262
ላቹ	-8263
▁ረፋ	-8264
▁ቢራ	-8265
▁ብዙም	-8266
▁በመጥቀስ	-8267
ኖና	-8268
እን	-8269
ፍቲ	-8270
ሳውቅ	-8271
▁እንባ	-8272
▁መጀመሩ	-8273
▁ወቅዱስ	-8274
▁ያነሱት	-8275
▁ከተደረገ	-8276
ech	-8277
▁ለቆ	-8278
▁ያክል	-8279
▁ደጋግ	-8280
▁በተካሄደ	-8281
▁አይደለም፡፡	-8282
ውነ	-8283
ዳችሁ	-8284
▁ሞሪን	-8285
▁ተመዝ	-8286
▁የራሱ	-8287
ረዋል፡፡	-8288
▁ቡድንን	-8289
▁በሁለቱም	-8290
▁ተጠቁሟል፡፡	-8291
ሊበላ	-8292
▁54	-8293
▁መሬ	-8294
▁ጊዜን	-8295
▁መቀነስ	-8296
▁ባለሞያ	-8297
ንጎ	-8298
ወጫ	-8299
▁ስቶ	-8300
ጀመርያ	-8301
▁ድህረ	-8302
▁የተመድ	-8303
▁ለማቋቋም	-8304
▁እየተሰጠ	-8305
▁አርጀንቲናዊው	-8306
ኒስ	-8307
▁ላጣ	-8308
▁የጨ	-8309
▁ውጤቱ	-8310
▁ያደረ	-8311
▁በበርካታ	-8312
▁አስተያየ	-8313
▁ኒውካስትል	-8314
▁የአለማችን	-8315
መች	-8316
ቫል	-8317
ተኩ	-8318
ታደር	-8319
ዮንስ	-8320
▁ሆኑ	-8321
▁አከ	-8322
▁የች	-8323
------	-8324
▁በማንችስተር	-8325
ee	-8326
ld	-8327
ሚል	-8328
ሰማው	-8329
ሸባብ	-8330
▁መለሰ	-8331
ጠዋል፡፡	-8332
▁ኢንሳይ	-8333
▁ዝርፊያ	-8334
▁የተጎዱ	-8335
▁ስፍራዎች	-8336
▁ድርጊቶች	-8337
▁በነበረበት	-8338
▁ባደረጋቸው	-8339
▁አካባቢውን	-8340
ST	-8341
▁ላም	-8342
▁ነጭ	-8343
scri	-8344
▁ወጣቱ	-8345
▁ብላንኮ	-8346
▁ተገኝቶ	-8347
▁ዲዛይን	-8348
▁ፍቃደኛ	-8349
▁ለበርካታ	-8350
▁ተማሪዎቹን	-8351
ስም	-8352
▁ተረክ	-8353
▁ተሸን	-8354
ጋኒስታን	-8355
▁ለሚሆኑ	-8356
▁በዓልን	-8357
▁እየመሩ	-8358
ራብ	-8359
ost	-8360
▁ኮርያ	-8361
▁ኢሰመኮ	-8362
ጅነት	-8363
ጠናው	-8364
▁ከጅ	-8365
ጠባበቅ	-8366
▁ለመታ	-8367
▁የራስ	-8368
ያንዳንዱ	-8369
▁ምንድን	-8370
▁ነግረው	-8371
▁በመድረኩ	-8372
▁ባለቤቶች	-8373
▁የሚያስችሉ	-8374
ight	-8375
▁ተባባሪ	-8376
▁ከነበሩ	-8377
▁በመቀበል	-8378
▁በአካባቢ	-8379
▁እናመሰግና	-8380
▁እንደሚያስፈልግ	-8381
ለለ	-8382
ሚካል	-8383
ስላሴ	-8384
▁ፍቅ	-8385
ፎካካሪ	-8386
▁ለጤና	-8387
▁ስለማ	-8388
▁አውራ	-8389
▁አይን	-8390
▁ግብሩ	-8391
▁እንደሌለው	-8392
ሸጡ	-8393
ዘተ	-8394
ጠፉ	-8395
ፋፋት	-8396
▁52	-8397
▁ብሩኖ	-8398
▁ጉድጓ	-8399
▁አምበል	-8400
▁ያደርገ	-8401
▁ቅሬታቸውን	-8402
▁እንዲመለስ	-8403
▁የተገኘባቸው	-8404
ቋር	-8405
ከማ	-8406
800	-8407
ከፈቱ	-8408
▁በዱ	-8409
▁ለእኔ	-8410
▁ሰልጣ	-8411
▁ሰውዬ	-8412
▁ዝርያ	-8413
▁ሁኔታው	-8414
▁ቅስቀሳ	-8415
▁ሳፋሪኮም	-8416
▁ይታወቃል	-8417
▁ሊኖር	-8418
▁በአሰ	-8419
▁ተጥሎ	-8420
▁አራዳ	-8421
▁የብዙ	-8422
▁ብራዚል	-8423
▁የጥበብ	-8424
▁ለማምጣት	-8425
▁አሸባሪው	-8426
▁በሚካሄደው	-8427
ብዳቤ	-8428
▁የጁ	-8429
ህይወት	-8430
▁እጥፍ	-8431
▁የመጠ	-8432
▁የቅጣት	-8433
▁የዓይን	-8434
▁ለማንኛውም	-8435
▁ኢንሳይደር	-8436
▁ፕሬዘዳንት	-8437
ተም	-8438
እኛ	-8439
ሙላት	-8440
▁49	-8441
▁ሊን	-8442
▁ኦሞ	-8443
▁ወደብ	-8444
▁ዓይን	-8445
▁ምግባር	-8446
▁በማድረስ	-8447
▁የተቀላቀ	-8448
▁የገለጸው	-8449
▁በአብዛኛው	-8450
ሄል	-8451
ተራ	-8452
ለፈው	-8453
ቷቸው	-8454
ወያዩ	-8455
▁ቁጭ	-8456
▁መኮን	-8457
▁መጠነኛ	-8458
▁የወሰዱ	-8459
▁ባለመሆኑ	-8460
▁ከጠቅላይ	-8461
▁ይገኛሉ፡፡	-8462
▁ትችላላችሁ።	-8463
▁ብሮድካስቲንግ	-8464
ችና	-8465
ert	-8466
hot	-8467
ረታዊ	-8468
ጣችሁ	-8469
▁ይም	-8470
▁ምስክ	-8471
▁አጠራ	-8472
▁ዝውው	-8473
▁በስቲያ	-8474
▁ሀላፊዎች	-8475
▁ብሔረሰብ	-8476
▁የመጨረሻው	-8477
ባረ	-8478
ያሳ	-8479
164	-8480
ell	-8481
ጣታቸው	-8482
▁መነጋ	-8483
▁የወረ	-8484
▁ደማቅ	-8485
▁ገለፃ	-8486
▁ቀጥሏል	-8487
▁ወንጀሉን	-8488
▁የምስክር	-8489
ምያ	-8490
አስ	-8491
▁ቀረ	-8492
▁App	-8493
▁ሳያስ	-8494
▁አገሮች	-8495
▁መከታተል	-8496
▁በማዘጋጀት	-8497
▁ከፓ	-8498
ብርሃን	-8499
ወዳደር	-8500
▁ተቃዋሚ	-8501
▁ለማክበር	-8502
▁ሮይተርስ	-8503
▁በሚያደርገው	-8504
ቀዉ	-8505
ቀዱ	-8506
ood	-8507
▁ህመ	-8508
▁ባላ	-8509
ical	-8510
▁Sub	-8511
▁መጥቶ	-8512
▁ስፋት	-8513
▁በአይ	-8514
▁መገኘት	-8515
▁ማርቲኔዝ	-8516
▁እየተከታተ	-8517
▁ዘግበዋል።	-8518
▁የባርሴሎና	-8519
▁ለጋ	-8520
▁ለጣ	-8521
▁የጭ	-8522
▁ህንድ	-8523
▁መቻል	-8524
▁በቅን	-8525
▁ታማኝ	-8526
▁የምትፈልጉ	-8527
ቅናት	-8528
ፈጠሩ	-8529
▁59	-8530
▁ፓኬ	-8531
▁ቃሊቲ	-8532
▁ታስቦ	-8533
▁የአቶ	-8534
▁ስርአት	-8535
▁የመልስ	-8536
▁ገጻቸው	-8537
▁አስመዝግ	-8538
▁በታጣቂዎች	-8539
▁ከክ	-8540
ናውያን	-8541
▁ስለሌ	-8542
▁ተመስር	-8543
▁አሰቃቂ	-8544
▁አደንዛ	-8545
▁በርንሌይ	-8546
▁የተመደቡ	-8547
▁በጊዜያዊነት	-8548
ካሔ	-8549
▁ጥይ	-8550
▁መናገር	-8551
▁ስፖርታዊ	-8552
▁የንግድና	-8553
ቦራ	-8554
ዕይ	-8555
ጎጂ	-8556
ual	-8557
ቃለሁ	-8558
ኪስታን	-8559
▁መቀሌ	-8560
▁የተዋ	-8561
▁ጋዜጠ	-8562
▁ጭፍጨ	-8563
▁ስርዓተ	-8564
▁ፍንዳታ	-8565
▁በመፍጠር	-8566
▁ወጣቶችን	-8567
▁ያመላክታል።	-8568
ሬቻ	-8569
lic	-8570
ችግሩ	-8571
ኛዎቹ	-8572
ያያዙ	-8573
▁በጋዜ	-8574
▁ያሬድ	-8575
▁ድንገት	-8576
▁ጎረቤት	-8577
▁ያስታወቀው	-8578
ዮት	-8579
ፋና	-8580
▁ለፕ	-8581
▁ዉሳኔ	-8582
▁የተቋ	-8583
▁ሥራዎችን	-8584
▁እናቀርባ	-8585
ረሰ	-8586
ባሉት	-8587
ንግሥ	-8588
ካሂድ	-8589
▁ስኳር	-8590
▁ካርሎ	-8591
▁ይዘት	-8592
▁ሰጥተው	-8593
▁ፎረስት	-8594
▁ለመድረስ	-8595
▁መስጠቱን	-8596
▁ማስታወሻ	-8597
▁ስምምነቱን	-8598
▁በመሰብሰብ	-8599
.3	-8600
በሰ	-8601
ጎማ	-8602
ናቀል	-8603
ፈጸመው	-8604
▁በመሰ	-8605
▁በግልጽ	-8606
▁ፉክክር	-8607
▁ለመጠቀም	-8608
▁ከፌደራል	-8609
▁ሙዚ	-8610
▁ኦባ	-8611
▁ለሌላ	-8612
▁መተማ	-8613
▁ብይን	-8614
▁አስገ	-8615
▁እንቅፋት	-8616
▁ኪንግደም	-8617
▁የዋስትና	-8618
▁የውይይት	-8619
▁የሻምፒየንስ	-8620
ሄም	-8621
▁ሀግ	-8622
▁ማገገ	-8623
▁እህል	-8624
▁ግብዓ	-8625
▁በሚሊዮን	-8626
▁በወላይታ	-8627
▁ተቀብለው	-8628
▁አርባምንጭ	-8629
ቫን	-8630
ይቅ	-8631
▁4,	-8632
▁ሚሊሻ	-8633
▁አንዴ	-8634
▁ፀሀፊ	-8635
▁ሴቶችን	-8636
▁አካላዊ	-8637
▁ማግኘቱን	-8638
▁ገብርኤል	-8639
▁አስፈላጊው	-8640
ne	-8641
ርዱ	-8642
ሸጋ	-8643
ና፣	-8644
ዩቱ	-8645
ሜትር	-8646
▁ለካ	-8647
▁ከሲ	-8648
▁መሃል	-8649
▁መዋቅ	-8650
▁ማምረቻ	-8651
▁ሲናገሩ	-8652
▁አበርክ	-8653
▁አይቀር	-8654
▁ለማሳካት	-8655
▁ማዳበሪያ	-8656
መዉ	-8657
ሟን	-8658
ማል።	-8659
ታለች	-8660
ከርከር	-8661
▁ተቋቁ	-8662
▁ዘረፋ	-8663
▁ከተያዘ	-8664
▁ይደረጋል።	-8665
▁እንደዘገበው	-8666
ችት	-8667
ማችን	-8668
▁የሄ	-8669
▁ይከ	-8670
▁ሴርያ	-8671
▁ከጦር	-8672
▁የመፈ	-8673
▁ማእከል	-8674
▁እንዳላ	-8675
▁የተመራ	-8676
▁የአራት	-8677
▁ያወጣው	-8678
▁ያለበትን	-8679
ትመት	-8680
▁የግለ	-8681
▁ለመሸጥ	-8682
▁ለአፍሪካ	-8683
▁ማስረጃዎች	-8684
229	-8685
▁ላቀው	-8686
▁ታደለ	-8687
▁የሚያቆ	-8688
▁በመውጣት	-8689
▁ከሰሞኑን	-8690
▁አድርገዋል፡፡	-8691
ph	-8692
ተገ	-8693
የሙ	-8694
ስልምና	-8695
▁ሊቃነ	-8696
▁ታውን	-8697
▁ሌሎችን	-8698
▁ሞሪንሆ	-8699
▁የመከላከል	-8700
ሯዊ	-8701
ሸንፉ	-8702
▁ቁስ	-8703
▁በሠ	-8704
ሰብአዊ	-8705
ደረጃው	-8706
▁ህልውና	-8707
▁ተጠናቆ	-8708
▁ለመግታት	-8709
▁መሆኑንና	-8710
እንዲ	-8711
ዮርክ	-8712
▁03	-8713
▁ትሪ	-8714
▁ኮከ	-8715
▁our	-8716
▁መድፈር	-8717
▁በመጫን	-8718
▁በአስራ	-8719
▁በዓመት	-8720
▁አንዱን	-8721
▁እንግዳ	-8722
▁ጥምረት	-8723
▁በሳምንቱ	-8724
ue	-8725
ዎስ	-8726
ቀውን	-8727
ወቀው	-8728
▁የእድሜ	-8729
▁ግንባታው	-8730
▁ለማከናወን	-8731
▁የተካሄደው	-8732
▁ተሰምቷል፡፡	-8733
ቃዊ	-8734
▁51	-8735
▁250	-8736
▁ድርድ	-8737
▁ገልጻ	-8738
▁በማውጣት	-8739
▁በብሔራዊ	-8740
▁ተዘጋጅቶ	-8741
▁ኤርፖርት	-8742
▁ለመንግስት	-8743
ርፉ	-8744
ሰሳ	-8745
ኪን	-8746
ዛል	-8747
ልያን	-8748
ምጣት	-8749
ዋቸው	-8750
▁ኢንጅ	-8751
▁እንቁ	-8752
▁የሚለ	-8753
▁ሰማያዊ	-8754
▁በታሪክ	-8755
▁እየሰጡ	-8756
▁መዝገቡን	-8757
▁ቡንደስሊጋ	-8758
▁እድሜያቸው	-8759
▁የፍልስጤም	-8760
ባኤው	-8761
▁ሕወ	-8762
▁ቢን	-8763
ርቲንግ	-8764
▁በእኛ	-8765
▁አመስ	-8766
▁2021	-8767
▁ለሕዝብ	-8768
▁ብቸኛው	-8769
▁አስክሬን	-8770
▁የተነገረ	-8771
ሐፊ	-8772
ኦኤ	-8773
ምንም	-8774
ቻችሁ	-8775
▁ጨም	-8776
▁ለመር	-8777
▁ሊጎች	-8778
▁በሰዎች	-8779
▁ዕውቅና	-8780
▁የተካሄደ	-8781
▁የተያያዘ	-8782
▁የተመለከተ	-8783
▁የተፈጸመው	-8784
ሀድ	-8785
ለታ	-8786
ኖሩም	-8787
▁ለሁሉ	-8788
▁ንጉስ	-8789
▁ያነጋ	-8790
▁እንዳይወ	-8791
▁የአሜሪካው	-8792
ዘዝ	-8793
ጨበ	-8794
▁ማጓ	-8795
▁ፋኖ	-8796
▁ብርሀ	-8797
▁አደርጋ	-8798
▁በቅርበት	-8799
▁የተመዘገቡ	-8800
▁መግባታቸውን	-8801
ሊኮ	-8802
ሲን	-8803
ዘጋጃ	-8804
ከፈተው	-8805
▁ሃላፊነት	-8806
▁የፓርላማ	-8807
ተቤ	-8808
ናጀ	-8809
ያጎ	-8810
ፃፀር	-8811
▁ኦዴ	-8812
▁ለህግ	-8813
▁ተቃው	-8814
▁ተዋህ	-8815
▁አርማ	-8816
▁አሰም	-8817
▁ገለጸ።	-8818
▁መሳሪያዎችን	-8819
ዳጃ	-8820
ረከብ	-8821
ደራጁ	-8822
▁መከ	-8823
▁ፓል	-8824
▁ምህረት	-8825
▁አክለው	-8826
▁በስድስት	-8827
▁እንዲሰሩ	-8828
▁ምርመራውን	-8829
▁የተደረገላቸው	-8830
ሞዝ	-8831
ሥላሴ	-8832
▁የኬ	-8833
ሚሊዮን	-8834
ፈለገው	-8835
▁በልም	-8836
▁ማስፈረ	-8837
▁የተጠቀ	-8838
▁ኩባንያው	-8839
ውቅ	-8840
ጊቱ	-8841
▁ሊሰጥ	-8842
▁መቁሰ	-8843
▁የኮሙ	-8844
▁አያያዝ	-8845
▁ዋናውና	-8846
▁በተፈጥሮ	-8847
ቤተሰቦቻቸው	-8848
▁ለማስጠበቅ	-8849
▁በሁለተኛው	-8850
▁የሚታወቀው	-8851
▁አስታዉቋል።	-8852
ism	-8853
ust	-8854
▁ባት	-8855
▁ለመተ	-8856
▁ሌፕዚ	-8857
▁ሕዝቦች	-8858
▁መቀየር	-8859
▁ስልኮች	-8860
▁የሚቀር	-8861
▁የወሲብ	-8862
▁ነጥቦችን	-8863
▁ግለሰቦቹ	-8864
▁ኮሙዩኒኬሽን	-8865
ሳተፈ	-8866
ላድሚር	-8867
▁ካንሰር	-8868
▁ቀጥሏል።	-8869
▁የተፈፀመው	-8870
ጎስ	-8871
መሰል	-8872
መናዊው	-8873
▁ማሽን	-8874
▁ለዓለም	-8875
▁በውይይት	-8876
▁ላልተወሰነ	-8877
ሥራት	-8878
ገሪያ	-8879
ጡበት	-8880
▁ታች	-8881
▁ከጋ	-8882
▁ወደተ	-8883
▁የመቀ	-8884
▁ቀድመው	-8885
▁የገቢዎች	-8886
▁ሰራተኞችን	-8887
▁በማስመልከት	-8888
ሞቹ	-8889
ያተ	-8890
በኞች	-8891
▁ገም	-8892
ዋሚዎች	-8893
▁መፍታት	-8894
▁ሃላፊዎች	-8895
▁መተሳሰብ	-8896
31	-8897
መኝ	-8898
ሬም	-8899
ዋስ	-8900
ዳሉ	-8901
መረቀ	-8902
ፅዮን	-8903
▁ምግ	-8904
▁ለሊት	-8905
▁ራስን	-8906
▁ተበዳይ	-8907
▁ለመመልከት	-8908
▁ለተማሪዎች	-8909
ለላ	-8910
ሳሉ	-8911
ነቴ	-8912
ገቡት	-8913
▁En	-8914
▁101	-8915
▁ሲገኝ	-8916
▁ኃይሌ	-8917
▁ተመልሶ	-8918
▁በመቶዎች	-8919
▁አይቻልም	-8920
▁ወዲያውኑ	-8921
ሩስ	-8922
ብቶ	-8923
ኦነግ	-8924
▁ከሜ	-8925
▁ክሪ	-8926
▁ህጎች	-8927
▁ካውን	-8928
▁የደመ	-8929
▁ልማትና	-8930
▁ልጆችን	-8931
▁Addis	-8932
▁አርጀንቲና	-8933
▁የበላይነት	-8934
ob	-8935
ቸዋ	-8936
ኦት	-8937
ጋዮች	-8938
ረኝነት	-8939
▁ሲገል	-8940
▁ህዝብን	-8941
▁ሬዲዮና	-8942
▁ይወራረዱ	-8943
▁አለመኖሩን	-8944
▁አያይዘውም	-8945
▁እንሰራለን	-8946
▁ያደርጋል።	-8947
▁የተሽከርካሪ	-8948
sh	-8949
▁ርዝ	-8950
▁በፖ	-8951
▁የጫ	-8952
▁መለስ	-8953
▁በመዲናዋ	-8954
▁ባለመቻሉ	-8955
▁የአእምሮ	-8956
▁በመከላከያ	-8957
ፅም	-8958
▁95	-8959
▁ማፍ	-8960
▁ቼክ	-8961
ጻቸውን	-8962
▁መጠበ	-8963
▁የነገ	-8964
▁0901	-8965
▁ማስቀመጥ	-8966
▁በተግባር	-8967
▁ያቀረበው	-8968
ti	-8969
ላስፋ	-8970
ነኛው	-8971
▁ከቅ	-8972
▁መግደ	-8973
▁አውግ	-8974
▁ካናዳ	-8975
▁የማጣ	-8976
▁ጃፓን	-8977
▁ቀዳሚው	-8978
▁በውስጡ	-8979
▁አለመቻ	-8980
▁የተሞላ	-8981
▁የገባው	-8982
▁እስረኞች	-8983
▁Subscri	-8984
▁ማስተባበሪያ	-8985
▁አብራርተዋል።	-8986
ረቤ	-8987
ጠም	-8988
ውልት	-8989
▁በቻ	-8990
▁ይሰ	-8991
▁ጋራ	-8992
ቅራቢያ	-8993
▁ሥራው	-8994
▁"...	-8995
▁ያድርጉ	-8996
▁በደብዳቤ	-8997
▁የመክፈቻ	-8998
▁የጣሊያን	-8999
▁ለመከታተል	-9000
ቀፉ	-9001
ጀምረው	-9002
▁በርስ	-9003
▁ተወል	-9004
▁ከሱዳን	-9005
▁የሚረዳ	-9006
▁ይባላል	-9007
▁አያውቅም	-9008
▁ይቀላቀሉ፡	-9009
ፕራይ	-9010
▁ብሄር	-9011
▁ፈገግ	-9012
ካከለኛው	-9013
▁የተቀመጠ	-9014
▁ለተከታታይ	-9015
ገለጽ	-9016
▁ገዛ	-9017
ዲግራት	-9018
▁0-2	-9019
▁ላፍቶ	-9020
▁እህት	-9021
▁የጅማ	-9022
▁ትእዛዝ	-9023
▁ፕሮጀክቱ	-9024
ጓቸው	-9025
▁ኔታ	-9026
▁ጆዜ	-9027
2024	-9028
ክሲዮን	-9029
ያዝነው	-9030
▁በኃይል	-9031
▁ተቋማቱ	-9032
▁በአማካይ	-9033
io	-9034
to	-9035
መዝገቡ	-9036
ናገሩት	-9037
▁ሥላሴ	-9038
▁ትኩረ	-9039
▁በመጓዝ	-9040
▁ተችሏል	-9041
▁አዕምሮ	-9042
▁የመብት	-9043
▁ጥሪውን	-9044
ib	-9045
ፈቀደ	-9046
▁ብታ	-9047
▁ሀሙስ	-9048
▁ማርሴ	-9049
▁ቁመት	-9050
▁ቅርስ	-9051
▁በህወ	-9052
▁ትኬት	-9053
▁የሚከ	-9054
▁ማኔጅመንት	-9055
▁ተሸከርካሪ	-9056
▁አመለካከት	-9057
138	-9058
ላለህ	-9059
▁ህዝበ	-9060
▁ይቅር	-9061
▁የሚገባው	-9062
▁ነዋሪዎችን	-9063
ገቱ	-9064
ብስብ	-9065
▁አሽ	-9066
▁እዛ	-9067
▁ማሰባ	-9068
▁አልቻ	-9069
▁አዋሽ	-9070
▁ለመግለ	-9071
▁መሠረተ	-9072
▁ተቀይሮ	-9073
▁እንስሳ	-9074
▁የሚሆነ	-9075
▁የቦርድ	-9076
▁በሳምንት	-9077
▁ብላለች።	-9078
▁እንዲደርስ	-9079
▁የአውሮፕላን	-9080
▁የሚያደርጉትን	-9081
ሰማሩ	-9082
ደረስ	-9083
▁ችለ	-9084
▁ጫካ	-9085
▁እየሞ	-9086
▁የጨረ	-9087
▁ሰባተኛ	-9088
▁ከኮሮና	-9089
▁ወጥተው	-9090
▁በድንገት	-9091
ሶቹ	-9092
ች፣	-9093
ጠላ	-9094
ክሌር	-9095
▁በሥ	-9096
▁ድራ	-9097
▁በቀል	-9098
▁አሻራ	-9099
▁1:00	-9100
▁ሥልጣን	-9101
▁በሚለው	-9102
▁በሽታው	-9103
▁አስገብ	-9104
▁ይግባኝ	-9105
▁አስከባሪ	-9106
aa	-9107
ቸግ	-9108
ፃፍ	-9109
ቀረት	-9110
ንም።	-9111
ዘዋው	-9112
▁ልና	-9113
▁ተደብ	-9114
▁የሳይ	-9115
16439	-9116
▁ሴኔጋል	-9117
▁ከወራት	-9118
▁ተጠርጥረው	-9119
22916439	-9120
ለተ	-9121
ችኃ	-9122
ail	-9123
ናገዱ	-9124
▁68	-9125
▁88	-9126
▁ንክ	-9127
ያስፖራ	-9128
▁535	-9129
▁ህጻን	-9130
▁በአፍ	-9131
▁በጅማ	-9132
▁ከገባ	-9133
▁ያንን	-9134
▁መሪነት	-9135
▁የሌሎች	-9136
▁ተከታዩን	-9137
▁የቱሪዝም	-9138
ርጌ	-9139
ዓል	-9140
are	-9141
▁ይጠይ	-9142
ለሌ	-9143
ልቀት	-9144
ናትና	-9145
▁ለቁ	-9146
ጠቃለያ	-9147
▁በይፋዊ	-9148
▁ጉድለት	-9149
▁ሊያደርግ	-9150
▁ከስድስት	-9151
ለቱን	-9152
▁ne	-9153
▁ኬላ	-9154
▁ጠላ	-9155
▁ሶማሌ	-9156
▁አምና	-9157
▁ይጠቀ	-9158
▁በሊትር	-9159
▁ተፈታኝ	-9160
▁አክሱም	-9161
▁ከግምት	-9162
ባቸዋል፡፡	-9163
▁በተፈጸመ	-9164
▁ብልጽግና	-9165
ከናውን	-9166
▁ምርጡ	-9167
▁በጎርፍ	-9168
▁የኢራን	-9169
▁ስለነበር	-9170
▁ተናግራለች።	-9171
//	-9172
ቲኖ	-9173
▁5,	-9174
▁120	-9175
▁ተገኘ	-9176
▁ዲያጎ	-9177
ሚግሬሽን	-9178
▁በተሰጠው	-9179
▁እስክንድር	-9180
▁ማስተላለፊያ	-9181
▁አንስተዋል፡፡	-9182
94	-9183
ኒን	-9184
▁ካሉት	-9185
▁ወዘተ	-9186
▁ህይወቷ	-9187
▁ሲጠናቀቅ	-9188
▁የተላለፈ	-9189
▁Subscribe	-9190
.2	-9191
ኖራ	-9192
ገኝም	-9193
▁የጀ	-9194
ስልጣኑ	-9195
▁107	-9196
▁Com	-9197
▁ህግን	-9198
▁ታቦር	-9199
ከፈላቸው	-9200
▁በጉጉት	-9201
▁ካላቸው	-9202
▁ስራቸውን	-9203
▁እንዲቆይ	-9204
▁ይፈልጋል	-9205
▁ፍልስጤማውያን	-9206
ንያሁ	-9207
ክሮን	-9208
ጥብጥ	-9209
▁ይስ	-9210
ገለግል	-9211
▁ሆነዋል	-9212
▁ያለው።	-9213
▁መከሰቱን	-9214
ቆር	-9215
ካዩ	-9216
ዕል	-9217
ግስ	-9218
ራረጥ	-9219
ጦችን	-9220
▁ከዓ	-9221
▁ሳጅን	-9222
▁አምር	-9223
▁ሪፖርቱ	-9224
▁የአይን	-9225
▁ኦፕሬሽን	-9226
▁ተንቀሳቃሽ	-9227
▁የሚገኙትን	-9228
▁የተመደባችሁ	-9229
ነባ	-9230
▁ባሰ	-9231
▁ቸር	-9232
hoto	-9233
▁ማራዘ	-9234
▁ማርክ	-9235
▁አስፍ	-9236
▁እክል	-9237
▁ፌዴራል	-9238
▁የካታላኑ	-9239
▁እንችላለን	-9240
ሙድ	-9241
በሱ	-9242
ጓደ	-9243
▁86	-9244
▁ተባ	-9245
▁አዎ	-9246
▁ዘጠ	-9247
▁አምራ	-9248
▁ከአል	-9249
▁ሕብረት	-9250
▁ድንጋጌ	-9251
▁ለመጨመር	-9252
በእ	-9253
ጀራ	-9254
ጣሉ	-9255
ለቱም	-9256
▁ተጉ	-9257
▁የዴ	-9258
▁ቆጠራ	-9259
▁በናይ	-9260
▁እዛው	-9261
▁የአካ	-9262
▁ለተሻለ	-9263
▁መጀመር	-9264
▁በመኪና	-9265
▁መሰብሰብ	-9266
▁አጠቃቀም	-9267
▁ገንዘቡን	-9268
▁መንገደኞች	-9269
▁እያከናወነ	-9270
አቶ	-9271
ፈራል	-9272
▁ሄዶ	-9273
▁በዙ	-9274
▁ዴን	-9275
▁የጎደ	-9276
ESA	-9277
ሰራጨ	-9278
ጨዋቹ	-9279
▁የጊ	-9280
▁ፕላ	-9281
▁ተጠሪ	-9282
▁ሥራውን	-9283
▁በተሻለ	-9284
▁ከአለም	-9285
▁ግብርና	-9286
▁ማድሪድን	-9287
▁የቴሌኮም	-9288
ኩበት	-9289
▁ላስ	-9290
▁ገቡ	-9291
▁ውበት	-9292
▁ለንደን	-9293
▁ማቀበል	-9294
▁ማዋሉን	-9295
▁ብዙዎች	-9296
▁የሆኑትን	-9297
▁ያጠናቀቁ	-9298
▁አጠናቀዋል።	-9299
ራሚ	-9300
▁ማቆ	-9301
▁ምድ	-9302
▁ሬድ	-9303
▁ለሰው	-9304
▁ቤቶቹ	-9305
▁ኮንቴ	-9306
▁ለማለፍ	-9307
▁ተሰብስ	-9308
▁መንግሥቱ	-9309
▁ቁርጠኝነት	-9310
.4	-9311
ዊን	-9312
ያዙት	-9313
▁ሆራ	-9314
ፈረንስ	-9315
▁ሳህለ	-9316
▁በማው	-9317
▁በወል	-9318
▁ተቃር	-9319
▁አባይ	-9320
ሬዚዳንት	-9321
▁ይካሄዳል	-9322
up	-9323
▁i	-9324
ረከቡ	-9325
ናናትን	-9326
▁1-2	-9327
▁በሚሊ	-9328
▁ባቡር	-9329
▁ይዞታ	-9330
▁በእድሜ	-9331
▁ያተኮረ	-9332
▁ተመራማሪ	-9333
▁እንቅልፍ	-9334
ግርማ	-9335
▁ሌባ	-9336
▁ቀኝ	-9337
▁በሚጠራ	-9338
▁በቡድን	-9339
▁ይጠናቀ	-9340
▁የትኛውም	-9341
▁የኩላሊት	-9342
▁የቤተሰባችን	-9343
ቀኝ	-9344
ነቷ	-9345
▁53	-9346
▁ያጡ	-9347
ክትሬት	-9348
▁ብልጫ	-9349
▁ተጠል	-9350
▁ምክኒያት	-9351
▁በሕይወት	-9352
▁የማለፊያ	-9353
▁የመድፈኞቹ	-9354
ጅቶ	-9355
ማርክ	-9356
ጠነቀ	-9357
▁ዕዝ	-9358
ቢያችን	-9359
▁ቀርቶ	-9360
▁ተገን	-9361
▁ለኢዜአ	-9362
▁ማርከስ	-9363
▁ትውልደ	-9364
▁ትግበራ	-9365
▁ከአሁን	-9366
▁መካሄዱን	-9367
▁ከየካቲት	-9368
▁አልተቻለም	-9369
ሌራ	-9370
ሰልጠን	-9371
ጀንሲው	-9372
▁ጎርፍ	-9373
▁የሊጉን	-9374
▁የአሁኑ	-9375
▁ጭፍጨፋ	-9376
▁ይደውሉልን	-9377
▁በቤኒሻንጉል	-9378
ሸሽ	-9379
ኑም	-9380
ኖረን	-9381
ካችሁ	-9382
▁77	-9383
▁ባዶ	-9384
▁ዓም	-9385
▁ግሽ	-9386
▁አስመ	-9387
▁ከዛም	-9388
▁ይደረግ	-9389
▁የአዕምሮ	-9390
▁ኮንፈረንስ	-9391
---------	-9392
ታለን	-9393
ጨረስ	-9394
▁በዉ	-9395
▁ሲመጣ	-9396
▁አመሰ	-9397
▁የተዘ	-9398
▁ይፈጥ	-9399
▁የድምፅ	-9400
ፈሰ	-9401
▁ሙፍቲ	-9402
▁ተመላ	-9403
▁ትዳር	-9404
▁ህዝቡን	-9405
▁ለማዋል	-9406
▁ወንበር	-9407
▁በትብብር	-9408
▁ብልፅግና	-9409
▁ዋንጫውን	-9410
▁ፎቶግራፍ	-9411
▁ባለሀብቶች	-9412
▁የሚሰጠውን	-9413
▁0922916439	-9414
ጋጥም	-9415
▁97	-9416
ታግራም	-9417
▁ነሃሴ	-9418
▁ከጤና	-9419
▁የቀዶ	-9420
ፈዋል፡፡	-9421
▁ማመንጫ	-9422
▁አገሪቱ	-9423
▁አፍንጫ	-9424
▁ካሳሁን	-9425
▁የለኝም	-9426
▁እንግልት	-9427
በኛ	-9428
▁66	-9429
▁ለች	-9430
▁ወግ	-9431
▁851	-9432
▁ለጎን	-9433
▁መሰብ	-9434
▁ቅርብ	-9435
▁በፎቶ	-9436
▁ካርታ	-9437
▁ደህና	-9438
▁ጨረታ	-9439
▁ኮንስትራ	-9440
▁ፕሮግራሙ	-9441
ሌክትሮኒክስ	-9442
▁ብላንኮዎቹ	-9443
ነበ	-9444
ጉሜ	-9445
ች፡፡	-9446
ንደቅ	-9447
▁ሪል	-9448
▁ይወጣ	-9449
▁ቁጥሮች	-9450
▁ጉዳተኞች	-9451
▁የራሳቸውን	-9452
no	-9453
ቢስ	-9454
ዲሪ	-9455
ዊውን	-9456
ውንዴ	-9457
▁ጭኖ	-9458
▁ላፕቶ	-9459
▁ስተር	-9460
▁እሴት	-9461
▁ከወጣ	-9462
▁ከፍታ	-9463
▁የተቆ	-9464
▁መሰጠት	-9465
▁ሰውነት	-9466
▁ማሰልጠኛ	-9467
▁ሲነፃፀር	-9468
▁በፖለቲካ	-9469
▁ተጠቂዎች	-9470
▁አስገድዶ	-9471
▁ተከታትለው	-9472
ውያኑ	-9473
▁ይር	-9474
▁ሥርዓ	-9475
▁ስንል	-9476
▁ብሊን	-9477
▁ፍቃዱ	-9478
▁አሠራር	-9479
▁ከፖሊስ	-9480
▁መፈንቅለ	-9481
▁የድንበር	-9482
▁ሕይወታቸው	-9483
▁በሳምራዊት	-9484
▁እንዲከበር	-9485
ልኩ	-9486
ዙት	-9487
▁98	-9488
▁ትዝ	-9489
ለባቸው	-9490
ቡላንስ	-9491
▁መቼም	-9492
▁ቪክቶ	-9493
▁አላት	-9494
▁እንወዳ	-9495
▁ዊሊያም	-9496
▁ፈላስፋ	-9497
▁የለበትም	-9498
▁የእምነት	-9499
▁ገልጸዋል	-9500
▁ሚኒስትሮች	-9501
ጋር	-9502
ከዚህ	-9503
ዳረጉ	-9504
▁ሰሚ	-9505
▁ክሊ	-9506
▁ያዘ	-9507
▁102	-9508
▁በአዋ	-9509
▁ከስር	-9510
▁ይታያ	-9511
▁ውሏል።	-9512
▁ውዝግብ	-9513
ላለን	-9514
ሽከረ	-9515
▁ማነ	-9516
▁አውሎ	-9517
▁ሰዎችም	-9518
▁በአቅራቢያ	-9519
▁የቀረበውን	-9520
▁ዩናይትዶች	-9521
ru	-9522
ሀገር	-9523
አቀፍ	-9524
▁መዛ	-9525
▁ከሽ	-9526
▁በንግድ	-9527
▁አሉታዊ	-9528
▁እመቤት	-9529
▁የጥበቃ	-9530
▁ጠቁመው	-9531
▁መጠናቀቅ	-9532
▁የለም፡፡	-9533
▁ገለልተኛ	-9534
▁ከህብረተሰቡ	-9535
ጠጋ	-9536
ዲካል	-9537
ገራዊ	-9538
▁ኢም	-9539
▁ህልፈት	-9540
▁የዋሉት	-9541
▁የሚታወቅ	-9542
▁የሚቻለው	-9543
▁ሁኔታዎችን	-9544
▁እየተከበረ	-9545
▁የእንስሳት	-9546
▁የደረሰበት	-9547
▁ባለሙያዎችን	-9548
▁አሳስቧል፡፡	-9549
ናጀት	-9550
ጂንግ	-9551
ጠቅላላ	-9552
▁ማሳወ	-9553
▁መስመሮች	-9554
ላኩ	-9555
ተኑ	-9556
ዋሉ	-9557
▁ዘይ	-9558
▁እዚያ	-9559
▁ዘመድ	-9560
▁በሲዳማ	-9561
▁ጥሰቶች	-9562
▁ኦዴጋርድ	-9563
▁የኮሚኒኬሽን	-9564
ላባ	-9565
ዴፓ	-9566
ጎበኙ	-9567
▁99	-9568
▁የቁጥጥር	-9569
▁እናደርጋለን	-9570
ሬው	-9571
ቅን	-9572
ራባኦ	-9573
ባትን	-9574
▁ነባ	-9575
▁ክሮ	-9576
▁ወሰ	-9577
ታወቅም	-9578
▁ራድዮ	-9579
▁ተዋህዶ	-9580
▁የልደት	-9581
▁ተናግረው	-9582
▁የሚያወጣ	-9583
▁የምክክር	-9584
▁የቫይረሱ	-9585
ሸገር	-9586
ዜጎች	-9587
▁ባሕ	-9588
ላቸዋል	-9589
ጠራቸውን	-9590
▁ነበር፤	-9591
▁እንደታ	-9592
▁ጌታሁን	-9593
▁መንግስትን	-9594
▁በቴክኖሎጂ	-9595
▁እንዳይገቡ	-9596
▁አስተያየቱን	-9597
▁የተከሰተውን	-9598
ብቻ	-9599
ዘመን	-9600
▁ትጥ	-9601
▁ሲያሳ	-9602
▁ባጋጠ	-9603
▁ናሙና	-9604
▁ይጀመ	-9605
▁ፍትሕ	-9606
▁ውይይቱ	-9607
▁ስደተኞችን	-9608
▁እንደማይችል	-9609
her	-9610
ብኛል	-9611
▁74	-9612
▁ፊሊ	-9613
▁ስለሺ	-9614
▁በተከ	-9615
▁ተከተ	-9616
▁ማለቱን	-9617
▁ቢዝነስ	-9618
▁የታወቀ	-9619
▁ሰጥተዋል	-9620
▁በጥንቃቄ	-9621
▁በየደረጃው	-9622
▁ጠይቀዋል፡፡	-9623
▁መከል	-9624
▁ሰርቪስ	-9625
▁ኳሶችን	-9626
▁የጠበቀ	-9627
▁ኮሚሽነሩ	-9628
▁የተቀናጀ	-9629
▁ኖቲንግሀም	-9630
ቀቱ	-9631
ቦቹ	-9632
የታ	-9633
ነው።	-9634
▁un	-9635
▁ዳኒ	-9636
▁more	-9637
▁ለመማር	-9638
▁ወዲያው	-9639
▁ዝግጅቶች	-9640
ንቶ	-9641
ጃን	-9642
ገፅ	-9643
283	-9644
700	-9645
ዛቸው	-9646
ፈራው	-9647
▁ምኒ	-9648
▁ያነሳ	-9649
▁ማትያስ	-9650
▁በሂደት	-9651
▁የሰሌዳ	-9652
▁መግባቱን	-9653
▁አይደሉም	-9654
▁መድረሳቸው	-9655
▁ይጀምራል።	-9656
ሜል	-9657
ርቻ	-9658
ትራ	-9659
▁ሆነን	-9660
▁ከየት	-9661
▁ፓኬጅ	-9662
▁አይመስ	-9663
▁የመኖር	-9664
?”	-9665
▁r	-9666
▁ሃላፊው	-9667
▁መወሰኑ	-9668
▁ቀሪዎቹ	-9669
▁የሚኖር	-9670
▁ጣሊያን	-9671
▁ምልክቶች	-9672
▁እንዲቀጡ	-9673
▁እንዲችሉ	-9674
▁ተጠናቋል።	-9675
▁በኤሌክትሪክ	-9676
ዚራ	-9677
▁ሃያ	-9678
▁ተው	-9679
▁ጠፍ	-9680
ስፈላጊ	-9681
▁መዘጋ	-9682
▁ሲገቡ	-9683
▁ከልብ	-9684
▁ለክለቡ	-9685
▁ማጠናቀ	-9686
▁በኤደን	-9687
▁ከፍንጅ	-9688
▁ማጠናቀቅ	-9689
▁ተከትሎም	-9690
▁ኔትወርክ	-9691
▁በመቀናጀት	-9692
ኖተ	-9693
▁ምጣኔ	-9694
▁ሲቪያ	-9695
▁ተመን	-9696
▁ነገረ	-9697
▁አንዲ	-9698
▁በግጭቱ	-9699
▁አክሎም	-9700
▁የሚባሉ	-9701
▁የሚወጡ	-9702
▁መቀጠሉን	-9703
▁መጠበቂያ	-9704
▁ቤተሰቦቹ	-9705
▁ተጀምሯል።	-9706
▁የሚኒስትሮች	-9707
▁ቀል	-9708
▁ቡል	-9709
ቶቻቸው	-9710
▁10.	-9711
▁ረፋድ	-9712
▁በወጣው	-9713
▁ለመፍትሔ	-9714
▁መድሀኒት	-9715
▁እንዲቆጠቡ	-9716
,5	-9717
ልካ	-9718
ሺፕ	-9719
ዚዮ	-9720
ታወስ	-9721
▁ለሊ	-9722
▁ሲተ	-9723
ባውያን	-9724
ገለጸው	-9725
▁ፎደን	-9726
▁2010	-9727
▁መኪኖች	-9728
▁አይደል	-9729
▁የሚታይ	-9730
▁ዩጋንዳ	-9731
▁ጥርጣሬ	-9732
▁ስብሰባው	-9733
▁ቃላቸውን	-9734
▁ያጋጠመው	-9735
▁አሰልጣኞች	-9736
▁የተቋቋመው	-9737
251	-9738
ነገረ	-9739
ፌዲሪ	-9740
▁ለቤት	-9741
▁በፕሮ	-9742
▁አባላ	-9743
▁ከግብ	-9744
▁የሴት	-9745
▁የእኛ	-9746
▁ማድረስ	-9747
▁ተመልካ	-9748
▁ዕቃዎች	-9749
▁ከብሔራዊ	-9750
▁የተነሳው	-9751
▁ስተርሊንግ	-9752
▁በዩኒቨርሲቲ	-9753
ያሌ	-9754
ፈስ	-9755
ሳል።	-9756
ዉያን	-9757
▁63	-9758
▁ለሪ	-9759
▁ቁም	-9760
▁ሀብታም	-9761
▁በላከው	-9762
▁ተላልፎ	-9763
▁አሸባሪ	-9764
▁አብዲሳ	-9765
▁በቅንጅት	-9766
ሸጠ	-9767
ውንም	-9768
▁(2	-9769
▁ቅፅ	-9770
▁በጸ	-9771
▁095	-9772
▁ሚዛን	-9773
▁ርምጃ	-9774
▁የሩስያ	-9775
▁የጥፋት	-9776
▁ቁሳቁሶችን	-9777
▁የተሰጣቸው	-9778
ሁለት	-9779
መበት	-9780
መናት	-9781
▁76	-9782
▁ሀም	-9783
▁በጽኑ	-9784
▁ተግዳ	-9785
▁ዮናስ	-9786
▁ማስፈራ	-9787
▁ሩዋንዳ	-9788
▁አድርጉ	-9789
▁የእስር	-9790
▁ለመረዳት	-9791
▁ከተጀመረ	-9792
▁ዩቲዩብ፡	-9793
ሪቷ	-9794
የረ	-9795
eal	-9796
▁ሙድ	-9797
▁ስፓ	-9798
▁ያወ	-9799
▁ለመቅ	-9800
▁ጀመር	-9801
▁ልጃቸው	-9802
▁በሚገባ	-9803
▁ለመጨረሻ	-9804
▁የሰውነት	-9805
▁መንግሥታዊ	-9806
▁በዩናይትድ	-9807
▁ከመንግሥት	-9808
▁በህብረተሰቡ	-9809
▁አስተዳደራዊ	-9810
ረጫ	-9811
ሶን	-9812
ቀይ	-9813
ቢክ	-9814
ፕድ	-9815
ምረቃ	-9816
ችሁት	-9817
▁ሴሪ	-9818
▁በጊ	-9819
▁መስኮ	-9820
▁ንፋስ	-9821
▁አባተ	-9822
▁ወስዶ	-9823
▁ዝርዝ	-9824
ፈልገውን	-9825
▁ተፅእኖ	-9826
ni	-9827
ind	-9828
ረሱን	-9829
ራኒው	-9830
ዲንግ	-9831
▁አጉ	-9832
▁መቆየት	-9833
▁ቀጣዩን	-9834
▁ከግንቦት	-9835
▁የማጣራት	-9836
▁ያደርጋሉ	-9837
ንሰ	-9838
ዳድ	-9839
ሪስት	-9840
ሪደር	-9841
▁ይሻ	-9842
▁ዲሲ	-9843
▁ለድር	-9844
▁ከማስ	-9845
▁የመር	-9846
▁ይቆያ	-9847
▁በኢራን	-9848
▁የአመራ	-9849
▁አረንጓዴ	-9850
▁ሲንቀሳቀሱ	-9851
▁እንዲካሄድ	-9852
ebs	-9853
ችሉት	-9854
ጥበብ	-9855
▁ሲቪ	-9856
▁ከኃ	-9857
ባቸውም	-9858
▁ለቤተ	-9859
▁በመዝ	-9860
▁በቀይ	-9861
ምፒውተር	-9862
ቶቻቸውን	-9863
▁ተከታይ	-9864
▁አነጋግ	-9865
▁ዕለታዊ	-9866
.......	-9867
▁በመቀላቀል	-9868
ዕድ	-9869
orm	-9870
▁me	-9871
▁ኦር	-9872
▁ከጫ	-9873
▁ሽግግር	-9874
▁ያለፉት	-9875
▁ብሊንከን	-9876
▁ያለፉትን	-9877
▁አገልግሎትን	-9878
ማኒ	-9879
ራዩ	-9880
ary	-9881
ሬደዋ	-9882
olog	-9883
▁ሶስቱ	-9884
▁አደም	-9885
▁የእኔ	-9886
▁ፖግባ	-9887
▁እየመራ	-9888
▁ከደረሰ	-9889
▁አስገዳጅ	-9890
▁ተግባራትን	-9891
▁እንዲፈጠር	-9892
▁ኮንስትራክሽን	-9893
ካሚ	-9894
ንካሬ	-9895
ደጋፊ	-9896
ደግፉ	-9897
▁መዉ	-9898
▁ታጋ	-9899
▁ኤዲ	-9900
▁ለውጭ	-9901
▁ሙሌት	-9902
▁ከሌላ	-9903
▁የቡና	-9904
▁መልእክ	-9905
▁ስፍራው	-9906
▁በምክትል	-9907
ለደ	-9908
በሬ	-9909
ኮሳ	-9910
ፋሉ	-9911
ስቶን	-9912
ኃኒት	-9913
ወከል	-9914
▁day	-9915
▁ሀምሌ	-9916
▁ኦሪጂ	-9917
▁የተሻ	-9918
▁5000	-9919
▁ሀረርጌ	-9920
▁ማካሄድ	-9921
▁በአርባ	-9922
▁እንዲያገኝ	-9923
ልቦና	-9924
▁et	-9925
▁ሳም	-9926
▁ሰበታ	-9927
▁አኳያ	-9928
▁ታምራት	-9929
▁እነማን	-9930
▁የተላከ	-9931
▁ጤንነት	-9932
▁አስተማሪ	-9933
▁ያስቆጠረ	-9934
ሏት	-9935
ዶር	-9936
ሊኮፕ	-9937
▁ጋና	-9938
▁ሉካኩ	-9939
▁በተገ	-9940
▁ጨምረ	-9941
▁ሐሰተኛ	-9942
▁መረዳት	-9943
▁ሮቤርቶ	-9944
▁ጌትነት	-9945
▁በመመለስ	-9946
▁አሳውቋል	-9947
▁እንዲፈታ	-9948
▁ለመመዝገብ	-9949
▁ተመራቂዎች	-9950
▁የአክሲዮን	-9951
▁ዩንቨርስቲ	-9952
-5	-9953
ንሶ	-9954
ድፍ	-9955
out	-9956
ርቲው	-9957
ጥሮስ	-9958
ጻጸር	-9959
▁he	-9960
ላይነት	-9961
ቤታቸው	-9962
▁መቆም	-9963
▁ነኝ።	-9964
▁ጀልባ	-9965
▁ማምጣት	-9966
▁ሜዳልያ	-9967
▁ለመቀየር	-9968
▁ኦሪጂናል	-9969
ቢት	-9970
ዳቱ	-9971
መረቁ	-9972
ደግፍ	-9973
▁ቆር	-9974
ጠራቸው	-9975
▁700	-9976
▁እሱም	-9977
▁ኳታር	-9978
▁ማርቲን	-9979
▁የደመወዝ	-9980
▁ሰጥቷል፡፡	-9981
▁አስታወቁ።	-9982
72	-9983
ራህ	-9984
ባበ	-9985
ክም	-9986
ens	-9987
▁እዳ	-9988
▁የጂ	-9989
ቦራቶሪ	-9990
▁በአቶ	-9991
▁ኒውስ	-9992
▁ንክኪ	-9993
▁ሰራዊቱ	-9994
▁ባለሃብ	-9995
▁ብላችሁ	-9996
▁ቦይንግ	-9997
▁ተግዳሮ	-9998
▁አብደላ	-9999
▁የብቃት	-10000
▁ከፍተኛው	-10001
▁መስተዳደር	-10002
▁ይናገራሉ።	-10003
92	-10004
bc	-10005
▁ለኤ	-10006
▁ያጣ	-10007
ስተኛው	-10008
ፖርተር	-10009
▁ማሰባሰብ	-10010
▁በሽታዎች	-10011
▁አስተናጋ	-10012
▁ዝግጅቱን	-10013
▁የኢንዱስትሪ	-10014
ደደ	-10015
ዶም	-10016
ቀሰው	-10017
ቀትን	-10018
ድቋል።	-10019
▁ሳጥን	-10020
▁ቀኑን	-10021
▁ተጎድ	-10022
▁ተጫው	-10023
▁አህጉ	-10024
▁ወለድ	-10025
▁በባሕር	-10026
▁ተሰልፎ	-10027
▁እማኞች	-10028
▁በቋሚነት	-10029
▁ተጠቅመው	-10030
,000,000	-10031
መታ	-10032
ስማን	-10033
▁ሎስ	-10034
▁ተማ	-10035
▁አሚ	-10036
2022	-10037
ምህረት	-10038
▁ህልም	-10039
▁የስም	-10040
ገልግሎቱ	-10041
▁from	-10042
▁ተጋጣሚ	-10043
▁የቻሉት	-10044
▁መሠረታዊ	-10045
▁ሲረጋገጥ	-10046
▁በመነጋገር	-10047
▁በሚያደርጉት	-10048
ባህ	-10049
የሚ	-10050
ሃንስ	-10051
▁ሰአ	-10052
▁ለብዙ	-10053
▁የክር	-10054
▁ሀቨርት	-10055
▁በሽብር	-10056
▁አብያተ	-10057
▁ህጻናትን	-10058
▁መፈጸሙን	-10059
▁የነበረዉ	-10060
▁የወንዶች	-10061
▁ያስቆጠረው	-10062
ቄት	-10063
▁ሊታ	-10064
▁ካፍ	-10065
▁ማነው	-10066
▁የመፍት	-10067
▁የምርት	-10068
▁በመለየት	-10069
▁የተነገረው	-10070
ቃዲ	-10071
ብዙ	-10072
ቆችን	-10073
▁ኒኮ	-10074
▁ጸሎ	-10075
▁ሜጀር	-10076
▁የባቡር	-10077
▁የሚጠቀሙ	-10078
▁ቆይተዋል።	-10079
▁በማስቆጠር	-10080
▁አሳስበዋል፡፡	-10081
▁እናመሰግናለን	-10082
ሽታ	-10083
ire	-10084
ግበር	-10085
▁ራያ	-10086
▁ከሱ	-10087
▁የሺ	-10088
ወሰደው	-10089
ፋሪዎች	-10090
▁በስነ	-10091
▁ባሎን	-10092
▁ድጋፉ	-10093
▁ጥዋት	-10094
▁ለአራት	-10095
▁መምራት	-10096
▁መሻሻል	-10097
▁በምግብ	-10098
▁ይቀላቀ	-10099
▁ቋንቋዎች	-10100
▁በመጠበቅ	-10101
▁መልዕክተኛ	-10102
▁በምትገኘው	-10103
▁አልነበረም	-10104
▁የመምህራን	-10105
hat	-10106
ሃመድ	-10107
▁ተጭ	-10108
▁ቀጥታ	-10109
▁እይታ	-10110
▁ሕፃናት	-10111
▁አንዳር	-10112
138283	-10113
▁እየተሠራ	-10114
▁ኮንግረስ	-10115
41	-10116
ታኔ	-10117
▁08	-10118
▁ጠቀ	-10119
▁ልጁን	-10120
▁ስቴት	-10121
▁አባቴ	-10122
▁ካሪም	-10123
▁ቀዳማዊ	-10124
▁እድሳት	-10125
▁የተሰበ	-10126
▁የጠቆሙት	-10127
▁የማዕከላዊ	-10128
ጆታ	-10129
ፍታ	-10130
ነቷን	-10131
▁72	-10132
▁ተአ	-10133
▁ዋን	-10134
▁የጆ	-10135
ቻችሁን	-10136
▁ለእኛ	-10137
▁መጨና	-10138
▁ማነስ	-10139
▁ቆንጆ	-10140
▁መቆየቱ	-10141
▁የአዳማ	-10142
▁ከመጋቢት	-10143
▁የሚስተዋ	-10144
▁ተገድለዋል።	-10145
ሊሲ	-10146
▁ሲታ	-10147
▁ካህ	-10148
▁ሽጉጥ	-10149
▁እራሱ	-10150
▁ስነስር	-10151
▁በቱርክ	-10152
▁ወንድሙ	-10153
▁ገለፀ።	-10154
▁ከነበሩት	-10155
▁ቅርንጫፎች	-10156
▁ኃላፊነቱን	-10157
▁ንብረታቸው	-10158
▁በተጠናቀቀው	-10159
ቅላ	-10160
ollo	-10161
አግባብ	-10162
▁ማይክ	-10163
▁ነጋሽ	-10164
▁ለከተማ	-10165
▁ለማጣራት	-10166
▁በጣልያን	-10167
▁እንደሚሉት	-10168
▁የሚያቆየውን	-10169
▁እንዳስታወቁት	-10170
ንዛቤ	-10171
ገመት	-10172
▁ሱቅ	-10173
ሚኒየም	-10174
▁ሀኪም	-10175
▁ኬቨን	-10176
▁ክፍተ	-10177
▁ግሪን	-10178
▁ብጥብጥ	-10179
▁አዋሳኝ	-10180
▁የግማሽ	-10181
▁ጅግጅጋ	-10182
▁ለአብነት	-10183
▁የተመለከቱ	-10184
▁ተሽከርካሪዎችን	-10185
ace	-10186
▁ሩቶ	-10187
▁ብቃ	-10188
▁መቻሉ	-10189
▁መጠቀ	-10190
▁ተገደሉ	-10191
▁ይዘዙን	-10192
▁በመነሳት	-10193
▁ታካሚዎች	-10194
▁አንዳንዴ	-10195
▁የመማሪያ	-10196
▁ገበታቸው	-10197
▁ተጠርጣሪዎችን	-10198
▁ያመላክታል፡፡	-10199
ላጅ	-10200
ፈኛ	-10201
ኙነት	-10202
ገራቱ	-10203
▁ሞራ	-10204
▁ሞዴል	-10205
▁ሰልፉ	-10206
▁ተያዘ	-10207
▁ሰነዶች	-10208
▁ከቻይና	-10209
▁የጎዳና	-10210
▁ምዕመናን	-10211
▁መልዕክቶች	-10212
▁እንዲሰጣቸው	-10213
ሊባ	-10214
ትዲ	-10215
ኒቱ	-10216
▁ሻለቃ	-10217
▁የገዛ	-10218
▁ሆቴሎች	-10219
▁ማዕድን	-10220
▁በማድረ	-10221
▁ተወዳጅ	-10222
▁የሰዓት	-10223
▁የሚጠይቅ	-10224
▁የማዕድን	-10225
▁እንደሚሆኑ	-10226
በሩን	-10227
ወርቂ	-10228
ደቡብ	-10229
መስቀል	-10230
▁ዘርፉ	-10231
▁የጎን	-10232
▁2019	-10233
▁ሲገደሉ	-10234
▁በመረጃ	-10235
▁አብዱላ	-10236
▁እንክብ	-10237
▁ከተባለ	-10238
▁ያለዉን	-10239
ebsite	-10240
▁ማንነታቸው	-10241
▁የማስከበር	-10242
▁እንደሚገኝም	-10243
ime	-10244
ሊባን	-10245
ጫወተ	-10246
▁Am	-10247
▁ጋዛ	-10248
▁ቆሻሻ	-10249
▁አገል	-10250
▁ይኖራ	-10251
▁መፅሐፍ	-10252
▁ሪፈራል	-10253
▁በተያዘ	-10254
▁አጠራጣሪ	-10255
▁በተማሪዎች	-10256
▁አዘጋጅነት	-10257
▁ይካሄዳል።	-10258
▁ባስተላለፉት	-10259
150	-10260
anc	-10261
በረከ	-10262
ኳታሩ	-10263
ጆችን	-10264
▁ካይ	-10265
▁የኖ	-10266
▁ለምር	-10267
▁መርከ	-10268
▁ሙስና	-10269
▁ሴክሬ	-10270
▁በደም	-10271
▁በገበያ	-10272
▁ከመሆኑ	-10273
▁የትዳር	-10274
▁ኮምቦልቻ	-10275
▁ዩናይትዱ	-10276
▁አስረድቷል።	-10277
ሃፊ	-10278
ፌኮ	-10279
▁87	-10280
▁መኩ	-10281
ቪዬሽን	-10282
ደራደር	-10283
ደበኛው	-10284
▁ሂላል	-10285
▁ሩበን	-10286
▁በርና	-10287
▁አየለ	-10288
▁ክፍሌ	-10289
▁የወቅ	-10290
▁ካደረገ	-10291
▁ለማራዘም	-10292
▁የዜጎችን	-10293
▁የዲፕሎማ	-10294
▁ይመዝገቡ	-10295
▁በተቃራኒው	-10296
▁በአንድነት	-10297
ሰዉ	-10298
ሳኤ	-10299
ጋጭ	-10300
ግድ	-10301
▁በሮ	-10302
▁አፋ	-10303
ስራቃዊ	-10304
ወስደው	-10305
ንሻንጉል	-10306
▁በታላቁ	-10307
▁የሀሰት	-10308
▁መድረኮች	-10309
▁በእንዲህ	-10310
▁ያገኛሉ።	-10311
ልቁ	-10312
ርካቶ	-10313
አለም	-10314
ካሂዱ	-10315
▁62	-10316
▁ለፓ	-10317
▁ተኩ	-10318
▁ፍሎ	-10319
2020	-10320
▁በትዕ	-10321
▁የሥነ	-10322
▁ይጠቁ	-10323
▁ፈታኝ	-10324
▁ለሽያጭ	-10325
▁መዘገቡ	-10326
▁በሕዝብ	-10327
▁እየሠራ	-10328
▁የስኳር	-10329
▁ጊዚያዊ	-10330
▁ሶስተኛው	-10331
▁አለብን።	-10332
▁አድርገን	-10333
▁እየሰራን	-10334
▁ውሳኔዎች	-10335
▁የነበራቸው	-10336
ርጎ	-10337
▁ሳተ	-10338
line	-10339
ጠናከረ	-10340
▁ሲሰሩ	-10341
▁ናትና	-10342
▁ወለል	-10343
▁ፍራን	-10344
▁ማምረት	-10345
▁ባህልና	-10346
▁አመስግ	-10347
▁የሚመስ	-10348
▁ለሚፈልጉ	-10349
▁ቀጣይነት	-10350
▁በቅድሚያ	-10351
▁አታላንታ	-10352
▁የሰላምና	-10353
▁እንደሚከናወን	-10354
ካኔ	-10355
ጫሉ	-10356
ደራሉ	-10357
▁61	-10358
▁79	-10359
▁ኪም	-10360
መጨረሻ	-10361
▁ተቋር	-10362
▁በኢንተር	-10363
▁አብዛኛዎቹ	-10364
▁እንዲወስዱ	-10365
▁ወገኖቻችን	-10366
ልኮ	-10367
ማክ	-10368
ባቱ	-10369
ደቁ	-10370
ሲያን	-10371
ድረው	-10372
▁ሞክ	-10373
ance	-10374
▁ቢኖር	-10375
▁ቱሄል	-10376
▁አያት	-10377
▁ይምጡ	-10378
▁ደራር	-10379
▁2:00	-10380
▁ለክልሉ	-10381
▁መደረግ	-10382
▁በምክር	-10383
▁በቅዱስ	-10384
▁ተጨባጭ	-10385
▁ታጣቂዎቹ	-10386
▁የለውም።	-10387
▁አማካይነት	-10388
ሀይ	-10389
ጋዴ	-10390
▁ታዛ	-10391
▁ኪዳ	-10392
▁ጥሬ	-10393
ቷቸዋል	-10394
▁con	-10395
▁በውል	-10396
▁ለሴቶች	-10397
▁መድረኩ	-10398
▁የነፍስ	-10399
▁ገቢዎች	-10400
▁ሚንስትሩ	-10401
▁ስርጭትን	-10402
▁በመስቀል	-10403
▁በያዝነው	-10404
▁የሚያስተ	-10405
▁የግንዛቤ	-10406
▁ያገለገሉ	-10407
▁የሀይማኖት	-10408
ፋቱ	-10409
ረዱት	-10410
በርን	-10411
▁Ar	-10412
▁ጆሮ	-10413
ሰራጨው	-10414
ስተዋል	-10415
ደርግም	-10416
▁የማሳ	-10417
▁ያመጡ	-10418
▁በሙስና	-10419
▁ብዙሀን	-10420
▁የታሪክ	-10421
▁ማስፈረም	-10422
▁ኔታንያሁ	-10423
▁ጀርመናዊው	-10424
ግሬ	-10425
ሁሉም	-10426
ነዋል	-10427
ደሪያ	-10428
ገነዘ	-10429
▁ነገሩ	-10430
▁ያነጣ	-10431
▁ጠብቆ	-10432
▁መቅረብ	-10433
▁ሲሞክሩ	-10434
▁ሲጀምር	-10435
▁ስምሪት	-10436
▁ብርሀኑ	-10437
▁የዓመቱ	-10438
▁ይሆናሉ	-10439
▁በድምቀት	-10440
▁ተመስርቶ	-10441
▁የሚጫወቱ	-10442
ላከ	-10443
ሚሽኑ	-10444
ብላጫ	-10445
ከተሉ	-10446
▁ሊል	-10447
▁ለማው	-10448
▁ክሶች	-10449
▁መሳተፍ	-10450
▁አካውን	-10451
▁በሊባኖስ	-10452
▁በጣሊያን	-10453
▁አመሰግና	-10454
▁የጉምሩክ	-10455
▁በሀላፊነት	-10456
▁ደብረፅዮን	-10457
ርቻሮ	-10458
▁እፅ	-10459
▁ሰርጥ	-10460
▁ከዚሁ	-10461
▁የትም	-10462
▁መገለጫ	-10463
▁የደንብ	-10464
▁ያደረሰ	-10465
▁ለአሜሪካ	-10466
▁ለሀገራችን	-10467
▁ዋሽንግተን	-10468
▁እንደሚወስድ	-10469
ለው።	-10470
ገረው	-10471
▁Af	-10472
▁ትሮ	-10473
▁እሺ	-10474
▁ክም	-10475
ማኑኤል	-10476
▁ሰውን	-10477
▁ትችት	-10478
▁ገነት	-10479
▁ጥለው	-10480
▁ከህዝብ	-10481
▁የለውጥ	-10482
▁መካከለኛ	-10483
▁አላቸው።	-10484
▁መልዕክቱን	-10485
▁እንደሚኖር	-10486
▁የሚጠበቀው	-10487
ሃድ	-10488
ልጤ	-10489
ረካ	-10490
ንዝ	-10491
ፍሬ	-10492
ሀምን	-10493
ሽንና	-10494
በናል	-10495
▁ለዋ	-10496
መለከታ	-10497
▁ሩስያ	-10498
▁በወረዳ	-10499
▁እንደሚጀመር	-10500
87	-10501
ሐዱ	-10502
መደ	-10503
ኒሳ	-10504
ጓጓ	-10505
ጠጣ	-10506
ፎካ	-10507
መልጥ	-10508
ገኘዉ	-10509
▁Sp	-10510
▁ጎማ	-10511
ከናውኑ	-10512
ጀመሩት	-10513
▁ብስክ	-10514
▁ገበታ	-10515
▁መለያየ	-10516
▁የቀጠለ	-10517
▁ተነስተው	-10518
▁የአንበጣ	-10519
▁የእንኳን	-10520
of	-10521
ጨር	-10522
ወለዱ	-10523
▁ሮሜ	-10524
▁ውሻ	-10525
▁ውኃ	-10526
▁ያም	-10527
▁ዲቪ	-10528
2019	-10529
ገለፀው	-10530
▁እሳቱ	-10531
▁እየሰ	-10532
▁የቅር	-10533
▁ፎረም	-10534
▁1:30	-10535
▁መተላለ	-10536
▁ወታደር	-10537
▁ፋውንዴ	-10538
▁ለመታደግ	-10539
▁መቀላቀል	-10540
▁የአደጋው	-10541
▁ተገናኝተው	-10542
▁73	-10543
▁ተሽ	-10544
ጆቻቸው	-10545
▁ልቦና	-10546
▁ምክረ	-10547
▁ሰልፈ	-10548
▁በመጋ	-10549
▁አንብ	-10550
▁የገና	-10551
▁ሁለቱን	-10552
▁ሌፕዚግ	-10553
▁መርጌታ	-10554
▁መስዋዕ	-10555
▁ያሳያል	-10556
▁ማስገባት	-10557
▁ተወያይተዋል።	-10558
ነቃ	-10559
ካፋ	-10560
ባርቅ	-10561
ከፈሉ	-10562
▁as	-10563
▁ኩራ	-10564
▁መሸጥ	-10565
▁ታቅዶ	-10566
▁ኤርዶ	-10567
▁የነፃ	-10568
▁ለመሄድ	-10569
▁የሕይወት	-10570
▁የተመለሱ	-10571
▁ጉባኤውን	-10572
▁ለማስከበር	-10573
▁መቆጣጠሪያ	-10574
▁የተዘጋጀው	-10575
du	-10576
ረቁ	-10577
ዋለ	-10578
ዬም	-10579
ልውና	-10580
▁ዶሮ	-10581
▁ጫፍ	-10582
▁ችሎቱ	-10583
▁አማን	-10584
▁ፓሪስ	-10585
ብለዋል።	-10586
▁በቁጥር	-10587
▁ተሞክሮ	-10588
▁ታስረው	-10589
▁አስከሬ	-10590
▁አደረጉ	-10591
▁አድርጌ	-10592
▁የተሰሩ	-10593
▁በመንገድ	-10594
▁የህፃናት	-10595
▁የተዘጋጁ	-10596
▁የተያዘው	-10597
▁የተፈጸመ	-10598
ራሪ	-10599
የቀ	-10600
▁ሰከ	-10601
2021	-10602
ክልሎች	-10603
▁ሀሳቦች	-10604
▁ተናገረ	-10605
▁የቀበሌ	-10606
▁የደንበ	-10607
▁ብሄረሰብ	-10608
▁የሚቀርብ	-10609
▁የጋምቤላ	-10610
▁መገደላቸው	-10611
ኮራ	-10612
ንስኪ	-10613
▁ሀር	-10614
▁ሃብ	-10615
ባችንን	-10616
▁አሶሳ	-10617
▁ዲያዝ	-10618
▁ሙሉጌታ	-10619
▁ሳይቀር	-10620
▁ቀጠናዊ	-10621
▁በጥራት	-10622
▁ሀገሪቱን	-10623
▁ለህክምና	-10624
▁አይገባም	-10625
▁የመሰረተ	-10626
▁የመብራት	-10627
ላታ	-10628
ፊካ	-10629
ኒቱን	-10630
ፈቅድ	-10631
▁በደል	-10632
▁እርሱ	-10633
▁ግድቡ	-10634
▁የዩሮፓ	-10635
▁ሲነጻጸር	-10636
▁እንዲውል	-10637
▁የስልጠና	-10638
▁የፒኤስጂ	-10639
▁የቀረበለትን	-10640
▁አስታውሰዋል።	-10641
በማ	-10642
ለቀቀ	-10643
ረተው	-10644
ስትሮ	-10645
ክልና	-10646
ዳችን	-10647
ፈረው	-10648
▁ተዳ	-10649
▁ጥና	-10650
▁ፈቅ	-10651
▁ተያዙ	-10652
▁ታሪኩ	-10653
▁የአርባ	-10654
▁ህፃናትን	-10655
▁ለትግራይ	-10656
▁እየተሰሩ	-10657
▁የሚወስዱ	-10658
▁በበላይነት	-10659
▁እራሳቸውን	-10660
▁የሁለትዮሽ	-10661
ሽም	-10662
ዝያ	-10663
ፖች	-10664
ሸፈን	-10665
ባባስ	-10666
▁07	-10667
▁ሳር	-10668
መዘገብ	-10669
ከተሞች	-10670
▁ሰርጅ	-10671
▁በእነ	-10672
▁በደሴ	-10673
▁ያግኙ	-10674
ረጋገጠው	-10675
▁ማሳየት	-10676
▁ተመላክ	-10677
▁እንድና	-10678
▁መኮንኖች	-10679
▁በአብላጫ	-10680
▁ቲክቶክ፡	-10681
▁ያስችላል	-10682
▁ጥያቄውን	-10683
▁እንደሚሰሩ	-10684
▁የተሰጠውን	-10685
▁ይችላል፡፡	-10686
▁ለሚመለከተው	-10687
▁መግለጻቸውን	-10688
▁ቤተክርስቲያ	-10689
ቸሞ	-10690
ነነ	-10691
ዮስ	-10692
ቋንቋ	-10693
ድምፅ	-10694
▁እብ	-10695
ital	-10696
ዘዋዋሪ	-10697
▁ምትክ	-10698
▁እኛን	-10699
▁የሠራ	-10700
▁በለይቶ	-10701
▁ተቀዳሚ	-10702
▁አቀረበ	-10703
▁የተሟላ	-10704
▁ፖርቹጋል	-10705
▁የትምህርትና	-10706
ማጭ	-10707
ዞር	-10708
ው፡፡	-10709
ጭበረ	-10710
▁ሄደ	-10711
▁ለረ	-10712
▁ቆሞ	-10713
▁ከጣ	-10714
▁ሜሰን	-10715
▁በለጠ	-10716
▁ጨረቃ	-10717
▁መጠንን	-10718
▁ማዕቀፍ	-10719
▁ሲስተም	-10720
▁የረጅም	-10721
▁ጠበቆች	-10722
▁በየአመቱ	-10723
▁ታማሚዎች	-10724
▁እንዲሰራ	-10725
▁የሚኖረው	-10726
▁ተቃዋሚዎች	-10727
▁0901138283	-10728
go	-10729
ኳት	-10730
ውሮ	-10731
▁ለሶ	-10732
▁ከዕ	-10733
▁ዕፅ	-10734
ለንተና	-10735
▁11.	-10736
▁መገር	-10737
▁ማጣት	-10738
▁ተባብ	-10739
▁አወዳ	-10740
▁ጥናቱ	-10741
ነታችንን	-10742
▁ጋምቤላ	-10743
▁ለመክፈል	-10744
▁በማግኘት	-10745
▁ታንዛኒያ	-10746
▁ኮሚዩኒኬሽን	-10747
ቀለ	-10748
ብሊ	-10749
▁ማማ	-10750
▁የዛ	-10751
▁ግሪ	-10752
▁ባንዲ	-10753
▁አልቫ	-10754
▁ጤናማ	-10755
▁ለጥያቄ	-10756
▁ይላሉ።	-10757
▁ፈተናን	-10758
▁በዘገባው	-10759
▁ከቫይረሱ	-10760
ናዉ	-10761
ኖክ	-10762
መድን	-10763
ሪያድ	-10764
ራችን	-10765
ያችሁ	-10766
ካሄዱት	-10767
▁ሚሳኤ	-10768
▁ኢንተ	-10769
▁የተደ	-10770
▁በአስተ	-10771
▁ተለያይ	-10772
▁እሳቱን	-10773
▁የትጥቅ	-10774
▁ጭንቀት	-10775
▁የተገደሉ	-10776
▁እንክብካቤ	-10777
ሟቸው	-10778
ባባሰ	-10779
ድራል	-10780
ጥቃት	-10781
▁የሕወ	-10782
▁የገዳ	-10783
▁ማጓየር	-10784
▁ሠራተኛ	-10785
▁የባየር	-10786
▁ለመርዳት	-10787
▁መሞታቸው	-10788
▁ተገለፀ።	-10789
▁ያልታወቀ	-10790
ational	-10791
▁እርምጃዎችን	-10792
ማሬ	-10793
ያዩ	-10794
ፃፈ	-10795
-12	-10796
ሊየን	-10797
ፈሩት	-10798
▁ጉር	-10799
ማሪዎቹ	-10800
▁የመለ	-10801
▁የሙሉ	-10802
▁ተመላሽ	-10803
ersity	-10804
▁መፈፀሙን	-10805
▁ስምንተኛ	-10806
▁ተፎካካሪ	-10807
▁ለመሰብሰብ	-10808
▁ተመራቂዎቹ	-10809
▁እንደቀጠለ	-10810
▁ያስፈልጋል።	-10811
ous	-10812
ንስላ	-10813
ፊኬት	-10814
ፍልድ	-10815
▁ከገ	-10816
ቀጥለው	-10817
ቋረጡን	-10818
ዳል፡፡	-10819
▁በአራ	-10820
▁ይመራ	-10821
▁ጀመሩ	-10822
ንቅስቃሴ	-10823
▁መንሸራ	-10824
▁ስፖርቲንግ	-10825
▁ወታደሮችን	-10826
▁የተመለከተው	-10827
ሃር	-10828
ኛ፣	-10829
ሉንም	-10830
ራንስ	-10831
ጀክቱ	-10832
ጉዳዩ	-10833
▁ሜጋ	-10834
▁አዱ	-10835
▁ያደ	-10836
▁ላለመ	-10837
▁መድን	-10838
▁በብር	-10839
▁አይታ	-10840
▁የኳስ	-10841
▁ጠቀሜ	-10842
ጊዮርጊስ	-10843
▁በየመን	-10844
▁ጥናቶች	-10845
▁አጎራባች	-10846
▁እንደሚመ	-10847
▁የአትሌቲ	-10848
▁የነበሩትን	-10849
-4	-10850
ውቁ	-10851
ኩት።	-10852
ለመደው	-10853
ሪታንያ	-10854
ሰንበት	-10855
ችኋል።	-10856
▁ሄደው	-10857
▁ማለቱ	-10858
▁ለቀጣይ	-10859
▁በግምት	-10860
▁የሚጠጋ	-10861
▁ይሰራል	-10862
▁ተፈጥሯዊ	-10863
▁የሚፈልግ	-10864
▁የጥምቀት	-10865
ኛዉ	-10866
ገሳ	-10867
ሰጠን	-10868
ፈላለ	-10869
▁69	-10870
▁82	-10871
▁83	-10872
▁ራፋ	-10873
▁ለመመ	-10874
▁ሊሆኑ	-10875
▁ከምት	-10876
▁ድጎማ	-10877
▁ጥቅል	-10878
▁ወቅትም	-10879
▁ለጠቅላይ	-10880
▁መቆራረጥ	-10881
▁በክረምቱ	-10882
▁ባለመኖሩ	-10883
▁አፈወርቂ	-10884
▁የእውቅና	-10885
▁ደረጃቸው	-10886
▁አልቻለም።	-10887
ከብሩ	-10888
ወለድ	-10889
▁ለዕ	-10890
▁ማግ	-10891
▁በቪ	-10892
▁ቡዳ	-10893
▁ታምሩ	-10894
▁ተስተው	-10895
▁ከመኖሪያ	-10896
የል	-10897
ics	-10898
ንፈተ	-10899
ድርግ	-10900
▁ጎብ	-10901
▁ሕዝቡ	-10902
▁ሲወጣ	-10903
▁ቢያስ	-10904
▁ከተሰ	-10905
▁የልም	-10906
▁በአስር	-10907
▁አሳሰበ	-10908
▁አደጋዉ	-10909
▁ለማሳየት	-10910
▁በመልካም	-10911
▁በአሰቃቂ	-10912
▁አዛውንት	-10913
▁ሲያስቆጥር	-10914
ሱና	-10915
ካር	-10916
ጡ።	-10917
ሽናል	-10918
▁አቃ	-10919
ላውያን	-10920
▁መስራ	-10921
▁በመሬት	-10922
▁አንቀፅ	-10923
▁እንገል	-10924
▁ከፈለጉ	-10925
▁አሸናፊው	-10926
▁አትሌቲክ	-10927
▁ተችሏል፡፡	-10928
▁አቅርቧል፡፡	-10929
ራቢ	-10930
ሮቹን	-10931
ገርም	-10932
▁የአገ	-10933
▁ከሩሲያ	-10934
▁መገንባት	-10935
▁ተጠቁሟል	-10936
▁ከመስጠት	-10937
▁የስንፈተ	-10938
▁ጉዳያቸው	-10939
▁አስተዳደሮች	-10940
pt	-10941
ሪኩ	-10942
ሳድ	-10943
ደሙ	-10944
ራዘመ	-10945
ኒዚያ	-10946
አትር	-10947
ኳቸው	-10948
▁ፖቼ	-10949
▁ቃላት	-10950
▁ለእስር	-10951
▁በተባሉ	-10952
▁ባለመቻ	-10953
▁እናሳው	-10954
▁ይከናወ	-10955
▁እንደማት	-10956
▁የአንደኛ	-10957
▁አውሮፕላኑ	-10958
▁ፋብሪካዎች	-10959
▁ኢንጂነሪንግ	-10960
ጭን	-10961
ጻሜ	-10962
▁ብክ	-10963
▁ለቀጣ	-10964
▁ሽንት	-10965
▁በበጎ	-10966
▁ታሪፍ	-10967
▁የሚዘ	-10968
ስተዳደሩ	-10969
▁ለትዳር	-10970
▁መረጃን	-10971
▁ምስሎች	-10972
▁ደራርቱ	-10973
▁በመምጣት	-10974
▁ተጠያቂነት	-10975
,6	-10976
ኑር	-10977
ign	-10978
ደገፈ	-10979
▁ስመ	-10980
▁አቦ	-10981
▁በየት	-10982
ስተዋወቅ	-10983
ፌደሬሽን	-10984
▁9:00	-10985
▁ላላችሁ	-10986
▁ማጣርያ	-10987
▁በግጭት	-10988
▁ቤሊንግ	-10989
▁የሚተዳ	-10990
▁ያደረግ	-10991
▁በመካሄድ	-10992
▁ገብቷል።	-10993
▁ሃይማኖታዊ	-10994
አር	-10995
old	-10996
ሮቢት	-10997
▁71	-10998
▁ህጉ	-10999
▁ከረ	-11000
▁የቲ	-11001
▁ያየ	-11002
ናቃዮች	-11003
▁---	-11004
▁ሕንፃ	-11005
▁የጠፋ	-11006
▁መስማት	-11007
▁በተነሳ	-11008
▁ተከናው	-11009
▁የመሆን	-11010
▁የሚገጥ	-11011
▁የደስታ	-11012
▁እንዲቀርቡ	-11013
▁ተናግሯል፡፡	-11014
▁መልዕክታቸውን	-11015
ህተ	-11016
ኔሊ	-11017
አፕ	-11018
ፌር	-11019
ዎርክ	-11020
▁ላላ	-11021
▁ይሉ	-11022
መሰረት	-11023
▁ቤት፣	-11024
▁አንገ	-11025
▁የተዛ	-11026
▁ዴብሮ	-11027
▁ለፍፃሜ	-11028
▁ሊደርስ	-11029
▁በጥቁር	-11030
▁ተቀላቀ	-11031
▁አገዛዝ	-11032
▁የቢሮው	-11033
▁ፕሬዚዳን	-11034
▁ተሰጥቷል።	-11035
▁የፈረንሳዩ	-11036
ላጆች	-11037
ወርድ	-11038
ዎትን	-11039
ጀንስ	-11040
▁ሴሚ	-11041
▁ለእጅ	-11042
▁እገታ	-11043
▁የማት	-11044
▁መልቀቅ	-11045
▁ከፀጥታ	-11046
▁ፖቼቲኖ	-11047
▁ሰራተኞቹ	-11048
▁ከማድረግ	-11049
▁ዶክትሬት	-11050
▁ብሔረሰቦች	-11051
▁አረጋግጠዋል	-11052
ህወ	-11053
ሳሉ።	-11054
ወትር	-11055
ፍቅር	-11056
ቻልበት	-11057
ንድስና	-11058
▁በመድ	-11059
▁ማህበረ	-11060
▁በነዳጅ	-11061
▁እስራኤ	-11062
▁የዋንጫ	-11063
▁በተፈፀመ	-11064
▁አይነቶች	-11065
▁እንዲነሳ	-11066
▁ከባለፈው	-11067
▁ገብተዋል	-11068
▁አይደለም፤	-11069
▁ተሸከርካሪዎች	-11070
ኪቫህ	-11071
▁ማሕ	-11072
2010	-11073
▁መኖሩ	-11074
▁መክፈ	-11075
▁ተኮር	-11076
▁ዩክሬ	-11077
▁2:30	-11078
▁ሰንደቅ	-11079
▁ከግማሽ	-11080
▁የሽያጭ	-11081
▁መጨናነቅ	-11082
▁ከሰዓታት	-11083
▁ወንድማማ	-11084
▁የክትባት	-11085
▁ያልተገባ	-11086
ቲስ	-11087
ገሰ	-11088
ጌል	-11089
በት።	-11090
ኖሩት	-11091
ጣል።	-11092
▁no	-11093
▁ርክ	-11094
▁ባር	-11095
▁ያጋ	-11096
▁ሰበብ	-11097
▁ሲታይ	-11098
▁ቀረበ	-11099
▁ቁጠባ	-11100
▁ትሆና	-11101
▁አርኖ	-11102
▁ገልፃ	-11103
ንግስታዊ	-11104
▁በጥቂት	-11105
▁የተሳካ	-11106
▁ሀቨርትዝ	-11107
▁ፖለቲከኞች	-11108
▁ለህብረተሰቡ	-11109
▁አስጠንቅቋል።	-11110
ሃይ	-11111
ሉ፣	-11112
ሪነት	-11113
ሻለሁ	-11114
ደውን	-11115
▁ምሳሌ	-11116
▁ወተት	-11117
▁አዋጁን	-11118
ለትምህርት	-11119
▁ምርመራው	-11120
▁ለጣቢያችን	-11121
▁በማጠናቀቅ	-11122
▁የእስልምና	-11123
ረቅ	-11124
የማ	-11125
ለሁም	-11126
ጀምሮ	-11127
ገጣጠ	-11128
▁ኤን	-11129
▁ለገሰ	-11130
▁መጠኑ	-11131
▁አግቢ	-11132
▁ኩራት	-11133
▁የባል	-11134
▁ሮድሪጎ	-11135
▁ሲመለሱ	-11136
▁ገንዘቡ	-11137
▁ጨምረዉ	-11138
▁የሚያስፈልጉ	-11139
ረቢያ	-11140
ጥበት	-11141
▁Sc	-11142
▁ነሽ	-11143
▁ካሴ	-11144
▁ሀድያ	-11145
▁መራዘ	-11146
▁መስጂ	-11147
▁ነሀሴ	-11148
▁መፈናቀ	-11149
▁ተወላጅ	-11150
▁የሚነሱ	-11151
▁ፍትሃዊ	-11152
▁ለመጫወት	-11153
▁የሳይበር	-11154
▁መገኘታቸውን	-11155
ቶት	-11156
አባ	-11157
▁ጭስ	-11158
▁not	-11159
▁ለግል	-11160
▁መዝና	-11161
▁ውሸት	-11162
▁ይገለ	-11163
▁ሕጻናት	-11164
▁ቁርጠኛ	-11165
▁በደረጃ	-11166
▁ናይሮቢ	-11167
▁አንድሬ	-11168
▁የሰውን	-11169
▁የግጭት	-11170
▁ፓልመር	-11171
▁ተናግሯል	-11172
▁ናትናኤል	-11173
▁ከአውሮፓ	-11174
▁ውለዋል።	-11175
▁የመጣውን	-11176
▁ጥቃቶችን	-11177
ቨለ	-11178
ጥራ	-11179
ነበሩ	-11180
▁by	-11181
▁ሊፈ	-11182
መሰረተ	-11183
ሪያዎች	-11184
ጀንቲና	-11185
▁በመካ	-11186
▁የማታ	-11187
▁ሊካሄድ	-11188
▁መቋረጥ	-11189
▁ተወስዶ	-11190
▁እየገቡ	-11191
▁ዋነኛው	-11192
▁ይነገራ	-11193
▁ግብዓት	-11194
▁ጥንታዊ	-11195
▁በተገቢው	-11196
▁የቢዝነስ	-11197
▁አለባቸው።	-11198
57	-11199
ቋቋሙ	-11200
በተን	-11201
ኩትን	-11202
ደኞች	-11203
▁ዘለ	-11204
5051	-11205
መቻቸት	-11206
▁ራሞስ	-11207
▁ባለን	-11208
▁እጁን	-11209
▁ከፈለ	-11210
▁ክሱን	-11211
▁ይደር	-11212
▁ማንሳት	-11213
▁ሲቲዎች	-11214
▁እውነታ	-11215
▁የድህረ	-11216
▁የሚያስች	-11217
▁ጠይቋል፡፡	-11218
ት፤	-11219
ከመ	-11220
▁le	-11221
▁ለሃ	-11222
▁ከር	-11223
ነጋገሩ	-11224
▁ተከራይ	-11225
▁አላገኘ	-11226
▁በተገናኘ	-11227
▁አልታወቀ	-11228
▁አቅርበው	-11229
▁የመመለስ	-11230
▁መዘጋጀቱን	-11231
▁በሆስፒታሉ	-11232
ቅል	-11233
ጥስ	-11234
▁06	-11235
▁li	-11236
▁ሟች	-11237
▁ዝና	-11238
▁ጎሳ	-11239
▁መወያ	-11240
▁አምቦ	-11241
▁አድና	-11242
▁የመቁ	-11243
▁የሜዳ	-11244
▁ግደይ	-11245
▁የሚፈታ	-11246
▁ለመቆየት	-11247
▁በጥቅምት	-11248
▁ቦታዎችን	-11249
▁ታዳጊዎች	-11250
▁አስደሳች	-11251
▁ከፌዴራል	-11252
▁የመሪዎች	-11253
▁የጦርነት	-11254
▁ማሽከርከር	-11255
▁እንደተደረገ	-11256
,0	-11257
,7	-11258
ናፈ	-11259
ዓን	-11260
ገፋ	-11261
ላላፊ	-11262
ብሮት	-11263
▁ተክ	-11264
▁ከዲ	-11265
▁ካራ	-11266
▁ለአም	-11267
▁በኒው	-11268
▁አራቱ	-11269
▁እርሶ	-11270
▁የጥሎ	-11271
▁ፋንታ	-11272
▁መቀመጥ	-11273
▁ተጽእኖ	-11274
▁አርብቶ	-11275
▁የነዋሪ	-11276
▁ባንኪንግ	-11277
▁እንዲቆዩ	-11278
▁ለማስቀጠል	-11279
▁አደርጋለሁ	-11280
▁መድረሳቸውን	-11281
58	-11282
ሳሳ	-11283
ሰጥም	-11284
▁ጃን	-11285
▁በድረ	-11286
▁ተበር	-11287
▁የሀያ	-11288
▁የችግ	-11289
▁ጀግና	-11290
▁ጋብቻ	-11291
▁ፈረን	-11292
▁ፈጽሞ	-11293
▁ለኢትዮ	-11294
▁ሙስሊም	-11295
▁ማክሮን	-11296
▁ምልከታ	-11297
▁የገጠር	-11298
▁ዳኝነት	-11299
▁ማሸነፉን	-11300
▁የማጣሪያ	-11301
▁የተፈፀመ	-11302
▁ህይወታቸዉ	-11303
▁ከሳምንታት	-11304
▁እንደሚገባም	-11305
▁የኢንቨስትመንት	-11306
ሞቲ	-11307
መንጃ	-11308
ሪዎቹ	-11309
▁ሞተ	-11310
ላችሁም	-11311
ስትያን	-11312
▁ሀውስ	-11313
▁መርህ	-11314
▁ማስክ	-11315
▁በማያ	-11316
▁ኢዜማ	-11317
▁ዘጋቢ	-11318
▁የታየ	-11319
ላንዳዊው	-11320
▁አለመስ	-11321
▁የማያው	-11322
▁የተነሱ	-11323
▁ያቀርባ	-11324
▁ድጋፉን	-11325
▁በደቡባዊ	-11326
▁የሚታየው	-11327
▁የነበረችው	-11328
▁የአካባቢውን	-11329
62	-11330
ተስ	-11331
ድሪስ	-11332
ሆናችሁ	-11333
▁ተጠባ	-11334
▁መለየት	-11335
▁ሜዲካል	-11336
▁የጅምላ	-11337
▁ጉድጓድ	-11338
▁ፍልሚያ	-11339
▁የሚገልጽ	-11340
▁ትክክለኛው	-11341
▁የቴክኒክና	-11342
▁Ethiopian	-11343
ስኪ	-11344
ዋች	-11345
ጫወቻ	-11346
▁አፀ	-11347
ንድነው	-11348
▁ስንታ	-11349
▁ቶተን	-11350
▁እርሻ	-11351
▁ያለች	-11352
▁ተገንዝ	-11353
▁አሌክስ	-11354
▁የቀጥታ	-11355
▁የአቅም	-11356
▁የሚቀርቡ	-11357
▁የአሸናፊ	-11358
▁የጨዋታው	-11359
ፊን	-11360
175	-11361
ile	-11362
መደቡ	-11363
ነስቲ	-11364
ከፈት	-11365
ጠለው	-11366
▁ኖት	-11367
ነበረው	-11368
▁በድም	-11369
▁ብሩክ	-11370
▁የጋሞ	-11371
▁ያሸን	-11372
▁ቀናቶች	-11373
▁ቅዱሳን	-11374
▁በመሸጥ	-11375
▁የተጨዋ	-11376
▁በዝግጅት	-11377
▁የተቀመጡ	-11378
▁10,000	-11379
▁ማስመዝገብ	-11380
▁ተማሪዎችም	-11381
▁ተገድለዋል	-11382
▁ሊዋንዶውስኪ	-11383
▁ኢንተርፕራይ	-11384
ጌት	-11385
▁ሙሳ	-11386
▁ቆቦ	-11387
▁ለሞት	-11388
▁በማህ	-11389
▁ታይም	-11390
▁አምጥ	-11391
ርሴሎናን	-11392
▁በውስጥ	-11393
▁ቴድሮስ	-11394
▁አሞሪም	-11395
▁እልባት	-11396
▁እንደራ	-11397
▁ዓመቱን	-11398
▁ጉምሩክ	-11399
▁ምዝገባው	-11400
▁ተጠባባቂ	-11401
▁ከነዚህም	-11402
▁የሚቀጥል	-11403
▁የሚያገኙ	-11404
▁የሚጨምር	-11405
▁ፕሬዚዳንቱ	-11406
ላካ	-11407
ልጥ	-11408
መሙ	-11409
ሚኒ	-11410
ory	-11411
ሎምቢያ	-11412
ጀርመኑ	-11413
▁ለመዋ	-11414
▁የትን	-11415
▁ጣሰው	-11416
▁በሰሜኑ	-11417
▁ክህደት	-11418
▁የታሰሩ	-11419
▁ይኖራል	-11420
▁ደረሰኝ	-11421
▁በመግዛት	-11422
▁ሳህለወርቅ	-11423
ሁ።	-11424
ame	-11425
ish	-11426
ሎባል	-11427
ቅተኛ	-11428
▁ለኔ	-11429
▁ኦፊ	-11430
▁ከሟ	-11431
▁ጉጂ	-11432
ብሰባው	-11433
▁ሞስኮ	-11434
▁ራሴን	-11435
▁ሰማይ	-11436
▁ቀብር	-11437
▁ጣልያ	-11438
▁ጸሎተ	-11439
▁የሙከራ	-11440
▁መሰረትም	-11441
▁በምርጫው	-11442
▁በትራፊክ	-11443
▁የሪሚዲያል	-11444
ቃጠል	-11445
በልጡ	-11446
ብራይ	-11447
ግዚቢ	-11448
▁ለጎ	-11449
▁መብራ	-11450
▁ሰራዊ	-11451
▁ሲሰጡ	-11452
▁ቤቱም	-11453
▁ተመጣ	-11454
▁ናችሁ	-11455
▁አሉን	-11456
▁የፋኖ	-11457
ቴሌግራም	-11458
▁ሚስጥር	-11459
▁ከባህር	-11460
▁ከፍለው	-11461
▁ሀይማኖት	-11462
▁በቀጣዮቹ	-11463
▁ክርስቶስ	-11464
▁የስድስት	-11465
▁ፍፃሜውን	-11466
▁ማለፋቸውን	-11467
▁ማሰባሰቢያ	-11468
▁የተባለው።	-11469
▁ኦን	-11470
▁ዉድ	-11471
▁መገልገ	-11472
▁መጥፋት	-11473
▁ቤቲካን	-11474
▁አንድን	-11475
▁ለመልቀቅ	-11476
▁ባልታወቀ	-11477
▁አንጋፋው	-11478
▁የወጣውን	-11479
▁አመራሮችና	-11480
▁ሰጥተዋል፡፡	-11481
ለታል	-11482
▁ልጃ	-11483
-19)	-11484
ርቲስት	-11485
ኞቻቸው	-11486
▁ደራሽ	-11487
▁ፋርማ	-11488
▁ለአደጋ	-11489
▁መሸፈኛ	-11490
▁ቪክቶር	-11491
▁ተጀምሮ	-11492
▁ዘላለም	-11493
▁ድልድል	-11494
▁የተያዙት	-11495
▁በተጠቀሱት	-11496
▁አመራሮችን	-11497
ህግ	-11498
አያ	-11499
ካፈ	-11500
ስካር	-11501
ኛቸው	-11502
▁ሞላ	-11503
▁ንቅ	-11504
▁ካማ	-11505
ጎልበት	-11506
▁በሰኔ	-11507
▁ለመላክ	-11508
▁መንበር	-11509
▁ሚሳኤል	-11510
▁በጥናት	-11511
▁አሳልፎ	-11512
▁ከተማና	-11513
▁የሚማሩ	-11514
▁ለመጠየቅ	-11515
▁እንዲጠናቀቅ	-11516
▁ዩኒቨርሲቲ፣	-11517
ቀሩ	-11518
ach	-11519
ሎቹን	-11520
▁ዛፍ	-11521
▁መርጃ	-11522
▁ያረፈ	-11523
▁ለግርማ	-11524
▁ውስጣዊ	-11525
▁የተቀሰ	-11526
▁የአቋም	-11527
▁የግብረ	-11528
▁ከታህሳስ	-11529
▁ቤሊንግሀም	-11530
▁ያመለክታል፡፡	-11531
TE	-11532
ሲም	-11533
ነጨ	-11534
ahe	-11535
ምቢያ	-11536
ቃለች	-11537
▁ሻይ	-11538
thio	-11539
ብሏል።	-11540
ከላቸው	-11541
▁በኢን	-11542
▁ኤርት	-11543
▁ወሰነ	-11544
▁ጉዳቱ	-11545
▁ሁኔታን	-11546
▁ማስፈን	-11547
▁ምልልስ	-11548
▁የእረፍት	-11549
▁አምባሳደሩ	-11550
▁እንዲጠቀሙ	-11551
▁መጀመራቸውን	-11552
ሰመጉ	-11553
ቆጠብ	-11554
ቻቸዉ	-11555
ወንድ	-11556
ፋችሁ	-11557
▁ፊፋ	-11558
▁ሀትሪክ	-11559
▁ለዓይነ	-11560
▁በግብፅ	-11561
▁የከባድ	-11562
ላፊነታቸው	-11563
▁ተመጣጣኝ	-11564
▁መስፈርቶች	-11565
▁በፈረንጆቹ	-11566
▁የሚከናወን	-11567
▁ያስመዘገቡ	-11568
▁ማቅረባቸውን	-11569
▁እንቅስቃሴን	-11570
ረባ	-11571
ቪን	-11572
ታህ	-11573
ካኝ	-11574
ወይ	-11575
መቱን	-11576
ዋለን	-11577
▁(1	-11578
▁ሎዛ	-11579
▁ነብ	-11580
▁ከኦ	-11581
▁ግፍ	-11582
▁737	-11583
▁መስሎ	-11584
▁ተሟጋች	-11585
▁ተፋላሚ	-11586
▁ከሌሊቱ	-11587
▁ከአገር	-11588
▁የእርሻ	-11589
▁ለመፈፀም	-11590
▁የበርካታ	-11591
▁ኔዘርላንድ	-11592
The	-11593
ለችም	-11594
▁በና	-11595
▁ፅጌ	-11596
▁ፊን	-11597
ላስቲክ	-11598
▁ቤተል	-11599
▁ፈፅሞ	-11600
ደርጋቸው	-11601
▁ትንኮሳ	-11602
▁ካርቱም	-11603
ፓርትመንት	-11604
▁ለማምለጥ	-11605
▁በማቅናት	-11606
▁Channels	-11607
aba	-11608
መርመር	-11609
ደረግን	-11610
▁ተፈት	-11611
▁ኢንዱ	-11612
▁ድምጻ	-11613
▁በኦሮሞ	-11614
▁ጀምሯል	-11615
▁ቡድናችን	-11616
▁በመግለጫቸው	-11617
▁አስጠንቅቀዋል።	-11618
ቀባ	-11619
ኬን	-11620
ፊቱ	-11621
ሻየር	-11622
▁ኦዲ	-11623
▁ክሱ	-11624
▁ለዛሬ	-11625
▁ተነስ	-11626
▁ተዳር	-11627
▁አክሊ	-11628
▁ገዳይ	-11629
▁ስማርት	-11630
▁አስክሬ	-11631
▁ችላለች።	-11632
▁ደረጃውን	-11633
▁ፋውንዴሽን	-11634
▁ተመላክቷል፡፡	-11635
69	-11636
ራጅ	-11637
ጨነ	-11638
ሀብት	-11639
ሕፍት	-11640
ሙስሊ	-11641
ቢያን	-11642
ገዱን	-11643
ጓጎል	-11644
▁ባሌ	-11645
▁ችላ	-11646
▁ኤች	-11647
▁የሉ	-11648
ሰማራት	-11649
ከፋፈያ	-11650
ውነተኛ	-11651
▁ጥምር	-11652
▁ለተጎዱ	-11653
▁ማሳወቅ	-11654
▁ሰልፎች	-11655
▁በቀረበ	-11656
▁አመታዊ	-11657
▁እንልካ	-11658
▁ይመስል	-11659
▁እቃዎችን	-11660
▁የመልካም	-11661
▁ስብሰባውን	-11662
▁እንገኛለን	-11663
▁ተመዝግቧል።	-11664
83	-11665
ሸር	-11666
ኒማ	-11667
ኮብ	-11668
ቃወሙ	-11669
ኬቶች	-11670
ግራሙ	-11671
ፍነው	-11672
▁84	-11673
▁ዛቻ	-11674
▁ዶሎ	-11675
ቡንደስ	-11676
▁3-0	-11677
▁የውጤት	-11678
▁የፈለጉ	-11679
▁ለብሔራዊ	-11680
▁ለዓመታት	-11681
▁ማርቲኔሊ	-11682
▁ቫይረስን	-11683
▁አልቻሉም	-11684
▁ቆይቷል፡፡	-11685
▁በአደባባይ	-11686
▁እንደሌላቸው	-11687
63	-11688
ከአ	-11689
ሩትን	-11690
ሰንት	-11691
ገኘት	-11692
ፈርስ	-11693
▁ሚን	-11694
▁ቁጣ	-11695
▁ጥቂ	-11696
ሪቶሪያ	-11697
ወዳደሩ	-11698
ደርሰው	-11699
▁ሬስቶ	-11700
▁ሶፍት	-11701
▁በቀር	-11702
▁ይልቁ	-11703
▁ለወራት	-11704
▁ሰርጅዮ	-11705
▁ትላልቅ	-11706
▁ቼልሲን	-11707
▁ጌታነህ	-11708
▁በመደገፍ	-11709
▁አፍሪካን	-11710
▁የሚያሳዩ	-11711
▁በአከባቢው	-11712
▁እንዲለቀቁ	-11713
▁እንዲሰጠው	-11714
▁ሚላ	-11715
▁በሉ	-11716
ቋቋመው	-11717
▁ስራን	-11718
▁ገመቹ	-11719
ጠቀምበት	-11720
?!	-11721
ሮጥ	-11722
ምረጥ	-11723
ንከር	-11724
ount	-11725
ጎብኘት	-11726
▁ሃማስ	-11727
▁መስጊ	-11728
▁ሰናይ	-11729
▁እሳቤ	-11730
▁የአማ	-11731
▁ይገኝ	-11732
▁ጎሉን	-11733
▁መማሪያ	-11734
▁አቀባዩ	-11735
▁እሳቸው	-11736
▁የነበራ	-11737
▁ጀኔራል	-11738
▁ጋርድዮ	-11739
▁በመምራት	-11740
▁በቅድስት	-11741
▁አንዳንዶቹ	-11742
hy	-11743
ጎና	-11744
ተንን	-11745
ለጀንስ	-11746
▁ሁንዴ	-11747
▁ሃይሉ	-11748
▁ለየት	-11749
▁የሚደ	-11750
▁ይኖሩ	-11751
▁መመረጥ	-11752
▁መቃብር	-11753
▁ርዝመት	-11754
▁ሲሚንቶ	-11755
▁በፈተና	-11756
▁ከቡድኑ	-11757
▁ውድነት	-11758
▁ይባላል።	-11759
▁ለማስወገድ	-11760
▁ዲፕሎማሲያዊ	-11761
መተ	-11762
ከበሩ	-11763
▁ለሳ	-11764
▁ከቶ	-11765
▁ሥፍራ	-11766
▁ባወጣ	-11767
▁ብርድ	-11768
▁አከፋ	-11769
▁ጉልህ	-11770
▁tran	-11771
▁አያክስ	-11772
▁አግኝቶ	-11773
▁የሚውሉ	-11774
▁የያዘው	-11775
▁በረራዎች	-11776
▁በኢኮኖሚ	-11777
▁አቆጣጠር	-11778
▁ኢንጅነር	-11779
▁የፀጥታው	-11780
▁በማስመሰል	-11781
▁ተገኝቷል።	-11782
▁አውጥቷል።	-11783
▁እንዲቀጥሉ	-11784
▁የተመዘገበው	-11785
ጓጎ	-11786
ፓር	-11787
መራቂ	-11788
ሰራም	-11789
ድረሱ	-11790
▁ፈት	-11791
ሳችሁን	-11792
▁ሀምሳ	-11793
▁መለዋ	-11794
▁አንሶ	-11795
▁የፌዴ	-11796
▁ሳይንቲ	-11797
▁ባንዲራ	-11798
▁አለፈ።	-11799
▁ቅሬታዎች	-11800
▁ውስብስብ	-11801
▁እንደደረሰባቸው	-11802
ኪዳን	-11803
ጻፈው	-11804
▁በጂ	-11805
▁ጣፋ	-11806
▁፣የ	-11807
ከንቲባ	-11808
ግባቸው	-11809
▁ማሳደ	-11810
▁ሺዎች	-11811
▁እነዲ	-11812
▁ዘመዶ	-11813
▁ይጎብ	-11814
▁ጊዜም	-11815
▁ፌስቲ	-11816
ology	-11817
▁ልማቶች	-11818
▁ግሽበት	-11819
▁ፍፃሜው	-11820
▁ተመዝጋቢ	-11821
▁አርኖልድ	-11822
▁ልጆቻቸውን	-11823
▁ከየትኛውም	-11824
▁የመጀመርያ	-11825
▁የኦንላይን	-11826
▁ዩንቨርሲቲ	-11827
iy	-11828
ሀት	-11829
ርስያ	-11830
ደቀው	-11831
▁ታም	-11832
▁ያኔ	-11833
ዘዋል።	-11834
ዘዋወሩ	-11835
ience	-11836
ለንተናዊ	-11837
ምፒዮንስ	-11838
▁መረጋገ	-11839
▁ባወጡት	-11840
▁ኮሌጆች	-11841
▁በንግግራ	-11842
▁የተያያዙ	-11843
▁የወደፊት	-11844
▁ደረጃዎች	-11845
▁ለተፈናቀሉ	-11846
▁እንደተገኘ	-11847
▁የተገነባው	-11848
▁ተደርገዋል።	-11849
ስከ	-11850
ቅዱ	-11851
ult	-11852
ዋልያ	-11853
ጫዋቹ	-11854
▁3-1	-11855
▁መመዘ	-11856
▁የሆድ	-11857
▁ጨርቅ	-11858
▁በአንዱ	-11859
▁ትልልቅ	-11860
▁አበባ፣	-11861
▁አድርሶ	-11862
▁የላሊጋ	-11863
ቀረበላቸው	-11864
▁ዘገባዎች	-11865
▁ጀምረዋል።	-11866
ሙ።	-11867
ካው	-11868
ife	-11869
ኝም።	-11870
▁ቤልጅ	-11871
▁ፋይዳ	-11872
▁ለመኖር	-11873
▁ሲሞክር	-11874
▁በድብቅ	-11875
▁አስራት	-11876
▁እያጣራ	-11877
▁ቀርቷል።	-11878
▁የላሊጋው	-11879
▁ተመራማሪዎች	-11880
ሚት	-11881
ረደ	-11882
ሮጌ	-11883
▁ለክ	-11884
▁አሥ	-11885
▁ገላ	-11886
ሪታኒያ	-11887
▁ጭነት	-11888
▁ፀሐይ	-11889
▁መኩሪያ	-11890
▁ቢሮዎች	-11891
▁ተፈላጊ	-11892
▁አሳወቀ	-11893
▁የሰባት	-11894
▁ግምታዊ	-11895
▁ጥረቶች	-11896
▁ከሳምንት	-11897
▁አልፈልግም	-11898
ባላ	-11899
ፕስ	-11900
ምፒክ	-11901
ስተን	-11902
ቦታው	-11903
ውቀው	-11904
ጅስት	-11905
▁ab	-11906
ther	-11907
▁ረሃብ	-11908
▁ስንዴ	-11909
▁ሥርዓተ	-11910
▁መኖራቸው	-11911
▁አይችሉም	-11912
▁መንሸራተት	-11913
▁በወታደራዊ	-11914
▁መመለሳቸውን	-11915
ናኮ	-11916
ለትም	-11917
ሞከር	-11918
ንኦት	-11919
ጅተው	-11920
ፈታት	-11921
▁መፅሃ	-11922
▁ሳይን	-11923
▁አዱኛ	-11924
▁እስረ	-11925
▁ከብዙ	-11926
▁የልጅ	-11927
▁ህወሃት	-11928
▁ለማዳን	-11929
▁ለድምፅ	-11930
▁በድርቅ	-11931
▁አውጥቶ	-11932
▁እንጀራ	-11933
▁የሰነድ	-11934
▁በስልጣን	-11935
▁ንብረቶች	-11936
▁አክሏል።	-11937
▁የወጣቶች	-11938
▁መንግስትም	-11939
▁የሚያስችለውን	-11940
ህያ	-11941
መቶ	-11942
ምኑ	-11943
ቫር	-11944
ጠፍ	-11945
ቆጥሩ	-11946
ተኮሰ	-11947
▁መሄ	-11948
▁በጫ	-11949
ከሰተው	-11950
▁Eng	-11951
▁አባቱ	-11952
▁የሚሳ	-11953
▁የወጪ	-11954
ሪያቸውን	-11955
▁መገርሳ	-11956
▁ቢደረግ	-11957
▁ተነጋግ	-11958
▁ወንጀለ	-11959
▁ዘጠነኛ	-11960
ላቸዋል፡፡	-11961
▁መንገዱን	-11962
▁ከንቲባው	-11963
▁ኮርፖሬት	-11964
▁የመስጠት	-11965
▁ተይዘዋል።	-11966
▁እንደማይችሉ	-11967
ዘገ	-11968
ዴኦ	-11969
ድማ	-11970
ሰሩት	-11971
ሰራጭ	-11972
ያለው	-11973
ፈርም	-11974
▁ከን	-11975
▁ጆታ	-11976
▁ጉል	-11977
ኖርበት	-11978
▁ሙቀት	-11979
▁በቀረ	-11980
▁ውሉን	-11981
▁የቀን	-11982
▁ደረቅ	-11983
መንግሥት	-11984
▁መርከብ	-11985
▁በክብር	-11986
▁ቤንዚን	-11987
▁አበባን	-11988
▁ውስጥና	-11989
▁በመከተል	-11990
▁በማስረጃ	-11991
▁አስተባብ	-11992
▁እንዲቻል	-11993
▁የኢፌዲሪ	-11994
ቀቡ	-11995
ኤት	-11996
ፈሻ	-11997
ሙንድ	-11998
▁አተ	-11999
▁ጨዋ	-12000
ገለገሉ	-12001
ጋዜጠኛ	-12002
▁መርኃ	-12003
▁ቦርሳ	-12004
▁እናቴ	-12005
▁ይመረ	-12006
▁ይመር	-12007
▁ገዳማ	-12008
ደጋፊዎች	-12009
▁በተገኘ	-12010
▁እያሳየ	-12011
▁ካደረጉ	-12012
▁ወንድሜ	-12013
▁ለበረከት	-12014
▁ባልደረባ	-12015
▁ተወያይቶ	-12016
▁ይገባዋል	-12017
,3	-12018
ሙር	-12019
መጣው	-12020
▁ሲን	-12021
▁ሶል	-12022
▁እሰ	-12023
▁ሊገባ	-12024
▁አቢሲ	-12025
▁የሌለ	-12026
▁የቀኝ	-12027
▁ይለያ	-12028
▁this	-12029
▁ማሳደግ	-12030
▁ሬድዋን	-12031
▁ተዘርዝ	-12032
▁የድምጽ	-12033
▁በማካሄድ	-12034
▁በዲጂታል	-12035
▁እንግዲህ	-12036
▁አላስፈላጊ	-12037
▁እንዲቀርብ	-12038
▁እንጠይቃለን	-12039
gra	-12040
ግረኛ	-12041
ፋለች	-12042
▁ብና	-12043
ባሳደር	-12044
▁ሀይሌ	-12045
▁የመታ	-12046
▁የቀይ	-12047
▁የቡድ	-12048
▁ጠንክ	-12049
▁ተቀናቃ	-12050
▁ተወሰነ	-12051
▁አመሻሽ	-12052
▁አረጋዊ	-12053
▁አስፋው	-12054
▁የታገዘ	-12055
▁የጥገና	-12056
▁የፈፀሙ	-12057
▁ይሸለሙ	-12058
▁ይገልፃ	-12059
▁ለወንዶች	-12060
▁የሚቆጠር	-12061
▁የቆየውን	-12062
▁ትገኛለች።	-12063
▁እንዲቋረጥ	-12064
▁ያሳያል፡፡	-12065
ገሌ	-12066
ንግል	-12067
▁ጋዝ	-12068
▁ይጠቅ	-12069
▁በርሊን	-12070
▁እንዳን	-12071
▁ፈጥነው	-12072
▁ለአምስት	-12073
▁ማከናወን	-12074
▁የአካዳሚ	-12075
▁መረጋገጡን	-12076
.9	-12077
ማሉ	-12078
ርም	-12079
ያኖ	-12080
ልሰን	-12081
ሞቪች	-12082
ቀጦች	-12083
ቃይት	-12084
ጋጣሚ	-12085
▁81	-12086
▁ይይ	-12087
▁ፈን	-12088
መልጠው	-12089
▁ሊወጣ	-12090
▁አፍቃ	-12091
▁እላፊ	-12092
▁ከመቼ	-12093
▁ኪዳን	-12094
▁ዞን፣	-12095
▁ሊንኩን	-12096
▁መታሰራ	-12097
▁ስልጠናው	-12098
▁አስቆጥሮ	-12099
▁የሚሆነውን	-12100
▁ፕሬዚደንት	-12101
▁የመጀመሪያዋ	-12102
ዮብ	-12103
ana	-12104
ome	-12105
ለምን	-12106
መጣም	-12107
▁ሸሽ	-12108
form	-12109
ኒስቴር	-12110
▁እናቱ	-12111
▁አብመድ	-12112
▁ጉልበት	-12113
▁አከባበር	-12114
▁እንዳላት	-12115
▁የሁለቱን	-12116
▁የመስቀል	-12117
▁ያቀረበውን	-12118
ዜና	-12119
ግሩ	-12120
ናገደ	-12121
▁de	-12122
▁ተስ	-12123
▁ኮሜ	-12124
▁የቃ	-12125
▁ጉን	-12126
መልካም	-12127
ቸስተር	-12128
▁በስር	-12129
▁አወጣ	-12130
▁እወዳ	-12131
▁ይነሳ	-12132
▁ምሥራቅ	-12133
▁በሳውዲ	-12134
▁አቻቸው	-12135
▁እንጠብ	-12136
▁ማጠናከር	-12137
▁የተቃዋሚ	-12138
▁የእንግሊ	-12139
▁በተዘጋጀው	-12140
▁እንዲያልፍ	-12141
▁እየተባባሰ	-12142
▁በተሽከርካሪ	-12143
ለህ።	-12144
ሩንዲ	-12145
ት፡፡	-12146
ፅህና	-12147
▁ቦንብ	-12148
▁አማረ	-12149
▁ወራሪ	-12150
▁ዉጤት	-12151
▁ማንበብ	-12152
▁በምንም	-12153
▁የሆነች	-12154
▁በማጣራት	-12155
▁የሆስፒታሉ	-12156
▁የተገደሉት	-12157
▁ኢትዮጵያዊው	-12158
▁የተደረገውን	-12159
ይሄ	-12160
ችው።	-12161
ኩርት	-12162
ገገም	-12163
▁ተኝ	-12164
▁ያረ	-12165
ላቸዉን	-12166
▁ሀያል	-12167
▁በርግ	-12168
▁አዳም	-12169
▁እነሆ	-12170
▁የሞተ	-12171
▁የሟች	-12172
▁ድራማ	-12173
▁ፍኖተ	-12174
laySt	-12175
▁በጅቡቲ	-12176
▁ቴክኒክ	-12177
▁አቀረቡ	-12178
▁ከቀድሞ	-12179
▁የተዘረ	-12180
▁ችሏል፡፡	-12181
▁አጀንዳዎች	-12182
▁እናውቃለን	-12183
▁ለአገልግሎት	-12184
ህጉ	-12185
መጠ	-12186
ger	-12187
ሚያስ	-12188
ቷል፤	-12189
ይናው	-12190
▁ዉጪ	-12191
▁ዲላ	-12192
በዚህም	-12193
▁ማሳለ	-12194
▁ስርአ	-12195
▁የተራ	-12196
ሚኒስትር	-12197
▁ማድሪዱ	-12198
▁በሰባት	-12199
▁እየገለ	-12200
▁ድምፃዊ	-12201
▁ምስክሮች	-12202
▁በሆነችው	-12203
▁በተመረጡ	-12204
▁አዘጋጅቶ	-12205
▁ለማስተማር	-12206
▁መነጋገሪያ	-12207
layStation	-12208
ሰሶ	-12209
▁94	-12210
▁ምሩ	-12211
▁ታጥ	-12212
▁ሀይለ	-12213
▁ሲሞቱ	-12214
▁ቀያይ	-12215
▁በበቂ	-12216
▁እስቲ	-12217
▁የቆዳ	-12218
▁የፍት	-12219
▁ጸጋዬ	-12220
▁ሳይክል	-12221
▁ቀያዮቹ	-12222
▁በዓላት	-12223
▁ተከልክ	-12224
▁ተፈጻሚ	-12225
▁አጋጥሞ	-12226
▁እያለች	-12227
▁የለንም	-12228
▁ጆንሰን	-12229
▁ህይወቱን	-12230
▁ተቆጣጣሪ	-12231
▁የጥንቃቄ	-12232
▁ከእስራኤል	-12233
▁አልነበረም።	-12234
ልዩ	-12235
ሰቧ	-12236
ግዙ	-12237
ፋል።	-12238
▁መዘግ	-12239
▁ባለዉ	-12240
▁ንረት	-12241
▁ፎቶ፦	-12242
▁ቀያቸው	-12243
▁እየገባ	-12244
▁ለመፈጸም	-12245
▁አሜሪካን	-12246
thiopia	-12247
▁አንዳንዶች	-12248
▁የፍልስፍና	-12249
ችኝ	-12250
ካዮ	-12251
har	-12252
ከፈለ	-12253
ድሪድ	-12254
ለንደን	-12255
▁ሰርቶ	-12256
▁ቀልድ	-12257
▁በስታ	-12258
▁ናፍጣ	-12259
▁አርኔ	-12260
▁አንጀ	-12261
▁አፈር	-12262
▁እየጣ	-12263
▁ላላቸው	-12264
▁በተቀሰ	-12265
▁ባለቤቱ	-12266
▁የጥራት	-12267
▁ኢንዱስት	-12268
na	-12269
ድጉ	-12270
ፕሮ	-12271
ፍራት	-12272
ፈለጉት	-12273
▁ሊዮን	-12274
▁ራዕይ	-12275
▁ተኩል	-12276
▁ክላሲ	-12277
▁ዋጋው	-12278
▁በልምድ	-12279
▁አበባው	-12280
▁ኢየሱስ	-12281
▁ከሚያስ	-12282
▁በመተከል	-12283
▁ከኤርትራ	-12284
▁ያሳለፈው	-12285
▁እንዳጋጠመው	-12286
ዝቃ	-12287
ዶሎ	-12288
ናጠል	-12289
ኛለሁ	-12290
▁ለሜ	-12291
▁ከቁ	-12292
▁ፅሁ	-12293
ቀበለው	-12294
▁ሀገሩ	-12295
▁ስታዲ	-12296
▁አቤል	-12297
▁እሮብ	-12298
▁ከቀረ	-12299
▁ይቀር	-12300
▁ሞሃመድ	-12301
▁እየወጡ	-12302
▁ካለፉት	-12303
▁የስለላ	-12304
▁ጥይቶች	-12305
ሰልጣኝነት	-12306
ደረጋቸውን	-12307
▁102.1	-12308
▁ከመጀመሪያ	-12309
▁ኢንተለጀንስ	-12310
ኤአ	-12311
የዩ	-12312
ለወጥ	-12313
ቀዱን	-12314
▁89	-12315
▁ማሬ	-12316
▁ቴፒ	-12317
ጣለች።	-12318
▁ሲኖር	-12319
▁ሲነገር	-12320
▁በጅምላ	-12321
▁አስመራ	-12322
▁አንዳች	-12323
▁በመቅረብ	-12324
▁አባላትና	-12325
▁መከላከልና	-12326
▁ማቅረባቸው	-12327
▁ምናልባትም	-12328
▁ተደምጠዋል	-12329
▁የዲኤስቲቪ	-12330
▁አስተዳደርና	-12331
09	-12332
በቀ	-12333
ውሎ	-12334
ዋሬዝ	-12335
ጋለጥ	-12336
▁ትከ	-12337
▁ኦፍ	-12338
▁ዘል	-12339
▁መቀበ	-12340
▁አከራ	-12341
▁አጋሮ	-12342
▁የውል	-12343
ማንኛውም	-12344
▁መዳረጋ	-12345
▁ስምኦን	-12346
▁በምድር	-12347
▁ተሰናብ	-12348
▁ኦሎምፒ	-12349
▁መብታቸው	-12350
▁በመገኘቱ	-12351
▁የሳምንቱ	-12352
▁እንልካለን	-12353
▁ይገባል፡፡	-12354
ወዳጁ	-12355
▁ሐሳ	-12356
▁ትሬ	-12357
▁እዉ	-12358
ረጋግጡ	-12359
ሰራበት	-12360
▁መስቀ	-12361
▁ጉርድ	-12362
▁ቆይታው	-12363
▁አድናቂ	-12364
▁ኮፒው፣	-12365
▁የካቢኔ	-12366
ብረተሰቡን	-12367
▁ለመስማት	-12368
▁ማድረግያ	-12369
▁በመግደል	-12370
▁መስተዳድሩ	-12371
▁አሸናፊነት	-12372
▁እየተደረጉ	-12373
▁ከአርሰናል	-12374
▁የኮሙኒኬሽን	-12375
▁ዩኒቨርስቲው	-12376
po	-12377
ሲካ	-12378
ቁ።	-12379
aga	-12380
ham	-12381
ታሉ።	-12382
ጽህና	-12383
ፓርድ	-12384
▁ቢጫ	-12385
▁ሌቨር	-12386
▁ስላሉ	-12387
▁ስሎት	-12388
▁ቦምብ	-12389
▁ከህግ	-12390
▁ተመራጭ	-12391
▁አንጋፋ	-12392
▁ዕጣዎች	-12393
▁የህንድ	-12394
▁የቆዩት	-12395
▁የባሎን	-12396
▁የአፈር	-12397
outube	-12398
▁ተመልሰው	-12399
▁ተጎጂዎች	-12400
▁አደጋውን	-12401
▁የሚያግዝ	-12402
▁ማጭበርበር	-12403
▁አይችልም።	-12404
▁ወረርሽኝን	-12405
▁ያለባቸውን	-12406
▁ተመልሰዋል።	-12407
84	-12408
ሲፕ	-12409
ዘም	-12410
ረከበ	-12411
ወደው	-12412
▁ሞን	-12413
▁እጃ	-12414
ከፈለው	-12415
▁በድል	-12416
▁3:00	-12417
▁ለማገዝ	-12418
▁ሰከንድ	-12419
▁ስሜነህ	-12420
▁በተሰኘ	-12421
▁ማድረሱን	-12422
▁የተሰማው	-12423
▁የተባለች	-12424
▁የነበረች	-12425
▁የጎንዮሽ	-12426
▁በደረሰበት	-12427
▁ፕሮፌሰርነት	-12428
▁በንግግራቸውም	-12429
ማቱ	-12430
ጅራ	-12431
በላሸ	-12432
ፈተን	-12433
ጣሚዎች	-12434
▁በገዛ	-12435
▁ችግኝ	-12436
▁አጥር	-12437
▁ከቦሌ	-12438
▁ከጫፍ	-12439
▁የኢድ	-12440
▁መመልከ	-12441
▁ተሻጋሪ	-12442
▁ተዋናይ	-12443
▁ናቸዉ።	-12444
▁አስከት	-12445
▁ወሬዎች	-12446
▁የመጡት	-12447
▁የሸገር	-12448
▁Afric	-12449
▁በአማርኛ	-12450
▁የሽልማት	-12451
▁አውስትራሊያ	-12452
▁የተናገሩት።	-12453
Ti	-12454
ea	-12455
ፕት	-12456
444	-12457
ሜናዊ	-12458
ምባብ	-12459
ዊነት	-12460
▁al	-12461
ገኝነት	-12462
▁ለአል	-12463
▁ኮሌጁ	-12464
▁ድምር	-12465
▁ቤቶች፣	-12466
▁ተሰማ።	-12467
▁ተገቢው	-12468
▁ኖርዊች	-12469
▁ከክልል	-12470
▁የግድቡ	-12471
▁ይመስለ	-12472
▁መጨመሪያ	-12473
▁ሲመለከት	-12474
▁እየተሸጠ	-12475
▁እጃቸውን	-12476
▁የሚጠራው	-12477
▁የጠቀሱት	-12478
▁በትዕግስት	-12479
▁ባለሥልጣኑ	-12480
▁የአስገድዶ	-12481
▁ተወዳዳሪዎች	-12482
▁እናቀርባለን	-12483
ምቢ	-12484
ሪኮ	-12485
ሽር	-12486
ብሎ	-12487
ዘና	-12488
ጂን	-12489
/60	-12490
ገበር	-12491
▁ማል	-12492
▁ፀጋ	-12493
▁ማክስ	-12494
▁በእራ	-12495
▁ንዋይ	-12496
▁እያየ	-12497
▁ወያነ	-12498
▁በነዚህ	-12499
▁በፊትም	-12500
▁ከሰሜን	-12501
▁ከአደጋ	-12502
▁የግብር	-12503
▁ፊልሞች	-12504
▁ማለታቸው	-12505
▁ስንታየሁ	-12506
▁በሚደረግ	-12507
▁በተዘጋጀ	-12508
▁ዓመታትን	-12509
▁የእሳትና	-12510
▁ፈላጊዎች	-12511
▁እንደሆነና	-12512
▁እየተሰራጨ	-12513
ይዙ	-12514
ቋርጥ	-12515
ዉጣት	-12516
ጀዚራ	-12517
ፈተና	-12518
▁ሪቻ	-12519
▁ሲመ	-12520
▁አቀር	-12521
▁የራቀ	-12522
▁የኋላ	-12523
▁ጅፋር	-12524
▁በመቅረ	-12525
▁ታይምስ	-12526
▁101.1	-12527
▁ለመለየት	-12528
▁ባቀረበው	-12529
▁ተሳትፎን	-12530
▁አይሆንም	-12531
▁ማስተላለፍ	-12532
መዱ	-12533
ረዉ	-12534
ራዝ	-12535
ሰራር	-12536
ወቁት	-12537
▁my	-12538
▁በጆ	-12539
ወሰዱት	-12540
ጻሚዎች	-12541
▁ለማዳ	-12542
▁ልደቱ	-12543
▁የግን	-12544
ደረጋችሁ	-12545
▁ሕገወጥ	-12546
▁ተባለ።	-12547
▁የወቅቱ	-12548
▁ዓመታቸው	-12549
▁የፈፀመው	-12550
▁ያስፈልገ	-12551
▁ትምህርቱን	-12552
ሽና	-12553
ን።	-12554
አም	-12555
ለቀው	-12556
ረናል	-12557
ኤታው	-12558
▁ሌሊ	-12559
▁ቀው	-12560
▁ብሪ	-12561
▁ዳታ	-12562
▁መቃወ	-12563
▁ሰራተ	-12564
▁በህዝ	-12565
ement	-12566
ጅስትራር	-12567
▁ለማቆም	-12568
▁ለአለም	-12569
▁በሊቨር	-12570
▁ከድርጊ	-12571
▁ያስታወ	-12572
▁በማምጣት	-12573
▁አቋርጠው	-12574
▁ክስተቶች	-12575
▁የመደበኛ	-12576
▁ፋብሪካው	-12577
▁በባህርዳር	-12578
▁እንግሊዛዊ	-12579
▁ከተደረገው	-12580
▁ዋንጫዎችን	-12581
▁የመድኃኒት	-12582
▁የማስታወቂያ	-12583
▁አይዘነጋም፡፡	-12584
Al	-12585
CE	-12586
ቱና	-12587
ራረብ	-12588
▁አሪ	-12589
▁12.	-12590
▁ልገሳ	-12591
▁የቻሉ	-12592
▁የጥር	-12593
▁ገበሬ	-12594
▁መፈራረ	-12595
▁ስንተኛ	-12596
▁በህጋዊ	-12597
▁አያይዞ	-12598
▁ኬንያታ	-12599
▁ይበልጣ	-12600
▁መሆናቸዉን	-12601
▁ለማስተካከል	-12602
gh	-12603
ጅና	-12604
ገዘ	-12605
ari	-12606
ጨረታ	-12607
▁በኔ	-12608
▁በፌ	-12609
▁ከቱ	-12610
ቋረጠው	-12611
ናቸውም	-12612
▁መገን	-12613
▁ተቸግ	-12614
▁ኦማር	-12615
▁ይገመ	-12616
▁ግርዶ	-12617
▁በማረሚያ	-12618
▁በንግግር	-12619
▁የካንሰር	-12620
▁አቅራቢዎች	-12621
▁አይደለሁም	-12622
▁የከተማዋን	-12623
ንች	-12624
መልሱ	-12625
ንጀሉ	-12626
አቸው	-12627
ጠባበቁ	-12628
▁ቦረና	-12629
▁ለመሆኑ	-12630
▁ነባራዊ	-12631
▁እስኪያ	-12632
▁ከሊቨር	-12633
▁ክምችት	-12634
▁ዕለታት	-12635
▁ዘወትር	-12636
▁ማመልከቻ	-12637
▁በሪፖርቱ	-12638
▁እያደረሰ	-12639
▁ዋትፎርድ	-12640
ሔድ	-12641
ሬሽ	-12642
ሬተር	-12643
ሰጡት	-12644
ሳሌም	-12645
ገደብ	-12646
ፊሻል	-12647
▁ከዚ	-12648
▁ኮል	-12649
▁ግኝ	-12650
▁ጎፋ	-12651
▁ክፍሉ	-12652
▁ወድቆ	-12653
▁ሊባኖስ	-12654
▁መቋቋም	-12655
▁በአበረ	-12656
▁በግቢው	-12657
▁በፖስታ	-12658
▁የታክሲ	-12659
▁በጉባኤው	-12660
▁አብዱላሂ	-12661
▁ይኖረዋል	-12662
▁እንዳይጎዳ	-12663
▁ኢትዮጵያውያንን	-12664
ስቱም	-12665
ዲያን	-12666
ጨበጫ	-12667
▁መሻ	-12668
▁በኬ	-12669
▁በጨ	-12670
▁የኒ	-12671
ፃሚዎች	-12672
▁ሂሩት	-12673
▁ቢባል	-12674
▁ታካሚ	-12675
▁ፕሮፌ	-12676
▁ቴአትር	-12677
▁ከህዳር	-12678
▁የአስራ	-12679
▁ለዘመናት	-12680
▁ሽንፈትን	-12681
▁ወረርሽኙ	-12682
▁የበኩሉን	-12683
▁የችርቻሮ	-12684
▁ጋርድዮላ	-12685
▁ያለአግባብ	-12686
▁መቁሰላቸውን	-12687
ሙም	-12688
ጻፈ	-12689
ነትም	-12690
▁ተዓ	-12691
▁ካቴ	-12692
ውያንን	-12693
▁ስኮት	-12694
▁የቢሮ	-12695
▁የአጥ	-12696
▁ገበያው	-12697
▁ሰልፈኞች	-12698
▁በመክፈት	-12699
▁ለመነጋገር	-12700
▁መጀመራቸው	-12701
▁ተሰማርተው	-12702
▁የሚሰጥበት	-12703
ርሞ	-12704
ሰተ	-12705
ንጣ	-12706
ጋብ	-12707
ርቱም	-12708
▁ከቻ	-12709
ound	-12710
▁መመስ	-12711
▁መስማ	-12712
▁ሚያሚ	-12713
▁ምሰሶ	-12714
▁ስራይ	-12715
▁ኢንዞ	-12716
▁ከውጪ	-12717
▁ያሳየ	-12718
▁ያበቃ	-12719
▁ግዙፉ	-12720
ering	-12721
ቃለች፡፡	-12722
▁ሌተናል	-12723
▁ቅርሶች	-12724
▁በረሃብ	-12725
▁ባልሆነ	-12726
▁አመቱን	-12727
▁የሚታዩ	-12728
▁የጉራጌ	-12729
▁ሊያደርጉ	-12730
▁ስለዚህም	-12731
▁ትዕግስት	-12732
▁ሀገራችንን	-12733
▁እየተስፋፋ	-12734
▁አድርጋለች።	-12735
ts	-12736
ናቴ	-12737
ከሙ	-12738
ስቴን	-12739
ጠየቀ	-12740
▁ሴኔ	-12741
▁ቢስ	-12742
▁man	-12743
▁ሕንጻ	-12744
▁መለቀ	-12745
▁ሲመጡ	-12746
▁አላስ	-12747
▁አዳነ	-12748
▁ወረቀ	-12749
▁የሌላ	-12750
▁3000	-12751
▁ርክክብ	-12752
▁በሜዳው	-12753
▁በኳታር	-12754
▁እንያዝ	-12755
▁ፍርሃት	-12756
▁09539	-12757
▁መወሰዱን	-12758
▁ሲከታተሉ	-12759
▁በመረዳት	-12760
▁በጥልቀት	-12761
▁ንግግሮች	-12762
▁እየቀረበ	-12763
▁ክፍሎችን	-12764
▁የሚጀምር	-12765
▁የብራዚል	-12766
▁መንግስትና	-12767
▁የተጠየቁት	-12768
ሳም	-12769
፣አ	-12770
▁ዞኑ	-12771
ራክሽን	-12772
ቃለን።	-12773
ዝቦላህ	-12774
▁2-2	-12775
▁ከግል	-12776
▁ቦታችን	-12777
▁ያለችው	-12778
▁ማቅረቡን	-12779
▁ተጠልለው	-12780
▁የሚገልፅ	-12781
▁የማይችሉ	-12782
▁የማይችል	-12783
▁የአመራር	-12784
ሚዝ	-12785
ሰሉ	-12786
ቆብ	-12787
ውር	-12788
▁ለዉ	-12789
▁መዓ	-12790
▁350	-12791
▁ሲወጡ	-12792
▁ስህተ	-12793
▁አሳክ	-12794
▁አቅን	-12795
▁አዋቂ	-12796
▁ከሞት	-12797
▁ኮንዶ	-12798
▁የውኃ	-12799
▁የደሴ	-12800
▁ይዞት	-12801
▁ጅማሮ	-12802
▁ሲቀጥል	-12803
▁በሚዲያ	-12804
▁ተቋቁሞ	-12805
▁እንመኛ	-12806
▁የደሞዝ	-12807
▁ደንበኛ	-12808
▁ጀመረ።	-12809
▁ለማስፈን	-12810
▁መተማመን	-12811
▁ማጠቃለያ	-12812
▁አስባለሁ	-12813
▁መስተፋቅር	-12814
▁ግንኙነትና	-12815
▁አስገንዝበዋል።	-12816
ሁሩ	-12817
und	-12818
መቻች	-12819
ፃፈው	-12820
▁ትብ	-12821
▁ጫት	-12822
▁በቆይ	-12823
▁ኑኔዝ	-12824
▁ፒያሳ	-12825
64175	-12826
▁ለሚመጡ	-12827
▁በንፋስ	-12828
▁ተዘግቶ	-12829
▁እንሰጣ	-12830
▁ክፍፍል	-12831
▁የትርፍ	-12832
▁ባለሙያው	-12833
▁የተጠበቀ	-12834
▁ትምህርትና	-12835
▁የፌዴሬሽን	-12836
▁ማስረጃዎችን	-12837
▁ትክክለኛውን	-12838
▁0953964175	-12839
ራፊ	-12840
ግቡ	-12841
ለጠኑ	-12842
ዳሉ።	-12843
▁በጌ	-12844
ress	-12845
ደንጋጭ	-12846
▁091	-12847
▁ሌሎቹ	-12848
▁ብር፣	-12849
ንቀሳቀሰ	-12850
▁ሀላፊው	-12851
▁ያለንን	-12852
▁ይለኛል	-12853
▁ጭንቅላ	-12854
▁ማስጨበጫ	-12855
▁በምሥራቅ	-12856
▁ነበራቸው	-12857
▁ከተማዋን	-12858
▁ውይይቶች	-12859
▁የመሳሰሉ	-12860
▁የምትገኙ	-12861
▁የተካተቱ	-12862
▁የተደራጀ	-12863
▁ሰማያዊዎቹ	-12864
▁በተጠቀሰው	-12865
▁መልዕክቶችን	-12866
ጥላ	-12867
:15	-12868
ራችሁ	-12869
ቋቸው	-12870
ደረው	-12871
▁en	-12872
▁ማጽ	-12873
▁ከኔ	-12874
▁ከዶ	-12875
▁ፈለ	-12876
▁ዓቃቤ	-12877
▁ያካሂ	-12878
▁ጠይቆ	-12879
▁ሰውየው	-12880
▁በምሽቱ	-12881
▁በቅድመ	-12882
▁በዋናው	-12883
▁አውቶቡ	-12884
▁እየመጣ	-12885
▁በሜዳቸው	-12886
▁እንድታደርጉ	-12887
▁............	-12888
▁(3	-12889
▁ሉክ	-12890
▁ሰፋ	-12891
▁ያፈ	-12892
▁ጉቦ	-12893
▁ማዋል	-12894
▁ቫሌን	-12895
▁ነች።	-12896
▁ነን።	-12897
ገጣጠሚያ	-12898
▁ተጠቅሞ	-12899
▁አከናው	-12900
▁እነሱን	-12901
▁ወልድያ	-12902
▁ጥንካሬ	-12903
▁ስርዓትን	-12904
▁ቆይታቸው	-12905
▁በመምጣቱ	-12906
▁ለማዘጋጀት	-12907
▁እንዲሰፍን	-12908
▁እንዲከፍሉ	-12909
▁የኦሎምፒክ	-12910
▁ህይወታቸዉን	-12911
▁ማስፈረማቸውን	-12912
mb	-12913
ሱዙ	-12914
ናፍ	-12915
▁ተዘ	-12916
▁ይሞ	-12917
▁አይቶ	-12918
▁የካሜ	-12919
▁የፊፋ	-12920
▁ገፅታ	-12921
▁ጉንዶ	-12922
ሬዝዳንቱ	-12923
ስተናገዱ	-12924
▁ለታሰረ	-12925
▁ማክበር	-12926
▁ትልቁን	-12927
▁ፖላንድ	-12928
▁ስልኮችን	-12929
▁ተበርክቶ	-12930
▁ውሳኔዎችን	-12931
▁የሚችለውን	-12932
ላሎች	-12933
ዚክስ	-12934
ጉባኤ	-12935
ዘርጋት	-12936
▁ማሊያ	-12937
▁ማራኪ	-12938
▁ማቋቋ	-12939
▁በአር	-12940
▁በየዕ	-12941
▁2025	-12942
▁ማርሻል	-12943
▁ማዘጋጀ	-12944
▁ታግተው	-12945
▁አላማጣ	-12946
▁አጠናቆ	-12947
▁ክልልን	-12948
▁ዘመቻው	-12949
▁አንስተው	-12950
▁የሴርያው	-12951
▁የምትገኘው	-12952
▁ይጠናቀቃል	-12953
▁ምሳ	-12954
ተላለፍ	-12955
▁1.5	-12956
▁ለሴት	-12957
▁ሠናይ	-12958
▁አሟል	-12959
▁የማነ	-12960
▁ይሳተ	-12961
▁2018	-12962
▁ለሚያስ	-12963
▁ለበላው	-12964
▁መዝገቡ	-12965
▁ሻሸመኔ	-12966
▁ትንታኔ	-12967
▁አስርት	-12968
▁ዛሬውኑ	-12969
▁ለሶስተኛ	-12970
▁በመክፈል	-12971
▁እነዲፈታ	-12972
▁የተገነባ	-12973
▁ዶክተሮች	-12974
▁የተገለፀው።	-12975
ኒቲ	-12976
ዳኑ	-12977
rat	-12978
ከረው	-12979
▁96	-12980
▁ላን	-12981
▁ልቤ	-12982
▁ቪያ	-12983
ents	-12984
ነስተኛ	-12985
▁መጓዝ	-12986
▁ሠዓት	-12987
▁አሳድ	-12988
▁ከፊት	-12989
▁የኢኖ	-12990
▁ዳይክ	-12991
▁በስጦታ	-12992
▁በግማሽ	-12993
▁ተወስኖ	-12994
▁ተወያዩ	-12995
▁አለ፡፡	-12996
▁አደረሰ	-12997
▁ወታደሮ	-12998
▁ደርሰው	-12999
▁መካከልም	-13000
▁ከመቼውም	-13001
▁የመፈተኛ	-13002
▁የሚያወጡ	-13003
▁ለመመስረት	-13004
▁አጠናቋል።	-13005
▁የላቦራቶሪ	-13006
▁የዓለማችን	-13007
▁የተቀላቀለው	-13008
▁አስታውቃለች።	-13009
,4	-13010
ርዲ	-13011
ዉሉ	-13012
▁ሚዛ	-13013
▁ሜት	-13014
▁ጫላ	-13015
▁ባጃጅ	-13016
▁ተሟጋ	-13017
▁አራዝ	-13018
▁ኢምባሲ	-13019
▁የሙቀት	-13020
▁የጉዳት	-13021
▁ፓርኮች	-13022
▁ልጆቻቸው	-13023
▁የልምምድ	-13024
▁የምትችሉ	-13025
▁የዘገበው	-13026
▁በመተላለፍ	-13027
▁ተጠቃሚነት	-13028
▁አንዳርጋቸው	-13029
ረኝ	-13030
ዶክ	-13031
ርሽኙ	-13032
ሻሻለ	-13033
ኒያም	-13034
▁ቆዳ	-13035
▁ቨለ	-13036
▁ደጃ	-13037
▁ፍን	-13038
ባንያው	-13039
▁all	-13040
▁ለትራ	-13041
▁ሥጋት	-13042
▁ሲችል	-13043
▁በተቀ	-13044
▁ከህወ	-13045
▁የፈረ	-13046
▁መስኮቱ	-13047
▁መዝናኛ	-13048
▁በቡድኑ	-13049
▁ከሆኑት	-13050
▁የወሰደ	-13051
▁ለመክፈት	-13052
▁እየወሰደ	-13053
,8	-13054
ጭሩ	-13055
ፀን	-13056
ሃል።	-13057
ይህን	-13058
ጋለጡ	-13059
ፍረው	-13060
ኒቶችን	-13061
▁በባህ	-13062
▁ከመጣ	-13063
▁የዋሉ	-13064
▁ድካም	-13065
▁ጠቀሜታ	-13066
በኢትዮጵያ	-13067
▁መሰጠቱን	-13068
▁ከሀገሪቱ	-13069
▁የሚሰራው	-13070
▁የተሰማራ	-13071
▁የፓለቲካ	-13072
▁ማስተናገድ	-13073
▁ተሳፋሪዎች	-13074
▁አግባብነት	-13075
▁ተዘርዝረዋል	-13076
▁እንደነበርም	-13077
▁የቤኒሻንጉል	-13078
ነፍ	-13079
ይቼ	-13080
ፃን	-13081
▁ማካ	-13082
▁ሲም	-13083
▁ዋይ	-13084
ሪስቶች	-13085
በረታታ	-13086
▁በበር	-13087
▁በገለ	-13088
▁ቲያጎ	-13089
▁አውጪ	-13090
▁ከገቡ	-13091
▁ውጥር	-13092
▁የኤች	-13093
▁ያለማ	-13094
▁ጓደኞ	-13095
▁ፖርቶ	-13096
ገራችንን	-13097
▁ለመጣል	-13098
▁መፈጸም	-13099
▁በአቃቂ	-13100
▁በእለቱ	-13101
▁አጋሮች	-13102
▁እየሄደ	-13103
▁ከነሐሴ	-13104
▁የባጃጅ	-13105
▁የታክስ	-13106
▁ጊዜውን	-13107
▁ፍቅርን	-13108
▁ብስክሌት	-13109
▁ያሉበትን	-13110
▁በማረጋገጥ	-13111
▁አክለዋል፡፡	-13112
ለዩ	-13113
ሐን	-13114
ናል፤	-13115
ይናን	-13116
ገሩን	-13117
▁ሥጋ	-13118
▁ከሩ	-13119
▁ከቢ	-13120
ገኝበት	-13121
▁app	-13122
▁ምኞት	-13123
▁ተገም	-13124
▁ንጉሱ	-13125
▁ወስኖ	-13126
▁ዘርፈ	-13127
▁የሱፍ	-13128
▁ሊከሰት	-13129
▁መሥራት	-13130
▁ማቋቋም	-13131
▁ከሪያል	-13132
▁ከቼልሲ	-13133
▁የሚጠቀ	-13134
▁መተግበር	-13135
▁በሌሎችም	-13136
▁የተወሰዱ	-13137
▁በማሰባሰብ	-13138
▁በፕርሚየር	-13139
▁የደረሰባቸውን	-13140
ሌላ	-13141
ጠፈ	-13142
ጥና	-13143
መሩን	-13144
ጨርስ	-13145
▁በያ	-13146
▁ብቅ	-13147
▁ከሶ	-13148
▁ፍላ	-13149
▁ለቅሶ	-13150
▁መገኛ	-13151
▁ስለው	-13152
▁ቤትም	-13153
▁ተፈሪ	-13154
ባባሪዎች	-13155
▁መከበር	-13156
▁በአሶሳ	-13157
▁ተቀምጦ	-13158
▁አስመስ	-13159
▁አዳጋች	-13160
▁ከምንም	-13161
▁የዋለው	-13162
▁ያለነው	-13163
በቴሌግራም	-13164
▁መፅሀፍት	-13165
▁አጋርነት	-13166
▁ኢማኑኤል	-13167
▁የማግኘት	-13168
▁ይመለሳል	-13169
▁ሁለንተናዊ	-13170
▁እንደሚያሳየው	-13171
ብያ	-13172
ጉላ	-13173
ቆጠረ	-13174
▁ኤፌ	-13175
▁ካሊ	-13176
▁ግቡ	-13177
ማርቆስ	-13178
ባይደን	-13179
ዛምቢክ	-13180
ጠይቀው	-13181
ፋለች።	-13182
▁ሀሰት	-13183
▁ሴኔት	-13184
▁ብሩን	-13185
▁ከሰኞ	-13186
▁ደረጀ	-13187
▁ጋሪዝ	-13188
ስተፋቅር	-13189
▁ቀጣናዊ	-13190
▁በርከት	-13191
▁በበይነ	-13192
▁በአመት	-13193
▁ወንጀሉ	-13194
▁107.8	-13195
▁መሰናክል	-13196
▁ማደያዎች	-13197
▁ሞተዋል።	-13198
▁ስለሚችል	-13199
▁በግንቦት	-13200
▁ለተፈጠረው	-13201
▁መግባታቸው	-13202
▁እንዲያቀርቡ	-13203
▁የበላይነትን	-13204
▁ዲሞክራሲያዊ	-13205
ክህ	-13206
ዎል	-13207
ረበሽ	-13208
▁do	-13209
▁አውደ	-13210
▁ዋይት	-13211
▁ያውቁ	-13212
▁ገጽታ	-13213
▁ሀገሮች	-13214
▁መላኩን	-13215
▁ቢሆንም፣	-13216
▁ኤምባሲው	-13217
▁እስከዛሬ	-13218
▁እንደሆን	-13219
▁ካውንስል	-13220
▁ለማስቀረት	-13221
▁እንዲሳተፉ	-13222
▁የማመልከቻ	-13223
በዙ	-13224
በድ	-13225
መረቅ	-13226
ቀናህ	-13227
ኖራት	-13228
ዝናኛ	-13229
ጋጥሙ	-13230
▁ሳሉ	-13231
▁ኬሚ	-13232
▁ወጭ	-13233
▁ጉም	-13234
amil	-13235
ራል፡፡	-13236
▁ማዳን	-13237
▁ባንድ	-13238
▁አቅሙ	-13239
▁ዓርብ	-13240
በተጨማሪ	-13241
▁ለምክር	-13242
▁ማትረፍ	-13243
▁በመቀሌ	-13244
▁ብቻውን	-13245
▁ተሳፋሪ	-13246
▁እጃቸው	-13247
▁ከአስራ	-13248
▁የታሪፍ	-13249
▁ሴሚስተር	-13250
▁አድርጎታል	-13251
▁እንደመሆኑ	-13252
▁እንደሚገኙበት	-13253
ስ፣	-13254
ሰማት	-13255
ሰቡት	-13256
ስቲን	-13257
ንፈኛ	-13258
ገኙም	-13259
▁ወፍ	-13260
hone	-13261
▁መጠቃ	-13262
▁አድሃ	-13263
▁ከመን	-13264
▁ከአባ	-13265
▁የአት	-13266
▁የድል	-13267
▁ጸሐፊ	-13268
ነበረበት	-13269
▁comp	-13270
▁ሃሳቦች	-13271
▁መስጠቱ	-13272
▁ስራቸው	-13273
▁በተሳካ	-13274
▁ወጣቶቹ	-13275
▁ግጭቱን	-13276
▁ማድረጊያ	-13277
▁እንደምና	-13278
▁የሚፈጥር	-13279
▁የጎደለው	-13280
ረዘ	-13281
ሲሲ	-13282
ዕም	-13283
per	-13284
ምበር	-13285
ያትር	-13286
▁ዕዳ	-13287
▁የሎ	-13288
ተዳደር	-13289
ደረሱን	-13290
▁ሲጋራ	-13291
▁በሚፈ	-13292
▁ከምር	-13293
▁የከረ	-13294
▁ይወሰ	-13295
▁በዘጠኝ	-13296
▁ይኖርባ	-13297
▁ለማንሳት	-13298
▁መመሪያው	-13299
▁በጅግጅጋ	-13300
▁እባካችሁ	-13301
▁የማህበሩ	-13302
▁የተደራጁ	-13303
▁የክትትል	-13304
▁ያነጣጠረ	-13305
▁ሉዓላዊነት	-13306
▁እየተዘጋጀ	-13307
▁እየተፈጸመ	-13308
▁ወንጀሎችን	-13309
▁ፕሬዝዳንታዊ	-13310
-9	-13311
ሰሰ	-13312
ከነ	-13313
ጋታ	-13314
ላሩስ	-13315
ዛጋቢ	-13316
ደናቀ	-13317
▁መቸ	-13318
▁መያ	-13319
▁ረብ	-13320
▁እች	-13321
ቀርበው	-13322
ንግስታ	-13323
▁128	-13324
▁ወልዴ	-13325
ሰባቸውን	-13326
ተናል፡፡	-13327
▁ሲጠበቅ	-13328
▁በሸገር	-13329
▁በባንክ	-13330
▁አባወራ	-13331
▁ዓመትና	-13332
▁የቀያይ	-13333
▁በሳይንስ	-13334
▁አጠናቀው	-13335
▁ኢንቨስት	-13336
ንስትራክሽን	-13337
▁አስታወቀች	-13338
ተማ	-13339
ታቱ	-13340
ታፊ	-13341
ንኮ	-13342
ለንም	-13343
ባለች	-13344
ኪናፋ	-13345
ዘረጋ	-13346
ገወጥ	-13347
ፋቱን	-13348
▁ሸኮ	-13349
▁እጁ	-13350
osit	-13351
ሰበሰብ	-13352
ጠብቀው	-13353
▁ሜንዲ	-13354
▁ተንታ	-13355
▁የተተ	-13356
▁መምጣቱ	-13357
▁መካሄድ	-13358
▁በመኖሩ	-13359
▁አካታች	-13360
▁ወልዲያ	-13361
▁የማይታ	-13362
▁የዜጎች	-13363
▁ገብነት	-13364
▁የሚችሉት	-13365
▁የአክሱም	-13366
▁ደርሰዋል	-13367
▁የተጫዋቹን	-13368
▁ተፈናቃዮችን	-13369
54	-13370
ርቱ	-13371
ጋባ	-13372
250	-13373
ትረፍ	-13374
ክሪን	-13375
ጡንቻ	-13376
▁pr	-13377
▁ኤድ	-13378
▁እሴ	-13379
▁ውህ	-13380
▁የጌ	-13381
ናገረው	-13382
ከርካሪ	-13383
ገባችን	-13384
▁ሴንት	-13385
▁አጣጥ	-13386
▁ይወዳ	-13387
▁ጨለማ	-13388
▁0911	-13389
▁birr	-13390
▁በህይወ	-13391
▁አለችኝ	-13392
▁የሆነዉ	-13393
▁ለመወሰን	-13394
▁መፈናቀል	-13395
▁በመወከል	-13396
▁እንዲመጣ	-13397
▁ከስምንት	-13398
▁ከውድድሩ	-13399
▁ያሸንፋል	-13400
▁ግብዓቶች	-13401
▁እየተሳተፉ	-13402
▁ገልጻለች።	-13403
76	-13404
cc	-13405
ትንም	-13406
ዝማች	-13407
▁ታብ	-13408
▁ታድ	-13409
▁ንድ	-13410
▁እደ	-13411
▁ፍጡ	-13412
ተዋል፤	-13413
ኖሩበት	-13414
ፈጸሙት	-13415
▁ከማይ	-13416
▁ከእኔ	-13417
▁ወዳድ	-13418
▁የለሽ	-13419
▁ለጉዳዩ	-13420
▁ማሳለፍ	-13421
▁በሰፊው	-13422
▁የሚከለ	-13423
▁የተጠቁ	-13424
▁የድሮን	-13425
▁ጠይቀው	-13426
እንዲቀናህ	-13427
▁ለመናገር	-13428
▁ለማስቻል	-13429
▁ሽልማቱን	-13430
▁በለንደን	-13431
▁በቀጠናው	-13432
▁በየዕለቱ	-13433
▁እንደራሴ	-13434
▁ወገኖችን	-13435
▁ያደርጋሉ።	-13436
▁የኢሚግሬሽን	-13437
▁ኃላፊነታቸውን	-13438
ተዋ	-13439
በጣም	-13440
ኖቹን	-13441
ደበቅ	-13442
ጥራት	-13443
ፈተኑ	-13444
▁ማሊ	-13445
▁ፀጉ	-13446
▁፣በ	-13447
ቀመጡት	-13448
▁በአካ	-13449
▁በዋግ	-13450
▁ተነሳ	-13451
▁አሪፍ	-13452
▁ወዴት	-13453
▁ይሰጥ	-13454
▁ይታመ	-13455
▁ጎረቤ	-13456
25190	-13457
▁ለቀለም	-13458
▁መወጣት	-13459
▁መጋዘን	-13460
▁ማሟላት	-13461
▁ከኢትዮ	-13462
▁የሀሳብ	-13463
▁የሞተር	-13464
▁ገብቷል	-13465
▁የተሰራው	-13466
▁ማስተካከል	-13467
▁በማጠናከር	-13468
ቀጡ	-13469
ብጥ	-13470
ኝ፣	-13471
hel	-13472
ሀንስ	-13473
ሮች፣	-13474
ያቸዉ	-13475
▁ጎራ	-13476
▁ኦዲት	-13477
▁ክንፍ	-13478
▁ጉዳፍ	-13479
▁ጸሎት	-13480
▁8:00	-13481
▁ሀገርን	-13482
▁ሃሰተኛ	-13483
▁ዝግጅቱ	-13484
▁የአረብ	-13485
▁ከሶማሊያ	-13486
▁እንዲያቆሙ	-13487
▁እንዲጠብቁ	-13488
▁ሕይወታቸውን	-13489
▁እንዲከታተሉ	-13490
▁የተማሪዎችን	-13491
59	-13492
ህ፣	-13493
ንስቲት	-13494
ጠናክር	-13495
▁110	-13496
▁13.	-13497
▁ለወጣ	-13498
▁ሐገር	-13499
▁መሳይ	-13500
▁ራይስ	-13501
▁አዝማ	-13502
▁እራት	-13503
▁Tech	-13504
▁ሀኪሞች	-13505
▁ለደንበ	-13506
▁በመቶው	-13507
▁ተመለሱ	-13508
▁ተጣርቶ	-13509
▁የቦምብ	-13510
▁የገቡት	-13511
▁ድርድሩ	-13512
▁እንቁላል	-13513
▁እንዳለፈ	-13514
▁የሚያበቃ	-13515
▁የተቋረጠ	-13516
▁ሰርተፊኬት	-13517
▁በመስከረም	-13518
▁አካባቢዎችን	-13519
▁እንቅስቃሴዎችን	-13520
78	-13521
ባታ	-13522
ለጠነ	-13523
ግሩም	-13524
▁ማወ	-13525
▁በሄ	-13526
▁ተረ	-13527
▁ከሻ	-13528
ቸዋለሁ	-13529
▁ለመሰ	-13530
▁ለመው	-13531
▁ቢሊየ	-13532
▁የዋና	-13533
▁ያሳስ	-13534
▁ፍልሰ	-13535
sport	-13536
በረታታት	-13537
▁ለጠላት	-13538
▁ምኒልክ	-13539
▁ምግብና	-13540
▁በአንጻ	-13541
▁አሉ፡፡	-13542
▁ከሰባት	-13543
▁ካሜሮን	-13544
▁ምርጫውን	-13545
▁ባቀረቡት	-13546
▁ባዘጋጀው	-13547
▁የሚነግር	-13548
▁የሚመለከት	-13549
▁ህብረተሰቡን	-13550
ልዎ	-13551
ሐት	-13552
ዘበ	-13553
ጠዉ	-13554
ምናው	-13555
▁ቅጽ	-13556
▁ቶኒ	-13557
▁ገዱ	-13558
ሳምንቱ	-13559
▁ለመም	-13560
▁ሲሄዱ	-13561
▁ሲጓዙ	-13562
▁ብልት	-13563
▁እኤአ	-13564
▁የጫኑ	-13565
▁ግቢው	-13566
▁በደረሱ	-13567
▁ኢብራሂ	-13568
▁ከዋናው	-13569
▁ላምፓርድ	-13570
▁በእምነት	-13571
▁በወንዶች	-13572
▁ብርቱካን	-13573
▁አመታትን	-13574
▁አደረጃጀ	-13575
▁አደረገ።	-13576
▁የሚካሄዱ	-13577
▁የሚያደር	-13578
▁በስምምነት	-13579
▁መጠየቃቸውን	-13580
▁ክርስቲያናት	-13581
ንፃ	-13582
ካዊ	-13583
ጤን	-13584
ong	-13585
ቀምቴ	-13586
▁ቀለ	-13587
▁ባም	-13588
▁ትው	-13589
▁መባሉ	-13590
▁ኤምሬ	-13591
▁ከሥራ	-13592
▁ከፍቶ	-13593
▁የበር	-13594
▁ማግስት	-13595
▁ሥርዓቱ	-13596
▁ቆይተው	-13597
▁በማዋል	-13598
▁ከወሰዱ	-13599
▁የሚሰማ	-13600
▁ጁሊያን	-13601
▁ፍራንስ	-13602
▁በመፈጸም	-13603
▁ተይዘዋል	-13604
▁ኔትዎርክ	-13605
▁አምነስቲ	-13606
▁ወርቅነህ	-13607
▁የተናገሩ	-13608
▁ዴንማርክ	-13609
▁ማጠናቀቁን	-13610
▁ባለሃብቶች	-13611
ኝና	-13612
መረጥ	-13613
ሳስባ	-13614
▁ራማ	-13615
▁ይላ	-13616
,500	-13617
▁ላንድ	-13618
▁ልደት	-13619
▁አዎን	-13620
▁የዞን	-13621
▁ዱቄት	-13622
▁ግብአ	-13623
▁ቆንስላ	-13624
▁አስመጪ	-13625
▁ከብቶች	-13626
▁ወደኋላ	-13627
▁የተለዩ	-13628
▁የፊልም	-13629
▁ከፖለቲካ	-13630
▁ጦርነቱን	-13631
▁ሊቨርኩሰን	-13632
▁የሚያቀርብ	-13633
▁የኢህአዴግ	-13634
▁የእግርኳስ	-13635
▁አድርጎታል።	-13636
▁የማጭበርበር	-13637
,9	-13638
ቦን	-13639
ኛዋ	-13640
ምነው	-13641
ንግዶ	-13642
ወድቅ	-13643
▁pe	-13644
▁ፍሰ	-13645
▁can	-13646
▁ስኬል	-13647
▁ብላክ	-13648
▁ግኝት	-13649
▁ፍጆታ	-13650
▁መገኘቱ	-13651
▁ራፋኤል	-13652
▁ክላሲኮ	-13653
▁የዕለት	-13654
▁መቀላቀሉ	-13655
▁የማንነት	-13656
▁በስምምነቱ	-13657
▁አሳውቀዋል	-13658
▁የተሰማውን	-13659
▁ይመስለኛል	-13660
▁እየተከታተለ	-13661
▁ያስቆጠራቸውን	-13662
ተሽ	-13663
ኒሆ	-13664
ሰቃዩ	-13665
ስጥር	-13666
ነርሱ	-13667
ገባም	-13668
▁ሥም	-13669
▁ቦት	-13670
▁መጠነ	-13671
▁በተሳ	-13672
▁አሳዉ	-13673
▁አይሳ	-13674
▁ፍሬው	-13675
▁ፍሰት	-13676
erson	-13677
▁በመተው	-13678
▁አዛውን	-13679
▁ወረዳው	-13680
▁የተገለ	-13681
▁አስኪያጁ	-13682
▁ይጀመራል	-13683
▁ሲንቀሳቀስ	-13684
▁በነገራችን	-13685
▁ትራንስክሪ	-13686
▁አስታውሰው	-13687
▁ከነበረበት	-13688
▁አሰልጣኝነት	-13689
▁ኮንትሮባንድ	-13690
ES	-13691
ላና	-13692
ሌስ	-13693
ሺሺ	-13694
ቶሊ	-13695
ናሉ	-13696
ክፖ	-13697
ዋጋ	-13698
eth	-13699
hil	-13700
▁መፀ	-13701
▁ኢል	-13702
▁ካፒ	-13703
::::	-13704
ሥርዓት	-13705
ሪሚየር	-13706
ዘጋጁት	-13707
▁ሪያድ	-13708
▁በምታ	-13709
▁ተጋር	-13710
▁እቤት	-13711
▁ይጨም	-13712
▁ዮሴፍ	-13713
▁ድጋሚ	-13714
▁ጋርም	-13715
ካሄደውን	-13716
ጀመርያው	-13717
▁መፈፀም	-13718
▁አክሊሉ	-13719
▁የሀይል	-13720
▁የሚያሰ	-13721
▁ደቡባዊ	-13722
▁ጥያቄው	-13723
▁ምእመናን	-13724
▁ሰልጣኞች	-13725
▁ተደርገው	-13726
▁እንደርታ	-13727
▁ለተሰንበት	-13728
▁ምክንያታዊ	-13729
▁እንዳይሆን	-13730
▁ይችላሉ፡፡	-13731
▁በዩኒቨርስቲ	-13732
:0	-13733
ዉሞ	-13734
ግሞ	-13735
ፍኖ	-13736
ich	-13737
ቃሉ።	-13738
ጋዴር	-13739
▁ኤሊ	-13740
▁ዲን	-13741
▁ጋሪ	-13742
▁ጥበ	-13743
ጠናቅቅ	-13744
▁ከረፋ	-13745
▁የመሸ	-13746
▁ፊደል	-13747
▁ፖስቱ	-13748
▁ሙስሊሙ	-13749
▁ወክለው	-13750
▁የኮሌራ	-13751
ፕሬዝዳንት	-13752
▁ማከፋፈያ	-13753
▁አለመግባ	-13754
▁እንዲመሩ	-13755
▁ቀንቷቸዋል	-13756
▁ከእነዚህም	-13757
▁እንዲያቀርብ	-13758
በዉ	-13759
ቻው	-13760
ልስፍ	-13761
ቪኦኤ	-13762
ጣሚያ	-13763
▁ረድ	-13764
ሯቸውን	-13765
ቻለሁ።	-13766
▁ሮማን	-13767
▁ሲኒማ	-13768
▁በማታ	-13769
▁በዋስ	-13770
▁የተረ	-13771
ልተኝነት	-13772
▁ማይክል	-13773
▁በችግር	-13774
▁የሚወጣ	-13775
▁የጠየቁ	-13776
▁መቋረጡን	-13777
▁ነበረበት	-13778
▁እችላለሁ	-13779
▁የሰዎችን	-13780
▁ይሆናሉ።	-13781
▁ከመከላከያ	-13782
ራፍ	-13783
180	-13784
ሬንቲ	-13785
ከሰስ	-13786
▁ሄር	-13787
▁ተግ	-13788
▁ጨው	-13789
▁ማሪያ	-13790
▁አታው	-13791
▁የስታ	-13792
▁ፈረሰ	-13793
▁ፋይል	-13794
ሊኮፕተር	-13795
ዋልያዎቹ	-13796
▁ለብሰው	-13797
▁ላሊበላ	-13798
▁ማሳወቁ	-13799
▁በበዓሉ	-13800
▁ባደረጉ	-13801
▁ችግርን	-13802
▁የመልሶ	-13803
▁የውሸት	-13804
▁የጃፓን	-13805
▁ስርዓቱን	-13806
▁በምክንያ	-13807
▁ባልደራስ	-13808
▁እንደሚታ	-13809
▁ፌስቲቫል	-13810
▁እንደሚገቡ	-13811
56	-13812
ሉና	-13813
ቪላ	-13814
ጠኑ	-13815
ሰለጥ	-13816
ንኮች	-13817
▁ለሞ	-13818
▁ላጣች	-13819
▁ማርኮ	-13820
▁ኦናና	-13821
▁ኮንሰ	-13822
ቶቻችንን	-13823
▁ሳይሆኑ	-13824
▁ባለፈም	-13825
▁ተነሳሽ	-13826
▁የፈጸሙ	-13827
▁ግርግር	-13828
▁ለመክስት	-13829
▁ለስድስት	-13830
▁በሀሰተኛ	-13831
▁በተደረጉ	-13832
▁ትችላለህ	-13833
▁አውቃለሁ	-13834
▁አዲግራት	-13835
▁አግኝተው	-13836
▁ሌቨርኩሰን	-13837
▁አልቻልንም	-13838
▁እያደረግን	-13839
▁ለደረሰባቸው	-13840
▁መስዋዕትነት	-13841
▁እንዳያመልጥ	-13842
ሚስ	-13843
የግ	-13844
ash	-13845
ሳሪያ	-13846
ስማሙ	-13847
ክሳይ	-13848
▁አጸ	-13849
2018	-13850
able	-13851
ኢሰመኮ	-13852
▁በመሆ	-13853
▁በአት	-13854
▁ተቀጥ	-13855
▁ንጉሴ	-13856
▁አፍሮ	-13857
▁ጋክፖ	-13858
▁tele	-13859
▁መመዘኛ	-13860
▁መታየት	-13861
▁አልቻሉ	-13862
▁ከተገኘ	-13863
▁ዕውቀት	-13864
▁የምረቃ	-13865
▁መውሰዱን	-13866
▁እናሳስባ	-13867
▁የማሸነፍ	-13868
▁የተከሰቱ	-13869
▁የትብብር	-13870
▁ሶማሊላንድ	-13871
▁የምታደርገውን	-13872
ማኝ	-13873
ቅሶ	-13874
ቢን	-13875
ዛማ	-13876
ዛቱ	-13877
ሃኒት	-13878
ሰረዝ	-13879
ጨመሩ	-13880
▁ግጥ	-13881
ሮቻችን	-13882
▁መጪው	-13883
▁እየመ	-13884
▁እግድ	-13885
▁የውሀ	-13886
▁ዳኛው	-13887
▁ጣፋጭ	-13888
▁መለወጫ	-13889
▁መግደል	-13890
▁ምናምን	-13891
▁ተወልደ	-13892
▁ተጠቃሽ	-13893
▁እጅጉን	-13894
▁የግብጽ	-13895
▁ይመጣል	-13896
▁በተወዳጁ	-13897
▁ባይኖርም	-13898
▁ጠባቂዎች	-13899
▁አስቀድመው	-13900
▁እስከአሁን	-13901
▁መሆናቸውንም	-13902
▁ፍራንክፈርት	-13903
CA	-13904
af	-13905
ለቆ	-13906
ክልት	-13907
ፍኬት	-13908
▁ቦሎ	-13909
ሰበሰበ	-13910
ሳተፉት	-13911
እነዚህ	-13912
ካቸውን	-13913
▁092	-13914
▁ለመጠ	-13915
▁ለከፋ	-13916
▁በእኔ	-13917
▁አክሎ	-13918
▁አግል	-13919
▁ካገኘ	-13920
▁ዕሁድ	-13921
amily	-13922
▁ማሽኖች	-13923
▁ማውራት	-13924
▁በሪያል	-13925
▁በቪዲዮ	-13926
▁በተቻለ	-13927
▁ቢኒያም	-13928
▁አስፈር	-13929
▁ዉይይት	-13930
▁የሂሳብ	-13931
▁ሁልጊዜም	-13932
▁ለዩክሬን	-13933
▁ሲያሸንፍ	-13934
▁በእርግጥ	-13935
▁ተቋማትና	-13936
▁እንዳሳሰ	-13937
▁መፅናናትን	-13938
▁ባርሴሎናን	-13939
▁አይመስለኝ	-13940
▁ከጋዜጠኞች	-13941
▁.......	-13942
▁አመሰግናለሁ	-13943
▁እየተከናወኑ	-13944
ሪና	-13945
ራሜ	-13946
ሬሳ	-13947
ቁብ	-13948
ክ፣	-13949
ይሉ	-13950
ፎን	-13951
ማቸዉ	-13952
ሰናበ	-13953
ስራኤ	-13954
ሻቸው	-13955
ቀምት	-13956
መስገን	-13957
ጦርነት	-13958
▁መገባ	-13959
▁ስላሴ	-13960
▁በግፍ	-13961
▁ኢቢሲ	-13962
▁መሰለኝ	-13963
▁ማውንት	-13964
▁ሴቶችና	-13965
▁አምስቱ	-13966
▁የልጆች	-13967
▁ይደርሳ	-13968
▁Ababa	-13969
▁ስለጉዳዩ	-13970
▁አውቶብስ	-13971
▁ያዘጋጀው	-13972
▁አይታወቅም	-13973
▁በመካከለኛው	-13974
▁የኢንፎርሜሽን	-13975
ሯት	-13976
ግሮ	-13977
ala	-13978
ረንስ	-13979
▁ቢቆ	-13980
▁ካፌ	-13981
▁ጠፋ	-13982
ከላከሉ	-13983
ገናኘው	-13984
▁ሄኖክ	-13985
▁እድሉ	-13986
▁ያሸነ	-13987
▁ሰአታት	-13988
▁ከጸጥታ	-13989
▁የውሰት	-13990
▁ሶልሻየር	-13991
▁ኤርዶጋን	-13992
▁የስርቆት	-13993
▁ለማህበራዊ	-13994
▁መቀመጫውን	-13995
▁አልቻሉም።	-13996
▁እንደሚወስዱ	-13997
▁አመላክተዋል።	-13998
bo	-13999
ርፖ	-14000
እም	-14001
nit	-14002
ልን።	-14003
ርጉም	-14004
ቢያው	-14005
ግብሩ	-14006
▁ማዞ	-14007
▁ጁላ	-14008
tern	-14009
ላችሁ።	-14010
ባለች።	-14011
▁ላዚዮ	-14012
▁እኩይ	-14013
▁በአንፃ	-14014
▁አብርሃ	-14015
▁የተቀበ	-14016
▁ለመግለፅ	-14017
▁ለማንበብ	-14018
▁መደፍረስ	-14019
▁በተሰኘው	-14020
▁በተወሰኑ	-14021
▁በቴሌብር	-14022
▁ብራዚላዊ	-14023
▁የመፍትሄ	-14024
▁የሚፈጸሙ	-14025
▁ይከታተሉ	-14026
▁ፖለቲከኛ	-14027
▁መናገራቸው	-14028
▁ቀርበዋል።	-14029
▁የኒውክሌር	-14030
▁የአሰልጣኝ	-14031
▁የአገልግሎቱ	-14032
▁የፕሬዝዳንት	-14033
ema	-14034
ከፍት	-14035
ዮቹን	-14036
▁An	-14037
▁ሃም	-14038
▁ባያ	-14039
▁ለዚሁ	-14040
▁ምትኩ	-14041
▁ሰብል	-14042
▁አልማ	-14043
▁እየነ	-14044
▁የነጻ	-14045
▁ግብፃ	-14046
▁ፀሎት	-14047
▁ማድረጓ	-14048
▁በዛሬዋ	-14049
▁ከኬንያ	-14050
▁ያስመር	-14051
▁ጫማውን	-14052
▁ነበሩ፡፡	-14053
▁አቪዬሽን	-14054
▁የገጠመው	-14055
▁ሲያገለግሉ	-14056
▁በመገንዘብ	-14057
▁በማከናወን	-14058
▁በየሳምንቱ	-14059
▁አቅጣጫዎች	-14060
▁የማያስነካ	-14061
▁እንደሚገባው	-14062
▁እንዳይደርስ	-14063
ጭቶ	-14064
ሽንስ	-14065
▁ልዕ	-14066
▁በቲ	-14067
▁ዶቼ	-14068
ኪናፋሶ	-14069
▁14.	-14070
▁ስልሳ	-14071
▁ቢልባ	-14072
▁አልታ	-14073
▁አብን	-14074
▁ኮትዲ	-14075
▁ጆርጅ	-14076
▁ፌዴራ	-14077
ቷቸዋል።	-14078
▁ሁንዴሳ	-14079
▁መለኪያ	-14080
▁ማርሴይ	-14081
▁ምስረታ	-14082
▁በስኬት	-14083
▁በጊዜው	-14084
▁ቤተሰቡ	-14085
▁አልሆነ	-14086
▁አስተው	-14087
▁ከሁለቱ	-14088
▁ካሉበት	-14089
▁የተለያ	-14090
▁መገልገያ	-14091
▁ሰነዶችን	-14092
▁ከተከሰተ	-14093
▁የህዝቡን	-14094
▁እንደማይቻል	-14095
▁የማስጠንቀቂያ	-14096
ond	-14097
ዕቆብ	-14098
ጸዳጃ	-14099
▁00	-14100
▁መወ	-14101
▁ሴል	-14102
▁ኮፓ	-14103
ሪያቸው	-14104
ሻሊስት	-14105
▁ሳልዝ	-14106
▁አጋሩ	-14107
▁ጠያቂ	-14108
▁ሀሳቡን	-14109
▁ለወንድ	-14110
▁በእጥፍ	-14111
▁በፓሪስ	-14112
▁ተፈፃሚ	-14113
▁ንግድና	-14114
▁አለብኝ	-14115
▁አበረታ	-14116
▁ኬሚካል	-14117
▁5,000	-14118
▁መስፋፋት	-14119
▁መኪናዎች	-14120
▁ሳተላይት	-14121
▁በመገናኛ	-14122
▁አፍሪካዊ	-14123
▁የተረጋጋ	-14124
▁የጀመሩት	-14125
▁አሳይቷል።	-14126
▁አብዛኛውን	-14127
▁እንደማያው	-14128
▁እንዳይገባ	-14129
▁የአንድነት	-14130
▁ከዩኒቨርሲቲው	-14131
ug	-14132
ሐበ	-14133
በዝ	-14134
ams	-14135
ርጌሳ	-14136
ገልፅ	-14137
ሻቸውን	-14138
▁180	-14139
▁ህግና	-14140
▁የመዋ	-14141
▁ምሽቱን	-14142
▁ቦርስያ	-14143
▁ተለያዩ	-14144
▁የሃገር	-14145
▁ማመልከት	-14146
▁የቀረቡት	-14147
▁ለምትፈልጉ	-14148
▁ባለቤታቸው	-14149
▁እንደሚሰጡ	-14150
▁አስመልክተው	-14151
▁የደረሰበትን	-14152
74	-14153
ቀሳ	-14154
ቃማ	-14155
ገሬ	-14156
ገፍ	-14157
ላላው	-14158
ራተኛ	-14159
ኪንስ	-14160
ጫለሁ	-14161
▁ሸማ	-14162
ሸጋገር	-14163
ኖረውም	-14164
▁ታውቃ	-14165
▁አምል	-14166
▁እየዘ	-14167
▁የዱር	-14168
▁የጋዛ	-14169
▁ጨቅላ	-14170
▁በንቃት	-14171
▁ቦታውን	-14172
▁የተጣለ	-14173
▁መዋላቸው	-14174
▁በሚደርስ	-14175
▁በቀድሞው	-14176
▁ተጀምሯል	-14177
▁ቴክኒካል	-14178
▁ምህንድስና	-14179
▁ሲያስቆጥሩ	-14180
▁ይቀጥላል።	-14181
▁እየተከታተሉ	-14182
▁የበኩላቸውን	-14183
▁ያነጋገራቸው	-14184
▁እየተንቀሳቀሰ	-14185
ሔዱ	-14186
ፍሉ	-14187
120	-14188
urs	-14189
ምፒዩ	-14190
ጥለው	-14191
▁91	-14192
▁ሚስ	-14193
▁ማዶ	-14194
▁ሻም	-14195
▁ተም	-14196
ለኛል።	-14197
ሙያዎች	-14198
ገደኞች	-14199
▁ለሰራ	-14200
▁ሕመም	-14201
▁መሐል	-14202
▁በደረ	-14203
▁ቶኪዮ	-14204
▁አስታ	-14205
▁ያምና	-14206
▁ጋርና	-14207
▁ጠፍቶ	-14208
ጋጠማቸው	-14209
▁ሙዚየም	-14210
▁ከሀዋሳ	-14211
▁የዝናብ	-14212
▁ኃይሎችን	-14213
▁ካቴድራል	-14214
▁የምስጋና	-14215
▁የተፈቀደ	-14216
▁ዴብሮይን	-14217
▁ድጋፎችን	-14218
▁በስብሰባው	-14219
▁telegram	-14220
ር፣	-14221
ደኑ	-14222
ፈዉ	-14223
app	-14224
ፍጠር	-14225
▁ተሠ	-14226
▁ቶላ	-14227
▁ከኛ	-14228
▁ያዋ	-14229
ፈላለግ	-14230
▁ሕዝበ	-14231
▁ሳይወ	-14232
▁ቤትና	-14233
▁ተቀጡ	-14234
▁ንጥረ	-14235
iness	-14236
ሃይማኖት	-14237
▁በታላቅ	-14238
▁የኢሬቻ	-14239
▁የፅሁፍ	-14240
▁ያልቻሉ	-14241
▁ፖሊስም	-14242
▁ስፖንሰር	-14243
▁በድንበር	-14244
▁ቤተልሄም	-14245
▁ተገኝቷል	-14246
▁የፌደራሉ	-14247
▁በመከላከል	-14248
▁በታንዛኒያ	-14249
▁ወጥተዋል።	-14250
▁የሚናገሩት	-14251
▁ለተሽከርካሪ	-14252
▁ባለመቻላቸው	-14253
ልጅ	-14254
ተመ	-14255
ዳኝ	-14256
ጓዘ	-14257
መዝን	-14258
ብንም	-14259
ትንና	-14260
ይዘው	-14261
▁ላሳ	-14262
▁ሲሲ	-14263
▁ከዳ	-14264
▁ጀነ	-14265
olut	-14266
ሟቸውን	-14267
ገደሉት	-14268
▁ሞድሪ	-14269
▁ሰርጂ	-14270
▁በሰነ	-14271
▁ደበበ	-14272
▁ናቸው፤	-14273
▁አሉት።	-14274
▁አበባና	-14275
▁እንዲመ	-14276
▁ከአስር	-14277
▁ለቫይረሱ	-14278
▁መቃወሚያ	-14279
▁ከዩክሬን	-14280
▁የብልጽግና	-14281
▁ያስታወቁት	-14282
▁የተገለጸው።	-14283
▁ፕሮጀክቶችን	-14284
ሚሮ	-14285
ሪቃ	-14286
ኤች	-14287
ዉል	-14288
ፎቹ	-14289
ሳርድ	-14290
ሳውቁ	-14291
ከሪያ	-14292
▁ያበ	-14293
ሮፕላኑ	-14294
በረከቱ	-14295
▁ሀይቅ	-14296
▁መዋሉ	-14297
▁በግራ	-14298
▁ዘይቤ	-14299
5,000	-14300
▁አጠቃቀ	-14301
▁እንዲወ	-14302
▁የመጠጥ	-14303
▁ግሎባል	-14304
▁አመራሮቹ	-14305
▁የምግብና	-14306
▁የትራምፕ	-14307
▁ተነስቷል።	-14308
▁ስዊዘርላንድ	-14309
ሲው	-14310
ብረር	-14311
▁ሱዳ	-14312
▁ቀበ	-14313
▁አጃ	-14314
ናዊውን	-14315
ደርሰን	-14316
ጠናቅቁ	-14317
▁And	-14318
▁ከማል	-14319
▁የላይ	-14320
▁የሕዝ	-14321
▁የማር	-14322
▁የአብ	-14323
▁ፈፃሚ	-14324
ደረሰበት	-14325
▁ሃይማኖ	-14326
▁አስጀም	-14327
▁የተሰኙ	-14328
▁ሀገራትን	-14329
▁ምክርቤት	-14330
▁ሥራቸውን	-14331
▁በምህረት	-14332
▁በስምንት	-14333
▁በቀረበው	-14334
▁በብሄራዊ	-14335
▁አስጠነቀ	-14336
▁ዜጎቻችን	-14337
▁እንዲራዘም	-14338
▁ይፈልጋል።	-14339
▁ድርጅቶችን	-14340
▁ኢንስታግራም	-14341
▁transport	-14342
ቆየ	-14343
አድ	-14344
ዚል	-14345
ዛር	-14346
ፋሮ	-14347
bal	-14348
▁ሁላ	-14349
▁ኦሲ	-14350
▁በመረ	-14351
▁በመቅ	-14352
▁በዛው	-14353
▁እሸቴ	-14354
▁ሀገራቱ	-14355
▁መስጊድ	-14356
▁ሽፈራው	-14357
▁ተዘዋው	-14358
▁እናምና	-14359
▁ከኮቪድ	-14360
▁የኖቤል	-14361
▁ተለይተው	-14362
▁የገደለው	-14363
73	-14364
ሸጉ	-14365
ead	-14366
fer	-14367
▁sp	-14368
▁ቫል	-14369
ዎችንና	-14370
▁አሰጣ	-14371
▁አስጊ	-14372
▁ጽሁፍ	-14373
▁ለህዝቡ	-14374
▁ለኮሮና	-14375
▁ሊጀምር	-14376
▁መክፈቻ	-14377
▁ሰጪዎች	-14378
▁ከአፋር	-14379
▁የሚመሩ	-14380
▁ድጋፎች	-14381
▁በክረምት	-14382
▁በድርጅቱ	-14383
▁ተወራረዱ	-14384
▁አሜሪካዊ	-14385
▁ከሚገኙት	-14386
▁የጀርመኑ	-14387
▁ኢትዮጵያና	-14388
▁እንዲኖረን	-14389
▁እንዳልቻሉ	-14390
▁ለማንችስተር	-14391
ዋላ	-14392
ርዳታ	-14393
ንጀላ	-14394
ካትት	-14395
ዛርድ	-14396
ጃሚን	-14397
ፈቀድ	-14398
▁ላኪ	-14399
▁ማቅ	-14400
▁ገፃ	-14401
ከፈቱት	-14402
▁ለሥራ	-14403
▁በተጨ	-14404
▁ብለዉ	-14405
▁ታራሚ	-14406
▁የተበ	-14407
▁የአፈ	-14408
▁ይህው	-14409
▁ገብሬ	-14410
▁መጠይቅ	-14411
▁ሴክሬታ	-14412
▁በበለጠ	-14413
▁በዚያው	-14414
▁በጉራጌ	-14415
▁ተካሄደ	-14416
▁አንበጣ	-14417
▁አለመኖር	-14418
▁ያወጣውን	-14419
▁ይልቁንም	-14420
▁ለሚካሄደው	-14421
▁ማስፈራሪያ	-14422
▁በንግግሩም	-14423
▁እንዲኖረው	-14424
▁ተወራረዱባቸው	-14425
ለጡ	-14426
ias	-14427
man	-14428
ለውጥ	-14429
ካስል	-14430
ገደዱ	-14431
▁ለድ	-14432
▁ላው	-14433
መንቶች	-14434
ሰናበት	-14435
▁መሰራ	-14436
▁እንሰ	-14437
▁የሚበ	-14438
▁የደን	-14439
ffect	-14440
ቤተሰቦቹ	-14441
▁ሕዝባዊ	-14442
▁አጣርቶ	-14443
▁የሚያመ	-14444
▁የፈጠረ	-14445
▁ለመወጣት	-14446
▁አልቫሬዝ	-14447
▁በመከታተል	-14448
▁በሚወስደው	-14449
▁እንዳይኖር	-14450
▁ከድርጊታቸው	-14451
▁የሚከተሉትን	-14452
89	-14453
ክላ	-14454
/80	-14455
eli	-14456
ረብን	-14457
ራቶን	-14458
ታደሙ	-14459
ትከል	-14460
ወስዳ	-14461
ጠልም	-14462
▁El	-14463
▁ቋት	-14464
ople	-14465
ርሰንት	-14466
ቶሪያል	-14467
ካሂደው	-14468
ኬቲንግ	-14469
▁STA	-14470
▁ለመን	-14471
▁ማደያ	-14472
▁አደሩ	-14473
▁ከአን	-14474
▁የሸኔ	-14475
▁ያልታ	-14476
▁ፀሀይ	-14477
▁ሰሜናዊ	-14478
▁ኢሰመጉ	-14479
▁እነሱም	-14480
▁እንቀጥ	-14481
▁ያዘጋጀ	-14482
▁ትሮሳርድ	-14483
▁የህጻናት	-14484
▁የተባለዉ	-14485
▁የሚጀምረው	-14486
▁የተጠናቀቀ	-14487
▁ለማስተላለፍ	-14488
ሰሱ	-14489
ፍሩ	-14490
ህዴን	-14491
ላማጣ	-14492
ጓል።	-14493
▁??	-14494
▁ሎጂ	-14495
▁ዳሬ	-14496
ough	-14497
▁አስጨ	-14498
▁የራያ	-14499
▁የፎቶ	-14500
▁ያነሰ	-14501
▁መሞከር	-14502
▁አሳፍሮ	-14503
▁ወደዚህ	-14504
▁ያስቀም	-14505
ration	-14506
▁ወዳጅነት	-14507
▁ዓይነቶች	-14508
▁አስደንጋጭ	-14509
▁ያደርገዋል	-14510
▁መቆየታቸውን	-14511
▁እንዳያመልጥዎ	-14512
ምቤሌ	-14513
ሰሜን	-14514
ወራረድ	-14515
▁ሶሪያ	-14516
▁በአቻ	-14517
▁ተመኝ	-14518
▁ያስቀ	-14519
▁ይቀን	-14520
▁ለምግብ	-14521
▁ሠራዊቱ	-14522
▁በምረቃ	-14523
▁በብቃት	-14524
▁እስካል	-14525
▁እያልን	-14526
▁የሠላም	-14527
▁የነበር	-14528
▁ያቀረቡትን	-14529
▁ኢትዮጵያዊቷ	-14530
53	-14531
ሪኖ	-14532
ሰላ	-14533
ቫኒ	-14534
ከበ	-14535
ፃፉ	-14536
.00	-14537
ላትም	-14538
ምግል	-14539
ቪድዮ	-14540
አንተ	-14541
▁ቢቂ	-14542
▁ፓስ	-14543
▁ማዕቀ	-14544
▁በውጤ	-14545
▁አናው	-14546
▁አድዋ	-14547
▁እስማ	-14548
▁የኤል	-14549
▁ፈራሚ	-14550
ሳተላይት	-14551
▁ሀይማኖ	-14552
▁መጠሪያ	-14553
▁በስለት	-14554
▁ቢኖሩም	-14555
▁ነዋሪው	-14556
▁ነጥቡን	-14557
▁አለኝ።	-14558
▁እያደገ	-14559
▁ከረፋዱ	-14560
▁የሞሮኮ	-14561
▁የጅቡቲ	-14562
▁የጥናት	-14563
▁ላብራቶሪ	-14564
▁በዘመናዊ	-14565
▁ቡድኖችን	-14566
▁አለው፡፡	-14567
▁ወንጀለኛ	-14568
▁የሚመጣው	-14569
እግዚአብሔር	-14570
▁በነበሩበት	-14571
71	-14572
ቅሮ	-14573
ሻሻያ	-14574
▁ሶሴ	-14575
▁ንቁ	-14576
መድህን	-14577
ምያንግ	-14578
ናላችን	-14579
ዛቸውን	-14580
▁15.	-14581
▁586	-14582
▁900	-14583
▁ሰጥታ	-14584
▁ያጠፋ	-14585
▁ገርባ	-14586
▁ፀግሽ	-14587
ችልም፡፡	-14588
▁ሲቀመጥ	-14589
▁በህዳሴ	-14590
▁በሲቪል	-14591
▁በእኩል	-14592
▁ተቋማዊ	-14593
▁እንደዛ	-14594
▁ዓረቢያ	-14595
▁የምድር	-14596
▁ጥሩነህ	-14597
▁ሪፖርቶች	-14598
▁በመሳተፍ	-14599
▁በሰብዓዊ	-14600
▁ባልታወቁ	-14601
▁ባጠቃላይ	-14602
▁ከምዕራብ	-14603
▁ለምንድነው	-14604
▁ሊያስከትል	-14605
▁ይገኙበታል	-14606
▁የምንሰጣቸው	-14607
!”	-14608
ቱ፣	-14609
ዘዘ	-14610
▁ኘ	-14611
lim	-14612
መዳን	-14613
ራንት	-14614
በቡተ	-14615
ኔስኮ	-14616
▁93	-14617
▁su	-14618
▁ሂሳ	-14619
▁ማና	-14620
ለህ፡፡	-14621
ገጥመው	-14622
▁ርቀው	-14623
▁በምና	-14624
▁አቃቢ	-14625
▁ኮምፕ	-14626
▁ዓቃቢ	-14627
▁የኪነ	-14628
▁ላፕቶፕ	-14629
▁በየወሩ	-14630
▁ከጨዋታ	-14631
▁ያረጋግ	-14632
▁Apply	-14633
▁መርበቡተ	-14634
▁ማሳየቱን	-14635
▁ማንነትን	-14636
▁በመጠየቅ	-14637
▁ተጠይቀው	-14638
▁ቼልሲዎች	-14639
▁ኦንላይን	-14640
▁የሲሚንቶ	-14641
▁የተደገፈ	-14642
▁የትዊተር	-14643
▁ሚኒስቴር፣	-14644
▁በሻምፒየንስ	-14645
▁አሸንፈዋል።	-14646
▁እንዳይፈጠር	-14647
ጎላ	-14648
ራኤል	-14649
ሰዎች	-14650
ዲሰን	-14651
ገንዘ	-14652
ቀርብም	-14653
ነሳሳት	-14654
አሜሪካ	-14655
ፈራራት	-14656
▁130	-14657
▁መታወ	-14658
▁ሚስቱ	-14659
▁በፋኖ	-14660
▁አቅመ	-14661
▁አቋቁ	-14662
▁እርቅ	-14663
▁የማል	-14664
▁የጎላ	-14665
▁1500	-14666
▁ሙሉቀን	-14667
▁ሞድሪች	-14668
▁ሬድዮና	-14669
▁ቢልባኦ	-14670
በተጨማሪም	-14671
▁በላሊጋው	-14672
▁በግብርና	-14673
▁እንደወጣ	-14674
▁ከእውነት	-14675
▁የአሰራር	-14676
▁ጉንዶጋን	-14677
▁በእራሳችን	-14678
▁ታጣቂዎችን	-14679
▁ትምህርትን	-14680
▁የሶስትዮሽ	-14681
ዉስ	-14682
ለቃሽ	-14683
ሰጠኝ	-14684
▁ሀኪ	-14685
▁ታክ	-14686
ንደኛው	-14687
▁ዓለሙ	-14688
▁የወር	-14689
ሚኒስትሩ	-14690
በረከቱት	-14691
ውኒኬሽን	-14692
▁ቁጥርም	-14693
▁በጨዋታ	-14694
▁አንስታ	-14695
▁የአድዋ	-14696
▁ድርቀት	-14697
▁ራሳችንን	-14698
▁ኮንሰርት	-14699
▁ፈጣሪዎች	-14700
▁ላላችሁትም	-14701
▁ወንጀለኞች	-14702
▁የሚያስከት	-14703
▁የነዋሪነት	-14704
▁ዲሞክራቲክ	-14705
▁በማስተባበር	-14706
ዘሩ	-14707
የኢ	-14708
ሉንድ	-14709
ራንን	-14710
ገትና	-14711
ጉሜን	-14712
▁አሁ	-14713
ሄዱበት	-14714
▁ሃምሌ	-14715
▁ሆነ።	-14716
▁ሲገኙ	-14717
▁ተሰና	-14718
▁ትርጉ	-14719
▁ከማዕ	-14720
▁ፈጥኖ	-14721
መዝገቢያ	-14722
▁መንገሻ	-14723
▁ቀሪውን	-14724
▁ቆይቷል	-14725
▁በጃፓን	-14726
▁አርአያ	-14727
▁አገኘሁ	-14728
▁እንዲል	-14729
▁የዘመኑ	-14730
▁የድርጅ	-14731
▁ይልቃል	-14732
▁ህይወትን	-14733
▁ሆይሉንድ	-14734
▁መውጣቱን	-14735
▁በሰሜናዊ	-14736
▁በነፃነት	-14737
▁ከተሞችን	-14738
▁ከከፍተኛ	-14739
▁ድርጊቶችን	-14740
▁አገልግለዋል።	-14741
------------	-14742
ዶና	-14743
ፈጥ	-14744
iat	-14745
ብረታ	-14746
ክላን	-14747
▁ac	-14748
▁መጓ	-14749
▁ራይ	-14750
▁ርቆ	-14751
▁ሲደ	-14752
▁የጃ	-14753
▁ጠረ	-14754
orld	-14755
uman	-14756
አፍሪካ	-14757
ዋሮቢት	-14758
▁ለነገ	-14759
▁ልጆቹ	-14760
▁መጎዳ	-14761
▁ሞናኮ	-14762
▁ቤትን	-14763
▁ተራዝ	-14764
▁ነውም	-14765
▁ንቅለ	-14766
▁አነሳ	-14767
▁የዝግ	-14768
▁የጥፋ	-14769
▁ያሳው	-14770
▁ፈጥሮ	-14771
▁በቼልሲ	-14772
▁ተከፍቶ	-14773
▁ከጅቡቲ	-14774
▁የላቸው	-14775
▁የፖሊሲ	-14776
መንግስታዊ	-14777
▁ለማምረት	-14778
▁መጨመሩን	-14779
▁ቀጥለዋል	-14780
▁በመልቀቅ	-14781
▁ተደረገ።	-14782
▁ኤርትራዊ	-14783
▁እስራትና	-14784
▁ተመልሰዋል	-14785
▁አምባሳደሮች	-14786
▁የኮሮናቫይረስ	-14787
eh	-14788
ለ።	-14789
ሉ፤	-14790
መ።	-14791
ቂኝ	-14792
ጫነ	-14793
enc	-14794
ሄደው	-14795
ንጀሮ	-14796
ዳኖስ	-14797
ግኘቱ	-14798
▁ህዋ	-14799
▁ሩዲ	-14800
▁ደራ	-14801
▁ፕራ	-14802
ንቅልፍ	-14803
ፃቸውን	-14804
▁1-3	-14805
▁ለምታ	-14806
▁መታገ	-14807
▁ተከራ	-14808
▁ከልክ	-14809
▁ወረደ	-14810
ንግስታቱ	-14811
ጠቀሙበት	-14812
▁መግባቱ	-14813
▁ሳይሳካ	-14814
▁በቀዳሚ	-14815
▁አሸብር	-14816
▁የመያዝ	-14817
▁ለመታደም	-14818
▁ማዘጋጀት	-14819
▁አልችልም	-14820
▁ከተያዙት	-14821
▁ከጦርነቱ	-14822
▁ወደፊትም	-14823
▁እየተወሰደ	-14824
▁የባህርዳር	-14825
▁አስተዳዳሪው	-14826
▁አመላክቷል፡፡	-14827
ሀፍ	-14828
ሰም	-14829
በሽ	-14830
ጠቡ	-14831
ቀረው	-14832
▁ቤቴ	-14833
▁ኢኳ	-14834
ሰናበቱ	-14835
ብራቸው	-14836
ፈፀሙት	-14837
▁!!!	-14838
▁ለአን	-14839
▁መስር	-14840
▁ቀሪው	-14841
▁ቤቲስ	-14842
▁አዝና	-14843
▁ዚዳን	-14844
▁የከተ	-14845
▁cont	-14846
▁ሊጀመር	-14847
▁ማሻሻል	-14848
▁ተደርሶ	-14849
▁ከመሬት	-14850
▁ክልሉን	-14851
▁ክርስት	-14852
▁ጠንከር	-14853
ደረግባቸው	-14854
▁ህዝባችን	-14855
▁ለመገናኛ	-14856
▁ባለባቸው	-14857
▁ኤምሬትስ	-14858
▁እንደቻለ	-14859
▁የክለቡን	-14860
▁ያሉት፡፡	-14861
▁ለማረጋጋት	-14862
▁ማስጀመሪያ	-14863
▁ሬጅስትራር	-14864
▁ስልጠናውን	-14865
▁ውጤታቸውን	-14866
▁የተመሠረተ	-14867
▁እንደሚከተለው	-14868
በህ	-14869
ብቆ	-14870
ነቡ	-14871
ons	-14872
ሐፍት	-14873
ዘሩት	-14874
ይህም	-14875
▁92	-14876
▁ስቲ	-14877
ሰበሰቡ	-14878
ሶማሊያ	-14879
ጎራባች	-14880
▁742	-14881
▁one	-14882
▁በማለ	-14883
▁ተመት	-14884
▁አስቤ	-14885
▁አቁሞ	-14886
▁ድሉን	-14887
ocial	-14888
ስተዳድር	-14889
▁ለቡድኑ	-14890
▁ለአማራ	-14891
▁መተከል	-14892
▁ማቅረቡ	-14893
▁በበኩሏ	-14894
▁በኮንት	-14895
▁አንተን	-14896
▁የምዕራ	-14897
▁ግቢውን	-14898
▁ሁለቱንም	-14899
▁ሌሎችንም	-14900
▁መፍትሄው	-14901
▁በመጨመር	-14902
▁ትላንትና	-14903
▁እንደውም	-14904
▁እየወሰዱ	-14905
▁ከተማዎች	-14906
▁የሰራተኛ	-14907
▁ለማሰልጠን	-14908
▁ተማሪዎች፣	-14909
▁channel	-14910
▁እንዳደረገው	-14911
▁ተገኝተዋል፡፡	-14912
79	-14913
ቶና	-14914
ረመው	-14915
ባረር	-14916
ኪናው	-14917
▁ሀዘ	-14918
▁ሙሽ	-14919
▁ሙኒ	-14920
▁ቅጥ	-14921
▁የኑ	-14922
ሰማቸው	-14923
ታወቀዉ	-14924
▁በተቋ	-14925
▁ፓወር	-14926
▁ርዕስ፦	-14927
▁በውይይ	-14928
▁ሳምንታዊ	-14929
▁ብርጋዴር	-14930
▁አራተኛው	-14931
▁ሁለተኛውን	-14932
▁እንዲጠብቅ	-14933
▁ከእንግሊዝ	-14934
▁የምፈልገው	-14935
▁የተከናወነ	-14936
ms	-14937
ሃራ	-14938
ሔት	-14939
ሪቲ	-14940
ማንን	-14941
ሰለፍ	-14942
ታቱን	-14943
▁ad	-14944
▁ሽረ	-14945
▁አዙ	-14946
▁ኪን	-14947
▁የዚ	-14948
ልልልል	-14949
ደኝነት	-14950
▁ሊቢያ	-14951
▁ተበዳ	-14952
▁ኖሯል	-14953
▁እራስ	-14954
▁ይከፈ	-14955
▁ጎበና	-14956
▁ፀጉር	-14957
▁ፍጻሜ	-14958
▁በሶሪያ	-14959
▁አልሰጠ	-14960
▁ያስታው	-14961
▁ተረጋገጠ	-14962
▁አዘጋጆች	-14963
▁ኤሪክሰን	-14964
▁እየቀነሰ	-14965
▁ከንቲባዋ	-14966
ቡንደስሊጋው	-14967
▁ለመንግሥት	-14968
▁መክረዋል።	-14969
▁ማረጋገጡን	-14970
▁አግኝቷል።	-14971
▁ይነገራል።	-14972
▁አሰምተዋል።	-14973
▁እንደገለጸው	-14974
ጋሩ	-14975
/24	-14976
ang	-14977
ase	-14978
sid	-14979
መርጥ	-14980
ሰራት	-14981
ሳቸዉ	-14982
ከላከ	-14983
▁ሲሞ	-14984
reat	-14985
ስርዓቱ	-14986
▁ሰመራ	-14987
▁በቶሎ	-14988
▁ቡካዩ	-14989
▁ተርሚ	-14990
▁አቅዶ	-14991
▁ኮተቤ	-14992
inist	-14993
▁በጠበቀ	-14994
▁አልኩት	-14995
▁አንባቢ	-14996
▁የሀዘን	-14997
▁ደብተር	-14998
▁ግርዶሽ	-14999
▁ለፈተናው	-15000
▁በዝውውር	-15001
▁በፈለጉት	-15002
▁ውስንነት	-15003
▁የደረሱት	-15004
▁ጥገኝነት	-15005
▁ለመከላከያ	-15006
▁ኃይለሥላሴ	-15007
▁እንዳደረገ	-15008
▁ዘኢትዮጵያ	-15009
▁የአካዳሚክ	-15010
▁የኮንትራት	-15011
▁አስተላልፈዋል፡፡	-15012
ሽው	-15013
/19	-15014
org	-15015
ዳዲስ	-15016
▁ልቦ	-15017
▁ቡሌ	-15018
▁ታሳ	-15019
▁ንዝ	-15020
▁ከላ	-15021
▁ከሥ	-15022
ሕይወት	-15023
▁ሊኖረው	-15024
▁ማስገባ	-15025
▁በምድብ	-15026
▁በጉብኝ	-15027
▁ብራንድ	-15028
▁እድለኛ	-15029
▁ወዳጆች	-15030
▁የስንዴ	-15031
▁የቁጠባ	-15032
▁የቤቶች	-15033
▁የተወጣ	-15034
ንስቲትዩቱ	-15035
▁1,500	-15036
▁መመለሱን	-15037
▁አይኖርም	-15038
▁የሃገሪቱ	-15039
▁ፈረንሳዊ	-15040
▁Africa	-15041
▁ማስታወቁን	-15042
▁አድራሻችን	-15043
▁ዕድሜያቸው	-15044
▁የቶተንሀም	-15045
▁አፍሪካውያን	-15046
▁የተጀመረውን	-15047
▁ጠቅሰዋል፡፡	-15048
▁አስቆጥረዋል።	-15049
ባክ	-15050
ይር	-15051
ሊዝም	-15052
ማሉ።	-15053
ሪሁን	-15054
ስቴት	-15055
ሸርት	-15056
ወርዱ	-15057
ጋራው	-15058
▁ኑር	-15059
▁እጆ	-15060
መረምር	-15061
ስተርስ	-15062
▁has	-15063
▁ሀዲያ	-15064
▁ቃሲም	-15065
▁ተፈፀ	-15066
▁ኤድስ	-15067
▁ከሚል	-15068
▁ፍሳሽ	-15069
▁ነበረው	-15070
▁እየተን	-15071
▁ወርሃዊ	-15072
▁ዓለምን	-15073
▁የበዓል	-15074
▁የኮከብ	-15075
▁የዘርፉ	-15076
▁ጀግኖች	-15077
▁ሳይንሳዊ	-15078
▁ፊርማውን	-15079
▁ለማስመለስ	-15080
▁ተመዝግበው	-15081
▁የትኛውንም	-15082
▁የዲፕሎማሲ	-15083
▁በትላንትናዉ	-15084
▁ትራንስክሪፕት	-15085
ሀዊ	-15086
ሰዱ	-15087
ፈኑ	-15088
ሊክስ	-15089
ሌሎች	-15090
ቆመው	-15091
ጥረቱ	-15092
▁ከሸ	-15093
▁ፍጥ	-15094
ጫወተው	-15095
▁ለግን	-15096
▁ከወር	-15097
▁የሰዉ	-15098
▁ፌደራ	-15099
▁ሐረርጌ	-15100
▁አሸነፈ	-15101
▁ካለበት	-15102
▁የዘመን	-15103
▁የጀመሩ	-15104
▁በማሳየት	-15105
▁ተመልክቶ	-15106
▁ተዋጊዎች	-15107
▁አይተዋል	-15108
▁ክትባቱን	-15109
▁ክትትልና	-15110
▁ለመወያየት	-15111
▁በተቀመጠው	-15112
▁ከፍተኛውን	-15113
▁ከማህበረሰቡ	-15114
ካሪ	-15115
ጻፍ	-15116
ስበው	-15117
ችነት	-15118
እራብ	-15119
▁ዳም	-15120
ላቸው።	-15121
ሏቸውን	-15122
መዘገባ	-15123
ይህንን	-15124
▁ሙያዊ	-15125
orage	-15126
▁ሀዛርድ	-15127
▁ለመጓዝ	-15128
▁ላደረጉ	-15129
▁ማሬስካ	-15130
▁በመግባ	-15131
▁በመጣስ	-15132
▁ቤቶችና	-15133
▁አሳውቆ	-15134
▁ከሆነው	-15135
▁ወረዳ፣	-15136
▁ዕለትም	-15137
▁የማይወ	-15138
▁የትኛው	-15139
▁የካናዳ	-15140
▁የጥቁር	-15141
▁ሚስጥራዊ	-15142
▁ሽልማትን	-15143
▁በተወሰነ	-15144
▁በዝቅተኛ	-15145
▁ጋዜጠኛው	-15146
▁ለእውነተኛ	-15147
▁እንደሚርቅ	-15148
--------------	-15149
ሪል	-15150
ጆር	-15151
-11	-15152
rad	-15153
ስታል	-15154
▁3-	-15155
▁ቡክ	-15156
▁ቤኔ	-15157
▁ጡት	-15158
▁ጦሩ	-15159
ስተዋለ	-15160
ሽንፈት	-15161
▁(2)	-15162
▁ማንሳ	-15163
▁ሰወች	-15164
▁ሲሄድ	-15165
▁ታፈሰ	-15166
▁ኢንዶ	-15167
▁ከአም	-15168
▁ይልማ	-15169
▁ፈንጂ	-15170
ማራቸውን	-15171
▁መኪናው	-15172
▁ማይክሮ	-15173
▁እያለቀ	-15174
▁የነባር	-15175
▁በየካቲት	-15176
▁በድርድር	-15177
▁አስታውቆ	-15178
▁በአስቸጋሪ	-15179
ineering	-15180
▁ነግረውናል።	-15181
ብጦ	-15182
ተኝ	-15183
ፉር	-15184
der	-15185
ሪስዮ	-15186
ሰብን	-15187
በረራ	-15188
ቶችም	-15189
ከብት	-15190
ጠቢያ	-15191
▁ብስ	-15192
ቅርቦት	-15193
በረታቻ	-15194
ደናቀፍ	-15195
▁በአባ	-15196
▁ተከብ	-15197
▁ትርፋ	-15198
▁አይነ	-15199
▁ከትን	-15200
▁ያቀር	-15201
▁ያደር	-15202
▁ዱባይ	-15203
▁ፍቅረ	-15204
▁ቅርበት	-15205
▁በአዋጅ	-15206
▁አቋራጭ	-15207
▁አይሆን	-15208
▁እስከተ	-15209
▁የሞከሩ	-15210
▁ይጎብኙ	-15211
▁ለመቀጠል	-15212
▁ሙከራዎች	-15213
▁በመቀየር	-15214
▁በወረቀት	-15215
▁ተመድበው	-15216
▁ተሰማ፡፡	-15217
▁አልተሳካ	-15218
▁አስቆጣሪ	-15219
▁ኦሎምፒያ	-15220
▁ካለባቸው	-15221
▁የግብይት	-15222
▁ይፈጥራል	-15223
▁ተደራሽነት	-15224
▁አርሰናልን	-15225
▁የተናገረው	-15226
▁ይሰጣል፡፡	-15227
▁በማስመዝገብ	-15228
▁እንዲኖራቸው	-15229
▁እንጠይቃለን።	-15230
ሽኝ	-15231
ዉዉ	-15232
ድቆ	-15233
ሃንን	-15234
ቦርዱ	-15235
ካፈል	-15236
ያንግ	-15237
▁ኬዝ	-15238
▁ፊዮ	-15239
▁ፍስ	-15240
ችልበት	-15241
▁ማግለ	-15242
▁ስሚዝ	-15243
▁እስቴ	-15244
▁የቪዛ	-15245
▁ገንዳ	-15246
▁ለቁማር	-15247
▁መመርያ	-15248
▁ሴጣኖች	-15249
▁በኤክስ	-15250
▁አማካኝ	-15251
▁አድራጊ	-15252
▁ዜናዎች	-15253
▁ያገኙት	-15254
▁ግድያው	-15255
▁ለምዝገባ	-15256
▁በመጫወት	-15257
▁በግለሰብ	-15258
▁አጋጥሞት	-15259
▁ኢትዮጵያ፣	-15260
▁እያደረገች	-15261
▁የብልፅግና	-15262
.........	-15263
ሄዳ	-15264
ሸው	-15265
ንጻ	-15266
ራሉ።	-15267
ራተን	-15268
ውንና	-15269
ገደድ	-15270
▁ዞሮ	-15271
▁ጁድ	-15272
▁ቀንን	-15273
▁በሃላ	-15274
▁በምላ	-15275
▁በዘር	-15276
▁ባገኘ	-15277
▁ተረፈ	-15278
▁ኮልፌ	-15279
▁ወዳጆ	-15280
▁ፀጋይ	-15281
ሸነፈበት	-15282
ጠቃሚዎች	-15283
▁ሌላውን	-15284
▁ማህሬዝ	-15285
▁በቅጣት	-15286
▁በአዋሽ	-15287
▁ተሰምቶ	-15288
▁አመራሩ	-15289
▁የኳታር	-15290
▁ደስታን	-15291
▁ማሳደጊያ	-15292
▁ሳይደርስ	-15293
▁በአንጻሩ	-15294
▁ተቋማት፣	-15295
▁አወዛጋቢ	-15296
▁የማቅረብ	-15297
▁የባህልና	-15298
▁ሠራተኞችን	-15299
▁ሻምፒዮንስ	-15300
▁ከሆስፒታል	-15301
▁ማስፈንጠሪያ	-15302
▁ኢንስቲትዩቱ	-15303
▁የሚያገለግሉ	-15304
ma	-15305
ሊሶ	-15306
ሟሟ	-15307
edu	-15308
ልተን	-15309
ቧቸው	-15310
ንግላ	-15311
ጀሪያ	-15312
▁በዴ	-15313
▁አኩ	-15314
▁ድሬ	-15315
ሰጣቸዉ	-15316
ግንነት	-15317
ፎካከር	-15318
▁በሰዉ	-15319
▁በተራ	-15320
▁በዓለ	-15321
▁ተከስ	-15322
▁ገጥሞ	-15323
ብራይተን	-15324
ከናወኑን	-15325
▁ለፀጥታ	-15326
▁መመለሱ	-15327
▁በኮልፌ	-15328
▁ተፈርዶ	-15329
▁ቲኪቫህ	-15330
▁ውድቀት	-15331
▁የአውሮ	-15332
▁በመረጃው	-15333
▁በአክሱም	-15334
▁ትኩረቱን	-15335
▁ትገኛለች	-15336
▁የህወሃት	-15337
▁የቱሪስት	-15338
▁አድርገናል	-15339
▁አጋጣሚዎች	-15340
▁ኦባምያንግ	-15341
▁የተሰኘውን	-15342
▁በዋሽንግተን	-15343
▁አግኝተዋል።	-15344
▁የተመሰረተው	-15345
▁የተካሄደውን	-15346
ልቦ	-15347
ስጋ	-15348
እኮ	-15349
ዝሩ	-15350
ዳፊ	-15351
ጓጊ	-15352
ለን፤	-15353
ሱበት	-15354
ዕለት	-15355
▁ሊስ	-15356
▁ይጥ	-15357
መርጨት	-15358
ቀበልም	-15359
ቤትነት	-15360
▁ሊሰራ	-15361
▁አውር	-15362
▁ውበቱ	-15363
▁ገዝቶ	-15364
ችኋል፡፡	-15365
▁ማቆሚያ	-15366
▁ቢሆኑም	-15367
▁አልኮል	-15368
▁አዋጅን	-15369
▁እጠይቃ	-15370
▁ከጉዳት	-15371
▁የመሩት	-15372
▁የዕድሜ	-15373
▁ለጨዋታው	-15374
▁ቀዳማዊት	-15375
▁በተተኮሰ	-15376
▁ኦሊምፒክ	-15377
▁የሚሳኤል	-15378
▁የሚፈጸም	-15379
▁የወልቂጤ	-15380
▁የይቅርታ	-15381
▁ሳልዝበርግ	-15382
▁በመመልከት	-15383
▁በባርሴሎና	-15384
▁እየተፈፀመ	-15385
▁ከተማሪዎች	-15386
▁የሚጠናቀቅ	-15387
▁የተጠርጣሪ	-15388
▁ትምህርታችሁን	-15389
ሸፍ	-15390
ንግዳ	-15391
ወያየ	-15392
ዛል።	-15393
ያዊው	-15394
ዮንግ	-15395
ገደል	-15396
▁ሳታ	-15397
▁አሲ	-15398
▁ከቴ	-15399
ገምገም	-15400
▁ራይት	-15401
▁በሀያ	-15402
▁በራያ	-15403
▁ቢቂላ	-15404
▁ትዕዛ	-15405
▁ከአው	-15406
▁ኪዳነ	-15407
▁ወንዱ	-15408
▁የወን	-15409
▁የጣና	-15410
umber	-15411
▁ሚኪያስ	-15412
▁ምግቦች	-15413
▁በስልጤ	-15414
▁በኃላም	-15415
▁ተቀማጭ	-15416
▁ተፈራረ	-15417
▁ኦዶችን	-15418
▁ክብርት	-15419
▁ለሚገኘው	-15420
▁መኪናውን	-15421
▁መደረሱን	-15422
▁ስለነበረ	-15423
▁ሽንኩርት	-15424
▁አባልነት	-15425
▁አካላትም	-15426
▁አይቀርም	-15427
▁እንዲነሱ	-15428
▁ውጤቶችን	-15429
▁የሚወስድ	-15430
▁ይደርሳል	-15431
▁ለማስወጣት	-15432
▁ምልክቶችን	-15433
▁ታይተዋል።	-15434
▁የሚችሉበት	-15435
▁የሳፋሪኮም	-15436
▁ይመስላል።	-15437
▁ፍሬህይወት	-15438
▁comment	-15439
▁ለማስተናገድ	-15440
▁እንደሚመለስ	-15441
▁አውሮፕላኖችን	-15442
▁የቤተክርስቲያ	-15443
ሎዲ	-15444
ባረክ	-15445
▁ቢታ	-15446
▁ካና	-15447
▁የዞ	-15448
ኒስትር	-15449
ክለኛው	-15450
▁ለመዝ	-15451
▁ቅበላ	-15452
▁በወባ	-15453
▁ባለአ	-15454
▁ተፈቅ	-15455
▁አሮጌ	-15456
▁አጥፊ	-15457
▁የፍል	-15458
▁ያመለ	-15459
▁ደጀን	-15460
▁ጉምዝ	-15461
ጠቅላላው	-15462
▁ህብረቱ	-15463
▁ለሀገሩ	-15464
▁መስጂድ	-15465
▁መንበረ	-15466
▁ሚዲያው	-15467
▁ማቀዱን	-15468
▁ሜትሪክ	-15469
▁በውሃላ	-15470
▁ውንጀላ	-15471
▁የዚህን	-15472
▁ጥንዶች	-15473
▁መጠናቀቁ	-15474
▁በመጣራት	-15475
▁በመፈፀም	-15476
▁በስልጠና	-15477
▁በአሸናፊ	-15478
▁ተከታትሎ	-15479
▁እስማኤል	-15480
▁የጠቆመው	-15481
▁ጀምረዋል	-15482
▁ፌዴሬሽኑ	-15483
▁በመጠባበቅ	-15484
▁በግንኙነት	-15485
▁የተቋረጠው	-15486
▁የኤጀንሲው	-15487
▁የዘረኝነት	-15488
▁ማግኘታቸውን	-15489
▁አካባቢዎቻቸው	-15490
52	-15491
ለየ	-15492
ሻም	-15493
ቻቸ	-15494
ዊዝ	-15495
ዋሎ	-15496
---	-15497
ሳልፉ	-15498
ቡላን	-15499
▁ሳኒ	-15500
▁ቅነሳ	-15501
▁በመቆ	-15502
▁በገባ	-15503
▁ባትሪ	-15504
▁አስነ	-15505
▁አስፋ	-15506
▁ከራስ	-15507
▁የመነ	-15508
▁የጎል	-15509
▁ጋላታ	-15510
▁ጭካኔ	-15511
▁ለአካል	-15512
▁ሊሰጠው	-15513
▁ማጥቃት	-15514
▁ሞሐመድ	-15515
▁ሲጀመር	-15516
▁ስክሪን	-15517
▁ሽልማቱ	-15518
▁ቂርቆስ	-15519
▁ተናጋሪ	-15520
▁አቀፋዊ	-15521
▁አቋርጦ	-15522
▁አጠናክ	-15523
▁የሀብት	-15524
▁የበይነ	-15525
▁ጓደኞቹ	-15526
▁ለመግደል	-15527
▁ለማሟላት	-15528
▁ባይሆንም	-15529
▁የሩዋንዳ	-15530
▁ያደረሰው	-15531
▁ማንቸስተር	-15532
▁ማጠናቀቂያ	-15533
▁በመገንባት	-15534
▁ተገለጸ፡፡	-15535
▁እንድትሆን	-15536
▁የክርስትና	-15537
▁telegra	-15538
▁በየአካባቢው	-15539
▁ተመዝጋቢዎች	-15540
▁ጎብኝተዋል።	-15541
▁እንደሚያመለክ	-15542
ቄዶ	-15543
ዘገበ	-15544
የሁት	-15545
ship	-15546
ሪምየር	-15547
ቀጥልም	-15548
በአሁኑ	-15549
▁ሲነሳ	-15550
▁አቻው	-15551
▁ከቆየ	-15552
▁የዋግ	-15553
▁ሙስጠፋ	-15554
▁ሲፈፅሙ	-15555
▁ተከብሮ	-15556
▁ተከተል	-15557
▁ታዋቂው	-15558
▁ካሜሩን	-15559
▁የግዛት	-15560
▁ጠባቂው	-15561
▁ፎቶዎች	-15562
ክርስትያን	-15563
▁በፈፀመው	-15564
▁አርበኞች	-15565
▁እነዚህም	-15566
▁ከበርካታ	-15567
▁እንዲጀመር	-15568
▁እየተነገረ	-15569
▁ደርሶባቸው	-15570
▁ዲፕሎማቶች	-15571
▁ተማሪዎቻቸውን	-15572
▁እስራኤላውያን	-15573
▁አመልክተዋል፡፡	-15574
ሚዮ	-15575
ማሚ	-15576
ተቱ	-15577
ጫት	-15578
ሆኖም	-15579
ጀምራ	-15580
▁am	-15581
▁ማተ	-15582
▁ጎር	-15583
▁ፀብ	-15584
..."	-15585
ምግልና	-15586
▁ሠራዊ	-15587
▁ካይሮ	-15588
▁ዘመነ	-15589
▁የካፍ	-15590
▁ይስጥ	-15591
▁ጭራሽ	-15592
▁ፍንጭ	-15593
▁በወርሃ	-15594
▁ባወጣዉ	-15595
▁ታደርጋ	-15596
▁ኤፍሬም	-15597
▁እርግጥ	-15598
▁ዝውውሩ	-15599
▁የቋንቋ	-15600
▁Ethio	-15601
▁ለሰብዓዊ	-15602
▁መራዘሙን	-15603
▁መጨረሻው	-15604
▁ማውሪስዮ	-15605
▁በመቀነስ	-15606
▁የተቋቋመ	-15607
▁መስፈርቱን	-15608
▁አለመቻሉን	-15609
▁እንዳልቻለ	-15610
▁እንደሚኖረው	-15611
▁ማስታወቂያዎች	-15612
ኖት	-15613
ድድ	-15614
ጉዳ	-15615
ሆኖች	-15616
ሽንኮ	-15617
ኢዜማ	-15618
ዞርት	-15619
ጋርት	-15620
▁im	-15621
▁ሉሲ	-15622
▁ሙፈ	-15623
▁አቢ	-15624
▁ሞቃዲ	-15625
▁በሰራ	-15626
▁በደር	-15627
▁ቤልጂ	-15628
▁ተሰጠ	-15629
▁አወል	-15630
▁ዋልታ	-15631
▁ያንግ	-15632
ደርሳቸው	-15633
▁ለሚለው	-15634
▁ቀርቧል	-15635
▁በደማቅ	-15636
▁ቡርሃን	-15637
▁ከባንክ	-15638
▁ከውሳኔ	-15639
▁የተገመ	-15640
▁ያውቃል	-15641
▁ሆናለች።	-15642
▁ለማፍረስ	-15643
▁ሚሊኒየም	-15644
▁ቤንጃሚን	-15645
▁አረቢያው	-15646
▁ከመጀመሩ	-15647
▁የተቀሩት	-15648
ያንዳንዳቸው	-15649
▁ሀሳባቸውን	-15650
▁የተሰራጨው	-15651
▁የዘንድሮውን	-15652
▁ተመልክቷል፡፡	-15653
▁ይኖርባቸዋል።	-15654
▁አብራርተዋል፡፡	-15655
ልብ	-15656
hen	-15657
ልያኑ	-15658
ባበስ	-15659
ነሮች	-15660
▁ሲዘ	-15661
▁ነቅ	-15662
▁ኢስ	-15663
2008	-15664
ቀበሉት	-15665
▁125	-15666
▁ስልት	-15667
▁በመለ	-15668
▁በየካ	-15669
▁ባልቻ	-15670
▁ገጣሚ	-15671
▁መስታወ	-15672
▁ስለሆኑ	-15673
▁የሚጎዳ	-15674
▁የገዳሙ	-15675
▁ጃክሰን	-15676
▁ለመቅጠር	-15677
▁እያቀረበ	-15678
▁ያስረዱት	-15679
▁ይታያል።	-15680
▁ደህንነቱ	-15681
▁ቆስለዋል።	-15682
▁ዶርትሙንድ	-15683
▁መውጣታቸውን	-15684
▁እንገኛለን።	-15685
▁ወደነበረበት	-15686
▁ገብረሚካኤል	-15687
▁እየተንቀሳቀሱ	-15688
ሊሽ	-15689
/12	-15690
ህትና	-15691
ለን፣	-15692
ራርድ	-15693
ንትራ	-15694
እንዴ	-15695
ወያያ	-15696
▁ለሮ	-15697
▁በጃ	-15698
▁ቤቷ	-15699
▁ናዳ	-15700
▁ወለ	-15701
▁ዋስ	-15702
ከተሉት	-15703
ያለሁ።	-15704
ያችሁን	-15705
▁16.	-15706
▁መሰን	-15707
▁ቀልጣ	-15708
▁ያማክ	-15709
ስተላልፍ	-15710
ትምህርት	-15711
▁ለችግሩ	-15712
▁በቴሌቪ	-15713
▁ተግባሩ	-15714
▁የብሔር	-15715
▁ይገባሉ	-15716
▁በሞባይል	-15717
▁በሬክተር	-15718
▁አካባቢዋ	-15719
▁ከቲክቫህ	-15720
▁ዘመናቸው	-15721
▁የተከፈተ	-15722
▁ያልታወቁ	-15723
▁መሰብሰቡን	-15724
▁አመራሮች፣	-15725
▁አሸንፈዋል	-15726
▁ከፈረንሳይ	-15727
▁የተላለፈው	-15728
▁ያስረዳል።	-15729
▁በቤንሻንጉል	-15730
▁አስተያየቶች	-15731
▁የሚያገኙበት	-15732
ነቀ	-15733
ቶታል	-15734
ኃይል	-15735
ነቴን	-15736
▁ማሪ	-15737
▁ማፅ	-15738
▁ሳላ	-15739
▁በጁ	-15740
▁ታጁ	-15741
ጎጂዎች	-15742
▁ሲችሉ	-15743
▁በልጅ	-15744
▁ተሸክ	-15745
▁ተቀይ	-15746
▁ንጉሥ	-15747
▁አብዮ	-15748
▁ኢንደ	-15749
▁ከፊል	-15750
▁ጠባሳ	-15751
ction	-15752
▁መልካሙ	-15753
▁መጠናቀ	-15754
▁ቀነኒሳ	-15755
▁በማየት	-15756
▁በቦረና	-15757
▁ብርሃነ	-15758
▁ተራሮች	-15759
▁ተሸካሚ	-15760
▁አብዮት	-15761
▁ከእግር	-15762
▁ያገኛል	-15763
▁ግድብን	-15764
▁ሲከታተል	-15765
▁በሚባለው	-15766
▁ባለሀብት	-15767
▁አልተገኘ	-15768
▁አወዳድሮ	-15769
▁የተፈራረ	-15770
▁የፋብሪካ	-15771
▁ግሪንውድ	-15772
▁በማሰራጨት	-15773
▁ተነሳሽነት	-15774
▁የአከባቢው	-15775
▁እንደነበረው	-15776
▁ደንበኞቻችን	-15777
EA	-15778
ኮን	-15779
ተርፍ	-15780
ቱንና	-15781
ክለው	-15782
ወደድ	-15783
ጠራት	-15784
▁ባዮ	-15785
▁ብዝ	-15786
▁ኦሳ	-15787
▁ከሆ	-15788
ቀጥሉት	-15789
ጠረጠሩ	-15790
▁ላይ፣	-15791
▁ማስፋ	-15792
▁ከወደ	-15793
▁ዩሮፓ	-15794
▁ሄንደር	-15795
▁ለአጭር	-15796
▁ለእይታ	-15797
▁አስፈሪ	-15798
▁አይሱዙ	-15799
▁ካላችሁ	-15800
▁ዘሪሁን	-15801
▁የሚጠራ	-15802
▁የእርቅ	-15803
▁የወጡት	-15804
▁ጥናትና	-15805
▁ላደረጉት	-15806
▁መጠየቁን	-15807
▁በማሻሻል	-15808
▁በወልቂጤ	-15809
▁ተፈናቃይ	-15810
▁አባቶች፣	-15811
▁የራሳቸው	-15812
▁ለመወራረድ	-15813
▁በመከናወን	-15814
▁አንድነትን	-15815
▁አጠናክረው	-15816
ይሊ	-15817
መቻቸ	-15818
ሰባዊ	-15819
ስትሪያ	-15820
▁መሳተ	-15821
▁ራማፎ	-15822
▁በሙያ	-15823
▁ታድያ	-15824
▁ኒጀር	-15825
▁የእነ	-15826
▁ይጫወ	-15827
▁ጠባብ	-15828
▁በጥናቱ	-15829
▁ብርሀን	-15830
▁ከአየር	-15831
▁ከፋዮች	-15832
▁ውክልና	-15833
▁የመኝታ	-15834
▁የተመለ	-15835
▁የታጠቀ	-15836
▁ዩኒቨር	-15837
▁ይከበራ	-15838
▁ዴኤታው	-15839
▁ለማስፋት	-15840
▁በቂርቆስ	-15841
▁ችለናል።	-15842
▁የላቸውም	-15843
▁የማይቻል	-15844
▁ይደውሉ።	-15845
▁መንግሥትን	-15846
▁በቀዳሚነት	-15847
▁የሚከበረው	-15848
▁የሚከተሉት	-15849
▁መግለፃቸውን	-15850
▁እንደሚቀጥሉ	-15851
▁ኮሚውኒኬሽን	-15852
▁ኮንፌዴሬሽን	-15853
▁እስከሚጠናቀቅ	-15854
ሌጁ	-15855
ልሽ	-15856
ረገ	-15857
ቋን	-15858
በቁ	-15859
ዛቀ	-15860
ፋኖ	-15861
በሮች	-15862
▁ከሴ	-15863
▁ዉሃ	-15864
▁ይጎ	-15865
ባለፈው	-15866
ካከለኛ	-15867
▁011	-15868
▁ሀገሬ	-15869
▁ለማይ	-15870
▁በቃል	-15871
▁ታገኛ	-15872
▁ኤንድ	-15873
▁ዓቀፍ	-15874
▁የሄዱ	-15875
▁ፀሃፊ	-15876
▁ላሊጋው	-15877
▁መልበሻ	-15878
▁መስርቶ	-15879
▁በልደታ	-15880
▁ተላላፊ	-15881
▁ነበር፣	-15882
▁ከመግለ	-15883
▁ወንድሞ	-15884
▁የዩክሬ	-15885
▁ለመምራት	-15886
▁መጻሕፍት	-15887
▁ማስተናገ	-15888
▁ተጋጣሚያ	-15889
▁ኤርሚያስ	-15890
▁ከሜዳቸው	-15891
▁ከጎንደር	-15892
▁የሚሰጡት	-15893
▁ሊቀመንበሩ	-15894
▁ሳያስፈልግ	-15895
▁በአርሰናል	-15896
▁በአገራችን	-15897
▁የባልደራስ	-15898
▁የአረንጓዴ	-15899
▁የወታደራዊ	-15900
▁የእንቅስቃሴ	-15901
ሸገ	-15902
ከኝ	-15903
ild	-15904
mun	-15905
ሳለን	-15906
ብሔር	-15907
ድሮች	-15908
ገለግ	-15909
ገራት	-15910
▁መፋ	-15911
▁እጽ	-15912
▁ግማ	-15913
ረመዳን	-15914
ያዊዎቹ	-15915
ጠይቅም	-15916
▁ሽኝት	-15917
▁አህሊ	-15918
▁የጥሪ	-15919
▁ጆንግ	-15920
ስተናግዱ	-15921
▁በግድቡ	-15922
▁አውራጃ	-15923
▁እንዳታ	-15924
▁ከጉዳቱ	-15925
▁በስህተት	-15926
▁ተመላላሽ	-15927
▁አምባሳደ	-15928
▁አነጋጋሪ	-15929
▁የመዝናኛ	-15930
▁የሚከበር	-15931
▁effect	-15932
▁ሆነዋል፡፡	-15933
▁ሰምተናል።	-15934
▁ቀርተዋል።	-15935
▁በአዲስአበባ	-15936
350	-15937
ሻሊቲ	-15938
ቀየር	-15939
ዊድን	-15940
ዳግም	-15941
ገደለ	-15942
▁(4	-15943
▁ለዲ	-15944
▁ስኮ	-15945
▁ታዳ	-15946
▁አሃ	-15947
▁ዘአ	-15948
▁ጥግ	-15949
ወሰነው	-15950
ገናዘበ	-15951
▁ስዓት	-15952
▁አለህ	-15953
▁ከመጡ	-15954
▁የኦሮ	-15955
▁ይመክ	-15956
▁ፎርም	-15957
▁ፕሮፖ	-15958
▁life	-15959
▁ለምርጫ	-15960
▁መረጃ፦	-15961
▁ማስቆም	-15962
▁ተካፋይ	-15963
▁አይነቱ	-15964
▁ካሴሚሮ	-15965
▁የሃይል	-15966
▁የሬዲዮ	-15967
▁የቅጥር	-15968
▁ቆስለዋል	-15969
▁በማገገም	-15970
▁አቢሲኒያ	-15971
▁የመግዛት	-15972
▁የምሥራቅ	-15973
▁የጠየቀው	-15974
▁ጀምሯል፡፡	-15975
▁መስጠታቸውን	-15976
▁በእያንዳንዱ	-15977
▁አሜሪካውያን	-15978
▁የሚደርሰውን	-15979
▁ኢንዱስትሪዎች	-15980
▁እየተደረገባቸው	-15981
ረጉ	-15982
ንሀ	-15983
ዳዳ	-15984
ጎሎ	-15985
eta	-15986
አብን	-15987
▁የፒ	-15988
▁ጃፓ	-15989
lass	-15990
ክስዮን	-15991
ያዛቸው	-15992
▁መርሆ	-15993
▁በጥቅ	-15994
▁የፈጀ	-15995
▁ይነግ	-15996
▁ድግሪ	-15997
▁ሞተዋል	-15998
▁ሰርተን	-15999
▁ተሻገር	-16000
▁ተካሂዶ	-16001
▁አልፈው	-16002
▁አማኞች	-16003
▁አይኖር	-16004
▁ከተማ፣	-16005
▁የወደሙ	-16006
▁ያላቸዉ	-16007
▁ያስገባ	-16008
▁12:30	-16009
▁ልጆቻችን	-16010
▁መዳኒቶች	-16011
▁ማስጠበቅ	-16012
▁ቱሪስቶች	-16013
▁እርምጃው	-16014
▁ከመደበኛ	-16015
▁የሚገቡ፦	-16016
▁ይሰማኛል	-16017
▁ግጭቶችን	-16018
▁ፓርቲዎቹ	-16019
▁የአገሪቱን	-16020
▁ስልጣናቸውን	-16021
▁በፕሬዝዳንት	-16022
▁እፈልጋለሁ።	-16023
▁የተሰጣቸውን	-16024
▁አስተባባሪዎች	-16025
ቅቦ	-16026
ፈቅ	-16027
ቸገር	-16028
ናችሁ	-16029
ዋወቅ	-16030
ዳደር	-16031
ጋላዊ	-16032
ጠቅም	-16033
ፒንግ	-16034
▁ማጉ	-16035
▁ጊቢ	-16036
▁ፊር	-16037
▁ፕሌ	-16038
ጠንቀቅ	-16039
▁ሜትሮ	-16040
▁በየእ	-16041
▁አቃቂ	-16042
▁ኢታማ	-16043
▁ከሰራ	-16044
▁ኩነት	-16045
▁የሲቪ	-16046
▁የቫይ	-16047
▁የእድ	-16048
▁የዉጪ	-16049
▁ገደል	-16050
▁ማንንም	-16051
▁በርበሬ	-16052
▁አለባት	-16053
▁የቀረው	-16054
▁ዮሃንስ	-16055
▁ዴክላን	-16056
▁ለማትረፍ	-16057
▁ላለባቸው	-16058
▁ቪያሪያል	-16059
▁እንደገባ	-16060
▁እንዲታይ	-16061
▁የመሰረት	-16062
▁ባለሙያዎቹ	-16063
▁አምቡላንስ	-16064
▁የተወሰኑት	-16065
▁ፈተናቸውን	-16066
▁አትሌቶቻችን	-16067
▁በዩኒቨርሲቲዎች	-16068
oy	-16069
ሀር	-16070
ale	-16071
ህነግ	-16072
ላታን	-16073
ቢዶሎ	-16074
ንያም	-16075
ይንት	-16076
ደንቱ	-16077
▁2)	-16078
▁Te	-16079
▁ma	-16080
▁sh	-16081
▁ላጡ	-16082
▁ዶክ	-16083
▁ገጠ	-16084
ታዊነት	-16085
ንደዚህ	-16086
▁ለወደ	-16087
▁ቀሲስ	-16088
▁ቅኝት	-16089
▁በክሱ	-16090
▁ታርጋ	-16091
▁አዳሪ	-16092
▁ያላስ	-16093
▁ሊፈጠር	-16094
▁ማግኘቱ	-16095
▁ሪዞርት	-16096
▁ከመጠን	-16097
▁የሚነሳ	-16098
▁የሚገር	-16099
▁ይቀርባ	-16100
▁ፍራፍሬ	-16101
▁ልጃቸውን	-16102
▁መምህራኑ	-16103
▁በማክበር	-16104
▁በክልሎች	-16105
▁አብርሀም	-16106
▁ያለፈውን	-16107
▁በማደራጀት	-16108
▁የማይታወቅ	-16109
▁የድንገተኛ	-16110
▁የፈለጉትን	-16111
▁ይገልጻል።	-16112
▁ለቀረበላቸው	-16113
▁በኢትዮጵያና	-16114
/7	-16115
ስስ	-16116
ዘመ	-16117
ወጣም	-16118
▁pl	-16119
▁ኢቲ	-16120
▁እፎ	-16121
▁ፓራ	-16122
ለቀቁት	-16123
ስቶትል	-16124
ቀረበው	-16125
በማለት	-16126
ደባቸው	-16127
ዶክተር	-16128
ጋስካር	-16129
▁17.	-16130
▁ሲያዙ	-16131
▁ተቃጥ	-16132
▁ትከሻ	-16133
▁አባሉ	-16134
▁እኩለ	-16135
▁የንጉ	-16136
▁ደምሴ	-16137
▁ፈታህ	-16138
ደረሳቸው	-16139
▁ለችግር	-16140
▁መልሰው	-16141
▁ሶሴዳድ	-16142
▁በአመቱ	-16143
▁አስገድ	-16144
▁ከመጪው	-16145
▁ከምርጫ	-16146
▁ከሰላም	-16147
▁ካራባኦ	-16148
▁ዘዴዎች	-16149
▁የዘጠኝ	-16150
▁ይደዉሉ	-16151
▁ጥያቄዎ	-16152
▁ለማሳወቅ	-16153
▁በሌለበት	-16154
▁በመጋቢት	-16155
▁ካምፓሶች	-16156
▁የስምንት	-16157
▁ያማክሩን	-16158
▁ለሪፖርተር	-16159
▁በተያያዘም	-16160
▁ብሮድካስት	-16161
▁ተደርገዋል	-16162
▁ንብረቶችን	-16163
▁አልተደረገ	-16164
▁ያለመከሰስ	-16165
▁ግብዓቶችን	-16166
▁ጣልያናዊው	-16167
▁አልተቻለም።	-16168
▁እንደተገደሉ	-16169
▁የሚያረጋግጥ	-16170
82	-16171
ሞና	-16172
ተነ	-16173
ኮሚ	-16174
ጀክት	-16175
▁ትቶ	-16176
ተጨማሪ	-16177
▁ለገዳ	-16178
▁ሉተን	-16179
▁ቃሉን	-16180
▁አላም	-16181
▁ኦክስ	-16182
▁ከሆን	-16183
▁ወቅቱ	-16184
▁ደውሎ	-16185
▁ጭነው	-16186
itter	-16187
ስተላልፉ	-16188
▁City	-16189
▁ለአገር	-16190
▁በመሀል	-16191
▁በዜጎች	-16192
▁እንጨት	-16193
▁ከምክር	-16194
▁ገበየሁ	-16195
▁መነሻውን	-16196
▁ምስራቃዊ	-16197
▁አፈወርቅ	-16198
▁እየፈጠረ	-16199
▁ከብሄራዊ	-16200
▁የመቁረጫ	-16201
▁people	-16202
▁መዘገባችን	-16203
▁ምስጋናቸውን	-16204
▁ምዕራባውያን	-16205
▁እንደሌለበት	-16206
▁የሚደረግበት	-16207
▁ከቤተሰቦቻቸው	-16208
▁የሚያስፈልገው	-16209
▁የምትመለከቱት	-16210
▁የኤሌክትሮኒክስ	-16211
መፅ	-16212
ሬዜ	-16213
ሮ፣	-16214
ድኦ	-16215
645	-16216
▁gr	-16217
▁ላቀ	-16218
▁ዳዋ	-16219
ener	-16220
ሜዲያል	-16221
ናውቀው	-16222
▁ሁንግ	-16223
▁መዝገ	-16224
▁ማንን	-16225
▁ምነው	-16226
▁ሳዲዮ	-16227
▁ስላት	-16228
▁በለስ	-16229
▁የኖር	-16230
▁ያለኝ	-16231
▁ጥቅማ	-16232
/2010	-16233
▁ራሳቸው	-16234
▁አብነት	-16235
▁ኦዲተር	-16236
▁የታጣቂ	-16237
▁ጥያቄን	-16238
▁11:30	-16239
▁መዘግየት	-16240
▁በመታገዝ	-16241
▁አንችልም	-16242
▁ይመስላሉ	-16243
▁ዳይሬክተ	-16244
▁የአሸባሪው	-16245
▁የዴሞክራሲ	-16246
▁በአውሮፕላን	-16247
▁የመመዝገቢያ	-16248
▁የጥፋተኝነት	-16249
▁ይገኙበታል፡፡	-16250
ሸማ	-16251
ሻን	-16252
ጅል	-16253
ህቀት	-16254
ብረን	-16255
▁ከሮ	-16256
inal	-16257
መንጨት	-16258
መጣጠነ	-16259
ያችንን	-16260
▁off	-16261
▁መካነ	-16262
▁ሞትን	-16263
▁ራሺያ	-16264
▁በረዶ	-16265
▁በቀስ	-16266
▁በታይ	-16267
▁ይከፍ	-16268
▁2000	-16269
▁ሚላንን	-16270
▁ሚስቱን	-16271
▁ምልዓተ	-16272
▁ኦሲሜን	-16273
▁ከሳውዲ	-16274
▁የሶሪያ	-16275
▁ያለብን	-16276
▁ያሳለፈ	-16277
▁ያስችላ	-16278
▁ለእናንተ	-16279
▁ተሰጥቶት	-16280
▁አሳይቷል	-16281
▁እንዲመጡ	-16282
▁ዝግጁነት	-16283
▁ለሚደረገው	-16284
▁በመቀጠልም	-16285
▁እንደሆነች	-16286
▁እየተመለሱ	-16287
▁ከማንኛውም	-16288
ositions	-16289
▁በኢንተርኔት	-16290
▁አስታውቀዋል	-16291
▁የሚፈልጉትን	-16292
▁ደርሶባቸዋል።	-16293
81	-16294
ንሳ	-16295
ይቲ	-16296
ፊኔ	-16297
ሚናይ	-16298
ብሮም	-16299
▁ሁን	-16300
▁ሰጭ	-16301
▁ዩራ	-16302
▁ዶላ	-16303
ፕስዊች	-16304
▁ለሆነ	-16305
▁መንጃ	-16306
▁ሙላት	-16307
▁ማዕድ	-16308
▁ሳሙና	-16309
▁አባባ	-16310
▁ዝናሽ	-16311
▁የመፅ	-16312
▁ድባብ	-16313
▁ጥርስ	-16314
▁መጫወቻ	-16315
▁ማብቂያ	-16316
▁ስላልተ	-16317
▁ስልኩን	-16318
▁አልበም	-16319
▁አልገባ	-16320
▁የኦዲት	-16321
▁ለሀገሪቱ	-16322
▁ማመንጨት	-16323
▁በሕገወጥ	-16324
▁በማቋቋም	-16325
▁በይቅርታ	-16326
▁መግለጫውን	-16327
▁ፓትርያርኩ	-16328
▁ደርሶባቸዋል	-16329
▁ያስተማራቸውን	-16330
መጽ	-16331
ዓያ	-16332
ገሯ	-16333
ኛዉም	-16334
ከልን	-16335
ጓደኛ	-16336
ጽዮን	-16337
ፋለን	-16338
▁አሶ	-16339
▁ጎሜ	-16340
ርሴናል	-16341
ባልነት	-16342
ዎላይታ	-16343
ያውያን	-16344
▁ለህል	-16345
▁መበራ	-16346
▁ሰይድ	-16347
▁ቁርስ	-16348
▁በሩን	-16349
▁ጎበዝ	-16350
▁ህዝብና	-16351
▁ለወዳጅ	-16352
▁መፈረሙ	-16353
▁አጋሮቹ	-16354
▁እልቂት	-16355
▁እሴቶች	-16356
▁ከባድና	-16357
▁የብረት	-16358
ንስታግራም	-16359
▁ለመፍትሄ	-16360
▁መፈጠሩን	-16361
▁በሚጠራዉ	-16362
▁አለመኖሩ	-16363
▁እንገልፃ	-16364
▁እየተመሩ	-16365
▁ከመሆኑም	-16366
▁የመንግሥ	-16367
▁የተገነቡ	-16368
▁የጠቀሰው	-16369
▁መካከለኛው	-16370
▁በርካቶችን	-16371
▁ተናገሩ፡፡	-16372
▁ተገኝተዋል	-16373
▁ትምህርቶች	-16374
▁ኢትዮጵያም	-16375
▁ከባለድርሻ	-16376
▁ኮርፖሬሽኑ	-16377
▁የቤትኪንግ	-16378
ሩና	-16379
ቆን	-16380
ቶም	-16381
ጡም	-16382
ጨቱ	-16383
777	-16384
ati	-16385
rit	-16386
ሚንግ	-16387
ሠረት	-16388
ቅዱን	-16389
ቶሊክ	-16390
ንግዜ	-16391
አላዊ	-16392
▁ሰፈ	-16393
▁ስሎ	-16394
▁ስቱ	-16395
▁ታጅ	-16396
▁ኤሚ	-16397
▁ጤፍ	-16398
ለያየት	-16399
ስካሁን	-16400
▁ሆነዉ	-16401
▁መናገ	-16402
▁ርዳታ	-16403
▁ቀላቅ	-16404
▁በመፈ	-16405
▁በሮች	-16406
▁እምቢ	-16407
▁ወረር	-16408
▁የኔት	-16409
▁ግጥም	-16410
ሪቶሪያው	-16411
▁መመስረ	-16412
▁መፈተሻ	-16413
▁ሱዋሬዝ	-16414
▁አስበው	-16415
▁እያገኙ	-16416
▁ክፍያን	-16417
▁የታየው	-16418
▁ልምምዱን	-16419
▁ማስታወቁ	-16420
▁በብራዚል	-16421
▁በተደራጀ	-16422
▁በግንባታ	-16423
▁የሚከፈል	-16424
▁ጎዳናዎች	-16425
▁ሽልማቶችን	-16426
▁ተፈፅሟል።	-16427
▁መወሰዳቸውን	-16428
▁ኃይለማርያም	-16429
▁እንደሚችልም	-16430
▁እንደራሴዎች	-16431
▁የተሰማቸውን	-16432
▁በትራንስፖርት	-16433
▁በእርግጠኝነት	-16434
▁የተገለጸው፡፡	-16435
ሞቢ	-16436
ቆቹ	-16437
ዕክ	-16438
ያየ	-16439
ርባል	-16440
ታውቅ	-16441
ከውን	-16442
ገጥም	-16443
ፓልት	-16444
▁up	-16445
▁ለሲ	-16446
▁ለኛ	-16447
▁ተጥ	-16448
▁ጠጥ	-16449
edia	-16450
elop	-16451
መንበር	-16452
ሳለች።	-16453
ዳለች።	-16454
▁ለመድ	-16455
▁ሊግን	-16456
▁ሰላማ	-16457
▁አብቅ	-16458
▁እያን	-16459
▁ዳሰሳ	-16460
ርሴሎናው	-16461
▁Slim	-16462
▁ለችሎቱ	-16463
▁ሊጨምር	-16464
▁ተፋሰስ	-16465
▁አባባል	-16466
▁እነርሱ	-16467
▁ክስተቱ	-16468
▁ጉዳቶች	-16469
▁መዋቅሮች	-16470
▁መውደሙን	-16471
▁እንዲውሉ	-16472
▁የተከበሩ	-16473
▁መመሪያዎች	-16474
▁መምህራንን	-16475
▁በሆስፒታል	-16476
▁ባለቤትነት	-16477
▁አስከባሪዎች	-16478
▁አስፈላጊነት	-16479
▁ከሚያደርገው	-16480
▁የሚያገለግል	-16481
ሳና	-16482
ሽ፣	-16483
ቢኢ	-16484
ለት።	-16485
ሩት።	-16486
ራኒዮ	-16487
ዎቹም	-16488
ዛመት	-16489
ጋችሁ	-16490
▁ፈይ	-16491
8515	-16492
ይናማር	-16493
ፈጠረው	-16494
▁170	-16495
▁any	-16496
▁ህሊና	-16497
▁ሐኪም	-16498
▁በውጪ	-16499
▁ታመው	-16500
▁ነፍሰ	-16501
▁ከሀያ	-16502
▁ከኋላ	-16503
▁የበለ	-16504
▁ያማል	-16505
▁3:45	-16506
▁ለውጦች	-16507
▁መሳርያ	-16508
▁ማለፊያ	-16509
▁ማነስን	-16510
▁በተሰጠ	-16511
▁በኳታሩ	-16512
▁ቢኖርም	-16513
▁የሞራል	-16514
▁የዓድዋ	-16515
rogram	-16516
▁ሁላችሁም	-16517
▁በመጠለያ	-16518
▁በየቦታው	-16519
▁ከመገናኛ	-16520
▁የዩቲዩብ	-16521
▁ላለመርጨት	-16522
▁ቀርቧል፡፡	-16523
▁በመቆጣጠር	-16524
▁የማስፈረም	-16525
Ethiopia	-16526
▁የተፈጸመውን	-16527
▁ያስተላለፉት	-16528
▁በአሰልጣኝነት	-16529
▁በአፍጋኒስታን	-16530
▁የዩኒቨርስቲው	-16531
91	-16532
pd	-16533
ሂድ	-16534
ረች	-16535
ዓለ	-16536
ጉጥ	-16537
642	-16538
ችውም	-16539
ዮኔል	-16540
▁ለሙ	-16541
▁ቪኒ	-16542
▁ትም	-16543
▁እዚ	-16544
▁ኬፕ	-16545
▁ዊል	-16546
▁ውጫ	-16547
▁ጂኦ	-16548
▁ጫኔ	-16549
!!!!	-16550
ላለማዊ	-16551
በራችሁ	-16552
ኤስኤፍ	-16553
ገበያያ	-16554
▁093	-16555
▁መቃረ	-16556
▁ማበር	-16557
▁ሲስተ	-16558
▁ብለሽ	-16559
▁ቴክኒ	-16560
▁እሰከ	-16561
▁ከመቀ	-16562
▁ካንቴ	-16563
▁ይጠፋ	-16564
▁ፀሐፊ	-16565
▁መዝሙር	-16566
▁ትፈልጋ	-16567
▁አይቻል	-16568
▁አድማስ	-16569
▁የለም፤	-16570
▁የተቀረ	-16571
▁የዘለቀ	-16572
▁የፈረን	-16573
▁ይሰጣሉ	-16574
▁ለመግለጽ	-16575
▁ሳይጨምር	-16576
▁ባሰፈሩት	-16577
▁ከስፍራው	-16578
▁ዩክሬንን	-16579
▁ለማሰባሰብ	-16580
▁ሰርተፍኬት	-16581
▁ተማሪዎችና	-16582
▁ተገልጋዮች	-16583
▁ይኖርበታል	-16584
▁ይገባቸዋል	-16585
▁አልታወቀም።	-16586
▁እንደሚጀምሩ	-16587
ሬታ	-16588
ጨጌ	-16589
ፖል	-16590
ane	-16591
erg	-16592
ህኒት	-16593
መቶች	-16594
ወረው	-16595
▁ሆድ	-16596
▁ውጣ	-16597
ምፕተን	-16598
ጀነራል	-16599
▁pre	-16600
▁ሲገጥ	-16601
▁በጥቂ	-16602
▁ብሩህ	-16603
▁ቪኦኤ	-16604
▁ተጠግ	-16605
▁ዘጠና	-16606
▁ይበሉ	-16607
▁ፖስታ	-16608
ርስፖርት	-16609
▁ተሰባስ	-16610
▁ትርፋማ	-16611
▁እንደየ	-16612
▁የሚያዙ	-16613
▁የቪዲዮ	-16614
▁የአፍና	-16615
▁የወደብ	-16616
▁ዴምቤሌ	-16617
▁ለማውረድ	-16618
▁ሙስሊሞች	-16619
▁በማሳደግ	-16620
▁ቢሆንም፤	-16621
▁አስበዋል	-16622
▁አባላት፣	-16623
▁አድናቆት	-16624
▁ዘረኝነት	-16625
▁ጥሰቶችን	-16626
▁ለአብነትም	-16627
▁ምስክሮችን	-16628
▁በሚቻልበት	-16629
▁የፕላስቲክ	-16630
▁አረጋግጠዋል፡፡	-16631
ሬራ	-16632
ቢሮ	-16633
ንሱ	-16634
ቀደም	-16635
ጉዳት	-16636
▁ፈጣ	-16637
▁ቅጣቱ	-16638
▁በማዳ	-16639
▁አሚር	-16640
▁ከመው	-16641
▁ከንቱ	-16642
▁ከወል	-16643
▁የተን	-16644
▁ይሄው	-16645
ለታል፡፡	-16646
▁ለቪኦኤ	-16647
▁መጥቷል	-16648
▁ሚልየን	-16649
▁ሲመለስ	-16650
▁በሀገረ	-16651
▁በህዳር	-16652
▁በአመራ	-16653
▁ቻናሎች	-16654
▁ኒኮላስ	-16655
▁ናት፡፡	-16656
▁አስተሳ	-16657
▁አዋርድ	-16658
▁እየመጡ	-16659
▁ውለዋል	-16660
▁የለበት	-16661
▁ሊጠናቀቅ	-16662
▁ተላልፈው	-16663
▁ወጥቷል።	-16664
▁የሩሲያው	-16665
usiness	-16666
▁ሄንደርሰን	-16667
▁በሚሊኒየም	-16668
▁እንደሚቆይ	-16669
▁እንዲወስድ	-16670
▁እንዳልቀረ	-16671
▁በተመለከተም	-16672
▁የመንግስትን	-16673
▁የተቀሰቀሰው	-16674
▁ጥያቄያቸውን	-16675
▁ለሚመለከታቸው	-16676
▁መፈናቀላቸውን	-16677
ሞሉ	-16678
ሲዮ	-16679
ብድ	-16680
ዝዝ	-16681
ደዉ	-16682
ጨስ	-16683
ሉልታ	-16684
ላከተ	-16685
ሸልም	-16686
ቂዎች	-16687
ጣለች	-16688
▁ለፊ	-16689
▁ማቴ	-16690
▁ሞቱ	-16691
▁ሩኒ	-16692
▁ኢኒ	-16693
▁ሰሞን	-16694
▁አመቷ	-16695
▁ኢንች	-16696
▁ከቀን	-16697
▁ክህሎ	-16698
▁ጀምስ	-16699
▁ፈለቀ	-16700
▁መሰራት	-16701
▁ማዞሪያ	-16702
▁ምርቱን	-16703
▁ሩዲገር	-16704
▁በረቂቅ	-16705
▁ብቃቱን	-16706
▁አለን።	-16707
▁እስከመ	-16708
▁ከአርባ	-16709
▁የተማረ	-16710
▁የፈለገ	-16711
▁የፓሪስ	-16712
▁መለዋወጫ	-16713
▁መነጋገር	-16714
▁መገደሉን	-16715
▁በተቃራኒ	-16716
▁ባለንብረ	-16717
▁አስለቃሽ	-16718
▁አናውቅም	-16719
▁አገልጋይ	-16720
▁እንዲቆሙ	-16721
▁የሌለበት	-16722
▁የኬሚካል	-16723
▁ያገለገለ	-16724
▁እስረኞችን	-16725
▁ኮምፒውተር	-16726
▁የሚገኙበት	-16727
▁የተቀመጠው	-16728
▁ያደረግነው	-16729
▁ለመስተፋቅር	-16730
▁ያደርገዋል።	-16731
▁አድርገውላቸዋል።	-16732
ቴው	-16733
ቼዝ	-16734
ጂብ	-16735
elf	-16736
ሁበት	-16737
ረንሲ	-16738
ሲባዊ	-16739
ችንም	-16740
ንጀራ	-16741
ክሎች	-16742
▁ጉራ	-16743
▁ጣይ	-16744
▁18.	-16745
▁ታረቀ	-16746
▁ከእነ	-16747
▁የሩብ	-16748
▁የታይ	-16749
▁ይህች	-16750
▁ይከብ	-16751
▁ግምቱ	-16752
▁ግዛው	-16753
40/60	-16754
▁መመረጡ	-16755
▁መውጣቱ	-16756
▁ማርሴሎ	-16757
▁ቀራኒዮ	-16758
▁በሃገር	-16759
▁በሠላም	-16760
▁በተሞላ	-16761
▁ከሌላው	-16762
▁ከመላው	-16763
▁የተሰባ	-16764
▁የታዳጊ	-16765
▁የጠላት	-16766
▁ያስገቡ	-16767
▁ለመዋጋት	-16768
▁ልማቶችን	-16769
▁በሚገኙት	-16770
▁እንደሚፈ	-16771
▁እየተጠቀ	-16772
▁እየጠበቀ	-16773
▁የምስረታ	-16774
▁የአልኮል	-16775
▁ለማስለቀቅ	-16776
▁መርሃግብር	-16777
▁በመረጋገጡ	-16778
▁በሚኒስቴሩ	-16779
▁የሚያስገኝ	-16780
▁የአልሸባብ	-16781
▁ልምምዳቸውን	-16782
▁በስተመጨረሻ	-16783
▁እንደሚወሰድ	-16784
▁እንዲመዘገቡ	-16785
▁የባለስልጣኑ	-16786
▁እንደሚጠናቀቅ	-16787
ለፋ	-16788
ልጋ	-16789
ሞል	-16790
ባቹ	-16791
ዋኔ	-16792
ዶላ	-16793
ጅድ	-16794
ett	-16795
hes	-16796
nos	-16797
ቀናል	-16798
ናጋት	-16799
ካታር	-16800
ጠለሉ	-16801
▁ልከ	-16802
▁ሕጉ	-16803
▁ሽታ	-16804
▁በፒ	-16805
▁ዳጋ	-16806
▁ጁን	-16807
▁ሕዳሴ	-16808
▁ራሂም	-16809
▁በጉዞ	-16810
▁ተስፈ	-16811
▁እያሰ	-16812
▁የዕጣ	-16813
▁ገመድ	-16814
▁ፓውሎ	-16815
aheth	-16816
ምፕዮንስ	-16817
ደዋል፡፡	-16818
▁Call	-16819
▁ሀውልት	-16820
▁መድህን	-16821
▁ሮናልድ	-16822
▁ሱማሊያ	-16823
▁በሆኑት	-16824
▁በመቆም	-16825
▁በኋላ፣	-16826
▁ተልእኮ	-16827
▁ተዳርገ	-16828
▁ክህነት	-16829
▁የመሰረ	-16830
▁የተረፉ	-16831
▁የጣለው	-16832
▁የፍትሕ	-16833
▁ይቆያል	-16834
▁ደላሎች	-16835
▁ለመሥራት	-16836
▁ምዕራባዊ	-16837
▁በመቶውን	-16838
▁በነጻነት	-16839
▁ከቤታቸው	-16840
▁ዘመንበረ	-16841
▁ተደራጅተው	-16842
▁የጀመረውን	-16843
▁ተቀምጠዋል።	-16844
▁የተደረገበት	-16845
▁የመጀመሪያዎቹ	-16846
61	-16847
ሀዱ	-16848
ሳ፣	-16849
ቦላ	-16850
ኦል	-16851
ዘነ	-16852
የዋ	-16853
ጠቱ	-16854
▁ጻ	-16855
ቅረቡ	-16856
ወልድ	-16857
▁ምሥ	-16858
▁ተጫ	-16859
▁ዋሻ	-16860
maga	-16861
uest	-16862
▁0-3	-16863
▁ላቀዉ	-16864
▁ሰንሰ	-16865
▁ቅርፅ	-16866
▁ባለት	-16867
▁አዘዋ	-16868
▁ዋቸሞ	-16869
▁የዶሮ	-16870
▁ደመወ	-16871
ታቸውንም	-16872
▁ለማንም	-16873
▁መርካቶ	-16874
▁መታደግ	-16875
▁ራስህን	-16876
▁ሳምንቱ	-16877
▁አይሳክ	-16878
▁እርከን	-16879
▁ከተቋሙ	-16880
▁የተደበ	-16881
▁የጀመር	-16882
▁መንገድን	-16883
▁በመጠቆም	-16884
▁በሩዋንዳ	-16885
▁በቲክቫህ	-16886
▁ባሰራጨው	-16887
▁እንደመጣ	-16888
-------	-16889
ication	-16890
▁መድኃኒቶች	-16891
▁አቅርበዋል	-16892
▁ያጋጠመውን	-16893
▁ተሳትፈዋል።	-16894
▁አሳርፈዋል።	-16895
▁አስፈጻሚዎች	-16896
▁እንደሚደርስ	-16897
▁የአርጀንቲና	-16898
ቻት	-16899
ካራ	-16900
የወ	-16901
ath	-16902
let	-16903
ሳቁስ	-16904
ቀበለ	-16905
በውን	-16906
ንፈስ	-16907
ይሁን	-16908
ድሮክ	-16909
ገደበ	-16910
▁1)	-16911
▁ራም	-16912
▁በቄ	-16913
ረድኤት	-16914
▁fbc	-16915
▁ለራሱ	-16916
▁በእጁ	-16917
▁ቴክኖ	-16918
▁አመፅ	-16919
▁ከሌለ	-16920
▁የወሎ	-16921
▁ይሄም	-16922
ስታንቡል	-16923
▁ህትመት	-16924
▁ለሸገር	-16925
▁ሸቀጦች	-16926
▁ቋንቋን	-16927
▁በመሰረ	-16928
▁በሞሮኮ	-16929
▁በቀበሌ	-16930
▁በጣለው	-16931
▁አስታወ	-16932
▁እለትም	-16933
▁እገዳው	-16934
▁ከንግድ	-16935
▁በመንበረ	-16936
▁ተጠርጥሮ	-16937
▁ትምህርቱ	-16938
▁እያቀረቡ	-16939
▁የህዝብን	-16940
▁የዩጋንዳ	-16941
▁ያልፈለጉ	-16942
▁መጽናናትን	-16943
ጀን	-16944
ጥሉ	-16945
med	-16946
oll	-16947
ላንቱ	-16948
ልኛል	-16949
ቀመጫ	-16950
አመት	-16951
ዱትን	-16952
ጠናል	-16953
▁Ed	-16954
▁ሕጻ	-16955
▁ያሻ	-16956
ልናል።	-16957
ሙስሊም	-16958
ምክንያ	-16959
ጠበቅም	-16960
▁190	-16961
▁but	-16962
▁ለአስ	-16963
▁ሊወጡ	-16964
▁በአጣ	-16965
▁አውድ	-16966
▁ካሚል	-16967
▁የመደ	-16968
ffice	-16969
▁መምረጥ	-16970
▁ቀርቷል	-16971
▁ቅፅበት	-16972
▁በህዝቡ	-16973
▁ተነግሮ	-16974
▁ተፈጽሞ	-16975
▁ቸርነት	-16976
▁የረሃብ	-16977
▁የጠየቀ	-16978
851535	-16979
▁መግለጫ፤	-16980
▁በመተካት	-16981
▁አላግባብ	-16982
▁አስመረቀ	-16983
▁ከሰዋል።	-16984
▁ወይዘሪት	-16985
▁የሚፈፀም	-16986
▁የፈጸመው	-16987
▁ያስታወቀ	-16988
▁ብሄረሰቦች	-16989
▁የኤርትራው	-16990
▁ጊዜያቸውን	-16991
▁ባስተላለፈው	-16992
ማሙ	-16993
ቀቁ	-16994
ቅመ	-16995
ቸን	-16996
649	-16997
ቤሪያ	-16998
ወስን	-16999
▁ሁኖ	-17000
▁ቅጂ	-17001
▁በኒ	-17002
▁ኪፕ	-17003
ምሳሌት	-17004
ቴሌኮም	-17005
ነኝነት	-17006
▁450	-17007
▁ሙላቱ	-17008
▁ስታር	-17009
▁ተቀና	-17010
▁እያወ	-17011
▁ከሰል	-17012
▁ያለህ	-17013
▁ይርጋ	-17014
▁ግሩም	-17015
▁ፕሮቶ	-17016
▁መፈለግ	-17017
▁ሴንተር	-17018
▁ስድስቱ	-17019
▁ተማሪው	-17020
▁አጭበር	-17021
▁የሚሸጥ	-17022
▁ይገናኛ	-17023
▁ለጀርመን	-17024
▁ምስሎችን	-17025
▁ሲዘዋወር	-17026
▁በታህሳስ	-17027
▁እያሳለፈ	-17028
▁ከድሬዳዋ	-17029
▁የመለየት	-17030
▁የሚገመቱ	-17031
▁የተወለደ	-17032
▁ምክንያትም	-17033
▁ሰምቷል፡፡	-17034
▁መዳረጋቸውን	-17035
▁እንደምትችል	-17036
▁የአዲስአበባ	-17037
ahethmaga	-17038
▁ተፈራርመዋል።	-17039
▁ከኃላፊነታቸው	-17040
ሲት	-17041
በሪ	-17042
የኝ	-17043
ቁረጥ	-17044
ንጋሪ	-17045
ገልጽ	-17046
ግማዊ	-17047
▁አቪ	-17048
▁ፋሶ	-17049
ሻሻለው	-17050
▁She	-17051
▁ላፖር	-17052
▁ምስጋ	-17053
▁ሲመሩ	-17054
▁ሳሊባ	-17055
▁ሳድዮ	-17056
▁በክር	-17057
▁እነር	-17058
▁ከሀም	-17059
▁ከሕግ	-17060
▁ከአቶ	-17061
▁ወደመ	-17062
▁የተቻ	-17063
▁ደሴት	-17064
20/80	-17065
▁ለያዘው	-17066
▁ልጆቹን	-17067
▁ሐረማያ	-17068
▁ስለምን	-17069
▁ስመኘው	-17070
▁በምሽት	-17071
▁ተጠብቆ	-17072
▁አውቶብ	-17073
▁ከነገው	-17074
▁የተጠቃ	-17075
▁ዳግማዊ	-17076
▁ድረገፅ	-17077
▁ጀግናው	-17078
▁ፈልገው	-17079
▁በሽታውን	-17080
▁በአንፃሩ	-17081
▁ከተመራቂ	-17082
▁አላውቅም።	-17083
▁ገብረስላሴ	-17084
▁አስተባባሪነት	-17085
ዳጉ	-17086
ፋሽ	-17087
ሰንን	-17088
▁go	-17089
▁ሙሁ	-17090
▁ኒኪ	-17091
▁ከጁ	-17092
▁ዴሊ	-17093
▁መጋለ	-17094
▁ማቋረ	-17095
▁ሶቅራ	-17096
▁ሶከር	-17097
▁በጋሞ	-17098
▁ንጋት	-17099
▁ኮስታ	-17100
▁ደረሱ	-17101
▁ፈሳሽ	-17102
ፈልግም።	-17103
▁ቀለበት	-17104
▁በውሳኔ	-17105
▁በፈፀመ	-17106
▁ባለቤቷ	-17107
▁ተስማማ	-17108
▁አህጉር	-17109
▁እድሜው	-17110
▁የሚቻል	-17111
▁የሚጓዙ	-17112
▁የሚጥል	-17113
▁የምሽቱ	-17114
▁የችግኝ	-17115
▁ደራሲ፦	-17116
▁ደካሞች	-17117
▁ማስወገድ	-17118
▁ማስፋፊያ	-17119
▁አንሶላ፣	-17120
▁የሊባኖስ	-17121
▁የተከፈለ	-17122
▁ፌደሬሽን	-17123
▁ለመተግበር	-17124
▁እንግሊዘኛ	-17125
▁ቤተመንግስት	-17126
ምቱ	-17127
ገኑ	-17128
ለናል	-17129
ስታዝ	-17130
ቆምም	-17131
ኒንግ	-17132
ወራው	-17133
ደገፉ	-17134
ጋጠሙ	-17135
▁ዜማ	-17136
Tube	-17137
ሌትሪክ	-17138
ሰቦችን	-17139
ብሳይት	-17140
ፈጸሚያ	-17141
▁መረራ	-17142
▁መሰለ	-17143
▁ስካይ	-17144
▁በለሚ	-17145
▁በባሌ	-17146
▁ተወካ	-17147
▁ትኩስ	-17148
▁አልካ	-17149
▁አባቷ	-17150
▁አፍር	-17151
▁ከዞኑ	-17152
▁የቆመ	-17153
▁ይበቃ	-17154
▁ፈረስ	-17155
▁ፍቅሬ	-17156
ምናልባት	-17157
▁ማዲሰን	-17158
▁በሚሆኑ	-17159
▁በአጭሩ	-17160
▁ተሸንፈ	-17161
▁ካምፓኒ	-17162
▁የሚሄድ	-17163
▁የሚከፍ	-17164
▁የቢቢሲ	-17165
▁የተከሳ	-17166
▁ደባርቅ	-17167
▁ደጋግሞ	-17168
▁ድጋፍና	-17169
▁ፍልስፍ	-17170
▁ፓለቲካ	-17171
noside	-17172
▁ህንፃዎች	-17173
▁መስማማቱ	-17174
▁ተሰምቷል	-17175
▁አስተምህ	-17176
▁እውነትን	-17177
▁የፈጸሙት	-17178
▁ገልጸው፤	-17179
▁አስቶንቪላ	-17180
▁እንሰጣለን	-17181
▁እንደተቻለ	-17182
▁የመድሃኒት	-17183
▁በንግግራቸው	-17184
▁ኢብራሂሞቪች	-17185
▁ኮንዶሚኒየም	-17186
ፀው	-17187
ራቸዉ	-17188
እስከ	-17189
ከሉን	-17190
ወግዝ	-17191
▁ለጠ	-17192
uter	-17193
ረናል።	-17194
▁መደም	-17195
▁ቀመር	-17196
▁ቀረጥ	-17197
▁ኢቫን	-17198
▁እየሸ	-17199
▁ዘለቀ	-17200
▁ጉርሻ	-17201
▁ለልማት	-17202
▁መቅደስ	-17203
▁መቋረጡ	-17204
▁ሚኒባስ	-17205
▁በባንኩ	-17206
▁ባየርን	-17207
▁ቴሌብር	-17208
▁ከሶማሌ	-17209
▁ከውስጥ	-17210
▁ይገለፃ	-17211
▁ለማሳለፍ	-17212
▁ማእከላዊ	-17213
▁በራሳችን	-17214
▁ታይቷል።	-17215
▁አልደረሰ	-17216
▁የሚመዝን	-17217
▁የማሻሻያ	-17218
▁የሰጡትን	-17219
▁የበሽታው	-17220
2519645	-17221
▁አስፈጻሚው	-17222
▁የተጠናከረ	-17223
▁ጠቁሟል፡፡	-17224
▁እንዳልተቻለ	-17225
▁የተናገሩት፡፡	-17226
▁Engineering	-17227
Ad	-17228
ቀኛ	-17229
ተሩ	-17230
ጠፌ	-17231
era	-17232
ህራን	-17233
ንያን	-17234
ንዶቹ	-17235
▁so	-17236
▁ለሱ	-17237
▁ሰጡ	-17238
▁ስቃ	-17239
▁እዝ	-17240
▁እዲ	-17241
ning	-17242
መንገድ	-17243
ባሳንጆ	-17244
ጠየቀው	-17245
▁Con	-17246
▁ሶሻል	-17247
▁አለ፤	-17248
▁አመሻ	-17249
▁አይቼ	-17250
▁እግሩ	-17251
▁ዘፈን	-17252
▁የሰር	-17253
▁ጉራጌ	-17254
93642	-17255
▁መርዳት	-17256
▁ሳይኖር	-17257
▁ስደተኛ	-17258
▁በግዳጅ	-17259
▁በጭራሽ	-17260
▁ተጠቆመ	-17261
▁ታይቷል	-17262
▁አልማዝ	-17263
▁ከሚገኝ	-17264
▁ወንጌል	-17265
▁የሚጠቁ	-17266
▁የክፍለ	-17267
▁ጨዋታን	-17268
▁በትርጉም	-17269
▁በነበሩት	-17270
▁ከከተማው	-17271
▁ከጎረቤት	-17272
▁የተጣለው	-17273
▁የፀጥታና	-17274
▁ያደረገች	-17275
▁ሀገራቸውን	-17276
▁መምህራንና	-17277
▁በማስተማር	-17278
▁አቀርባለሁ	-17279
▁እንዳይወጡ	-17280
▁የሚደርሰው	-17281
▁አስተዳደር፣	-17282
▁ኢትዮጵያዊት	-17283
▁የአትሌቲክስ	-17284
▁አስረክበዋል።	-17285
251964593642	-17286
SS	-17287
[...]
